{"<s>":0,"<pad>":1,"</s>":2,"<unk>":3,"<mask>":4,"!":5,"\"":6,"#":7,"$":8,"%":9,"&":10,"'":11,"(":12,")":13,"*":14,"+":15,",":16,"-":17,".":18,"/":19,"0":20,"1":21,"2":22,"3":23,"4":24,"5":25,"6":26,"7":27,"8":28,"9":29,":":30,";":31,"<":32,"=":33,">":34,"?":35,"@":36,"A":37,"B":38,"C":39,"D":40,"E":41,"F":42,"G":43,"H":44,"I":45,"J":46,"K":47,"L":48,"M":49,"N":50,"O":51,"P":52,"Q":53,"R":54,"S":55,"T":56,"U":57,"V":58,"W":59,"X":60,"Y":61,"Z":62,"[":63,"\\":64,"]":65,"^":66,"_":67,"`":68,"a":69,"b":70,"c":71,"d":72,"e":73,"f":74,"g":75,"h":76,"i":77,"j":78,"k":79,"l":80,"m":81,"n":82,"o":83,"p":84,"q":85,"r":86,"s":87,"t":88,"u":89,"v":90,"w":91,"x":92,"y":93,"z":94,"{":95,"|":96,"}":97,"~":98,"¡":99,"¢":100,"£":101,"¤":102,"¥":103,"¦":104,"§":105,"¨":106,"©":107,"ª":108,"«":109,"¬":110,"®":111,"¯":112,"°":113,"±":114,"²":115,"³":116,"´":117,"µ":118,"¶":119,"·":120,"¸":121,"¹":122,"º":123,"»":124,"¼":125,"½":126,"¾":127,"¿":128,"À":129,"Á":130,"Â":131,"Ã":132,"Ä":133,"Å":134,"Æ":135,"Ç":136,"È":137,"É":138,"Ê":139,"Ë":140,"Ì":141,"Í":142,"Î":143,"Ï":144,"Ð":145,"Ñ":146,"Ò":147,"Ó":148,"Ô":149,"Õ":150,"Ö":151,"×":152,"Ø":153,"Ù":154,"Ú":155,"Û":156,"Ü":157,"Ý":158,"Þ":159,"ß":160,"à":161,"á":162,"â":163,"ã":164,"ä":165,"å":166,"æ":167,"ç":168,"è":169,"é":170,"ê":171,"ë":172,"ì":173,"í":174,"î":175,"ï":176,"ð":177,"ñ":178,"ò":179,"ó":180,"ô":181,"õ":182,"ö":183,"÷":184,"ø":185,"ù":186,"ú":187,"û":188,"ü":189,"ý":190,"þ":191,"ÿ":192,"Ā":193,"ā":194,"Ă":195,"ă":196,"Ą":197,"ą":198,"Ć":199,"ć":200,"Ĉ":201,"ĉ":202,"Ċ":203,"ċ":204,"Č":205,"č":206,"Ď":207,"ď":208,"Đ":209,"đ":210,"Ē":211,"ē":212,"Ĕ":213,"ĕ":214,"Ė":215,"ė":216,"Ę":217,"ę":218,"Ě":219,"ě":220,"Ĝ":221,"ĝ":222,"Ğ":223,"ğ":224,"Ġ":225,"ġ":226,"Ģ":227,"ģ":228,"Ĥ":229,"ĥ":230,"Ħ":231,"ħ":232,"Ĩ":233,"ĩ":234,"Ī":235,"ī":236,"Ĭ":237,"ĭ":238,"Į":239,"į":240,"İ":241,"ı":242,"Ĳ":243,"ĳ":244,"Ĵ":245,"ĵ":246,"Ķ":247,"ķ":248,"ĸ":249,"Ĺ":250,"ĺ":251,"Ļ":252,"ļ":253,"Ľ":254,"ľ":255,"Ŀ":256,"ŀ":257,"Ł":258,"ł":259,"Ń":260,"Ġ×":261,"×Ļ":262,"×Ļ×":263,"×¢":264,"×ķ":265,"×¢×":266,"×Ĳ":267,"Ġ×Ĳ":268,"×ĺ":269,"×¨":270,"×Ł":271,"×Ĳ×":272,"×¢×¨":273,"Ö·":274,"Ġ×ĵ":275,"×Ļ×Ļ×":276,"×ķ×":277,"Ġ×¤":278,"×ľ":279,"ł×":280,"Ġ×Ĳ×Ļ×":281,"Ġ×ķ":282,"Ġ×ŀ":283,"Ġ×ķ×ķ":284,"×ķ×Ł":285,"Ġ×Ĵ":286,"Ö¸":287,"×¡":288,"×ķ×Ļ×":289,"Ġ×ĸ":290,"×¢×Ł":291,"Ġ×Ķ":292,"Ġ×ĳ":293,"×Ĳ×¨":294,"Ġ×§":295,"×©":296,"×¤":297,"Ġ×ĵ×Ļ":298,"×ĵ":299,"Ġ×ł":300,"×ĳ":301,"×ĸ":302,"Ġ×©":303,"Ġ×¦":304,"Ġ×¢":305,"×ł":306,"×ŀ":307,"×§":308,"Ġ×Ĳ×ķ×Ł":309,"×ķ×ķ":310,"Ö¼":311,"×Ļ×©":312,"×¢×ł":313,"×Ļ×ĺ":314,"ł×Ĵ":315,"×Ķ":316,"×Ļ×Ļ":317,"Ġ×¤×ķ×Ł":318,"Ġ×ĺ":319,"×Ļ×Ļ×Ł":320,"Ġ×Ļ":321,"Ġ×Ĳ×Ļ×ĸ":322,"×Ĵ":323,"Ġ×Ĵ×¢×":324,"Ġ×ľ":325,"Ġ×Ĳ×ķ×Ļ×":326,"Ġ×¡":327,"×Ĳ×ĺ":328,"Ġ×Ĳ×Ļ×Ł":329,"×Ĳ×ľ":330,"×Ĳ×¡":331,"ł×ĵ":332,"×¢×ľ":333,"×Ļ×§":334,"Ġ×¨":335,"Ġ×¦×ķ":336,"×Ļ×¨":337,"×Ļ×ľ":338,"Ġ×ĵ×¢×¨":339,"×¢×ĺ":340,"Ö¿":341,"×¢×¡":342,"Ġ×¤×Ĳ×¨":343,"×Ļ×¢":344,"×¢×Ŀ":345,"×Ļ×Ļ×ĺ":346,"Ġ×Ĳ×ĸ":347,"Ġ×Ķ×Ĳ×ĺ":348,"×ķ×¨":349,"×Ľ":350,"ĳ×Ł":351,"×Ļ×©×ĺ":352,"×Ļ×ļ":353,"×¦":354,"Ġ×ŀ×Ļ×ĺ":355,"×ĺ×¢×¨":356,"Ġ×ł×Ļ×©×ĺ":357,"×Ļ×¡":358,"×ķ×ŀ":359,"×Ļ×Ļ×ł":360,"×ł×":361,"Ġ×ķ×ķ×Ĳ×¡":362,"×Ļ×Ĵ":363,"Ġ×¢×¨":364,"×¢×ķ×ķ":365,"×¢×Ĵ":366,"Ġ×Ĳ×¨":367,"..":368,"×¢×§":369,"×¨×Ĳ":370,"Ġ×¢×¡":371,"×Ļ×Ŀ":372,"Ġ×ĸ×Ļ×ļ":373,"×ķ×ª":374,"×Ļ×Ļ×¢":375,"×Ļ×ĵ":376,"×ª":377,"×¢×ł×¢×Ł":378,"Ġ×Ĵ×¢×ķ×ķ":379,"×Ļ×ł":380,"×Ĳ×Ľ":381,"Ġ×©×ĺ":382,"×¢×ŀ":383,"×¢×ł×ĺ":384,"×¢×ĵ":385,"×Ļ×Ĳ":386,"Ġ×ĵ×¢×Ŀ":387,"×Ĳ×Ĵ":388,"×Ļ×ķ":389,"Ġ×Ĳ×ķ×Ļ×£":390,"×Ĳ×ļ":391,"×ł×ĵ":392,"Ġ×ķ×ķ×Ļ":393,"×Ĺ":394,"âĢ":395,"×ķ×ľ":396,"Ġ×¤×¨":397,"×Ĳ×ł":398,"×Ļ×Ľ":399,"×ķ×ł×Ĵ":400,"×Ŀ":401,"×ĺ×Ł":402,"Ġ×Ĳ×ľ":403,"Ġ×Ĺ":404,"×Ĳ×ŀ":405,"Ġ×Ľ":406,"×Ĳ×¤":407,"×Ļ×ł×Ĵ":408,"×Ļ×ĸ":409,"×ļ":410,"×ķ×ł":411,"Ġ×Ĳ×Ļ×ļ":412,"Ġ×§×Ĳ":413,"Ġ×Ĳ×Ļ×¨":414,"ĳ×¢×¨":415,"×ľ×Ĳ":416,"×ĺ×¢":417,"Ġ×Ķ×Ĳ×":418,"×Ļ×Ł":419,"Ġ×ĸ×Ļ×Ļ×Ł":420,"Ġ×ĵ×Ĳ":421,"×ĵ×¢×¨":422,"×¢×¤":423,"×ł×ĺ":424,"Ġ×ĸ×Ļ×Ļ":425,"×Ļ×Ļ×ľ":426,"Ġ×Ķ×Ĳ":427,"×ĳ×¢×¨":428,"×ķ×ĵ":429,"Ġ×ª":430,"Ġ×ĳ×Ĳ":431,"Ġ×ķ×ķ×Ĳ":432,"Ġ×ŀ×¢×Ł":433,"×ľ×¢×":434,"×Ĳ×§":435,"×ķ×Ļ×¡":436,"×ķ×ĳ":437,"Ġ(":438,"×¡×ĺ":439,"Ġ×ķ×ķ×¢×ľ":440,"×ķ×¡":441,"×ķ×§":442,"×²":443,"Ġ×¤×Ĳ":444,"×¨×Ļ×Ļ×":445,"×ķ×Ļ":446,"Ġ×ŀ×Ĳ":447,"Ġ×©×¤":448,"×ķ×Ŀ":449,"ł×§":450,"×Ļ×Ļ×¢×¨":451,"Ġ×Ĳ×Ļ×Ļ×":452,"Ġ×ĸ×¢×ł×¢×Ł":453,"ł×¡":454,"Ġ×Ĳ×¤":455,"Ġ×ĵ×Ĳ×¡":456,"Ġ×Ĵ×¨":457,"×ķ×ĺ":458,"Ġ×Ĳ×ķ×Ļ×¡":459,"Ġ×Ĵ×¢×©":460,"×Ļ×¦":461,"×Ļ×ĳ":462,"Ġ×ŀ×Ļ×¨":463,"Ġ×Ĵ×¢×ķ×ķ×¢×Ł":464,"Ġ×ķ×ķ×¢×¨":465,"×ĺ×Ĳ":466,"×ķ×ŀ×¢×Ł":467,"×ł×Ĵ":468,"Ġ2":469,"×ķ×ķ×Ļ×":470,"Ġ×Ķ×Ĳ×ĳ×Ł":471,"×©×ĺ":472,"×Ļ×ŀ":473,"×¥":474,"×¢×¦":475,"×Ļ×©×¢":476,"Ġ×ķ×ķ×¢×ĺ":477,"...":478,"×ŀ×Ĳ":479,"×Ļ×¤":480,"Ġ×§×Ļ×Ļ×Ł":481,"×ķ×¤":482,"×¢×Ľ":483,"Ġ×ĳ×¨":484,"×£":485,"Ġ\"":486,"Ġ-":487,"×¢×Ķ":488,"Ġ1":489,"×§×¡":490,"×Ĳ×Ľ×Ł":491,"ĠâĢ":492,"Ġ×Ĵ×Ĳ":493,"×ł×Ĳ":494,"Ġ×Ļ×Ĳ×¨":495,"Ġ×Ĳ×ķ×Ļ×ļ":496,"×Ļ×¡×ĺ":497,"×ĵ×Ļ":498,"×¢×©":499,"Ġ×Ĳ×Ł":500,"Ġ×ĵ×ķ×¨":501,"×ķ×ĸ":502,"×ĸ×©":503,"Ġ×Ĳ×ĳ×¢×¨":504,"×¢×¨×¢":505,"×¢×ł×ĵ":506,"Ġ×ł×Ĳ":507,"Ġ×ł×Ĳ×ļ":508,"Ġâ":509,"Ġ×Ĳ×ķ×":510,"×¢×ĳ":511,"Ġ×ĳ×Ĳ×":512,"Ġ×ŀ×¢×¨":513,"×¨×Ļ×":514,"×©×¨":515,"ł×¦":516,"Ġ×Ĳ×Ļ×ĳ×¢×¨":517,"Ĺı":518,"ĠâĹı":519,"Ġ×ł×Ļ×ĺ":520,"×ķ×©":521,"Ġ×ķ×ķ×¢×Ł":522,"Ġ×ĸ×Ļ×Ļ×¢×¨":523,"Ġ×§×¢×Ł":524,"Ġ×Ĳ×ľ×¢":525,"Ġ×ĺ×Ĳ":526,"Ġ×ł×Ĳ×¨":527,"Ġ×ĺ×¨":528,"Ġ×ĳ×ľ":529,"×¢×¨×ĺ":530,"Ġ×ĳ×Ļ×Ļ":531,"×ĳ×Ł":532,"×ķ×Ļ×¤":533,"×Ļ×ł×ĵ":534,"×Ĳ×¨×ĺ":535,"×ł×¡":536,"×Ļ×¨×Ł":537,"×¢×Ĵ×Ł":538,"×ķ×ķ×Ĳ":539,"×Ļ×Ļ×ĵ":540,"×ķ×Ĵ":541,"Ġ×§×¢×ł×¢×Ł":542,"×Ļ×ķ×ķ":543,"Ġ×Ĳ×Ļ×ł":544,"×Ĳ×ľ×ĺ":545,"×¨×ĳ":546,"Ġ×Ĵ×¢×ĸ":547,"×Ĳ×ł×ĵ":548,"×Ļ×Ļ×ł×ĺ":549,"×ķ×Ļ×ĺ":550,"Ġ×§×ľ":551,"×Ļ×Ļ×¡":552,"00":553,"×ķ×Ļ×Ł":554,"×Ļ×¨×ĺ":555,"×ľ×¢×ļ":556,"×¢×ĸ":557,"×Ĳ×¨×Ł":558,"×ľ×¢":559,"×¨×Ļ×§":560,"×Ĳ×ĵ":561,"Ġ×¨×ĳ":562,"Ġ×ĸ×Ĳ×ľ":563,"Ġ×¡×¤":564,"×¢×ł×ĺ×©":565,"×Ļ×Ļ×ĸ":566,"ï¬":567,"×Ĳ×ł×Ĵ":568,"×ĵ×¨":569,"×Ĳ×Ľ×ĺ":570,"Ġ×Ĳ×ķ×Ļ×¤":571,"×Ĳ×ĳ":572,"×¨×ĺ":573,"ł×ĸ":574,"Ġ×Ĳ×ķ×Ļ×ĳ":575,"Ġ×©×ķ×Ļ×Ł":576,"×§×Ĳ":577,"Ġ×Ĳ×ŀ":578,"Ġ×ĵ×ķ×¨×ļ":579,"Ø§":580,"×Ļ×Ļ×Ĵ":581,"Ö¾":582,"Ġ×Ĳ×ł×ĵ":583,"×Ļ×Ĵ×¢":584,"×¢×ĳ×Ł":585,"Ġ×Ĳ×ĸ×ķ×Ļ":586,"Ġ×Ĵ×¢×Ķ":587,"×ĳ×¨":588,"Ġ×¦×ķ×ķ":589,"Ġ×ŀ×¢×ł×ĺ×©":590,"Ġ×ĵ×Ļ×Ļ×Ł":591,"Ö¶":592,"Ġ×¤×ľ":593,"×Ļ×Ļ×ł×¢":594,"Ġ×©×¨×Ļ×Ļ×":595,"Ġ×§×¨":596,"Ġ×Ļ×Ĳ":597,"×Ĳ×ĸ":598,"×Ļ×Ļ×ł×¢×¨":599,"×ľ×Ļ×Ľ":600,"Ġ×ķ×ķ×Ļ×ľ":601,"×ĺ×¨":602,"Ġ×Ĵ×¢×¤":603,"×Ĳ×Ł":604,"Ġ×ĵ×¨":605,"×ķ×¦":606,"×¢×§×¡":607,"×¢×¨×Ł":608,"Ġ×Ĳ×Ļ×ĵ":609,"Ġ×Ļ×¢×ĵ":610,"×¢×¨×¡":611,"Ġ×ľ×Ĳ":612,"×Ĳ×Ļ×Ļ×Ł":613,"×¢×ł×Ĵ":614,"×¢×ł×¢":615,"Ġ×Ĳ×Ļ×Ŀ":616,"×Ĳ×¦":617,"×¨×Ļ×ĳ×Ł":618,"Ġ,":619,"Ġ×ķ×ķ×¢×ľ×ĺ":620,"×Ĳ×Ĵ×ĺ":621,"×ķ×Ļ×ĸ":622,"Ġ×Ķ×Ĳ×ĳ":623,"×Ĳ×ł×ĺ":624,"×ľ×ĺ":625,"Ġ×Ĵ×¢×ľ":626,"Ġ×Ĵ×¢×ķ×ķ×Ĳ×¨×Ł":627,"Ġ×ŀ×©":628,"×Ĳ×ł×¦":629,"×¢×ŀ×¢×Ł":630,"×ł×Ķ":631,"Ġ×ĵ×ķ":632,"Ö´":633,"Ġ×Ĳ×ĵ×¢×¨":634,"×Ļ×Ļ×Ŀ":635,"×¢×ł×¡":636,"Ġ×Ĳ×Ļ×Ļ×Ł":637,"×©×Ĳ":638,"Ġ×Ĵ×¢×©×¨×Ļ×ĳ×Ł":639,"×Ļ×Ľ×ĺ":640,"×¢×¡×ĺ":641,"Ġ×ķ×ķ×Ļ×Ļ×ľ":642,"Ġ|":643,"Ġ×¢×¤":644,"×Ļ×§×¢":645,"×¨×ĵ":646,"×¦×Ļ×¢":647,"×Ĳ×Ļ×ĸ":648,"×¢×ľ×ĺ":649,"Ġ×¨×Ĳ":650,"×ľ×¢×Ľ":651,"Ġ×Ĳ×ł×ĵ×¢×¨×¢":652,"×ķ×ł×ĵ":653,"Ġ×Ĵ×¢":654,"Ġ×Ĳ×ķ×ł×ĸ":655,"Ġ×©×ľ":656,"×Ľ×¢":657,"Ġ×Ĵ×¨×ķ×Ļ×¡":658,"×ķ×Ľ":659,"Ġ×¡×ĺ":660,"Ġ×Ĳ×¨×ķ×Ļ×¡":661,"Ġ×§×Ļ×ł×ĵ":662,"Ġ×Ĳ×ł×Ĵ":663,"Ġ×ľ×ķ×Ļ×ĺ":664,"Ġ×ĵ×Ĳ×¨":665,"Ġ×¢×ľ":666,"Ġ×Ĵ×ľ":667,"×§×ĺ":668,"×Ļ×Ļ×ĳ":669,"Ġ×Ĳ×ķ×ł":670,"×ĳ×Ĳ":671,"×ķ×¨×Ķ":672,"Ġ×¡×Ĳ":673,"×ŀ×¢×¡":674,"Ġ×¨×¢×ĵ":675,"ł×Ķ":676,"Ġ×Ĵ×¢×ĳ":677,"×§×Ļ×Ļ×ĺ":678,"×¢×Ĳ":679,"×ł×¢×Ł":680,"×ķ×ķ×¢×¨":681,"×ł×§":682,"×ľ×Ļ×Ľ×¢":683,"×Ļ×ł×§":684,"Ġ×ĳ×Ļ×ĸ":685,"Ġ×ķ×ķ×¢×Ĵ×Ł":686,"ÙĦ":687,"Ġ×¤×Ļ×ľ":688,"×Ĳ×Ĵ×Ł":689,"Ġ×©×ŀ":690,"ĠØ":691,"×¢×ľ×Ł":692,"Ġ×ķ×ķ×Ĳ×Ľ×Ł":693,"×ķ×Ķ":694,"Ġ×ĸ×Ļ":695,"Ġ×ĺ×Ĳ×Ĵ":696,"Ġ×Ĳ×Ļ×Ļ×ł×¢×¨":697,"Ġ×ĸ×Ĳ":698,"Ġ×Ĳ×ķ×ŀ":699,"×Ĳ×ŀ×¤":700,"ł×©":701,"×ķ×Ļ×£":702,"×Ļ×¢×¡":703,"×Ļ×©×Ł":704,"×¨×§":705,"×Ĳ×ķ×Ł":706,"×Ļ×©×¢×¨":707,"Ġ×°":708,"Ġ×¢×ĺ":709,"×Ļ×Ľ×¢×¨":710,"Ġ×Ĳ×Ļ×ł×ĺ×¢×¨":711,"Ġ×ĳ×Ļ×ľ":712,"ł×¤":713,"Ġ×¦×ķ×ķ×Ļ×Ļ":714,"×ķ×Ļ×©":715,"Ø±":716,"×ł×ľ":717,"Ġ×Ĵ×¢×Ĵ":718,"Ġ×ķ×ķ×¢×¨×Ł":719,"Ġ×Ĵ×¢×ł":720,"×¢×§×ĺ":721,"×¨×©":722,"×Ĵ×ķ×ĳ":723,"×ĸ×ķ×Ļ":724,"Ġ×¦×Ļ×Ļ×ĺ":725,"×ķ×ł×Ĵ×¢×Ł":726,"Ġ×Ĵ×¢×ĺ":727,"Ġ×ŀ×Ļ×Ļ×Ł":728,"×Ļ×ª":729,"Ġ×¢×¨×©":730,"×¢×¦×ĺ":731,"×ķ×ł×¢×Ŀ":732,"ł×ĵ×ĸ":733,"Ġ×¨×ĳ×Ļ":734,"×ķ×ł×ĺ":735,"Ġ×Ĵ×¢×ŀ":736,"Ġ×ĺ×©":737,"Ġ×Ļ×Ļ":738,"×ľ×Ļ":739,"Ġ×Ĳ×ķ×ł×ĵ×ĸ":740,"re":741,"Ġ×¤×Ĳ×ľ":742,"Ġ'":743,"×Ĳ×©":744,"Ġ×ŀ×¢×ł×ĺ×©×Ł":745,"Ġ×ķ×ķ×¢×¨×ĺ":746,"Ġ×Ĵ×Ĳ×¨":747,"×¨×Ĵ":748,"Ġ×Ĵ×¢×¨":749,"Ġ×ķ×ķ×¢×ľ×Ľ×¢":750,"×¨×Ł":751,"Ġ×Ĳ×ķ×Ļ×¡×Ĵ":752,"×ŀ×©":753,"Ġ×Ļ×©×¨":754,"Ġ×ĳ×Ĳ×©":755,"×Ĳ×¤×ĺ":756,"Ġ20":757,"×¢×ĺ×¢×¨":758,"--":759,"×Ĳ×Ļ×ļ":760,"Ġ×¦×ķ×Ŀ":761,"Ġ×ª×Ĵ×ķ×ĳ":762,"×¤×Ł":763,"Ġ×ĳ×Ĳ×§":764,"Ġ200":765,"Ġ×Ļ×©×¨×Ĳ×ľ":766,"×¤×Ĳ×¨":767,"×Ļ×ľ×ķ":768,"ï¬®":769,"×¨×Ļ×Ļ":770,"Ġ×ķ×ķ×Ļ×Ļ×¡":771,"Ġ×Ĵ×¢×§":772,"Ġ×ĸ×²":773,"×Ļ×Ļ×¢×Ł":774,"×Ļ×§×¢×¨":775,"×Ļ×¦×Ł":776,"Ġ×ŀ×ķ×ĸ":777,"×Ļ×Ķ":778,"×ľ×¢×¨":779,"×Ļ×Ļ×Ľ":780,"Ġ×Ĵ×¢×ĵ":781,"×ł×¢":782,"Ġ×Ĳ×¨×Ĳ×¤":783,"Ġ×Ĳ×ĳ":784,"×ł×ķ×ŀ":785,"Ġ×¦×ķ×¨×Ļ×§":786,"Ġ×Ļ×Ļ×ĵ":787,"×¢×ĺ×Ł":788,"ł×¥":789,"×ķ×Ļ×¢":790,"×Ļ×ł×ĺ":791,"×ł×¢×¨":792,"×Ľ×Ł":793,"×Ľ×ľ":794,"×ĵ×Ĳ":795,"Ġ×ł×Ļ×Ļ×¢":796,"×ľ×Ļ×ļ":797,"in":798,"×Ļ×§×Ł":799,"Ġ×ĸ×¢×ľ":800,"×ĸ×Ĳ":801,"×Ļ×§×Ĳ":802,"Ġ×ľ×¢×ĳ×Ł":803,"on":804,"Ġ×ł×Ĳ×Ľ":805,"×¤×¨":806,"×Ļ×Ļ×Ļ×Ļ":807,"Ġ×ķ×ķ×¢×Ĵ":808,"×Ĳ×ľ×ĺ×Ł":809,"×Ļ×Ļ×ł×¢×Ł":810,"Ġ×§×Ļ×ł×ĵ×¢×¨":811,"×ŀ×Ķ":812,"ĠC":813,"ĠÂ":814,"×Ĳ×Ķ":815,"Ġ×§×ķ×ŀ":816,"×Ĳ×Ļ×Ł":817,"×ł×ķ×ŀ×§×¡":818,"×¤×Ĳ":819,"Ġ×Ĵ×Ļ×Ļ×ĺ":820,"×Ļ×§×ľ":821,"×ł×ľ×Ļ×Ļ×Ł":822,"×³":823,"×Ļ×¡×Ł":824,"×Ļ×ł×¢×Ł":825,"Ġ×ĵ×ĸ×©":826,"×ł×©":827,"Ġ×ķ×ķ×¢×ľ×Ł":828,"Ġ×Ĵ×ķ×ĺ":829,"×ķ×ķ×Ĳ×¡":830,"×Ļ×Ļ×©":831,"Ġ×ĳ×Ļ×Ł":832,"Ġ×ĵ×Ĳ×¨×£":833,"×ķ×Ļ×ł":834,"×Ĳ×¡×ĺ":835,"ï¬¯":836,"Ġ×Ĳ×¨×Ļ×Ļ×Ł":837,"×¦×ķ":838,"Ġ×ŀ×Ĺ":839,"×ŀ×¢":840,"Ġ×ĺ×¢×§×¡":841,"×Ļ×ĳ×¢×¨":842,"×Ĵ×ľ":843,"om":844,"Ġ×ĳ×¢×¡":845,"×Ļ×ĵ×¢×¨":846,"×ĺ×©":847,"×§×¢":848,"Ġ×¤×ķ×ł×¢×Ŀ":849,"×ķ×ķ×Ļ×Ļ":850,"ïŃ":851,"×Ļ×¡×ľ":852,"Ġ×¤×Ĳ×¨×©×ĺ":853,"Ġ×ĸ×Ļ×Ľ×¢×¨":854,"×Ĳ×ŀ×¢×Ł":855,"Ġ×Ĳ×Ļ×Ļ×ĵ":856,"er":857,"×Ļ×ĺ×¢":858,"×¢×¤×ľ":859,"×Ĳ×ľ×ĵ":860,"×±":861,"ÙĨ":862,"×ŀ×¤":863,"×Ĳ×¤×Ł":864,"×Ĳ×¦×Ļ×¢":865,"×ł×ķ×ª":866,"Ġ×©×ķ×ķ":867,"×Ĳ×ł×§":868,"Ġ×Ĳ×¨×ķ×Ļ×¤":869,"Ġ×©×ĺ×Ĳ":870,"×Ļ×Ĵ×Ł":871,"×ķ×Ļ×©×Ł":872,"×Ļ×ĺ×¢×ĺ":873,"×ł×Ļ×Ŀ":874,"Ġ201":875,"Ġ×ł×¢×ŀ":876,"Ġ×ŀ×Ĳ×Ľ×Ł":877,"Ġ×ĵ×Ĳ×¨×ĺ":878,"Ġ×Ķ×Ļ×Ļ×ł×ĺ":879,"Ġ×ĵ×Ļ×¨":880,"Ġ3":881,"×ķ×Ĺ":882,"Ġ×ŀ×¦":883,"×ĳ×¢":884,"Ġ×ŀ×Ļ×ľ":885,"Ġ×Ļ×¢×ĵ×¢×¨":886,"×Ĳ×§×¢":887,"×Ļ×Ļ×ĺ×Ł":888,"Ġ×§×¡":889,"×¤×ĺ":890,"Ġ×ĳ×Ĳ×¨":891,"×Ķ×Ĳ":892,"Ġ×¢×§":893,"×ķ×Ļ×ĳ":894,"×ķ×Ĳ":895,"×ĳ×ľ":896,"×ľ×¢×Ľ×¢":897,"×¢×ł×§":898,"×¢×ª":899,"Ġ×ŀ×Ĳ×ľ":900,"×¢×Ľ×ĺ":901,"×¢×ł×¢×¨":902,"Ġ×§×ķ×§":903,"Ġ×Ĵ×Ĳ×ł×¦":904,"Ġ×ĺ×¢×¨":905,"Ġ×Ķ×¢×ľ":906,"ÙĬ":907,"×ķ×ļ":908,"Ġ×Ĳ×ķ×ł×ĺ×¢×¨":909,"Ġ×Ĳ×¡":910,"Ġ×ŀ×Ļ×ł":911,"Ġ×ŀ×ľ":912,"×ł×ĸ":913,"×ķ×£":914,"×ŀ×¢×¨":915,"×ĺ×ķ×¨":916,"Ġ×Ĵ×¢×Ķ×Ĳ×ĺ":917,"Ġ×ĺ×¢×§×¡×Ĳ":918,"at":919,"ĠâĢŀ":920,"ł×ŀ":921,"Ø±Ø":922,"Ø§ÙĦ":923,"Ġ×Ĳ×Ķ":924,"×Ļ×Ļ×§":925,"×Ļ×Ļ×ļ":926,"×Ļ×Ļ×Ĵ×Ł":927,"Ġ×Ĳ×ŀ×¢×¨":928,"×ł×ĵ×Ļ×Ĵ":929,"an":930,"ĠÂ·":931,"×ķ×ł×§":932,"Ġ×ĺ×Ļ×Ļ×ľ":933,"×ł×Ļ×©×ĺ":934,"×¢×ľ×¢":935,"Ġ×ŀ×¡":936,"×Ļ×Ļ×ĺ×¢×¨":937,"×Ļ×ķ×ª":938,"Ġ×Ĳ×¨×ĳ":939,"×§×ľ":940,"Ġ19":941,"Ġ×ł×Ļ×ķ":942,").":943,"Ġ×ŀ×§":944,"×Ļ×¥":945,"Ġ×¤×Ĳ×¨×©":946,"×Ļ×Ĵ×¢×¨":947,"×¢×Ķ×Ł":948,"Ġ×ķ×ķ×Ļ×Ļ":949,"Ġ×¨×¢×Ĵ":950,"×¨×¢":951,"Ġ×§×ķ×ŀ×ĺ":952,"×Ļ×§×ĺ":953,"Ġ×©×ĳ":954,"×Ĳ×ł×¡":955,"×ŀ×¢×Ł":956,"×Ľ×ĺ":957,"Ġ×©×¨×Ļ×Ļ×ĳ×¢×¨":958,"×Ĵ×¢×©":959,"Ġ×Ĵ×Ļ×Ļ×Ł":960,"×Ļ×Ĵ×ĺ":961,"Ġ×§×¡×ł×ķ×ŀ×§×¡":962,"×Ļ×Ļ×ŀ":963,"Ġ×ĵ×¢×ŀ":964,"×Ĳ×ľ×Ł":965,"Ġ×Ĳ×ķ×ł×ĵ×ĸ×¢×¨":966,"Ġ×Ĳ×ĸ×Ĳ":967,"âĢł":968,"×Ĵ×Ł":969,"Ġ×¦×ķ×Ĵ":970,"×¢×¨×©":971,"Ġ×¤×Ļ×¨":972,"×Ļ×ľ×Ł":973,"Ġ×Ĳ×¨×Ļ×Ļ×":974,"×Ĵ×¢×¨":975,"Ø§Ø±Ø":976,"×Ļ×ĺ×¢×¨":977,"Ġ×Ĵ×¢×ĸ×Ĳ×Ĵ×ĺ":978,"Ġ×Ĺ×¡":979,"Ġ×ĳ×Ļ×Ļ×Ŀ":980,"Ġ×ľ×Ĳ×ł×Ĵ":981,"Ġ×ľ×Ļ×ł×§":982,"×¦×Ļ×Ļ×ĺ":983,"Ġ×Ļ×©":984,"×ĵ×¢×Ŀ":985,"×¢×ł×Ĵ×ĺ":986,"×Ĳ×ľ×¢":987,"Ġ×Ľ×Ĳ":988,"×Ĵ×Ĳ":989,"Ġ×ĸ×Ĳ×Ĵ×ĺ":990,"Ġ×ł×¢×ŀ×¢×Ł":991,"×Ļ×ł×Ĳ":992,"Ġ×©×¨×Ļ×Ļ×ĳ":993,"Ġ×ĺ×¨×Ĳ":994,"Ġ×Ĳ×¤×Ļ×ľ×ķ":995,"×Ļ×¨×ķ×ł×Ĵ":996,"×ķ×ķ×Ļ×¡":997,"×ķ×ľ×Ŀ":998,"×ľ×Ł":999,"Ġ×©×¨":1000,"×Ĳ×ł×¢×¨":1001,"×ķ×Ļ×ľ":1002,"×Ĳ×¨×§":1003,"Ö·,":1004,"×ķ×ķ×Ļ×Ļ×ĸ":1005,"Ġ×Ĳ×¤×©×¨":1006,"Ġ×Ĳ×Ļ×Ļ×ĵ×¢×¨":1007,"×ķ×Ļ×ĳ×Ł":1008,"Ġ×Ĳ×Ļ×ł×¢×Ŀ":1009,"×Ĳ×ĺ×Ł":1010,"Ġ×¦×ķ×ķ×Ļ×©×Ł":1011,"Ġ×Ĳ×ĵ":1012,"Ġ×ł×ķ×¦":1013,"Ġ×Ĳ×Ļ×Ļ×¢×¨":1014,"Ġ×Ĳ×ķ×Ļ×¤×Ł":1015,"Ġ×ĳ×ľ×ķ×Ļ×ĸ":1016,"×ķ×ķ×¢":1017,"Ġ×ĸ×Ļ×Ļ×ĺ":1018,"×ĵ×Ļ×§":1019,"Ġ×ŀ×Ļ×ĺ×Ł":1020,"×¨×Ļ×Ŀ":1021,"Ġ×ĸ×Ĳ×Ĵ×Ł":1022,"Ġ×ĸ×Ļ×Ļ×ł×¢":1023,"×§×ķ×ŀ×¢×Ł":1024,"),":1025,"ł×¡×ĺ":1026,"Ġ×ŀ×Ĳ×ł":1027,"×ķ×¡×ĺ":1028,"×ķ×ķ×¢×§":1029,"Ġ×¢×¤×¢×¡":1030,"Ġ×©×¨×Ļ×Ļ×ĳ×Ł":1031,"Ġ×Ĳ×ķ×ł×ĸ×¢×¨":1032,"×ĵ×¨×Ļ×Ļ":1033,"×ĵ×ĸ×©":1034,"×Ļ×Ļ×©×Ĳ":1035,"Ġ×ĳ×Ļ×ĺ×¢":1036,"Ġ×ª×Ĵ×ķ×ĳ×Ķ":1037,"Ġ×ĳ×¢×ľ":1038,"×Ļ×ł×":1039,"Ġ×©×ł":1040,"×¡×Ĳ":1041,"×¤×ķ×Ł":1042,"´Ø§Ø±Ø":1043,"´Ø§Ø±Ø¹":1044,"×¦×ķ×ķ×Ļ×Ļ":1045,"×ł×¦":1046,"Ġ×¤×Ĳ×¨×ľ":1047,"Ġ×ķ×ķ×¢×ĳ":1048,"Ġ×Ĳ×¡×Ĳ×ļ":1049,"×ķ×Ļ×¨":1050,"×¨×Ļ×Ļ×ĳ×Ł":1051,"×Ļ×ĳ×Ķ":1052,"Ġ×ª×§":1053,"Ġ×Ķ×ŀ":1054,"×¢×ŀ×ĳ×¢×¨":1055,"ĠØ§ÙĦ":1056,"Ġ×ľ×¢×¨":1057,"×¢×ķ×ª":1058,"Ġ×ª×ķ×¨×Ķ":1059,"Ġ×ŀ×Ĳ×Ľ×ĺ":1060,"Ġ×ķ×ķ×Ĳ×ľ×ĺ":1061,"×¢×¤×ĺ":1062,"Ġ×ŀ×¢×Ĵ":1063,"×Ĳ×§×ĺ":1064,"Ġ×Ļ×¢×¦×ĺ":1065,"Ġ×Ĵ×¢×ľ×ĺ":1066,"Ġ×ĵ×Ĳ×ļ":1067,"Ġ×ŀ×ĵ":1068,"×Ĵ×¨":1069,"Ġ×ķ×ķ×Ĳ×ķ":1070,"Ġ×ł×":1071,"Ġ×¦×Ļ":1072,"×Ĺ×Ķ":1073,"×ķ×Ļ×ļ":1074,"×Ĳ×ľ×ĳ":1075,"Ġ×Ĳ×©":1076,"Ġ×¦×ķ×ĸ":1077,"×ķ×¤×Ł":1078,"Ġ×ĺ×Ĳ×§×¢":1079,"Ġ×¤×Ĳ×¨×§":1080,"×ľ×¡":1081,"Ġ×Ĳ×¨×ĺ":1082,"Ġ×¨×ķ×¡":1083,"Ġ×ĳ×©":1084,"Ġ×ĳ×¢×¨":1085,"or":1086,"×ľ×¢×Ł":1087,"×¨×¤":1088,"×ĸ×¨":1089,"×¢×§×ķ×ŀ×¢×Ł":1090,"Ġ×ĸ×Ļ×Ļ×ł×¢×Ł":1091,"Ġ4":1092,"Ġ×Ĳ×ľ×¡":1093,"Ġ×Ĺ×¡×Ļ×ĵ":1094,"Ġt":1095,"Ġ×Ĵ×ķ":1096,"×¢×¨×ĸ":1097,"×Ļ×Ļ×¡×ĺ":1098,"×¢×ļ":1099,"Ġ×ĺ×¨×Ĳ×ŀ×¤":1100,"×ĵ×¢":1101,"Ġ×¦×ķ×©":1102,"×¢×¥":1103,"¦×ĺ":1104,"×ĺ×Ļ×Ļ×ľ":1105,"×Ĳ×ļ×¦×ķ×ķ×Ļ×Ļ":1106,"Ġ×ķ×ķ×Ĳ×Ľ×Ł×Ĳ×Ļ×Ļ×Ł":1107,"×ľ×ĸ":1108,"Ġ×Ľ×ľ":1109,"Ġ×Ĳ×ł×ĺ":1110,"Ġ×ł×¢×ŀ×ĺ":1111,"Ġ×¢×ł":1112,"×ķ×ł×Ķ":1113,"×Ļ×Ĺ":1114,"Ġ×Ĵ×¢×ŀ×Ĳ×Ľ×ĺ":1115,"×ķ×Ļ×¤×Ł":1116,"×Ĳ×ł×Ĵ×¢×Ł":1117,"×¢×Ĵ×ĺ":1118,"Ġ×ª×ł×Ĳ":1119,"âĢŁ":1120,"×ķ×Ļ×¤×ĺ":1121,"×Ľ×ķ×ľ":1122,"Ġ5":1123,"×ĸ×Ł":1124,"Ġ×§×Ĳ×ŀ":1125,"×ŀ×ķ":1126,"×ĺ×¢×ľ×ĺ":1127,"Ġ×ĳ×Ĳ×ł":1128,"×Ķ×Ĳ×ĺ":1129,"Ġ×Ĳ×ĺ":1130,"Ġ×¡×§":1131,"Ġ×§×Ĳ×¨":1132,"ĠØ´Ø§Ø±Ø¹":1133,"Ġ×ª×ł×Ĳ×Ļ×Ŀ":1134,"Ĵ×Ł":1135,"×ĺ×¢×¨×Ł":1136,"×Ĳ×ĳ×ľ":1137,"×Ĳ×Ŀ":1138,"Ġ×ĳ×Ļ×ľ×ĵ":1139,"×Ļ×Ļ×Ĵ×ĺ":1140,"is":1141,"es":1142,"Ġ×Ĵ×¢×ĳ×Ł":1143,"Ġ×Ĳ×Ļ×ĵ×Ł":1144,"×ĵ×©":1145,"ïŃİ":1146,"×ŀ×¡":1147,"×¢×ĳ×¨":1148,"Ġ×Ķ×©":1149,"×°":1150,"×¡×ĺ×¢":1151,"Ġ×©×Ĳ":1152,"×ĵ×ķ×§":1153,"Ġ×Ĵ×Ĳ×ł×¦×¢":1154,"en":1155,"Ġ×¢×ł×ĵ":1156,"×¢×©×Ķ":1157,"×Ļ×Ļ×¢×ł×ĵ×Ļ×Ĵ":1158,"×Ļ×Ļ×ĳ×Ł":1159,"×ł×¥":1160,"Ġ×Ļ×¢×ĵ×¢":1161,"Ġ×§×ķ×ŀ×¢×Ł":1162,"×¢×ł×¥":1163,"×ľ×Ĳ×ł×ĵ":1164,"Ġ×¤×Ĳ×¨×ķ×ķ×Ĳ×¡":1165,"Ġ×ĳ×ł":1166,"×©×ķ×ĺ":1167,"Ġ×Ĵ×¢×ķ×ķ×Ĳ":1168,"Ġ×©×ĺ×¢×ľ":1169,"Ġ×Ĵ×¨×ķ×Ļ×¡×¢":1170,"Ġ[":1171,"×¨×Ļ":1172,"Ġ×Ĳ×ŀ×Ĳ×ľ":1173,"Ġ×¤×Ĳ×¨×Ł":1174,"×ŀ×Ļ×ĺ":1175,"×Ļ×¦×ĺ":1176,"×ķ×ĵ×©":1177,"Ġ...":1178,"×ķ×¥":1179,"Ġ×ĺ×¢×Ĵ":1180,"×Ĳ×ĳ×¢×¨":1181,"×¢×ł×Ĵ×¢×Ł":1182,"Ġ×§×¢×Ĵ×Ł":1183,"Ġ×Ĳ×¨×ķ×Ļ×¤×Ĵ":1184,"Ġ×¤×Ĳ×¨×ĺ":1185,"Ġ×Ĳ×Ļ×¦×ĺ":1186,"Ġ×ł×ķ×¦×Ł":1187,"Ġ×ķ×ķ×Ļ×¡×Ł":1188,"×ł×¤":1189,"Ġ×Ĳ×Ļ×Ļ×ļ":1190,"×¨×¢×¡":1191,"Ġ×¢×ĺ×ľ×¢×Ľ×¢":1192,"Ġ×¢×¨×©×ĺ×¢":1193,"Ġ×¦×ķ×ľ":1194,"Ġ×ĵ×ķ×¨×Ľ":1195,"ĠÙ":1196,"×ł×¢×ĺ":1197,"Ġ×Ļ×Ĳ×¨×Ĳ×Ļ×Ļ×Ł":1198,"×Ļ×¢×ľ":1199,"Ġ×Ĳ×Ļ×Ļ×ł":1200,"×¨×Ķ":1201,"Ġ×Ķ×Ĳ×¨":1202,"×ķ×ł×§×ĺ":1203,"Ġ×ĸ×©":1204,"Ġ×¢×§×¡":1205,"×ĸ×Ļ×Ļ":1206,"×ķ×¨×Ĳ":1207,"\",":1208,"Ġ×ĸ×Ĳ×ļ":1209,"×´":1210,"×ķ×ķ×ķ×ķ":1211,"Ġ×©×¨×Ļ×Ļ×ĳ×¢×¨×¦×Ļ×Ļ×ĺ":1212,"Ġ×ĸ×¢×ĺ":1213,"×¢×¡×Ł":1214,"Ġ×Ĺ×ľ":1215,"×Ļ×¢×¨":1216,"Ġ×ĺ×ķ×ĺ":1217,"×ĵ×Ł":1218,"al":1219,"×ĺ×ľ":1220,"Ġ×Ĳ×©×Ľ×ķ×ľ":1221,"×§×¢×¨":1222,"Ġ×Ķ×¢×¨":1223,"Ġ×Ĳ×Ļ×ł×ĵ":1224,"Ġ×Ķ×Ĳ×ľ×ĺ":1225,"Ġ×ľ×Ļ×ĳ":1226,"×Ļ×ķ×ķ×¢×¨×¡":1227,"Ġ×¨×ķ×ĳ":1228,"Ġ×§×Ĳ×ŀ×¤":1229,"Ġ×ķ×Ľ":1230,"Ġ×Ĵ×¨×¢×¡":1231,"×Ļ×Ļ×ĵ×¢":1232,"Ġ×Ĳ×ŀ×ª":1233,"Ġ×¢×ķ×ľ×Ŀ":1234,"Ġ×¢×ĺ×ľ×Ļ×Ľ×¢":1235,"',":1236,"Ġ×ŀ×¢":1237,"×ķ×ķ×Ļ×ĺ":1238,"×Ļ×ľ×Ĳ":1239,"×Ķ×Ĳ×ľ×ĳ":1240,"×¢×§×¡×ĺ":1241,"Ġ×Ĺ×©":1242,"×ĳ×ķ×¨":1243,"âĢĭ":1244,"×§×¢×¤×ľ":1245,"Ġ×§×Ĳ×ľ":1246,"×Ĳ×ł×¢×Ł":1247,"Ġ×ŀ×Ĳ×ł×Ĳ×ĺ":1248,"×ĵ×Ļ×©":1249,"Ġ×Ķ×ķ×ĵ":1250,"Ġ×ķ×ķ×Ļ×Ĳ":1251,"Ġ×ª×§×ł×ķ×ª":1252,"ĠâĢĭ":1253,"×Ļ×ĵ×¢×ł×ĺ":1254,"×Ļ×§×¡":1255,"×§×¨":1256,"ĠâĢĭâĢĭ":1257,"×Ļ×Ļ×Ļ×Ļ×Ļ×Ļ×Ļ×Ļ":1258,"Ġ×©×ĳ×ª":1259,"it":1260,"Ġ×Ĳ×ĳ×Ļ×¡×ľ":1261,"Ġ×ĵ×¢":1262,"ĠâĢĶ":1263,"Ġ×Ĳ×Ļ×ĳ×¢×¨×Ĵ":1264,"Ġ×ĳ×Ĳ×ĸ":1265,"Ġ×©×ŀ×ķ":1266,"×¤×ľ":1267,"×ł×ĵ×Ļ×§":1268,"Ġ×ķ×ķ×¢×¨×ĺ×¢×¨":1269,"Ġ×©×ķ×ķ×¢×¨":1270,"Ġ×ĸ×¢×ľ×ĳ×¢":1271,"×¢×ł×Ļ×©":1272,"×Ļ×ĺ×Ł":1273,"Ġ×¡×Ļ×Ļ":1274,"Ġ×©×ĺ×Ĳ×ĺ":1275,"×Ĳ×¡×Ł":1276,"ĠâĢĵ":1277,"Ġ×¨×¢×¤":1278,"Ġ×Ĳ×Ļ×ł×¤":1279,"Ġ×ĸ×ķ×Ľ":1280,"×Ļ×ĵ×¢×ł×¢":1281,"Ġ×Ķ×¨×ĳ":1282,"Ġ×Ĳ×Ļ×ŀ":1283,"×ľ×ĵ":1284,"Ġ×¨×¢×ĵ×Ł":1285,"Ġ×Ĳ×¨×ķ×Ļ×¤×Ĵ×Ļ×Ļ×¢×ł×ĵ×Ļ×Ĵ":1286,"×¨×©×ĺ":1287,"×ķ×ķ×Ĳ×ļ×¦×ķ×ķ×Ļ×Ļ":1288,"Ġ×ķ×ķ×Ĳ×Ľ×Ł×Ķ×Ĳ×ľ×ĳ":1289,"Ġ×ĺ×Ĳ×Ĵ×ķ×ķ×Ĳ×ļ×¦×ķ×ķ×Ļ×Ļ":1290,"Ġ×ŀ×Ĳ×ł×Ĳ×ĺ×ĵ×¨×Ļ×Ļ":1291,"Ġ×Ĳ×¨×ķ×Ļ×¤×Ĵ×Ļ×Ļ×¢×ł×ĵ×Ļ×Ĵ×Ĳ×ķ×Ł":1292,"Ġ×ŀ×Ĳ×ŀ":1293,"×¡×ĺ×ķ":1294,"ve":1295,"Ġ×ľ×¢×¦":1296,"×¢×Ķ×ķ×Ļ×ĳ×Ł":1297,"×ķ×ŀ×¢×¨":1298,"Ġ×ķ×ķ×Ļ×Ļ×ĸ":1299,"Ġ×ĸ×Ļ×Ļ×¢×¨×¢":1300,"×ŀ×¢×ĺ":1301,"ł×ŀ×Ĳ×ľ":1302,"×ľ×Ļ×Ŀ":1303,"×ŀ×¢×ł×ĺ":1304,"ĠØ§ÙĦØ":1305,"×¨×ĳ×¢×ĺ":1306,"Ġ×ĳ×Ĺ":1307,"Ġ×ķ×ķ×Ĳ×¨":1308,"----":1309,"Ġ×Ĳ×ķ×ŀ×Ĵ":1310,"Ġ×ª×Ĵ×ķ×ĳ×ķ×ª":1311,"×Ļ×Ļ×ľ×ĺ":1312,"×¡×Ł":1313,"Ġ×Ĳ×ķ×ł×Ļ×ķ×ķ×¢×¨×¡":1314,"Ġ×ĸ×Ĳ×Ľ×Ł":1315,"Ġ×§×ł":1316,"Ġ×§×ķ×ľ":1317,"Ġ×ķ×ķ×Ļ×Ļ×¡×ĺ":1318,"Ġ×ŀ×Ļ×Ļ×ł×ĺ":1319,"il":1320,"Ġ×¤×Ĳ×¨×ŀ":1321,"×¢×¨×Ĳ":1322,"Ġ×ŀ×ķ×¡":1323,"×ľ×ŀ":1324,"Ġ×ľ×Ĳ×ł×ĵ":1325,"×Ļ×ľ×Ķ":1326,"×¨×ŀ×Ĳ":1327,"×Ĳ×¥":1328,"Ġ×ł×Ļ×Ļ":1329,"Ġ×Ķ×Ļ×Ļ×ľ":1330,"×¨×ķ×Ļ×¡":1331,"×ķ×ĵ×Ŀ":1332,"×Ļ×ĺ×Ĳ":1333,"Ġ×ŀ×Ķ":1334,"ĠF":1335,"×ķ×Ļ×¢×Ł":1336,"com":1337,"Ġ×Ĳ×¨×Ļ×Ļ×ł×Ĵ":1338,"Ġ×©×ĺ×Ĳ×¨×§":1339,"Ġ×Ĳ×±":1340,"×Ĳ×ĺ×©":1341,"×ķ×§×ĺ":1342,"×ķ×ķ×Ļ×§":1343,"×¢×ł×ĵ×Ļ×§":1344,"Ġ×ł×Ĳ×ŀ×¢×Ł":1345,"Ġ×Ļ×ķ":1346,"Ġ×ķ×ķ×Ļ×ľ×Ł":1347,"×Ľ×ľ×ľ":1348,"ĠS":1349,"Ġ×Ļ×ķ×ł×Ĵ":1350,"Ġ×Ķ×¢×Ľ":1351,"Ġ×Ļ×Ĳ×¨×Ł":1352,"×Ļ×ĳ×Ł":1353,"Ġ×§×Ļ×Ļ×":1354,"'.":1355,"ÙĬØ":1356,"Ġ×§×ķ×¨":1357,"×ŀ×Ļ×¨":1358,"Ġ×ķ×ķ×Ĳ×¨×ĺ":1359,"Ġ×Ķ×Ļ×ľ":1360,"Ġ×Ĳ×ľ×¢×¡":1361,"Ġ×ķ×ķ×Ļ×Ĳ×ĸ×ķ×Ļ":1362,"Ġ×Ĳ×ķ×ł×Ļ×ķ×ķ×¢×¨×¡×Ļ×ĺ×¢×ĺ":1363,"Ġ×ķ×ķ×Ļ×Ľ×ĺ":1364,"×¢×ĸ×Ļ×ĵ×¢×ł×ĺ":1365,"Ġ×¡×Ļ×¡×ĺ":1366,"×Ĵ×¢":1367,"Ġ×¦×ķ×¤":1368,"Ġ×§×¨×Ĳ":1369,"×©×¢":1370,"Ġ×¤×Ĳ×¨×Ĳ×Ł":1371,"Ġ×¡×ĺ×Ĳ":1372,"Ġ×¢×¨×©×ĺ×¢×¨":1373,"×¤×¢×¨":1374,"×ĺ×Ļ×Ŀ":1375,"×©×¤":1376,"âĢĿ":1377,"Ġ×¤×Ļ×ľ×¢":1378,"×¢×ł×ĵ×¢×¨":1379,"Ġ×¢×Ŀ":1380,"Ġ×Ĳ×ľ×¥":1381,"×ķ×ķ×Ļ×ĸ":1382,"\".":1383,"×Ļ×ł×¢":1384,"×ĺ×¨×Ĳ":1385,"Ġ×ľ×¢×¨×ł×¢×Ł":1386,"×ķ×Ļ×Ŀ":1387,"Ġï¬®":1388,"Ġ×¤×¡":1389,"×¢×ł×ķ×ŀ×¢×Ł":1390,"Ġ×¤×¨×Ĳ×ĳ×ľ":1391,"Ġ×ĳ×Ĳ×ŀ":1392,"×ķ×Ļ×ł×ĺ":1393,"Ġ×§×ľ×Ĳ":1394,"Ġ×ĳ×Ĳ×§×ķ×ŀ×¢×Ł":1395,"Ġ×Ĺ×ª":1396,"Ġ×ķ×ķ×ķ":1397,"×Ļ×¡×ĺ×Ł":1398,"×Ļ×§×Ĳ×ł×¢×¨":1399,"Ġ×ĵ×¨×Ļ×Ļ":1400,"×¢×ĵ×ĺ":1401,"Ġ×¢×ł×Ĵ":1402,"×ľ×ķ×ł×Ĵ":1403,"×Ļ×ĺ×Ļ":1404,"×Ĳ×ĺ×¢":1405,"×ł×Ĳ×ļ":1406,"Ġ×§×ķ×ĵ×Ŀ":1407,"Ġ×ĳ×Ĳ×©×ĺ":1408,"Ġ×Ĳ×¨×ķ×Ļ×¡×Ĵ":1409,"Ġ×¦×Ļ×Ļ":1410,"×¢×ľ×Ĳ":1411,"×ķ×ķ×¢×Ł":1412,"Ġ×Ĳ×Ļ×Ļ×Ĵ":1413,"×ł×Ļ×©":1414,"Ġ×Ĳ×¨×ķ×Ŀ":1415,"×Ľ×Ķ":1416,"Ġ×ŀ×Ĳ×ĵ":1417,"Ġ×Ĳ×ł":1418,"Ġ×¡×¢×¨":1419,"Ġ×¡×ĺ×¨":1420,"Ġ×ĳ×¨×Ĳ":1421,"Ġ×ŀ×©×¤":1422,"Ġ×ł×Ļ×Ļ×¢×¡":1423,"Ġ×¤×©×ķ×ĺ":1424,"Ġ×Ĵ×¢×ķ×ķ×Ļ×¡":1425,"Ġ×ĸ×Ĳ×ľ×Ł":1426,"Ġ×ĳ×ľ×Ĳ":1427,"Ġ×Ĳ×ł×Ĵ×¢×Ķ×ķ×Ļ×ĳ×Ł":1428,"Ġ×Ĳ×¨×ĺ×Ļ×§×ľ":1429,"he":1430,"×ķ×ł×ĵ×¢×¨":1431,"×§×Ļ":1432,"ĠM":1433,"Ġ×Ĳ×¨×ķ×Ļ×£":1434,"Ġ×ľ×Ļ×Ļ×§":1435,"Ġ×¤×Ĳ×¨×Ĵ":1436,"Ġ×Ĳ×Ļ×Ļ×ł×Ĵ":1437,"×ĵ×Ĳ×¡":1438,"Ġ×©×ĺ×Ļ×Ļ×ĺ":1439,"!!":1440,"×¨×ķ×ĳ":1441,"Ġ×Ĳ×ķ×Ļ×¤×Ĵ":1442,"Ġ×ĺ×ķ×Ļ×ĸ":1443,"Ġ×Ĳ×¨×ĳ×¢×ĺ":1444,"....":1445,"Ġ×¨×Ļ×Ľ×ĺ":1446,"×Ĵ×ĺ":1447,"×©×ľ":1448,"×¢×¨×Ļ×Ļ":1449,"Ġs":1450,"Ġ×Ĺ×ĵ×©":1451,"Ġ/":1452,"×ŀ×©×ľ":1453,"×¨×Ļ×ĵ":1454,"Ġ×ľ×Ļ×Ļ×¢":1455,"×ł×ĺ×¢×¨":1456,"×Ļ×ķ×ķ×Ĳ":1457,"Ġ×Ķ×Ļ×Ļ×ĳ":1458,"Ġ×Ĳ×Ļ×ĵ×Ļ×©×¢":1459,"Ġ×§×Ĳ×¤":1460,"Ġ×Ļ×¢×ĵ×Ł":1461,"ed":1462,"..:":1463,"Ġ×ª×Ĵ×ķ×ĳ×Ķ×§×¢×¤×ľ":1464,"Ġ×ª×Ĵ×ķ×ĳ×ķ×ª×Ĳ×Ļ×Ļ×Ł":1465,"×ķ×¨×Ļ×Ŀ":1466,"Ġ×©×¢×Ķ":1467,"Ġ×Ĵ×¢×ĸ×ķ×ł×ĺ":1468,"×Ĳ×ł×¥":1469,"Ġ×Ĳ×Ļ×Ļ×ł×©":1470,"Ġ×ķ×ķ×Ļ×Ļ×ĺ×¢×¨":1471,"Ġ×ĺ×©×Ĳ":1472,"Ġ.":1473,"Ġ×ĸ×¢×Ł":1474,"Ġ×Ĵ×¢×§×ķ×ŀ×¢×Ł":1475,"×Ļ×ł×ķ":1476,"Ġ×ŀ×Ļ×ł×ķ×ĺ":1477,"Ġ×ĳ×Ļ×Ļ×ĵ×¢":1478,"Ġa":1479,"Ġ×Ĵ×¢×Ķ×¢×¨×ĺ":1480,"×ł×¢×¡":1481,"Ġ×ĳ×Ľ×ľ×ľ":1482,"×¢×Ķ×ĺ":1483,"Ġ×Ĳ×ķ×ķ×¢×§":1484,"×ĸ×¨×Ĺ":1485,"×¢×ľ×ĵ":1486,"×¢×ł×¢×Ŀ":1487,"ķ×ķ":1488,"Ġ×©×ĺ×¢×ĺ":1489,"Ġ×Ĳ×Ļ×Ķ":1490,"Ġ×ĳ×¢×¡×¢×¨":1491,"ÙĪ":1492,"×¢×§×Ł":1493,"Ġ×Ĳ×ŀ×¢×¨×Ļ×§×¢":1494,"Ġ×¤×Ĳ×¨×Ĳ":1495,"Ġ×¨×¢×ĸ":1496,"×Ĳ×Ĵ×¨":1497,"ati":1498,"Ġ×ľ×¢×¦×ĺ×¢":1499,"×ķ×ł×ĵ×¢×¨×ĺ":1500,"19":1501,"Ġ×¤×¨×¢×ĸ×Ļ×ĵ×¢×ł×ĺ":1502,"×ķ×ķ×Ļ":1503,"Ġ×©×¤×¨":1504,"Ġ×ŀ×©×Ķ":1505,"Ġ×ŀ×Ļ×ĺ×ľ":1506,"Ġ×©×ľ×ķ×Ŀ":1507,"Ġ×ķ×ķ×Ĳ×ļ":1508,"×¨×¡":1509,"×¢×Ļ×ľ":1510,"Ġ6":1511,"ĠP":1512,"×ķ×ĵ×Ķ":1513,"Ġ×ķ×ķ×Ļ×Ļ×ł":1514,"Ġ×¡×Ļ×¡×ĺ×¢×Ŀ":1515,"×¢×ŀ×¢":1516,"Ġ×ĳ×²":1517,"Ġ×¦×ķ×ľ×Ļ×ĳ":1518,"Ġ10":1519,"×Ļ×Ĳ×ł":1520,"Ġ×§×Ĳ×ł":1521,"Ġ×Ĺ×ĵ×©×Ļ×Ŀ":1522,"Ġ×¤×¨×ĺ×Ļ×Ŀ":1523,"×Ļ×ľ×ĺ":1524,"Ġ×Ĵ×Ļ×ĺ":1525,"ĠïŃİ":1526,"Ġ×°×Ĳ":1527,"Ġ×ĵ×Ļ×¡":1528,"Ġ×ŀ×Ļ×ļ":1529,"Ġ×Ĳ×ķ×Ļ×ĳ×Ł":1530,"×ŀ×Ĳ×¨":1531,"×¢×ł×ĺ×¢×¨":1532,"âĢĻ":1533,"×Ļ×ł×Ĵ×¢×Ł":1534,"Ġ×Ĳ×²":1535,"×ķ×ĳ×ľ":1536,"Ġ×Ĺ×ķ×ĵ×©":1537,"Ġ×Ķ×Ļ×Ļ×¡×ĺ":1538,"×Ļ×ł×¢×¨":1539,"Ġ×Ľ×ĵ×Ļ":1540,"×¨×Ļ×Ļ×ĸ":1541,"ĠA":1542,"×ķ×¤×ĺ":1543,"Ġ×ĺ×¨×¢×¤":1544,"os":1545,"Ġ×Ķ×Ĳ×¡×ĺ":1546,"Ġ×Ĵ×¢×ķ×ķ×Ĳ×ľ×ĺ":1547,"×Ĳ×ĸ×ĺ":1548,"âĢ¬":1549,"Ġ×ĳ×Ļ×ª":1550,"ons":1551,"×Ļ×Ļ×¥":1552,"Ġ×¢×¦":1553,"Ġ×¡×ļ":1554,"Ġ×Ķ×Ļ×Ļ×ŀ":1555,"×ķ×ķ×Ļ×ľ":1556,"Ġ×Ķ×ķ×Ļ×ĸ":1557,"×ķ×©×Ĳ":1558,"Ġ×ł×ķ":1559,"×Ļ×¨×Ķ":1560,"ic":1561,"×Ĳ×ķ×Ļ×ĳ":1562,"Ġ×Ĵ×¢×¦":1563,"Ġ×ĳ×¢":1564,"Ġ×¤×ķ×ł×§×ĺ":1565,"×Ļ×ŀ×Ĳ":1566,"×ŀ×Ĳ×Ł":1567,"×¦×Ĳ":1568,"Ġ×Ķ×§":1569,"×¨×²":1570,"Ġ×ľ×¢×ĳ":1571,"×¨×Ļ×Ļ×ĺ":1572,"Ġ×Ķ×ľ":1573,"Ġ×Ĳ×Ĺ":1574,"Ġ×Ĵ×¨×ķ×¤":1575,"×ķ×ķ×Ĳ×¨":1576,"Ġ×¨×¢×Ľ×ĺ":1577,"Ġ×¨×¢×ĵ×ĺ":1578,"Ġ×Ķ×¢×ľ×¤×Ł":1579,"Ġ×¢×ŀ":1580,"×§×¢×Ł":1581,"''":1582,"Ġ×©×ķ×ľ":1583,"Ġ×ĵ×¢×¨×¦":1584,"×Ķ×Ĳ×ĳ":1585,"×ł×Ļ×¢":1586,"×ľ×ĺ×Ł":1587,"Ġ7":1588,"ou":1589,"Ġ×ĵ×Ļ×Ļ×ĺ":1590,"Ġ×ŀ×Ļ×ĵ":1591,"×Ļ×ł×ª":1592,"Ġ×¨×Ļ×ĸ":1593,"×ľ×Ļ×©":1594,"Ġ×Ļ×¨":1595,"Ġ×ķ×ķ×¢×ĳ×ĸ×Ļ×Ļ":1596,"Ġ×ľ×ķ×Ļ×ĺ×Ł":1597,"×ł×ĺ×Ĳ":1598,"Ġ×ľ×Ļ×Ļ×ĵ":1599,"×ĳ×ķ×¨×Ĵ":1600,"×¢×ł×©":1601,"Ġ×Ĵ×ķ×ĺ×¢":1602,"Ġ×ľ×¢×¦×ĺ":1603,"×Ļ×Ļ×¤":1604,"Ġ×¤×¢×¨":1605,"Ġ×§×ľ×Ĳ×¨":1606,"Ġ9":1607,"Ġ×¡×Ļ×Ļ×ĺ":1608,"Ġ×ĸ×Ĳ×Ĵ":1609,"Ġ×ķ×ķ×Ļ×ĵ":1610,"×ķ×Ķ×Ł":1611,"Ġ×ľ×ŀ×©×ľ":1612,"Ġ×Ĳ×¤×Ĵ":1613,"×ĳ×Ļ":1614,"×¨×ķ×Ļ×£":1615,"Ġ×Ĺ×ĳ×¨":1616,"×¢×ľ×¢×¨":1617,"Ġ×Ĳ×Ļ×ł×ĺ×¢×¨×ł×¢×ĺ":1618,"Ġ×ľ×Ľ":1619,"le":1620,"Ġ×ĳ×Ĳ×ĵ":1621,"Ġ×§×Ĳ×ł×ĵ":1622,"Ġ×ľ×©":1623,"Ġ×§×ķ×ķ":1624,"×¡×ĺ×¢×¨":1625,"Ġ×Ĳ×ķ":1626,"Ġ×Ļ×Ļ×ĵ×Ļ×©":1627,"Ġ×¡×ķ×£":1628,"Ġ×¨×¢×§":1629,"×Ļ×¢×Ł":1630,"×ł×Ļ":1631,"×ķ×ľ×Ļ":1632,"Ġ×Ĳ×Ļ×ĵ×Ļ×©":1633,"Ġ×Ķ×ª":1634,"×Ĳ×ĸ×Ł":1635,"Ġ×ĵ×Ĳ×Ł":1636,"Ġ×ĳ×©×¢×ª":1637,"Ġ×ŀ×Ļ×Ļ×ł":1638,"Ġ×Ĵ×Ĳ×¨×ł×Ļ×©×ĺ":1639,"×ł×Ļ×§":1640,"Ġ×ĵ×¢×¨×ŀ":1641,"×ķ×ķ×¢×Ĵ":1642,"×ľ×¢×Ĵ":1643,"×¨×¥":1644,"×ĸ×Ĳ×ľ":1645,"×ķ×Ļ×¨×Ł":1646,"ĠT":1647,"Ġ×¡×Ļ×ŀ":1648,"Ġp":1649,"Ġ×¡×¤×¢×¦":1650,"Ġ×Ķ×Ĳ×ľ×ĺ×Ł":1651,"Ġ×©×¨×Ļ×Ļ×ĳ×ĺ":1652,"Ġ×ĺ×¢×Ľ":1653,"Ġ×ŀ×¢×©×Ķ":1654,"Ġ×Ķ×Ĵ":1655,"Ġ×ł×Ĳ×Ľ×ĵ×¢×Ŀ":1656,"×¢×Ļ":1657,"Ġ×ķ×ķ×Ļ×ł×§":1658,"Ġ×¤×Ĳ×¡":1659,"Ġ×¤×Ĳ×¨×ĳ":1660,"Ġ×Ĳ×Ļ×ł×ĺ×¢×¨×¢×¡":1661,"×ĺ×Ĳ×Ł":1662,"Ġw":1663,"×¦×Ļ×¢×¡":1664,"Ġ×Ķ×ķ×ĵ×¢×ķ×ª":1665,"Ġ×Ĵ×Ļ×ĳ":1666,"Ø§ÙĨ":1667,"Ġ×Ĳ×Ļ×Ļ×ł×¦":1668,"×ĺ×¢×Ĵ":1669,"×Ļ×¦×¢×¨":1670,"×Ļ×ł×¡":1671,"Ġ×ľ×Ļ×¦":1672,"×Ļ×¡×ĺ×Ĳ×¨":1673,"×Ļ×Ļ×ł×¡":1674,"Ġ×Ĵ×¢×§×¢×ł×ĺ":1675,"20":1676,"Ġ×Ĵ×¨×Ļ×ł×Ĵ":1677,"Ġ×ĳ×Ĳ×¦":1678,"Ġ×ĵ×¨×Ļ×§":1679,"Ġb":1680,"Ġ×ŀ×ŀ":1681,"Ġ×ŀ×ĸ×¨×Ĺ":1682,"Ġ×ŀ×ŀ×©":1683,"Ġ×ĸ×¢×ľ×ĳ":1684,"Ġ×ķ×ķ×Ļ×¡":1685,"×§×Ļ×Ļ":1686,"×Ļ×Ĳ×ľ":1687,"Ġ×Ķ×Ļ×ľ×£":1688,"Ġ×§×Ļ×Ļ×ł×ŀ×Ĳ×ľ":1689,"Ġ×¨×Ĳ×©":1690,"Ġ×Ĳ×Ļ×Ļ×¨":1691,"Ġ×Ĳ×¨×Ļ×ĳ×¢×¨":1692,"×©×¢×¨":1693,"×Ļ×©×Ĳ":1694,"×¨×Ĳ×ľ":1695,"×ķ×§×Ł":1696,"ar":1697,"Ġ×Ķ×Ĳ×ľ":1698,"×ķ×¨×ĺ":1699,"×ĺ×ķ":1700,"Ġ×ķ×ķ×Ļ×¤":1701,"×Ļ×ĵ×ĸ×©":1702,"×ľ×Ļ×Ļ":1703,"×Ĺ×ŀ×Ķ":1704,"as":1705,"×Ļ×ł×Ķ":1706,"Ġ×¢×ĵ":1707,"Ġ×¢×ł×ĺ":1708,"Ġ×¤×ľ×Ĳ":1709,"×Ĵ×ľ×Ļ×Ļ×ļ":1710,"×Ļ×¢×ľ×¢":1711,"×¡×ĺ×Ł":1712,"Ġ×¡×Ĳ×¨×ĺ":1713,"×Ĵ×¢×ŀ":1714,"Ġ×ŀ×¢×ĵ":1715,"000":1716,"Ġ×ĺ×¢×ľ":1717,"oo":1718,"×Ļ×Ļ×¦":1719,"×Ļ×ķ×Ŀ":1720,"Ġ×¨×¢×Ĵ×Ļ×¨×ķ×ł×Ĵ":1721,"×ķ×ķ×Ļ×ł":1722,"Ġ×Ĵ×¢×ł×ķ×ŀ×¢×Ł":1723,"Ġ×Ĵ×¢×©×ĺ":1724,"Ġ×ľ×¢×ł×ĵ×¢×¨":1725,"Ġ×Ĵ×¨×Ĳ":1726,"×ĸ×¢×¦":1727,"ĠE":1728,"×ķ×²":1729,"Ġ×ł×¤":1730,"Ġ×Ĳ×ľ×Ļ×Ļ×Ł":1731,"×ķ×ķ×Ļ×Ļ×ľ":1732,"Ġf":1733,"Ġ×ĳ×¢×¡×ĺ×¢×¨":1734,"×¢×ĺ×©":1735,"×ľ×Ļ×ĺ":1736,"Ġ×Ĳ×§×ĺ":1737,"Ġ×ķ×ķ×Ļ×Ļ×ĺ":1738,"Ġ×Ĳ×Ļ×Ķ×Ŀ":1739,"×¢×ľ×Ľ×¢":1740,"×¢×ĳ×¨×¢×ł×Ĵ×ĺ":1741,"Ġ×Ĳ×ł×©":1742,"Ġ×Ĳ×¨×¥":1743,"×ĺ×¢×§×¡×ĺ":1744,"Ġ×¡×Ĳ×ĺ":1745,"Ġ×Ĳ×Ļ×ł×Ĵ":1746,"Ġ×ĺ×ķ":1747,"×¡×ĺ×Ĳ":1748,"Ġ×¤×Ļ×Ł":1749,"ĠCom":1750,"ĠCre":1751,"ĠB":1752,"×Ļ×ł×¡×ĺ":1753,"Ġ×ŀ×²":1754,"Ġ×Ĵ×¢×ĺ×¨":1755,"Ġ×©×Ļ×Ļ×ł×¢":1756,"Ġ×¤×¨×Ļ×Ļ×ł×ĺ":1757,"×ķ×Ļ×ĵ":1758,"×ĺ×¢×ľ×Ł":1759,"×Ķ×Ļ×Ļ×ĺ":1760,"Ġ×ŀ×Ļ×ľ×Ļ×ĺ×¢×¨":1761,"Ġ8":1762,"×¡×¤":1763,"×¢×ł×Ķ":1764,"Ġ×ŀ×Ĳ×ļ":1765,"×Ĳ×ł×ĺ×¢":1766,"×¡×¢":1767,"Ġ×Ĵ×¢×ł×ķ×Ĵ":1768,"Ġ×ĳ×Ĳ×ł×Ļ×¦×Ł":1769,"Ġm":1770,"ative":1771,"Ġ×Ĵ×¢×Ĵ×¢×ĳ×Ł":1772,"Ġ2008":1773,"×Ļ×ŀ×ĺ":1774,"Ö¸,":1775,"Ġ×Ĵ×Ĳ×ł×¥":1776,"Ġ×ľ×Ļ×¦×¢×ł×¥":1777,"×ķ×ľ×ĵ":1778,"×Ļ×ŀ×¢×Ł":1779,"×Ļ×ł×ĺ×¢×¨":1780,"×Ľ×ķ×ª":1781,"×¢×ĵ×ĸ×©":1782,"×Ľ×¢×¨":1783,"Ġ×ŀ×ª":1784,"×ĵ×ķ×§×ĺ×Ł":1785,"Ġ×Ļ×Ļ×ł×Ĵ":1786,"ĠComm":1787,"Ñģ":1788,"Ġ×¦×ķ×©×¨×Ļ×Ļ×ĳ×Ł":1789,"Ġ&":1790,"Ġ×¡×¤×¨":1791,"×ĳ×Ļ×ľ":1792,"×ķ×¡×ĺ×¨":1793,"×¨×ŀ":1794,"×Ļ×ł×ĵ×Ł":1795,"ing":1796,"Ġ×Ļ×ł×ĵ":1797,"Ġ×ĳ×Ļ×¡×ľ":1798,"ĠâĢ¢":1799,"ĠCreative":1800,"×Ļ×Ļ×ł×ĵ":1801,"×¢×ł×ĵ×Ļ×Ĵ":1802,"×Ļ×Ļ×Ĵ×¢×¨":1803,"×Ĳ×¨×ŀ":1804,"Ġ×ķ×ķ×Ļ×ĵ×¢×¨":1805,"×¤×Ĳ×ľ":1806,"Ġ×ŀ×ĵ×Ļ×ł×ª":1807,"ĠCommons":1808,"×ª×Ŀ":1809,"×Ĥ":1810,"Ġ×ŀ×¢×¨×¡×ĺ":1811,"Ġ×Ķ×ķ×Ļ×ļ":1812,"Ġ×ŀ×Ĳ×¨":1813,"×ł×Ĳ×ľ":1814,"Ġ×ĵ×¢×ŀ×Ĳ":1815,"×Ļ×ķ×ĺ×¢×¨":1816,"Ġ×¦×ķ×ķ×Ļ×Ļ×ĺ":1817,"Ġ×¤×ķ×ľ":1818,"×Ļ×Ľ×ĺ×Ł":1819,"Ġ×Ĵ×¢×ķ×ķ×Ļ×¡×¢":1820,"×Ĳ×ŀ×Ĳ×ľ":1821,"Ġ×§×ķ×§×Ł":1822,"×§×Ł":1823,"Ġ×ĳ×Ĳ×Ķ":1824,"Ġ×Ĵ×ŀ":1825,"×ķ×ł×Ļ":1826,"Ġ×ķ×ķ×Ļ×¨":1827,"×©×Ł":1828,"Ġ×Ķ×Ļ×¡×ĺ×Ĳ×¨":1829,"Ġ×Ĵ×¢×ĵ×¢×ł×§":1830,"and":1831,"Ġ×ĺ×ķ×ĳ":1832,"Ġ×¡×¤×¨×Ļ×Ŀ":1833,"Ġ×ĸ×ķ×Ľ×Ł":1834,"×ķ×Ĵ×¢":1835,"Ġ×¤×¨×Ĳ×ĳ×ľ×¢×Ŀ":1836,"×ľ×Ķ":1837,"×ķ×ł×¢×Ł":1838,"Ġ×Ĳ×ł×§":1839,"Ġ×ĳ×Ĳ×ľ":1840,"×ķ×ķ×Ļ×¨":1841,"×Ļ×ĳ×ķ×¨":1842,"×Ļ×Ĳ×Ł":1843,"Ġ×¤×Ļ×Ļ×¢×¨":1844,"×Ļ×£":1845,"Ġ×ĸ×ķ×Ł":1846,"×Ĳ×¨×£":1847,"Ġ18":1848,"Ġ×Ĺ×ľ×§":1849,"Ö·.":1850,"×¢×©×Ĳ":1851,"×Ļ×Ļ×ł×¢×Ŀ":1852,"??":1853,"Ġ×Ķ×ł":1854,"Ġ×Ĵ×¢×ĸ×¢×Ł":1855,"×Ļ×¡×Ĳ":1856,"×ŀ×ĳ":1857,"Ġ×©×ĺ×¢×ľ×Ł":1858,"×¢×Ĵ×¢×ĳ×Ł":1859,"Ġ×ķ×Ľ×ķ":1860,"Ġ×©×ĺ×¨":1861,"×©×ĳ":1862,"Ġ×Ļ×Ŀ":1863,"Ġ×ĳ×Ļ×ĸ×ł×¢×¡":1864,"Ġ×ĳ×Ļ×ľ×ĵ×¢×¨":1865,"ĠW":1866,"×ķ×ķ×¢×ĺ":1867,"×¢×ķ×ķ×¢×Ł":1868,"Ġ×Ļ×¢×ł×¢":1869,"Ġ×©×Ļ×Ļ×Ł":1870,"Ġ×ł×©":1871,"Ġ×Ĳ×¤×Ĳ×¨":1872,"×Ļ×¡×ĺ×¨":1873,"Ġ×Ļ×ĵ":1874,"Ġ×ĳ×¢×ĺ":1875,"Ġ×ĳ×Ĳ×ĺ":1876,"Ġ×Ķ×ķ×Ļ×¤×ĺ":1877,"×Ĳ×Ľ×ĺ×Ł":1878,"Ġ×¦×ķ×§":1879,"Ġ×ĵ×¨×ķ×Ŀ":1880,"×Ļ×Ļ×ł×Ļ×§":1881,"×ĵ×Ļ×©×¢":1882,"Ġ×ł×¢×ĳ×Ł":1883,"Ġ×¤×ľ×Ĳ×¥":1884,"Ġ×©×¤×¨×Ĳ×ļ":1885,"Ġ×Ĳ×ŀ×¢×¨×Ļ×§×Ĳ×ł×¢×¨":1886,"Ġ×ĸ×¢":1887,"Ġ×ŀ×Ĳ×ŀ×¢×ł×ĺ":1888,"Ġ×©×Ļ×§×Ł":1889,"Ġ×ľ×ŀ":1890,"Ġd":1891,"18":1892,"ĠG":1893,"×ł×ĳ":1894,"×Ľ×¨":1895,"×ķ×ĵ×Ĳ":1896,"Ġ×ķ×ķ×Ļ×Ļ×ĸ×ĺ":1897,"Ġ×Ĺ×Ľ":1898,"Ġ×Ķ×¢×¨×Ł":1899,"Ġ×¤×¨×Ĳ":1900,"ĠÐ":1901,"ïŃĦ":1902,"×¡×¢×¨":1903,"Ġ×Ļ×Ĳ×¤":1904,"Ġ×¤×Ĳ×ľ×Ļ×ĺ":1905,"×Ĳ×¤×¢":1906,"Ġ×ł×ķ×ŀ×¢×¨":1907,"Ġ×ķ×ķ×¢×¡×ĺ":1908,"Ġ×ĺ×Ļ×Ļ×ľ×Ł":1909,"×Ĵ×Ļ×¢":1910,"Ġ×Ĳ×ķ×ł×ĸ×¢×¨×¢":1911,"Ġ×ķ×ķ×Ĳ×§":1912,"ĠN":1913,"Ġ×Ĳ×Ļ×Ļ×ł×¢":1914,"×¨×¢×ĵ":1915,"Ġ×Ĵ×¢×Ĵ×Ĳ×ł×Ĵ×¢×Ł":1916,"Ġ×¤×Ĳ×ĺ":1917,"×ĺ×Ļ×Ĳ":1918,"×ķ×Ļ×Ľ":1919,"×ĵ×Ļ×Ĵ×¢":1920,"Ġ×§×ķ×ķ×Ĳ":1921,"Ġ×§×ł×¢×¤×ľ":1922,"×Ļ×ķ×ķ×¢":1923,"Ġ×Ļ×©×Ļ×ĳ×Ķ":1924,"Ġ×Ļ×ķ×Ŀ":1925,"Ġ2010":1926,"×¢×Ľ×ł×ĺ":1927,"Ġ×ĳ×Ĳ×§×Ĳ×ł×ĺ":1928,"×¦×Ł":1929,"×¢×ł×ĺ×Ł":1930,"Ġ×©×¨×Ļ×Ļ×ĳ×¡×ĺ":1931,"Ġ×ľ×Ļ×ł×§×¢":1932,"Ġ×Ĳ×ł×Ķ":1933,"×¨×Ļ×ķ×ķ×Ĳ":1934,"Ġ×Ĳ×ķ×Ļ×ĺ":1935,"×Ĵ×¨×Ĳ":1936,"Ġ×¦×ķ×ĸ×Ĳ×ŀ×¢×Ł":1937,"Ġ×Ĳ×Ļ×Ļ×ł×©×¨×Ļ×Ļ×ĳ×Ł":1938,"Ġ×ŀ×ľ×Ĺ×ŀ×Ķ":1939,"Ġ×§×Ķ":1940,"×¨×©×Ļ×ĵ×¢×ł×¢":1941,"Ð°":1942,"Ġ×ĺ×¢×ľ×¢×¤":1943,"Ġ×¡×ķ×¤":1944,"Ġ×Ķ×¡":1945,"×ĳ×ķ×ĵ":1946,"×¡×Ļ×ł×Ĳ":1947,"Ġ×¤×¨×Ĳ×¦":1948,"ow":1949,"Ġ×ĺ×¨×¢×¤×Ł":1950,"Ġ×ĳ×Ĳ×¤":1951,"Ġ×Ĳ×Ĵ":1952,"Ġ×ª×©":1953,"×¨×Ļ×Ļ×¡":1954,"Ġ×Ĳ×ł×ĵ×¢×¨×©":1955,"×Ļ×§×¨":1956,"Ġ×ĸ×¢×Ķ×Ł":1957,"×ľ×¢×Ĵ×¢":1958,"×ľ×¥":1959,"Ġ×©×ĺ×¢×ł×ĵ×Ļ×§":1960,"Ġ×ķ×Ļ×¡":1961,"Ġ×Ĺ×ª×ķ×ł×Ķ":1962,"×ł×Ļ×ĺ":1963,"×ķ×ķ×ķ×ķ×ķ×ķ×ķ×ķ":1964,"×Ļ×ķ×Ł":1965,"Ġ×¢×¡×Ł":1966,"Ġ×ĳ×Ļ×ľ×ĵ×ķ×ł×Ĵ":1967,"15":1968,"Ġ×¨×©":1969,"×Ĵ×¢×¤":1970,"Ġ×Ĵ×¢×ĸ×¢×ľ":1971,"Ġ×¡×ĺ×¨×Ĳ":1972,"Ġ×ł×Ļ×¦×Ł":1973,"×ķ×ĺ×Ĳ":1974,"×Ļ×Ļ×¨":1975,"Ġ×ĺ×Ļ×¤":1976,"Ġ×¢×ľ×ĺ×¢×¨×Ł":1977,"×¤×Ļ×ľ":1978,"Ġ×ĵ×ĳ×¨":1979,"×¨×ĺ×Ĳ":1980,"Ġ×©×ľ×Ĳ":1981,"×©×Ĳ×¤×ĺ":1982,"ĠH":1983,"Ġ×ĸ×¦":1984,"×Ļ×¡×ĺ×Ĳ":1985,"Ġ×Ĳ×ł×ĵ×¢×¨":1986,"Ġ×Ļ×ł×§":1987,"Ġ×Ĵ×¢×¨×¢×ĵ×ĺ":1988,"Ġ×ĵ×¢×¨×¤×ķ×Ł":1989,"×ķ×§×Ĳ":1990,"Ġ×§×ľ×Ļ×Ļ×Ł":1991,"×ĸ×¢":1992,"Ġ×¡×Ĳ×ĺ×ŀ×Ĳ×¨":1993,"×ķ×Ľ×Ķ":1994,"×Ļ×ĺ×©":1995,"Ġ×ķ×ķ×Ĳ×ľ":1996,"Ġ×Ļ×¢×§":1997,"×ĸ×Ļ×¡×ĺ":1998,"Ġ×Ĺ×Ļ×Ļ×Ŀ":1999,"10":2000,"Ġ×ĸ×¢×ł×ĺ":2001,"×ĸ×Ķ":2002,"×ł×Ĺ":2003,"Ġ×Ĵ×¨×¢×¡×ĺ×¢":2004,"×ķ×ķ×¢×¨×ĺ":2005,"×ĺ×¢×ľ":2006,"×§×¡×ł×ķ×ŀ×§×¡":2007,"×Ļ×Ļ×ł×Ĵ":2008,"Ġ×ŀ×¢×ĺ":2009,"Ø¦":2010,"×Ĵ×¢×©×ĺ×¢×ľ×ĺ":2011,"Ġ×©×ķ×Ŀ":2012,"×ł×ĺ×ķ×ķ×Ļ×§":2013,"Ġ×ĵ×Ĳ×¨×¤×Ł":2014,"×ľ×Ļ×ĳ×Ł":2015,"Ġ×Ļ×¨×ķ×©":2016,"Ġ×©×¤×¢×ĺ×¢×¨":2017,"×Ļ×Ļ×Ļ×Ļ×Ļ×Ļ×Ļ×Ļ×Ļ×Ļ×Ļ×Ļ×Ļ×Ļ×Ļ×Ļ":2018,"Ġ×ŀ×Ļ×Ļ×ł×ķ×ł×Ĵ":2019,"×ł×¢×ŀ×¢×Ł":2020,"×ł×ł":2021,"×Ļ×©×¢×ł×¡":2022,"×Ļ×Ľ×ĺ×¢":2023,"Ġ×ĳ×Ł":2024,"Ġ×Ĳ×¨×ķ×Ļ×¤×¦":2025,"Ġ×ľ×Ļ×Ļ×¢×Ł":2026,"Ġ×¢×ľ×ĺ×¢×¨":2027,"×¨×ĺ×¢×¨":2028,"Ġ×¤×Ĳ×¨×ĳ×¨":2029,"Ġ×ł×¢×ŀ×¡×ĺ":2030,"Ġ×¡×Ļ×ĳ×Ķ":2031,"Ġ×ĵ×ĸ×©×Ĳ":2032,"Ġ×ĵ×¢×¨×¦×ķ":2033,"Ġ2009":2034,"×Ĳ×ķ×Ļ×¡":2035,"ch":2036,"×¦×¢":2037,"×¢×¨×ĸ×¢×ł":2038,"Ġ×¡×ĵ×¨":2039,"Ġ×ŀ×Ĵ":2040,"Ġ×¡×¢×ľ":2041,"×§×Ļ×Ļ×ĺ×Ł":2042,"Ġ×§×Ļ×Ļ×ł×¢×¨":2043,"Ġ×ŀ×ķ×ĸ×Ļ×§":2044,"Ġ×ķ×ŀ":2045,"Ġ×Ļ×¦":2046,"×Ļ×ĸ×Ĳ":2047,"×Ĳ×ķ":2048,"Ġ×ł×ķ×©×Ĳ":2049,"Ġ×ĳ×¢×¨×ļ":2050,"Ġ×©×ĺ×Ĳ×¨":2051,"Ġ×ĺ×ķ×Ļ×ĺ":2052,"Ġ×§×¢×¨":2053,"âĢ¦":2054,"Ġ×ķ×ķ×²":2055,"Ġ×Ķ×Ļ×Ļ×ĳ×¡×ĺ":2056,"×¢×Ľ×ĺ×Ł":2057,"×ķ×§×¡":2058,"Ġ×Ļ×Ļ×ł×Ĵ×ľ×¢×ļ":2059,"×Ľ×ª":2060,"×©×ķ":2061,"Ġ×¨×¢×¡":2062,"Ġ×ĺ×¢×¨×ŀ×¡":2063,"×ľ×Ļ×Ļ×Ĵ×Ł":2064,"Ġ×Ĳ×Ļ×©":2065,"×ľ×¢×Ĳ":2066,"Ġ×¡×ĺ×Ĳ×ł×¦":2067,"×ĵ×ł×¢":2068,"×¢×ĵ×Ļ×ĺ":2069,"Ġ×§×Ĳ×ł×ĵ×Ļ×©×¢×ł×¡":2070,"Ġ×¨×ķ×¡×ľ×Ĳ":2071,"Ġ×Ļ×ķ×ĵ":2072,"ĠØ¨":2073,"Ġ×Ļ×¢×§×ĳ":2074,"id":2075,"Ġ×©×ľ×Ļ×ĺ":2076,"Ġ×§×ķ×Ļ×¤×Ł":2077,"12":2078,"Ġ15":2079,"Ġ×ŀ×ķ×ĸ×¡×ĺ×ķ":2080,"×Ļ×ĳ×ľ":2081,"Ġ×ľ×Ĳ×Ĵ×Ł":2082,"Ġ×Ĵ×¢×Ĵ×ł×ĺ":2083,"Ġ×©×ķ×ķ×¢×¨×¢":2084,"×¢×ĵ×Ļ×¢":2085,"Ġ×Ķ×²":2086,"Ġ×¡×¢":2087,"×Ĳ×Ļ×¨":2088,"Ġ24":2089,"Ġ×§×ķ×ľ×ĺ×ķ×¨":2090,"×Ļ×Ļ×ĺ×Ļ×ł×Ĵ":2091,"×¡×§":2092,"Ġ×Ĳ×§":2093,"×ľ×ŀ×Ļ×ĵ":2094,"×ĳ×Ļ×¨":2095,"×Ļ×¡×¢×¨×Ļ×Ļ":2096,"×ł×ķ":2097,"Ġ×¢×¤×¢×ł×¢×Ł":2098,"×ķ×ľ×ĺ":2099,"×¢×©×ĺ×¢×ľ×ĺ":2100,"Ġ×Ļ×Ļ×ĵ×Ļ×©×¢":2101,"Ġ×ķ×ķ×Ļ×¤×Ļ×ľ":2102,"Ġ×Ĳ×Ļ×Ļ×Ĵ×¢×ł×¢":2103,"×¨×Ļ×¡":2104,"Ġ×¦×¤×ķ×Ł":2105,"Ġ×¤×Ĳ×¨×ĵ":2106,"×ĵ×¨×©":2107,"Ġ×Ķ×ĵ":2108,"Ġ×Ĳ×¨×Ĵ":2109,"Ġ×Ĵ×¢×ķ×ķ×Ļ×ł":2110,"×Ļ×¢×¨×ĵ":2111,"×¡×Ļ×¨×ķ×ł×Ĵ":2112,"Ġ×¤×Ĳ×§×ĺ":2113,"Ġ×ĳ×¨×¢×ł×Ĵ×ĺ":2114,"ĠâĢ«":2115,"Ġ×Ķ×Ĳ×ĳ×¢×Ł":2116,"ot":2117,"Ġ×ŀ×ł×Ķ":2118,"Ġ×Ĳ×ª":2119,"Ġ×¤×¨×ķ×ĳ":2120,"×Ļ×ĸ×Ŀ":2121,"Ġ×ŀ×ĳ":2122,"×ĵ×Ĳ×¨×£":2123,"Ġ×Ĵ×¢×°":2124,"Ġ×Ĵ×¢×ĳ×¨":2125,"Ġ×¨×ĳ×ł×Ļ×Ŀ":2126,"×Ĳ×¨×ĵ":2127,"Ġ×Ĳ×ķ×Ļ×Ĵ":2128,"Ñĥ":2129,"×¨×Ļ×Ļ×ĵ":2130,"×ĵ×ķ":2131,"16":2132,"Ġ×©×Ĳ×ľ":2133,"ĳ×¢×¨×©":2134,"×ł×ĺ×¨×Ĳ":2135,"Ġ×ĳ×ª":2136,"Ġ×ĳ×¨×¢×ł×Ĵ×¢×Ł":2137,"Ġ×¤×Ĳ×¨×©×Ļ×ĵ×¢×ł×¢":2138,"×¢×ŀ×¤":2139,"Ġ×¤×¨×Ļ×Ļ":2140,"×ľ×ļ":2141,"Ġ×ĵ×¢×¨×ł×Ĳ×ļ":2142,"×Ļ×ł×£":2143,"Ġ×Ļ×Ķ":2144,"Ġ×ľ×Ļ×Ľ×ĺ":2145,"×¢×¡×¥":2146,"×¢×¤×¢×¨":2147,"Ġ×Ĵ×Ļ×Ļ×¢×Ł":2148,"×¨×¢×Ĵ×ĺ":2149,"Ġ×¤×Ļ×¨×Ł":2150,"Ġ×Ĳ×ĸ×¢×ľ×Ľ×¢":2151,"×¨×Ļ×ľ":2152,"×Ĳ×ŀ×Ļ×¨":2153,"ĠâĢľ":2154,"Ġ×Ķ×ķ×ł×ĵ×¢×¨×ĺ":2155,"×Ķ×Ŀ":2156,"Ġ×ĳ×Ļ×¡×ĺ":2157,"×¨×Ļ×Ļ×Ľ":2158,"Ġ×Ĳ×ĳ×¨":2159,"×ķ×Ļ×Ĵ×Ł":2160,"Ġ×ŀ×ķ×ĸ×Ł":2161,"Ġ×ĵ×¢×¨×Ļ×ĳ×¢×¨":2162,"14":2163,"×¨×£":2164,"Ġ×ĵ×Ĳ×ľ":2165,"Ġ×Ĵ×¨×Ļ×Ļ×ĺ":2166,"×ŀ×Ļ×Ŀ":2167,"13":2168,"Ġ×ŀ×Ľ":2169,"Ġ×Ķ×ķ×Ļ×¤":2170,"×Ļ×ĳ×ķ×ª":2171,"Ġ×Ļ×Ĺ":2172,"Ġ×§×¢×ł":2173,"×Ļ×ŀ×¢×¨":2174,"×ł×©×Ĳ":2175,"Ġ×ŀ×ķ×¨×Ĳ":2176,"Ġ2006":2177,"Ġ×ĸ×Ļ×ł×ĺ":2178,"×ľ×¢×¦":2179,"Ġ×Ĵ×¢×ķ×ķ×Ĳ×ľ×ĵ":2180,"Ġ×ĸ×©×ķ×¨":2181,"Ġ×¨×Ļ×¤":2182,"×ķ×ŀ×ĺ":2183,"×¢×ł×Ļ×©×Ł":2184,"Ġ×¢×§×¡×¤":2185,"Ġc":2186,"Ġ×¡×ĺ×Ĳ×ł×¦×Ļ×¢":2187,"Ġ×¤×¨×Ļ×Ļ×ĸ":2188,"Ġ×ŀ×Ĳ×Ļ":2189,"Ġ×Ĵ×¢×©×¢×¤×ĺ":2190,"×Ļ×ľ×¢×¨":2191,"×¢×ľ×Ļ×Ļ×Ĵ×ĺ":2192,"×ķ×ķ×Ļ×ĸ×Ł":2193,"Ġ×ĳ×Ĳ×ŀ×ª":2194,"ĠI":2195,"Ġ×Ĳ×Ļ×ł×¤×Ĳ×¨×ŀ":2196,"17":2197,"×Ĳ×ł×Ĵ×ĺ":2198,"×ķ×Ļ×ł×Ĵ":2199,"Ġ×ķ×ķ×Ĳ×¡×¢×¨":2200,"×Ĳ×ĵ×¢":2201,"Ġ×ĳ×Ĳ×©×ĺ×¢×ĺ":2202,"Ġ×Ĵ×¢×¨×ľ×ĸ":2203,"Ġ×ľ×Ļ×ĳ×¢":2204,"×Ļ×Ļ×ĵ×¢×¨":2205,"Ġ×Ķ×ł×Ĳ×Ķ":2206,"Ġ×¤×Ĳ×¨×Ķ":2207,"Ġ×Ĳ×Ļ×¨×¢":2208,"Ġ×ľ×Ļ×Ļ×Ĵ×Ł":2209,"×Ļ×ł×¦":2210,"×Ĳ×ł×Ļ×¢":2211,"Ðµ":2212,"Ġ×ŀ×Ļ×Ļ×ĵ":2213,"25":2214,"Ġ×¦×ĵ×Ļ×§":2215,"×Ļ×ł×Ļ×Ŀ":2216,"Ġ×Ķ×¦":2217,"×¦×ķ×Ĵ":2218,"Ġ×Ĵ×ľ×Ĳ×ĳ":2219,"Ġ×¤×Ĳ×¨×¤":2220,"×¦×Ļ×Ĳ":2221,"Ġ×ķ×ķ×¢×ľ×Ľ×¢×¨":2222,"×ľ×Ļ×ĺ×¢×ĺ":2223,"ad":2224,"×Ľ×Ļ":2225,"Ġ×Ĵ×¢×Ĳ":2226,"Ġ×Ĳ×¨×ķ×Ļ×¤×¦×Ļ×¨":2227,"Ġ×¤×¨×ķ×Ļ":2228,"Ġ×Ļ×Ļ×ĵ×Ł":2229,"Ġ×ĳ×Ĳ×Ĵ":2230,"×Ļ×Ļ×ĳ×ĺ":2231,"Ġ×Ĵ×¢×¤×Ļ×ł×¢×Ł":2232,"Ġ×¤×Ļ×¨×ŀ×¢":2233,"×ĸ×¢×¨":2234,"×¢×ł×ĵ×Ļ×Ĵ×¢":2235,"Ġ×Ķ×Ĺ":2236,"Ġ×Ķ×¢×Ľ×¢×¨":2237,"×¨×ķ×Ŀ":2238,"am":2239,"Ġ×ĳ×Ļ×Ľ×¢×¨":2240,"Ġ×§×ľ×Ļ×Ļ×ł×¢":2241,"×¨×Ĳ×ĺ":2242,"Ġ×ł×Ĳ×Ľ×Ł":2243,"Ġ×Ĳ×©×Ľ×ķ×ľ×ķ×ª":2244,"Ġ×ľ×ĳ":2245,"Ġ×Ļ×Ĳ×¨×§":2246,"×ķ×ŀ×¢":2247,"ĠR":2248,"Ġ×¤×¢":2249,"Ġ×Ĵ×¢×ľ×¢×¨":2250,"Ġ×¡×Ļ×¨":2251,"×ķ×ł×ķ×ª":2252,"×Ļ×¦×Ļ×¢":2253,"×¨×ĵ×Ĳ":2254,"Ġ×¢×ł×Ĵ×ľ×Ļ×©":2255,"el":2256,"×¨×Ļ×¢":2257,"Ġ×ŀ×Ļ×Ļ×ł×¢":2258,"Ġ×§×¢×ł×¡":2259,"×ŀ×ĵ":2260,"×¨×Ļ×Ļ×ĳ":2261,"×¢×ł×Ĳ":2262,"×Ļ×¤×ĺ":2263,"Ġ×¤×ľ×Ļ×Ļ×¦":2264,"Ġ×©×ł×¢×ľ":2265,"×ķ×ľ×Ĳ":2266,"Ġ×ľ×©×ķ×Ł":2267,"Ġ×Ĳ×ľ×ĺ×¢":2268,"Ġ×¦×ķ×ķ×Ļ×Ļ×ĺ×¢":2269,"×Ĳ×ķ×Ļ×£":2270,"Ġ×ķ×ķ×¢×¨×¡":2271,"Ġthe":2272,"ĠD":2273,"×ľ×¢×Ľ×ĺ":2274,"Ġ×Ĳ×Ļ×Ļ×ł×¡":2275,"×ľ×¢×ł×ĵ":2276,"Ġ×Ĺ×©×ĳ":2277,"×ĵ×ķ×ª":2278,"Ġ×Ļ×¢×ł×¢×¨":2279,"×Ļ×Ļ×ĵ×Ł":2280,"Ġ×Ĳ×Ļ":2281,"×ķ×ł×Ļ×Ŀ":2282,"Ġ×Ļ×ķ×ł×Ļ":2283,"×Ĳ×ŀ×Ĳ×ĺ":2284,"Ġ×Ĳ×ķ×ŀ×Ĵ×¢×ĳ×¨×¢×ł×Ĵ×ĺ":2285,"Ġ×¤×Ĳ×¨×©×ĺ×Ļ×Ļ×Ł":2286,"×ķ×ł×Ĳ":2287,"×¢×ľ×§×¢×¨":2288,"Ġ×¤×¨×Ĳ×¦×¢×ł×ĺ":2289,"Ġ×¡×¢×§":2290,"Ġ×Ļ×§×¡":2291,"Ġ×Ĵ×ľ×Ĳ×ĳ×Ĳ×ľ×¢":2292,"×¢×¡×ĺ×¢×¨":2293,"Ġ×ĸ×¢×Ķ×ĺ":2294,"×¨×Ĵ×Ĳ":2295,"×ŀ×Ł":2296,"Ġ×ŀ×¢×ľ":2297,"Ġ×¡×ŀ":2298,"×ľ×§":2299,"Ġ12":2300,"×Ļ×Ļ×ł×§":2301,"×Ĳ×Ĵ×Ļ×¢":2302,"Ġ×ĵ×¢×¨×ŀ×Ĳ×ł×ĺ":2303,"Ġ×Ĳ×Ļ×Ļ×ĳ":2304,"Ġ×ľ×Ļ×Ĵ×ĺ":2305,"--------":2306,"Ġ×ĺ×Ĳ×ĺ×¢":2307,"Ġ×ķ×ķ×Ļ×ł×§×ľ":2308,"Ġ×¤×Ļ×ł×£":2309,"Ġ×©×Ļ×¢":2310,"Ġ×ľ×¢×Ĵ":2311,"Ġ×ł×Ļ×Ĵ":2312,"Ġ×¦×Ļ×ĳ×ķ×¨":2313,"Ġ×©×ĺ×Ļ×§×ľ":2314,"×¢×ł×ĵ×ľ":2315,"×ķ×ĳ×¨":2316,"Ġ×Ĵ×¢×Ķ×Ĳ×ľ×ĺ×Ł":2317,"Ġ×ŀ×ĸ":2318,"Ġ×Ĵ×ĵ":2319,"×Ļ×ł×Ĵ×¢×¨":2320,"×ķ×Ľ×ĺ":2321,"Ø©":2322,"×Ĳ×ł×Ĳ×ŀ":2323,"Ġ×¤×¨×ķ×Ļ×¢×Ł":2324,"Ġ×Ĳ×ķ×Ļ×Ĵ×Ł":2325,"Ġh":2326,"Ġ×ĳ×Ļ×¨":2327,"Ġ×Ĵ×¢×ľ×¢×Ĵ":2328,"Ġ×¢×¨×ĵ":2329,"Ġ×ĳ×¤":2330,"×ŀ×Ļ×ł":2331,"×ķ×ĺ×¢×¨":2332,"Ġ×¤×Ĳ×¨×ł":2333,"×¢×¨×Ļ":2334,"Ġ×Ĺ×¡×Ļ×ĵ×Ļ×Ŀ":2335,"Ġ×¡×ĺ×¨×Ļ×ĺ":2336,"Ġ×Ĳ×Ļ×ł×¤×Ĳ×¨×ŀ×Ĳ×¦×Ļ×¢":2337,"Ġ×ĵ×Ļ×¤":2338,"Ġ×§×ľ×Ļ×Ļ":2339,"Ġ×Ĳ×ľ×Ļ×Ļ×ł×¡":2340,"Ġ×ŀ×¢×¨×ĳ":2341,"×¢×ł×ķ×ł×Ĵ":2342,"Ġ×ŀ×¦×ĳ":2343,"Ġ×ľ×Ļ×Ļ×¢×ł×¢×Ł":2344,"Ġ×Ĳ×Ļ×Ļ×ł×¢×Ŀ":2345,"×¨×Ļ×Ļ×ļ":2346,"Ġ×ĵ×¢×¨×¤×Ĳ×¨":2347,"Ġ×©×ĺ×ķ×ĳ":2348,"×¢×¤×ĺ×Ł":2349,"Ġ×§×¨×Ļ×Ĵ":2350,"Ġ×¦×ķ×¤×¨×Ļ×ĵ":2351,"Ġ×Ĵ×ľ×Ļ×Ļ×ļ":2352,"Ġ×Ĳ×Ļ×ł×ĸ":2353,"×ķ×ķ×¢×ŀ×ĳ×¢×¨":2354,"×¨×ĳ×Ļ":2355,"×§×¨×Ļ×Ļ×ĸ":2356,"Ġ×Ĳ×¨×ĳ×¢×ĺ×Ł":2357,"24":2358,"Ġ×Ķ×Ļ×¡×ĺ×Ĳ×¨×Ļ×¢":2359,"×ł×Ļ×Ĳ":2360,"×Ĳ×¨×ĳ":2361,"Ġ×ķ×Ķ":2362,"Ġ×ĵ×¢×¦":2363,"Ġ×§×ķ×§×ĺ":2364,"Ġ×¤×Ĳ×¨×©×ĺ×Ļ×Ļ×ĺ":2365,"×Ļ×ĵ×ķ×©":2366,"Ġ×Ĳ×±×£":2367,"Ġ×ŀ×¢×©":2368,"Ġ×Ĳ×Ļ×ŀ×¢×Ļ×ľ":2369,"Ġ×Ĳ×ķ×ª":2370,"Ġg":2371,"Ġ×ĺ×ķ×Ł":2372,"×ķ×¨×ķ×ª":2373,"ãģ":2374,"Ġ×ł×Ĺ":2375,"Ġ×ŀ×ŀ×Ļ×ľ×Ĳ":2376,"×Ľ×ĺ×Ł":2377,"Ġ×ķ×ķ×¢":2378,"Ġ×ł×Ļ×¦":2379,"Ġ×ŀ×Ĳ×Ľ":2380,"Ġ×Ľ×ŀ×¢×ĺ":2381,"Ġ×ľ×Ļ×ĵ×¢×¨":2382,"ay":2383,"×Ĳ×§×¡":2384,"×¨×ĵ×¢×ł×¡":2385,"Ġ×Ĵ×¢×ķ×ķ×¢×Ķ×Ł":2386,"Ġ×¤×¢×ĺ×¢×¨":2387,"×ķ×ķ×Ļ×©":2388,"Ġ×¦×Ļ×ľ":2389,"×Ĳ×ŀ×¢×¨":2390,"Ġ×ĳ×Ĳ×¨×Ļ×Ľ×ĺ×Ł":2391,"×ķ×Ļ×¢×¨":2392,"Ġ×Ļ×ķ×¡":2393,"Ġ×ĵ×¢×¨×§×ľ":2394,"Ġ×Ľ×Ĳ×ĺ×©":2395,"×Ĵ×¢×ĸ":2396,"×ľ×Ļ×Ļ×Ł":2397,"×¢×ł×¦":2398,"×¢×¦×Ļ×¢×ľ":2399,"×¨×©×ĺ×¢×ľ×Ł":2400,"Ġ×Ļ×¨×ķ×©×ľ×Ļ×Ŀ":2401,"×ĺ×Ļ×§":2402,"Ö·)":2403,"×ľ×Ļ×ł×Ĵ":2404,"Ġ×ĺ×Ļ×Ļ×¢×¨":2405,"Ð¾":2406,"Ġ×ĵ×ķ×ĵ":2407,"×ŀ×ķ×ª":2408,"Ġ×§×Ĳ×ł×ĺ":2409,"Ġ×¡×ĺ×Ļ×Ļ×©×Ĳ":2410,"Ġ×ĳ×Ļ×ľ×ĵ×ķ×ł×Ĵ×§×¨×Ļ×Ļ×ĸ":2411,"Ġ×ĺ×¢×¨×Ĳ×¨":2412,"×¨×Ļ×ª":2413,"ĠÙĨ":2414,"×Ĳ×ŀ×Ĳ":2415,"Ġ×Ļ×ł×¡":2416,"×Ļ×Ļ×¡×Ł":2417,"ew":2418,"×ķ×Ļ×¡×Ļ×Ĳ":2419,"ÙĪÙĦ":2420,"×©×Ļ×ł×Ĵ":2421,"Ġ×§×ķ×":2422,"Ġ×ŀ×Ļ×ĺ×Ĵ×ľ":2423,"Ġ×ĵ×¢×¨×¦×Ļ×Ļ×ľ×ĺ":2424,"Ġ×Ĵ×¢×©×Ļ×Ľ×ĺ×¢":2425,"Ġ×¦×ķ×ķ×Ļ×Ļ×ĺ×Ł":2426,"×ľ×ķ×Ļ×ĳ":2427,"×¦×Ļ×Ĵ":2428,"Ġ×ĳ×¨×Ļ×Ļ×ĺ":2429,"×ķ×¦×ĺ":2430,"Ġ..":2431,"×©×ĺ×¢×ľ":2432,"ĠÙħ":2433,"Ġ:":2434,"Ġand":2435,"×ĳ×Ĳ×¨":2436,"×Ļ×Ļ×ľ×Ł":2437,"×ľ×¢×¨×Ļ×ł×Ĵ":2438,"×¢×ĺ×¨":2439,"Ġ×Ĵ×¨×ķ×Ļ×¡×¢×¨":2440,"Ġ×¨×Ĺ":2441,"Ġ×Ĳ×ł×Ĵ×¢×¤":2442,"×ľ×ľ":2443,"Ġ×ĵ×¢×¦×¢×ŀ×ĳ×¢×¨":2444,"Ġ×ĳ×Ĳ×ĳ":2445,"×Ļ×Ļ×Ĳ":2446,"×ķ×Ľ×Ł":2447,"×¡×ĺ×¨":2448,"×Ļ×¨×ĺ×¢":2449,"Ġ×Ĳ×ľ×ĺ":2450,"×¢×ŀ×Ĳ":2451,"×¨×§×¢×ĺ":2452,"Ġ×Ĵ×Ļ×Ļ":2453,"Ġ×¤×¨×Ļ×¢×¨":2454,"Ġ×ķ×ķ×Ļ×Ļ×ĸ×Ł":2455,"Ġ×¡×ª×Ŀ":2456,"Ġ×Ļ×¡":2457,"Ġ×ĸ×¢×Ķ":2458,"Ġ×ł×Ĳ×Ľ×ĺ":2459,"Ġ×¡×¤×ķ×¨×ĺ":2460,"Ġ×ĵ×¢×¤":2461,"×ĺ×ķ×ĸ":2462,"×¢×ķ":2463,"×Ĵ×Ļ×Ļ×ĺ":2464,"Ġ×ĺ×ķ×¨":2465,"Ġ×ĳ×¨×Ļ×ķ×ķ":2466,"×Ļ×Ļ×ł×Ļ×Ĵ":2467,"Ġ×ĵ×Ļ×ł×¡×ĺ":2468,"Ġ×¤×Ļ×Ļ×¥":2469,"×Ĺ×§":2470,"Ġ×¢×ł×Ļ×Ł":2471,"×Ļ×¦×Ļ×Ļ":2472,"Ġ×¦×Ĳ":2473,"Ġ×ľ×Ķ":2474,"Ġ×¨×¢×ľ":2475,"Ġ×¨×¢×ĺ":2476,"ĠL":2477,"Ø¨":2478,"×ŀ×ª":2479,"Ġ×ķ×ķ×¢×Ĵ×Ĳ":2480,"Ġ×Ľ×ľ×ľ":2481,"Ġ×ĵ×¢×ŀ×Ĳ×ľ×ĺ":2482,"Ġ×Ĳ×Ļ×ł×ĵ×ķ×¡×ĺ×¨":2483,"ma":2484,"×Ļ×§×Ļ×Ļ×ĺ":2485,"×ķ×ķ×Ļ×ĺ×©":2486,"Ġ×ŀ×¢×¡":2487,"Ġ×Ĺ×Ļ×ľ":2488,"×¢×§×ľ":2489,"Ġ×¢×ĳ":2490,"Ġ×ŀ×¨":2491,"×Ĳ×£":2492,"Ġ×ŀ×©×Ļ×Ĺ":2493,"Ġ×¢×§×ĸ×Ļ×¡×ĺ":2494,"×Ĺ×ķ×ª":2495,"Ġ×¤×¨×Ĳ×¤":2496,"Ġ×Ĵ×¢×ľ×¢×Ĵ×ł×Ķ":2497,"×¢×£":2498,"Ġ×ĸ×Ļ×Ļ×ĺ×Ł":2499,"×ķ×Ĵ×ľ":2500,"Ġ×¨×¢×Ľ":2501,"Ġ×Ĺ×ĸ":2502,"Ġ×ľ×Ļ×ĵ":2503,"×ĵ×Ļ×©×¢×¨":2504,"Ġ×Ĵ×¢×ķ×ķ×Ļ×ł×¢×Ł":2505,"Ġ×Ļ×ķ×ľ×Ļ":2506,"Ġ×ķ×ķ×Ļ×Ļ×¡×Ł":2507,"×¨×ķ":2508,"Ġ×ĳ×Ĺ×ķ×¨":2509,"Ġ×¡×¢×¤×ĺ":2510,"Ġ×Ĵ×¢×Ķ×¢×¨":2511,"Ġ×©×ł×Ļ×Ļ":2512,"Ġ×Ĳ×ľ×Ĵ×¢×ŀ":2513,"Ġ×ª×ľ×ŀ×Ļ×ĵ":2514,"×ĵ×ķ×©":2515,"×ķ×ľ×Ķ":2516,"ro":2517,"×ķ×ĳ×Ķ":2518,"×Ĳ×ł×¦×Ł":2519,"×ķ×Ļ×ľ×Ł":2520,"Ġ×¤×¨×Ĳ×Ĵ×¨":2521,"×¢×¦×Ł":2522,"×ķ×Ļ×Ĵ":2523,"Ġ×ĵ×¨×ļ":2524,"×¨×Ļ×Ĳ":2525,"Ġ×ĳ×ķ×ļ":2526,"26":2527,"Ġ×©×ĺ×¢×¨×Ł":2528,"Ġ×Ĳ×Ļ×ĳ×¢×¨×ĸ×¢×¦":2529,"Ġ×Ķ×Ĳ×¨×¥":2530,"Ġ×ŀ×Ļ×¡":2531,"×Ĳ×¨×¤×ĺ":2532,"Ġ×¢×¨×©×ĺ":2533,"us":2534,"Ġ×Ĵ×¢×ĳ×ķ×Ļ×¨×Ł":2535,"Ġ×¤×ķ×¡":2536,"Ġ×ķ×ķ×Ļ×ĳ":2537,"Ġ×¡×ĺ×¢":2538,"Ġ×Ĵ×¢×ľ×¢×¨×ł×ĺ":2539,"Ġ×¡×¢×¤×ĺ×¢×ŀ×ĳ×¢×¨":2540,"×©×Ķ":2541,"Ġ×Ĳ×ł×§×ķ×ŀ×¢×Ł":2542,"Ġ×¡×ľ×Ĳ":2543,"Ġ$":2544,"Ġ×ľ×¢":2545,"50":2546,"×ĺ×¢×¨×Ļ×Ĳ":2547,"×ľ×¢×¦×¢×¨":2548,"Ġn":2549,"×¨×Ļ×§×ĺ":2550,"Ġ×ŀ×¦×ķ×Ķ":2551,"et":2552,"Ùħ":2553,"Ġ×ł×¡":2554,"Ġ×ĺ×ķ×Ļ×©×Ł":2555,"×ķ×ľ×ľ":2556,"Ġ×Ĵ×¢×Ķ×Ĳ":2557,"×ķ×ķ×Ļ×ł×ĵ":2558,"23":2559,"×¨×Ļ×¥":2560,"Ġ×¤×ľ×¢×Ĵ×ĺ":2561,"Ġ×©×ĺ×¢×ľ×ĺ":2562,"×ł×ĵ×¢×¨":2563,"ÑģÑģ":2564,"27":2565,"Ġ×ł×Ļ×§":2566,"Ġ×ĺ×Ĳ×Ł":2567,"Ġ×Ķ×Ļ×Ļ×ŀ×Ļ×©×¢":2568,"Ġ×¤×¨×Ĳ×ĵ":2569,"Ġ×ĵ×£":2570,"×Ĳ×ł×¢×¨×©×ĺ":2571,"×Ľ×Ļ×Ŀ":2572,"Ġ×¦×Ļ×ķ":2573,"×ŀ×Ĳ×ľ":2574,"28":2575,"Ġ×¤×¨×¢×Ĵ×Ł":2576,"×Ļ×Ļ×ł×Ĳ":2577,"Ġ×§×Ĳ×ł×¡":2578,"×ĺ×Ļ":2579,"×¡×¢×¡":2580,"Ġ×ŀ×©×¤×Ĺ×Ķ":2581,"Ġ×©×ķ×ķ×Ĳ":2582,"×ŀ×Ļ":2583,"×¨×ľ":2584,"Ġ×ĵ×Ĳ×ł×¢×¨×©×ĺ":2585,"×ľ×Ļ×¡×ĺ":2586,"×¨×ĳ×Ļ×ł×ĵ×Ł":2587,"×ķ×§×¨":2588,"ÑĥÑĥ":2589,"×¤×¢×¨×ĺ":2590,"Ġ×ĳ×¨×ķ×Ļ×ļ":2591,"Ġ×ł×Ĳ×ķ×ķ×¢×ŀ×ĳ×¢×¨":2592,"Ġ×§×¢×ł×ĺ":2593,"×ķ×Ļ×ł×¢×Ł":2594,"Ġ×¤×¨×Ļ×¢×¨×ĵ":2595,"×ľ×ĳ":2596,"×ĳ×Ļ×Ļ":2597,"Ġ×Ķ×¢×ł×ĺ":2598,"×ķ×ĵ×¢×¨":2599,"×ĳ×ª":2600,"Ġ×¢×ľ×Ļ×Ľ":2601,"×§×ĺ×Ļ×©":2602,"×Ĵ×¢×ľ":2603,"âĢľ":2604,"Ġ×Ķ×¨×Ķ":2605,"Ġ×Ĳ×ľ×ķ×Ł":2606,"Ġ×©×ķ×ķ×Ĳ×¨":2607,"Ġ×Ĳ×ł×¦":2608,"×ĸ×¢×§×¡":2609,"Ġ×©×ŀ×ķ×¢×¡×Ł":2610,"×¨×ľ×¢×Ĳ":2611,"Ġ×Ĺ×©×ĳ×ķ×Ł":2612,"×Ĳ×ª":2613,"×Ĳ×ł×¢":2614,"Ġ×§×¨×¢×ĵ×Ļ×ĺ":2615,"Ġ×Ĵ×¢×ĵ×Ĳ×¨×¤×ĺ":2616,"Ġ×¢×ľ×Ļ×Ľ×Ŀ":2617,"×Ļ×ŀ×Ķ":2618,"Ġ×ŀ×Ĺ×ĳ×¨":2619,"×ķ×ķ×Ĳ×§":2620,"Ġ×ĵ×¢×¨×Ĵ":2621,"×ķ×Ĳ×¨":2622,"Ġ×Ĳ×ĳ×¨×Ķ×Ŀ":2623,"×ĵ×Ļ×Ĵ":2624,"Ġ×ĵ×Ļ×Ļ×ĺ×©":2625,"Ġ×Ĵ×¢×ł×Ļ×¦×ĺ":2626,"×ķ×ĵ×Ĳ×Ļ":2627,"Ġ×ľ×Ļ×ĺ×¢×¨":2628,"29":2629,"Ġ×ŀ×©×ł×Ķ":2630,"Ġ×ĳ×ľ×¢×ĺ×¢×¨":2631,"×ĸ×©×Ĳ":2632,"Ġ×¡×¤×¢×¦×Ļ×¢×ľ×¢":2633,"Ġ×ŀ×¢×ł×©":2634,"Ġ×ĺ×¢×§":2635,"×¢×ľ×¡":2636,"Ġ×Ĳ×Ļ×Ļ×Ĵ×Ł":2637,"Ġ×¢×¨×©×ĺ×Ł":2638,"×ĺ×Ķ":2639,"Ġ×ĵ×Ĳ×ł×§":2640,"Ġ×ķ×ķ×Ļ×Ľ×ĺ×Ļ×§":2641,"Ġ×Ļ×ł":2642,"Ġ×Ĳ×Ķ×Ł":2643,"Ġ×ŀ×Ļ×Ł":2644,"Ġ100":2645,"×ľ×Ļ×¤":2646,"Ġ?":2647,"×¨×ķ×ª":2648,"Ġ×ŀ×Ļ×Ļ":2649,"Ġ×Ĳ×Ļ×Ļ×¨×Ĳ×¤×¢":2650,"Ġ×´":2651,"×ł×ĵ×Ĳ":2652,"Ġ30":2653,"Ġ×Ĵ×Ĳ×ł×¦×Ł":2654,"Ġ×©×Ļ×Ļ×ł×§":2655,"Ġ×¢×§×Ĳ×ł×Ĳ×ŀ":2656,"Ġ×ĺ×Ļ×©":2657,"×¢×ľ×¢×ļ":2658,"×¢×ķ×ķ×Ĳ":2659,"Ġ×§×¢×ł×Ļ×Ĵ":2660,"Ġ×ĺ×¢×¨×ŀ":2661,"Ġ×Ļ×ķ×Ĳ×ľ":2662,"Ġ×§×Ĳ×ł×ĺ×¨":2663,"Ġ×¤×ľ×¢×¦×¢×¨":2664,"×Ļ×Ļ×ĸ×¢×¨":2665,"Ġ×¦×ķ×©×ĺ×¢×ľ×Ł":2666,"×Ļ×Ļ×ķ":2667,"Ġ×Ĵ×¢×¡":2668,"×¢×ł×ĵ×¢":2669,"×¢×§×¢×¨":2670,"Ġ×¨×Ļ×§":2671,"×ľ×Ļ×ĳ":2672,"Ġ×ŀ×Ļ×ĵ×Ļ×Ĳ":2673,"Ġ×Ĳ×ķ×¨":2674,"Ġ×ĵ×Ļ×ĸ":2675,"ï¬Ł":2676,"Ġ×Ķ×ķ×Ļ×Ľ":2677,"ti":2678,"Ġ×¢×¨×Ĵ":2679,"×ł×Ļ×¨×Ł":2680,"×¤×Ĳ×¨×ĺ":2681,"Ġ×Ĵ×ŀ×¨×Ĳ":2682,"Ġ×ĳ×Ĳ×©×ĺ×¢×ĺ×Ļ×Ĵ×ĺ":2683,"ĠJ":2684,"Ġ×ĺ×Ĳ×¨":2685,"Ġ×ĺ×ķ×Ļ×ĸ×ł×ĺ×¢×¨":2686,"Ġ×Ļ×Ĵ":2687,"×ŀ×Ļ×Ļ×Ł":2688,"Ġ×Ķ×¢×ľ×¤":2689,"Ġ×ĵ×¢×ŀ×Ĳ×§":2690,"×¨×ĺ×Ļ×§×ľ":2691,"×ł×Ļ×ŀ×Ĳ":2692,"Ġ×¦×ķ×¤×¨×Ļ×ĵ×Ł":2693,"×ķ×ľ×ĺ×ķ×¨":2694,"Ġ×¦×ķ×ķ×Ļ×Ļ×ĺ×¢×¨":2695,"Ġ×ŀ×ķ×Ĺ":2696,"×¢×ĺ×Ĳ":2697,"Ġ×©×ĺ×Ļ×Ļ×Ł":2698,"×ķ×ķ×Ĳ×¨×ĺ":2699,"×ĺ×Ĳ×ĺ":2700,"×¤×ķ×ľ":2701,"Ġ×Ĳ×¨×ĺ×Ļ×§×ľ×¢×Ł":2702,"Ġ×§×¢×Ĵ":2703,"Ġ×¦×ĵ":2704,"Ġ×Ķ×ĳ":2705,"×ķ×Ļ×©×ĺ":2706,"×Ĳ×¦×Ļ×¢×¡":2707,"×ķ×ł×ĺ×¢×¨":2708,"Ġ×°×Ļ":2709,"Ġ×¤×Ļ×©":2710,"Ġ×ŀ×Ĳ×ł×¡":2711,"Ġ×ĳ×ķ×Ļ×¢×Ł":2712,"ï¬¯×¡":2713,"Ġ×¤×Ĳ×¤":2714,"Ġ×ķ×ķ×Ļ×ĵ×¢×Ĳ":2715,"Ġ×Ķ×Ļ×Ļ":2716,"×¤×Ļ":2717,"×¨×ķ×ŀ":2718,"×Ĳ×Ļ×ĳ×¢×¨":2719,"×¨×ĺ×Ł":2720,"×¢×ĵ×¢×¨":2721,"ish":2722,"×ĳ×¨×Ĳ":2723,"×¨×ĳ×Ĳ":2724,"Ġ×ľ×Ļ×ł×§×¡":2725,"Ġ×¦×ķ×ķ×Ĳ×ł×¦":2726,"Ġ×ĵ×¢×¡":2727,"Ġ×ĵ×¨×Ļ×Ļ×":2728,"×ł×ķ×¡":2729,"Ġ×Ĵ×¢×©×ŀ":2730,"Ġ×©×ŀ×ķ×¢×¡":2731,"×Ľ×Ĳ":2732,"Ġ×¤×Ļ×ł":2733,"Ġ×ĳ×Ļ×Ļ×ł×¢×¨":2734,"Ġ×ķ×ķ×Ļ×ĳ×Ĳ×ľ×ĵ":2735,"×Ĳ×ľ×Ļ×¢":2736,"Ġ×Ľ×Ĺ":2737,"Ġ×ĺ×¢×Ĳ":2738,"Ġ×ĺ×¢×ŀ×¢":2739,"Ġ×¨×ķ×¡×ľ×Ĳ×ł×ĵ":2740,"Ġ×©×ĺ×Ĳ×¨×§×¢":2741,"ol":2742,"Ġ×§×ķ×ł×¡×ĺ":2743,"Ġ×©×Ľ":2744,"Ġ×Ĳ×¤×¨×Ļ×ľ":2745,"Ġ×ł×ª":2746,"Ġ×ĵ×Ļ×ļ":2747,"Ġ×ŀ×ĵ×Ļ×ł×Ķ":2748,"Ġ×©×Ļ×¢×ķ×¨":2749,"Ġ×ľ×¢×ł×Ĵ":2750,"×ķ×Ļ×ŀ":2751,"Ġ×Ľ×Ķ":2752,"×¨×§×Ĳ":2753,"Ġ×ĳ×ĸ":2754,"ÙĬÙĨ":2755,"×ľ×§×¡":2756,"Ġ×Ĳ×Ļ×ĵ×Ļ×©×§×Ļ×Ļ×ĺ":2757,"ĠØ¹":2758,"Ġ×ķ×ķ×¢×ĺ×¢×¨":2759,"Ġ×ĳ×ľ×Ļ×Ļ×ĳ×Ł":2760,"×²×Ł":2761,"×ľ×Ĺ":2762,"Ġ×ĳ×Ķ":2763,"×ł×ĵ×¢×¨×¢":2764,"×Ĵ×¢×Ĵ":2765,"×©×ĺ×¢×ľ×Ł":2766,"×©×ŀ":2767,"Ġ×Ļ×Ł":2768,"ers":2769,"Ġ×Ĳ×Ļ×Ļ":2770,"×¢×¤×ł×ĺ":2771,"Ġ14":2772,"Ġ×¤×¢×ĺ×¢×¨×ĳ×ķ×¨×Ĵ":2773,"Ġ×©×Ļ×Ļ×ł×§×Ļ×Ļ×ĺ":2774,"ww":2775,"Ġ×Ķ×¨":2776,"Ġ×Ĵ×¢×©×ľ":2777,"Ġ×Ĵ×¢×ĸ×¢×¥":2778,"Ġ×Ĺ×ķ×¥":2779,"Ġ17":2780,"ent":2781,"Ġ25":2782,"Ġ×ĺ×©×Ļ×§×Ĳ":2783,"Ġ×ĺ×ķ×¢×Ł":2784,"×§×¢×¡":2785,"×Ĳ×ĺ×ķ×¨":2786,"Ġ×¤×Ĳ×¨×ĸ":2787,"×Ļ×ł×Ļ":2788,"Ġ×©×ĺ×Ļ×¦×Ł":2789,"Ġ×ł×ķ×£":2790,"Ġ×Ĵ×Ĳ×¡":2791,"Ġ×Ķ×Ļ×Ļ×Ŀ":2792,"ÑĢ":2793,"×¨×¢×Ŀ":2794,"×ķ×ł×ĵ×Ł":2795,"Ġ×ķ×ķ×Ļ×ľ×ĺ":2796,"Ġ×Ĳ×§×ĺ×Ĳ×ĳ×¢×¨":2797,"×§×¨×Ĳ":2798,"Ġ×Ĳ×Ļ×Ļ×ĸ":2799,"Ġ×¨×¢×§×Ĳ":2800,"Ġ×Ķ×Ļ×ŀ":2801,"Ġ×¤×Ĳ×¨×¦":2802,"×Ĳ×Ĺ":2803,"Ġ×Ĳ×Ļ×ł×¡×ĺ":2804,"Ġ×¦×ķ×ĸ×Ĳ×ŀ":2805,"Ġ×Ļ×¦×Ĺ×§":2806,"³ÙĬ":2807,"Ġ×Ĳ×ķ×Ļ×¡×¦":2808,"×ķ×ķ×¢×Ĵ×¡":2809,"Ġ×¤×Ĳ×ľ×§":2810,"Ġ×Ĵ×¢×¤×ķ×ł×¢×Ł":2811,"Ġ×ĺ×ķ×Ķ×Ł":2812,"Ġ×ł×§":2813,"Ġ×Ĵ×¢×¤×¨×¢×Ĵ×ĺ":2814,"×Ĳ×¦×Ļ×Ĳ×ł":2815,"Ð¸":2816,"Ġ×©×ĺ×Ĳ×ĺ×Ł":2817,"ÙĬØ³ÙĬ":2818,"Ġ×ĺ×ķ×ķ×Ļ×ĺ":2819,"Ġ×§×Ĳ×ķ×ķ×¢":2820,"Ġ13":2821,"×¨×ķ×ĳ×Ļ×¨×Ł":2822,"×Ļ×¡×ĺ×¨×Ĳ":2823,"Ġ×Ĵ×¢×ĵ×Ĳ×ł×§":2824,"Ġo":2825,"Ġ16":2826,"Ġ×¤×ķ":2827,"Ġ×ľ×Ļ×Ļ×ł×¢×Ł":2828,"Ġ×ĳ×§":2829,"×¢×ŀ×ĺ":2830,"Ġ×Ĵ×¢×ĸ×¢×Ķ×Ł":2831,"Ġ×Ļ×ķ×¡×£":2832,"×ķ×ķ×Ļ×ķ":2833,"Ġ×§×ķ×¨×¡":2834,"Ġ×ľ×ŀ×¢×©×Ķ":2835,"Ġ×¨×Ĳ×ĺ":2836,"×ķ×ĵ×ĸ":2837,"×¤×¢":2838,"Ġ×©×ĺ×Ļ×§":2839,"×Ĳ×ł×ĺ×Ł":2840,"Ö°":2841,"Ġ×¡×Ļ×ĺ×Ļ":2842,"Ġ×¦×Ļ×Ļ×ĺ×Ł":2843,"Ġ×Ĳ×ĺ×Ĳ×§×¢":2844,"Ġ×ķ×ķ×Ļ×Ļ×ł×Ļ×Ĵ×¢×¨":2845,"Ġ×ł×Ļ×©×ĺ×Ĳ":2846,"Ġ×¤×¨×Ĳ×Ĵ":2847,"×Ĳ×ĵ×¢×¨":2848,"×¨×¢×ĺ":2849,"×ľ×ķ":2850,"Ġ×ĳ×Ļ×Ķ":2851,"×ł×Ĵ×¢×¨":2852,"×Ĳ×ł×¦×ķ×Ļ×ĸ":2853,"Ġ×ŀ×Ĳ×ĺ":2854,"Ġ×ĳ×ľ×ķ×ĺ":2855,"×¨×Ļ×ł×ĵ":2856,"Ġ×ĵ×¢×Ł":2857,"Ġ×©×Ŀ":2858,"Ġ×ŀ×Ķ×¨":2859,"×©×Ļ×Ł":2860,"×¤×Ļ×¨×Ł":2861,"×§×©×Ĳ":2862,"Ġ×ŀ×Ĳ×ł×¡×Ļ":2863,"×ĺ×ķ×ĳ":2864,"×Ļ×¨×Ĳ":2865,"Ġ×ŀ×¢×Ĵ×ľ×Ļ×ļ":2866,"×Ļ×Ļ×Ľ×ľ":2867,"×¨×ĺ×Ļ×§":2868,"×Ĵ×Ķ":2869,"Ġ11":2870,"×ķ×¨×ļ":2871,"×¢×ŀ×¡":2872,"×ķ×ł×¡":2873,"Ġ×Ĵ×ķ×¨":2874,"Ġ×¦×¢×ł×ĺ×¢×¨":2875,"×Ļ×ł×ķ×ļ":2876,"Ġ×¦×ķ×ķ×Ĳ×ł×¦×Ļ×Ĵ":2877,"×Ĳ×¨×Ĳ×¤":2878,"×§×ĺ×¢×¨":2879,"Ġ×§×¢":2880,"×©×Ļ×Ĳ":2881,"×ĵ×ĸ×©×Ĳ":2882,"Ġ×¡×Ľ":2883,"ĠïŃİ×ķ×Ł":2884,"×©×Ļ×ł×Ĵ×ĺ×Ĳ":2885,"Ġ×Ļ×¢×ł×¢×Ŀ":2886,"×ĵ×¨×¢×¡":2887,"×Ĵ×¢×ĳ":2888,"×ķ×ŀ×Ķ":2889,"Ġ×¦×²":2890,"×ķ×ķ×¢×ľ":2891,"Ġ×©×Ļ×¡×¢×¨×Ļ×Ļ":2892,"×ķ×ŀ×Ĳ":2893,"Ġ×¡×ĺ×¢×Ļ×ĺ":2894,"×ł×ĵ×Ļ×§×¢":2895,"Ġ×Ĺ×¨×ķ×ĳ":2896,"Ġ×ĸ×¢×§×¡":2897,"Ġ×ĳ×ŀ":2898,"Ġ×ĵ×¢×ķ×ķ":2899,"Ġ×ķ×ĵ":2900,"×§×Ļ×Ŀ":2901,"Ġ×¢×¦×Ķ":2902,"Ġ×Ĳ×Ļ×ľ":2903,"Ġ×¦×¢×ĺ":2904,"Ġ×¨×¢×Ĵ×Ļ×¡×ĺ×¨":2905,"×ķ×ĳ×ľ×Ļ×§":2906,"Ġ×¤×¨×¢×ŀ":2907,"×ŀ×¢×¨×§":2908,"×ŀ×¢×Ĵ":2909,"Ġ×ľ×ķ×¤×ĺ":2910,"Ġ×ľ×Ļ×Ļ×Ĵ×ĺ":2911,"Ġ×ĳ×ľ×ķ×Ŀ":2912,"Ġ×¢×¨×ĳ":2913,"×¢×ĺ×©×ŀ×¢":2914,"Ġ×Ĳ×¨×ķ×ŀ":2915,"×Ĳ×ŀ×¢":2916,"Ġ×ŀ×Ĳ×Ł":2917,"Ġ×©×¨×¢×§":2918,"Ġ×ĳ×¨×Ļ×ĺ":2919,"Ġ×ŀ×Ļ×ľ×Ļ×Ĳ×Ł":2920,"Ġ×Ĳ×ķ×Ŀ":2921,"×ľ×Ļ×Ł":2922,"Ġ×ĵ×¨×Ĳ":2923,"×Ļ×¨×¢×¨":2924,"Ġ×Ĳ×ķ×ŀ×Ĵ×¢×§×ķ×ŀ×¢×Ł":2925,"//":2926,"Ġ×Ĵ×¢×©×¤":2927,"Ġ×¤×Ļ×¡":2928,"Ġ×Ĳ×Ļ×¡":2929,"Ġ×ł×Ĳ×Ľ×ł×Ļ×©×ĺ":2930,"Ġ×¢×¡×ĺ":2931,"Ġ×ĺ×©×¢×§":2932,"Ġ×Ĵ×Ĳ×ľ×ĵ":2933,"Ġ×Ķ×¢×¨×©":2934,"×ĵ×Ļ×§×¢":2935,"×¢×Ľ×Ł":2936,"Ġ×Ĵ×¢×¨×ķ×¤×Ł":2937,"Ġ×ľ×Ĳ×ŀ×Ļ×¨":2938,"Ġ×Ĺ×Ļ×ľ×ķ×§":2939,"Ġ×ĳ×Ľ":2940,"×¢×ķ×ķ×¢×ĺ":2941,"Ġ×ł×²":2942,"Ġ×¦×Ĳ×ľ":2943,"mail":2944,"Ġ×ĵ×¢×¨×ķ×Ļ×£":2945,"Ġ×Ĵ×¨×ķ×Ļ×¡×Ł":2946,"×¨×¦":2947,"Ġ×ķ×ķ×Ļ×ĸ":2948,"×Ĳ×ĸ×ķ×Ļ":2949,"Ġ×Ĳ×Ļ×Ļ×¢×¨×¢":2950,"Ġl":2951,"Ġ×ĳ×Ĳ×ŀ×¢×¨":2952,"Ġ×ĸ×Ļ×¦×Ł":2953,"×Ķ×¢×¨":2954,"Ġ×©×ķ×ķ×Ĳ×Ľ":2955,"×ľ×§×Ĳ":2956,"×Ĳ×ł×ĵ×ľ×ĺ":2957,"Ġ×ŀ×¤":2958,"eb":2959,"Ġ×Ĺ×ĳ":2960,"×§×ĺ×Ĳ":2961,"×Ļ×ł×Ĵ×ĺ":2962,"Ġ×Ĵ×Ļ×¨":2963,"Ġ×¡×ĺ×ķ×ĵ":2964,"Ġ×Ĺ×©×ķ×ĳ":2965,"Ġ×Ķ×ĸ":2966,"Ġ×ĳ×ľ×Ĳ×ĺ":2967,"Ġ×Ĵ×ľ×Ļ×Ļ":2968,"Ġ×ŀ×¢×Ĵ×ľ×Ļ×Ľ":2969,"Ġ×¤×Ĳ×ľ×Ļ×ĺ×Ļ×§":2970,"×ķ×ĳ×¢×¨":2971,"×©×Ļ×¨":2972,"×ķ×ĺ×©":2973,"×Ĵ×Ļ×§":2974,"Ġ×Ĵ×¢×¤×Ļ×¨×ĺ":2975,"×¨×ľ×Ĳ":2976,"Ġ×ĺ×Ļ×Ļ":2977,"×ķ×ĵ×ķ×ª":2978,"Ġ×Ĵ×ķ×Ļ":2979,"Ġ×Ĵ×¢×©×¢":2980,"Ġ×Ĵ×¢×¤×¢×¨":2981,"Ġ×©×¨×²":2982,"×ķ×ľ×¢×¨":2983,"Ġ×ŀ×Ļ×Ļ×ľ":2984,"Ġ×Ĵ×¢×ĳ×ľ×Ļ×ĳ×Ł":2985,"Ġ×¦×Ļ×Ļ×ĺ×ķ×ł×Ĵ":2986,"×ķ×¢":2987,"Ġ×ŀ×¢×ĵ×Ļ×¦":2988,"Ġ×Ĳ×Ļ×ĺ":2989,"×Ļ×Ļ×ĺ×Ļ×§":2990,"×ł×¡×ĺ":2991,"Ġ×Ĵ×¢×ķ×ķ×Ĳ×¨":2992,"×¢×ĳ×ĺ":2993,"×ķ×ł×¤":2994,"Ġ×ŀ×ł":2995,"Ġ×ĺ×¢×ł×Ķ":2996,"×Ļ×ķ×¨":2997,"Ġ×ķ×ķ×¢×¨×¡×Ļ×¢":2998,"×ľ×Ļ×Ĺ":2999,"Ġ×¤×¨×Ĳ×ĳ×ľ×¢×ŀ×¢×Ł":3000,"Ġ×¦×ķ×ł":3001,"×ľ×¢×¡":3002,"Ġ×ŀ×Ĳ×¡":3003,"×Ļ×Ļ×Ľ×ķ×ª":3004,"Ġin":3005,"×ł×¡×Ĳ":3006,"Ġ×ĳ×Ĺ×ķ×¨×Ļ×Ŀ":3007,"×ł×©×Ĳ×¤×ĺ":3008,"×ķ×ķ×¢×Ĵ×Ł":3009,"Ġ×¡×Ļ×Ļ×ł×ĺ":3010,"Ġ×ľ×Ļ×Ļ×¢×ł×¢×¨":3011,"Ġ×©×ķ×¨×Ķ":3012,"×Ļ×Ĵ×Ļ×¢":3013,"Ġ×ķ×ķ×Ļ×ľ×Ļ×Ĳ":3014,"Ġ×¨×Ļ×Ľ×ĺ×Ļ×Ĵ×¢":3015,"Ġ×¤×Ĳ×ĺ×¢×¨":3016,"×¢×§×Ĳ":3017,"Ġ×Ĵ×¨×¢×ł":3018,"Ġ×©×Ĳ×ľ×Ķ":3019,"×ĳ×Ļ×Ł":3020,"×Ĵ×¢×ķ×ķ":3021,"Ġ×Ĳ×Ļ×ł×ĵ×¢×¨":3022,"im":3023,"×¢×§×ĺ×Ļ×ķ×ķ":3024,"×ł×ł×¢×ŀ×¢×Ł":3025,"Ġ×ľ×Ľ×Ĳ":3026,"Ġ×ĳ×¢×¡×ĺ×¢":3027,"Ġ×¦×¢×Ł":3028,"Ġ×ł×Ĳ×ŀ":3029,"Ġ×¦×ķ×¦":3030,"Ġ×¨×ķ×¤×ĺ":3031,"ac":3032,"Ġ×ľ×ķ×Ļ×¤×Ł":3033,"Ġ×ľ×Ĳ×ĸ×Ł":3034,"×Ĵ×¢×Ķ":3035,"Ġ×©×ĺ×Ļ×ŀ×¢×Ł":3036,"Ġ×ŀ×Ļ×ĺ×Ĵ×ľ×Ļ×ĵ×¢×¨":3037,"×¢×§×ĺ×Ł":3038,"Ġ×ľ×Ľ×Ĳ×ķ×¨×Ķ":3039,"Ġ×ŀ×¢×Ĵ×ľ×¢×ļ":3040,"Ġ×¡×Ļ×ĺ":3041,"×ł×ĵ×¢×¨×©":3042,"Ġ×Ĵ×¢×ľ×¢×Ĵ×ł×Ķ×Ļ×Ļ×ĺ":3043,"Ġ×ĵ×¢×¨×ķ×ķ×Ļ×Ļ×ľ":3044,"×¦×¢×¨":3045,"×¢×¡×ĺ×Ļ×ł×¢×¨":3046,"ĠU":3047,"×¨×Ļ×ĳ":3048,"Ġ×ĳ×Ļ×Ľ":3049,"Ġ×Ĺ×ķ×¨":3050,"×¨×Ļ×ł×ĵ×¢×ĺ":3051,"Ġ×ŀ×Ļ×Ļ×ĵ×ľ":3052,"×Ļ×ł×ĵ×¢×¨":3053,"×¨×Ĵ×Ł":3054,"Ġ×Ĳ×ķ×Ļ×Ĵ×ķ×¡×ĺ":3055,"×¨×§×¢×ĺ×Ļ×ł×Ĵ":3056,"Ġ×¤×¢×¨×ĸ×¢×ł":3057,"Ġ×ķ×ķ×Ĳ×ļ×¦×ķ×ķ×Ļ×Ļ":3058,"×ķ×Ļ×Ĳ":3059,"×ŀ×Ļ×©":3060,"Ġ×ľ×Ĳ×ł×Ĵ×¢":3061,"Ġ×Ĺ×ķ×ĵ×©×ĵ×¨×Ļ×Ļ":3062,"pos":3063,"Ġ×Ĳ×ķ×Ļ×¡×¢×¨":3064,"Ġ×ĳ×ł×Ļ":3065,"Ġ×ŀ×ł×Ĺ":3066,"Ġ×ľ×Ļ×ĺ":3067,"×ķ×ķ×¡":3068,"Ġ×¤×¨×Ĳ×ĳ":3069,"Ġ×¡×Ĳ×¨×ĺ×Ļ×¨":3070,"Ġ×Ĵ×¢×ĺ×¨×Ĳ×¤×Ł":3071,"Ġ×ĺ×¢×ľ×¢×¤×Ĳ":3072,"×¨×Ļ×ł×§":3073,"Ġ×¤×¨×Ļ×©×¢":3074,"Ġ×ł×©×ŀ×Ķ":3075,"×ĺ×Ļ×ł×Ĵ":3076,"×ķ×ķ×¢×ł×ĺ":3077,"Ġto":3078,"Ġ×Ĳ×Ļ×Ļ×ł×Ĵ×¢×©":3079,"Ġ×©×ĺ×Ļ×ĳ×ľ":3080,"Ġ×¤×¨×Ļ×ķ×ķ":3081,"Ġ×Ĳ×ł×Ĵ×¢×§×ķ×ŀ×¢×Ł":3082,"Ġ×ł×¤×©":3083,"×ķ×ķ×¢×ł×¢×Ł":3084,"×ª×Ĺ":3085,"Ġ×ķ×ķ×Ļ×Ľ×ĺ×Ļ×Ĵ":3086,"×ľ×¢×Ľ×¢×¨":3087,"Ġ×ĳ×Ĳ×©×ľ":3088,"Ġ×©×Ļ×Ļ×Ľ×ķ×ª":3089,"Ġ×Ĳ×ł×¤":3090,"×ŀ×ľ":3091,"×ķ×ľ×ĺ×ķ×¨×Ĳ":3092,"×¨×ķ×¡":3093,"Ġ×ł×Ĳ×Ľ×Ĳ×ŀ×Ĳ×ľ":3094,"Ġ×ĵ×Ļ×¡×ĺ":3095,"Ġ×Ķ×Ĳ×ł×ĺ":3096,"Ġ×Ĳ×ĸ×ķ×Ļ×¤":3097,"×¡×ĵ×¨":3098,"×¨×ĵ×Ľ×Ļ":3099,"Ġ×ķ×ķ×Ļ×§":3100,"×Ļ×¢×ĸ×¨":3101,"Ġ×ŀ×Ĳ×Ļ×¨":3102,"Ġ×§×Ĳ×¡×ĺ":3103,"Ġ×ĵ×¢×¨×©":3104,"ĠK":3105,"Ġ×ĳ×ķ×©":3106,"Ġ×ł×ķ×ŀ":3107,"Ġ×Ķ×¢×ľ×¤×ĺ":3108,"Ġ×ľ×Ļ×Ļ×ĵ×¢×¨":3109,"Ġ×Ĳ×ķ×Ļ×ĳ×¢×¨×©":3110,"ec":3111,"Ġ×©×ľ×ŀ×Ķ":3112,"Ġ×Ĺ×Ļ×ł×ķ×ļ":3113,"Ġ×§×Ĳ×ŀ×¤×Ļ×ķ×ĺ×¢×¨":3114,"Ġ×ł×Ļ×Ĵ×ķ×Ł":3115,"Ġ×¨×ķ×Ļ×ĺ":3116,"Ġ×Ķ×Ļ×Ļ×ĳ×ĺ":3117,"Ġ×¤×¨×Ļ×¢×¨×ĵ×Ļ×Ĵ×¢":3118,"Ġ×ŀ×Ļ×ĸ":3119,"×¢×ł×":3120,"×Ķ×Ļ×Ļ":3121,"×¨×¢×¡×¡":3122,"ĉĊ":3123,"×Ĳ×ĵ×Ĳ":3124,"Ġ×¦×ķ×ĸ×Ĳ":3125,"Ġ×ĵ×¢×ľ":3126,"Ġ×ĺ×Ļ×¨":3127,"×¨×©×ľ×Ĳ":3128,"×Ĳ×§×ĺ×Ĳ×¨":3129,"Ġ×ĵ×¢×¨×§×ľ×¢×¨×ĺ":3130,"×§×Ļ×ł×Ĵ":3131,"Ġ×ĵ×Ĳ×§":3132,"Ġ×Ĳ×Ļ×Ļ×ł×ŀ×Ĳ×ľ":3133,"×Ļ×Ļ×ł×Ļ×ł×Ĵ":3134,"Ġ×¤×Ĳ×¨×ĺ×Ļ×Ļ":3135,"Ġ×ĵ×Ĳ×ł×¢×¨×©×ĺ×Ĳ×Ĵ":3136,"Ġ×ĸ×¢×ľ×ĳ×¡×ĺ":3137,"×¨×ĺ×Ļ×§×ķ×ľ×ĺ×ķ×¨×Ĳ":3138,"×§×Ķ":3139,"Ġ×§×¨×¢×ĺ×©×ŀ×¢":3140,"Ġ×ĳ×ł×Ļ×ŀ":3141,"tt":3142,"Ġ×Ĵ×¢×©×Ļ×§×ĺ":3143,"Ġ×ĺ×¨×Ĳ×Ĵ":3144,"Ġ×ĵ×Ļ×Ļ×ł×¢":3145,"Ġ×ĺ×¨×Ĳ×Ľ×ĺ×Ł":3146,"30":3147,"Ġ×ĳ×Ĳ×¨×Ļ×Ľ×ĺ":3148,"Ġ×¦×ķ×ĺ×¨":3149,"Ġ×ŀ×ĵ×¨":3150,"Ġ×Ĵ×¢×ĳ×¢×ĺ×Ł":3151,"×¢×ĸ×Ļ×¢":3152,"Ġ×ŀ×¡×ĳ×Ļ×¨":3153,"ig":3154,"Ġ×Ĳ×ķ×ª×Ļ×ķ×ª":3155,"Ġ×Ķ×Ľ":3156,"Ġ×Ķ×ª×ķ×¨×Ķ":3157,"Ö¸.":3158,"Ġ×ĵ×¢×¨×ŀ×Ļ×ĺ":3159,"Ġï¬¯":3160,"Ġ×ķ×ķ×Ļ×Ļ×ĳ":3161,"Ġ×¤×Ĳ×¨×ķ×Ŀ":3162,"Ġ×Ĵ×¢×ŀ×Ļ×Ļ×ł×ĺ":3163,"Ġ×ĺ×¢×§×¡×ĺ":3164,"×¢×ľ×§×¢×¨×ķ×ł×Ĵ":3165,"Ġ×¤×ľ×Ļ×¢":3166,"Ġ×Ĵ×¢×ĺ×Ĳ×Ł":3167,"×ľ×©":3168,"Ġ×¨×¢":3169,"Ġ×ŀ×Ĺ×©×ĳ":3170,"×ĵ×ķ×§×¦×Ļ×¢":3171,"×ĳ×¨×Ļ×§":3172,"Ġ×ĵ×¢×¨×Ĵ×¨×Ļ×Ļ×Ľ":3173,"Ġ×Ĳ×¤×Ļ×¦":3174,"Ġ×ŀ×§×ķ×¨":3175,"Ġ×¤×Ĳ×¨×ŀ×Ĳ×Ĵ×ĺ":3176,"Ġ×ĺ×¢×Ŀ":3177,"Ġ×ľ×Ļ×Ļ×ĳ":3178,"Ġ×°×²":3179,"Ġ×Ĵ×Ĳ×ĺ":3180,"Ġ×¤×Ļ×Ļ":3181,"Ġ×¨×¢×Ĳ":3182,"Ġ×¤×Ļ":3183,"Ġ×Ļ×ŀ×¤":3184,"×ł×Ķ×Ļ×Ļ×ĳ":3185,"×Ļ×Ļ×Ľ×Ł":3186,"×¢×ľ×¢×ķ×ķ×Ļ×ĸ":3187,"Ġ×ĺ×¢×Ľ×ł×Ĳ×ľ":3188,"×ľ×¢×ĳ":3189,"Ġ×Ķ×ŀ×ĵ×¨×©":3190,"Ġ×¤×Ļ×¨×¢×¨":3191,"Ġ×©×ĺ×Ĺ":3192,"Ġ×Ĵ×¢×ĵ×Ĳ":3193,"×ł×ĵ×¢":3194,"×ľ×Ļ×Ľ×Ł":3195,"Ġ199":3196,"Ġ×ľ×¢×ĳ×¢×ĵ":3197,"ĠO":3198,"Ġ×§×ķ×ķ×¢×¡×¥":3199,"Ġ×Ĳ×ĸ×ķ×Ļ×¤×Ļ×ľ":3200,"Ġ×Ļ×ĳ×¢×¨":3201,"×¨×Ļ×©":3202,"Ġ×ĸ×Ĳ×ľ×¡×ĺ":3203,"×¦×ĺ":3204,"Ġ×ķ×ķ×Ļ×ĵ×Ļ×Ĳ":3205,"×ł×Ļ×¦×¢×¨":3206,"×ķ×ŀ×¨":3207,"Ġ×Ĵ×¢×ĸ×Ĳ":3208,"Ġ×Ļ×ķ×ł×Ĵ×¢×¨":3209,"âĢŁ,":3210,"Ġ×ŀ×¨×ĵ×Ľ×Ļ":3211,"×Ļ×Ĳ×ķ×ª":3212,"×ĵ×¢×¨×Ł":3213,"Ġ×ľ×¢×¦×ĺ×ł×¡":3214,"Ġ×ĳ×Ĳ×ľ×ĵ":3215,"Ġ×Ķ×¢×¨×ĺ":3216,"Ġ×ľ×Ļ×ŀ":3217,"×Ļ×ł×Ļ×¢":3218,"Ġ×ª×ŀ":3219,"Ġ×ŀ×Ĳ×¨×§":3220,"Ġ×ĸ×Ľ×¨":3221,"Ġ×ĵ×¢×¨×§":3222,"×Ļ×¢×ĺ":3223,"×ľ×Ļ×¡":3224,"Ġ×ĳ×Ļ×Ļ×ł×¢×¨×Ļ":3225,"×Ĳ×Ľ×ĺ×¢×¨":3226,"×Ļ×ł×Ĵ×ĺ×Ĳ×Ł":3227,"Ġ×Ĵ×ķ×£":3228,"×ł×Ĳ×¨":3229,"×Ļ×ĺ×ľ":3230,"Ġ×ĺ×¨×Ļ×Ļ×ľ":3231,"×Ļ×Ĵ×¢×Ł":3232,"Ġ×Ĵ×¨×ķ×ł×ĺ":3233,"Ġ×ĳ×¢×ĺ×Ł":3234,"Ġ×ĳ×¨×ķ×ĵ×¢×¨":3235,"Ġ×¤×Ļ×ľ×Ł":3236,"Ġ×ķ×ķ×Ļ×ľ×¡×ĺ":3237,"Ġ×©×ŀ×Ļ×Ļ×Ľ×ľ":3238,"Ġ×Ĵ×¢×Ĵ×¨×Ļ×ł×ĵ×¢×ĺ":3239,"×¦×Ļ×Ļ":3240,"×¢×ł×Ĵ×Ł":3241,"×Ļ×ĳ×Ļ":3242,"×¨×ķ×ł×Ĵ":3243,"Ġ×ĳ×ĵ":3244,"×ľ×Ļ×Ļ×ĺ":3245,"Ġ×ŀ×Ļ×ľ×Ļ×ĺ×¢×¨×Ļ×©":3246,"Ġ×ķ×ĳ":3247,"Ġ×¢×ł×ĺ×¤":3248,"Ġre":3249,"Ġ×Ĳ×Ļ×ł×ŀ":3250,"×ŀ×Ļ×Ļ":3251,"Ġ×¡×¢×ł":3252,"Ġ×ŀ×¡×ª":3253,"Ġ×¦×ķ×ľ×Ļ×Ļ×Ĵ×Ł":3254,"Ġ×ĺ×¢×ľ×¢×ķ×ķ×Ļ×ĸ":3255,"Ġ×ĺ×Ĳ×ľ":3256,"×Ļ×ľ×ķ×ª":3257,"×¢×¤×Ĳ×¨":3258,"×ķ×ķ×Ļ×Ĳ":3259,"Ġ×§×Ĳ×ŀ×£":3260,"Ġ×§×¤":3261,"×Ļ×ķ×ķ×¢×¨":3262,"×ķ×ķ×¢×ł":3263,"un":3264,"Ġ×ĵ×Ļ×ł×¢×Ł":3265,"Ġ×Ĵ×¨×Ļ×Ł":3266,"×Ĵ×Ļ×Ļ×Ł":3267,"Ġ×Ĵ×¢×ĸ×¢×ľ×©×Ĳ×¤×ĺ":3268,"Ġ×Ķ×Ĳ×ľ×ĳ×¢":3269,"Ġ×ķ×¤":3270,"Ġ×ĳ×ł×Ļ×Ł":3271,"ur":3272,"×¡×Ļ":3273,"Ġ×ł×Ļ×Ļ×Ł":3274,"Ġ×¢×Ļ×§×¨":3275,"×Ļ×¡×ĺ×Ļ×©×¢":3276,"×¢×ĸ×Ļ×©":3277,"Ġ×Ĵ×¢×¨×¢×Ľ×ĺ":3278,"Ġ×Ĳ×ł×©×ĺ×Ĳ×ĺ":3279,"Ġ×Ĳ×¤×ĺ":3280,"×Ļ×¤×Ł":3281,"×ĵ×Ļ×Ĳ":3282,"Ġ×ŀ×Ļ×ľ×Ļ×Ĳ":3283,"Ġ×¡×¢×¨×ķ×ķ×Ļ×¡":3284,"×ķ×¦×Ĳ":3285,"Ġ×Ĺ×¡×Ļ×ĵ×Ļ×©×¢":3286,"Ġ×Ĵ×¢×ĸ×¢×ľ×©×Ĳ":3287,"Ġ×ł×Ļ×ĵ×¢×¨":3288,"×Ļ×¢×§":3289,"×ķ×¢×¨":3290,"×Ĳ×ł×©":3291,"×ĵ×§×Ĳ":3292,"×¢×ŀ×¢×¨":3293,"Ġ×Ľ×ķ×Ĺ":3294,"×Ļ×ĺ×Ļ×ł×Ĵ":3295,"Ġ50":3296,"×ĸ×ĺ":3297,"Ġ×ĵ×¨×Ļ×Ļ×¢×Ł":3298,"Ġ×Ĳ×ĵ×ŀ×ķ":3299,"×Ļ×¡×ĺ×¢×¨":3300,"×Ļ×Ļ×Ľ×ĺ":3301,"Ġ×ķ×ķ×Ĳ×ľ×ĺ×Ł":3302,"Ġ×Ĵ×¢×ķ×ķ×¢×ł":3303,"Ġ×ķ×ķ×Ļ×¡×ł×©×Ĳ×¤×ĺ":3304,"gle":3305,"Ö¼,":3306,"Ġ×Ķ×ľ×Ľ×Ķ":3307,"×Ļ×Ĳ×¨":3308,"Ġe":3309,"×¢×¡×¢×¨×Ł":3310,"Ġ×©×ĺ×¢×¨":3311,"Ġ×§×¨×Ļ×ĺ":3312,"×¡×¡":3313,"Ġ×ĺ×Ļ×Ļ×ĺ":3314,"Ġ×Ĵ×¢×©×ĺ×¢×ľ×ĺ":3315,"Ġ×Ĳ×Ļ×ĳ×¢×¨×¦":3316,"×Ļ×¢×Ķ":3317,"Ġ×ĳ×¢×¨×Ĵ":3318,"×ĺ×¢×¡":3319,"Ġ×ł×¢×Ľ×ĺ×Ł":3320,"Ġ×Ĳ×Ļ×ĳ×¢×¨×Ł":3321,"×¨×ĵ×¡":3322,"idd":3323,"Ġ×ĳ×¨×Ļ×¨×Ķ":3324,"Ġ×ŀ×Ĳ×ĵ×¢×ľ":3325,"×Ĵ×¢×ł×ķ×ŀ×¢×Ł":3326,"Ġ×Ĳ×ľ×Ĵ×¢×ŀ×Ļ×Ļ×ł×¢":3327,"Ġ×Ĳ×ķ×¤×Ł":3328,"Ð¼":3329,"Ġ×Ļ×Ļ×ĵ×Ļ×©×¢×¨":3330,"Ġ×¤×Ĳ×¨×Ĳ×Ļ×Ļ×ł×Ļ×Ĵ":3331,"×ķ×ł×":3332,"Ġ×Ķ×ķ×ł×ĵ×¢×¨":3333,"oogle":3334,"×ľ×ķ×Ļ×ĳ×ĺ":3335,"×¨×ķ×§×ĺ":3336,"×§×§":3337,"Ġ×¢×¨×Ĵ×¢×¥":3338,"×¨×Ļ×¢×¡":3339,"×ķ×ķ×Ļ×ĵ":3340,"Ġ×¤×Ĳ×¨×©×ĺ×Ļ×Ļ":3341,"Ġ2012":3342,"Ġ×ŀ×ł×Ķ×Ĵ":3343,"Ġ×ĺ×¢×ķ×ª":3344,"Ġ×ĳ×Ĳ×©×¢×¤×¢×¨":3345,"Ġ×Ĵ×¢×ĳ×¨×¢×ł×Ĵ×ĺ":3346,"ÑĤ":3347,"Ġ×ŀ×¢×§×¡":3348,"Ġ×ĺ×¨×Ĳ×Ľ×ĺ":3349,"×ĵ×Ĳ×Ļ":3350,"Ġ×Ķ×ķ×ĵ×¢×Ķ×ĺ":3351,"Ġ×Ķ×ķ×ĵ×¢×ķ×ª×Ĳ×Ļ×Ļ×Ł":3352,"Ġ×Ķ×ķ×ĵ×¢×Ķ×ĺ×¢×ŀ×¢":3353,"Ġ×¡×Ļ":3354,"Ġ×Ĵ×¢×°×¢×Ł":3355,"Ġ×Ľ×Ĳ×¤×Ł":3356,"×ķ×¤×Ķ":3357,"Ġ×ĺ×¢×ľ×¢×ķ×ķ×Ļ×ĸ×Ļ×¢":3358,"Ġ×¡×Ĳ×Ļ×ĸ":3359,"Ġ×§×Ĳ×¡":3360,"×ķ×ķ×ķ×ķ×ķ×ķ×ķ×ķ×ķ×ķ×ķ×ķ×ķ×ķ×ķ×ķ":3361,"×¨×Ļ×Ľ×ĺ":3362,"Ġ×¦×¢×©":3363,"Ġ×ĵ×¨×ķ×§":3364,"Ġ×¨×¢×ĸ×ķ×ľ×ĺ":3365,"Ġ×Ĺ×ķ×¨×ĳ×Ł":3366,"×¢×¨×ķ×¤×Ł":3367,"Ġ×¦×¢×ł×ĵ×ľ":3368,"Ġ×¤×¨×Ĳ×ł×¦×ķ×Ļ×ĸ":3369,"Ġ×ĳ×ľ×Ļ×¥":3370,"://":3371,"?!":3372,"Ġ×¤×ł×Ļ×Ŀ":3373,"Ġ×ĳ×Ļ×Ļ×©":3374,"×ľ×¢×Ľ×Ł":3375,"×Ļ×Ļ×ł×Ļ×§×ĺ×¢":3376,"×¢×Ľ×¢×¨":3377,"×Ĳ×©×Ļ×ł×Ĵ×ĺ×Ĳ×Ł":3378,"×Ļ×©×¨×Ĳ×ľ":3379,"×¡×Ļ×Ľ":3380,"×¨×ķ×Ł":3381,"×Ļ×Ļ×ķ×ķ":3382,"Ġ×ĳ×Ļ×¨×Ĵ×¢×¨":3383,"×Ĳ×ķ×Ļ×ļ":3384,"×ľ×¢×Ľ×§×Ļ×Ļ×ĺ":3385,"Ġ×Ĵ×¨×ķ×¤×¢":3386,"×¤×Ķ":3387,"×¨×ĳ×¨":3388,"×ķ×ķ×Ĳ×ľ":3389,"Ġ×Ķ×Ļ×Ļ×ĸ×¢×¨":3390,"Ġ×¤×ķ×ĵ×ĸ":3391,"×ĵ×Ļ×Ŀ":3392,"×ľ×Ļ×Ľ×¢×¨":3393,"Ġ×ł×ĳ":3394,"Ġ×¤×ľ×Ļ×Ļ×©":3395,"×ĵ×¨×ļ":3396,"Ġ×¤×¢×ľ×ĵ":3397,"×ĺ×¢×¨×¡":3398,"Ġ×¨×¢×ĺ×¢×ł×Ļ×©":3399,"Ġ×Ķ×Ľ×ľ":3400,"Ġ×ľ×Ļ×ĳ×¢×¨":3401,"âĢª":3402,"Ġ×ĵ×Ļ×Ļ×ĺ×©×ľ×Ĳ×ł×ĵ":3403,"Ġ×¢×ľ×¢×§":3404,"Ġ×ĺ×Ļ×Ļ×ļ":3405,"×ĺ×Ļ×©×¢":3406,"Ġ×ĳ×Ĳ×ĺ×¨":3407,"Ġ×¤×¡×Ĺ":3408,"Ġ×ŀ×Ĳ×©":3409,"×ł×¢×ľ":3410,"Ġ×ĵ×Ĳ×ķ×ķ×¢×ł×¢×Ł":3411,"Ġ×ĺ×¢×ŀ":3412,"×Ĳ×ĸ×©":3413,"Ġ×Ķ×¤":3414,"×¢×ł×ĺ×¤×¢×¨×ĺ":3415,"×ĵ×ľ":3416,"Ġ×ľ×Ļ×Ĵ×Ł":3417,"Ġ×Ľ×ķ×ľ×ľ":3418,"Ġ×Ĵ×ľ×Ļ×§":3419,"Ġ×ķ×ķ×Ļ×ľ×Ļ×Ĳ×ŀ×¡":3420,"×¢×ĳ×¢×¨":3421,"×Ļ×ľ×Ļ×¢":3422,"Ġ×ĺ×¢×¨×Ĳ×¨×Ļ×¡×ĺ×Ł":3423,"Ġ×¤×Ļ×¨×ĺ":3424,"Ġ×¡×¢×¨×Ļ×¢":3425,"×ł×ĺ×Ł":3426,"×¢×ĺ×¢":3427,"Ġ×Ĳ×¤×Ļ":3428,"Ġ×ĳ×Ĳ×ł×§":3429,"Ġ×Ĳ×Ķ×¢×¨":3430,"Ġ×Ĳ×Ķ×¨×Ł":3431,"×Ļ×ĺ×Ķ":3432,"×ĵ×Ļ×©×Ł":3433,"Ġ×ł×Ļ×Ļ×¢×Ŀ":3434,"×Ĳ×§×¡×Ł":3435,"iddish":3436,"Ġ×Ķ×Ļ×ŀ×ľ":3437,"Ġ×§×¢×ł×¡×ĺ":3438,"Ġ×¡×Ĳ×ļ":3439,"Ġ×§×Ĳ×Ł":3440,"ree":3441,"Ġ×¨×©×Ļ×ŀ×Ķ":3442,"Ġ×Ĵ×¢×ĺ×Ĳ":3443,"×ľ×Ļ×¢":3444,"Ġ×Ĵ×¢×Ľ":3445,"×²×ĺ":3446,"ly":3447,"Ġ×ľ×Ĳ×§":3448,"Ġ×Ĳ×ł×Ĵ×¢×ł×ķ×ŀ×¢×Ł":3449,"×§×ĺ×Ļ×ķ×ķ":3450,"×Ļ×Ļ×Ļ×Ļ×Ļ×Ļ×Ļ×Ļ×Ļ×Ļ×Ļ×Ļ×Ļ×Ļ×Ļ×Ļ×Ļ×Ļ×Ļ×Ļ×Ļ×Ļ×Ļ×Ļ×Ļ×Ļ×Ļ×Ļ×Ļ×Ļ×Ļ×Ļ":3451,"Ġ×Ĳ×Ļ×ł×ĵ×ķ×¡×ĺ×¨×Ļ×¢":3452,"Ġof":3453,"Ġ×§×¨×Ļ×§":3454,"×ł×Ĵ×¢×Ł":3455,"Ġ×§×¢×©":3456,"Ġ×Ľ×©×¨":3457,"Ġ×Ĵ×¢×ķ×ķ×Ĳ×ķ×¡×ĺ":3458,"Ġ×¦×ķ×§×ķ×ł×¤":3459,"Ġ×ĺ×¢×Ľ×ł×Ĳ×ľ×Ĳ×Ĵ×Ļ×¢":3460,"Ġ×Ĳ×Ļ×ł×ĺ×¢×¨×ł":3461,"×Ļ×ķ×¡":3462,"Ġy":3463,"×Ļ×ŀ×¢":3464,"×ĺ×Ļ×Ļ×ľ×ķ×ł×Ĵ":3465,"Ġ*":3466,"Ġ×¦×¢×ŀ":3467,"×Ļ×¦×¢":3468,"Ġ×§×Ĳ×ł×Ĵ":3469,"Ġ×¨×¢×ľ×Ļ×Ĵ×Ļ×¢":3470,"Ġ×Ĵ×¢×ĳ×ķ×Ļ×ĺ":3471,"Ġ×ķ×ķ×Ĳ×ķ×ł×ĵ×¢×¨":3472,"Ġ×ĳ×Ļ×Ķ×ŀ":3473,"Ġ×ŀ×ĺ":3474,"Ġ×ĳ×ľ×Ļ×Ļ×ĳ×ĺ":3475,".)":3476,"Ġ×Ķ×¢":3477,"Ġ×©×ŀ×ķ×Ĳ×ľ":3478,"lo":3479,"×¢×ľ×Ļ×¡×ĺ":3480,"Ġ×Ĺ×Ļ×ĵ×ķ×©":3481,"×ķ×ķ×Ļ×ł×Ĵ":3482,"Ġ×Ĵ×ĵ×ķ×ľ":3483,"Ġ×Ĳ×Ļ×ł×ŀ×Ļ×ĺ×Ł":3484,"Ġ×ĳ×ł×ķ×Ĵ×¢":3485,"Ġ×Ķï¬¯":3486,"×ķ×ĵ×Ļ×§":3487,"Ġ×¤×¡×ķ×§":3488,"×¦×ķ×©":3489,"×Ĳ×ł×Ļ×ĸ":3490,"Ð½":3491,"Ġ×ĵ×Ļ×¡×ĺ×¨×Ļ×§×ĺ":3492,"Ġ×¦×Ķ":3493,"×ķ×ķ×Ļ×Ļ×¡":3494,"×¦×Ļ":3495,"×ķ×¡×ĺ×Ł":3496,"to":3497,"Ġ×¨×Ļ×¡":3498,"Ġ×ĸ×Ĳ×Ĵ×¢×Ł":3499,"Ġ×ĸ×©×ķ×¨×ł×Ĳ×ľ":3500,"Ġ×Ļ×Ĺ×Ļ×ĵ":3501,"Ġ×ł×Ļ×¦×ĺ":3502,"Ġ×ĸ×¢×Ľ":3503,"Ġ#":3504,"Ġ×§×Ĳ×¨×ĺ":3505,"×ķ×ķ×¢×¡×ĺ":3506,"Ġ×ĵ×¢×¨×¤×Ĳ":3507,"Ġ×Ĵ×¢×¤×Ļ×ł×ĺ":3508,"Ġ×¨×ķ×¤×Ł":3509,"Ġ×©×ľ×¢×Ľ×ĺ":3510,"Ġ×¤×¨×¢×¡":3511,"×ľ×Ļ×Ĳ":3512,"×¤×Ļ×¨":3513,"Ġ×ŀ×Ĳ×ŀ×¢":3514,"Ġ×Ĳ×¨×Ļ×Ļ×ł×¦":3515,"Ġ×ľ×Ļ×Ļ×Ĵ":3516,"×Ĵ×¢×§":3517,"Ġ×¨×Ĳ×ĵ":3518,"×Ļ×Ļ×ł×ķ":3519,"Ġ×ŀ×Ļ×Ļ×ł×¢×Ł":3520,"Ġ×ĵ×Ļ×¡×§":3521,"Ġ×ĺ×¢×ł":3522,"×ł×Ķ×Ļ×Ļ×ĳ×Ł":3523,"Ġ×¢×§×Ĳ×ł×Ĳ×ŀ×Ļ×¢":3524,"Ġ×Ķ×Ĳ×ľ×ĳ":3525,"×¢×ķ×ķ×¢×¨":3526,"Ġ×©×ĺ×¢×ĺ×ľ":3527,"ĠV":3528,"Ġ×ł×ķ×¡":3529,"Ġ×¦×ķ×ŀ":3530,"Ġ×¨×Ļ×ĸ×Ļ×§":3531,"×¢×ĵ×¨×Ļ×Ļ×ĺ":3532,"×Ļ×ł×ĵ×Ĳ":3533,"×¨×©×Ļ×Ļ×ĵ":3534,"Ġ2018":3535,"×ľ×Ļ×¨×Ł":3536,"×ł×ŀ":3537,"×ĳ×Ļ×ľ×ĵ×¢×¨":3538,"ttp":3539,"Ø¹":3540,"Ġ×§×¨×Ļ×Ĳ":3541,"Ġ×§×Ķ×Ļ×ľ×Ķ":3542,"oin":3543,"Ġ×Ľ×Ļ×ł×¢":3544,"×ķ×Ļ×ł×¢×¨":3545,"×ł×¢×Ŀ":3546,"Ġ×¤×Ĳ×ľ×Ļ×¦×Ļ×Ļ":3547,"em":3548,"Ġ×ľ×Ĳ×ĸ×ĺ":3549,"×¨×ĳ×¢×ĺ×Ł":3550,"âĢŁ.":3551,"Ġ×ª×©×ķ×ĳ×Ķ":3552,"ĠHT":3553,"×Ļ×Ľ×ĺ×¢×¨":3554,"Ġ194":3555,"Ùĩ":3556,"Ġ×ĵ×¢×¨×¤":3557,"×Ļ×Ľ×Ł":3558,"st":3559,"Ġ×¢×¦×ķ×ª":3560,"Ġ×ķ×ķ×¢×ŀ×¢×Ł":3561,"Ġ×ĸ×Ļ×¡":3562,"Ġ×ĸ×ķ×ŀ×¢×¨":3563,"Ġ×Ķ×ķ×ł×ĵ×¢×¨×ĺ×¢×¨":3564,"×ĵ×¡":3565,"Ġ×ĵ×¢×¨×ŀ×Ĳ":3566,"×ĳ×ľ×Ļ×ł×Ĵ":3567,"×¨×Ļ×ĸ":3568,"Ġ×Ĵ×¢×Ķ×Ļ×Ļ×¡×Ł":3569,"×Ĳ×¤×¢×Ł":3570,"Ġ×ĳ×Ĳ×Ĵ×¨":3571,"Ġ×¢×ł×§":3572,"×ķ×ķ×¢×¡":3573,"Ġ×Ķ×Ĳ×ł×ĵ":3574,"×ķ×ķ×¢×¨×Ļ×ĸ":3575,"×ĺ×Ļ×ķ×ķ":3576,"Ġ×§×Ĳ×ĺ":3577,"×ĳ×Ļ×Ŀ":3578,"×ŀ×£":3579,"Ġ×¡×²":3580,"Ġ×ķ×ķ×Ĳ×§×Ĳ×¦×Ļ×¢":3581,"Ġ×Ĳ×Ļ×ĳ":3582,"×¢×ĳ×¨×¢":3583,"Ġ×©×Ļ×Ļ×ļ":3584,"×§×Ĳ×ķ×ł×ĺ":3585,"Ġ×Ĵ×ķ×Ĵ×ľ":3586,"×Ĺ×ª":3587,"Ġ×ĺ×¢×¨×ŀ×Ļ×ł×¢×Ł":3588,"Ġ×¤×©×ĺ":3589,"Ġ×ĳ×¢×ª":3590,"×¢×ł×ĸ":3591,"Ġ×ĺ×Ĳ×Ľ×ĺ×¢×¨":3592,"ML":3593,"×ĸ×Ļ×Ļ×ĺ":3594,"×¢×¡×Ĳ":3595,"×ĵ×Ļ×ł":3596,"×ł×ª":3597,"Ġ×ķ×ķ×Ļ×ł×§×¡":3598,"×ĺ×Ĳ×Ĵ":3599,"×Ļ×ł×Ļ×©":3600,"Ġ×ĳ×ľ×Ļ×¦×Ł":3601,"×ľ×Ļ×Ļ×Ļ×ł×Ĵ":3602,"Ġ×¢×ł×ĺ×¤×¢×¨":3603,"Ġ×Ĳ×Ļ×Ļ×ĳ×Ļ×Ĵ":3604,"×ĺ×¢×Ĵ×Ļ×¢×¡":3605,"Ġ×Ļ×¢×¨":3606,"Ġ×¤×Ĳ×¨×©×¤×¨":3607,"×ľ×Ļ×¤×Ĳ":3608,"×ķ×ķ×¢×ľ×ĺ":3609,"×ķ×Ļ×ª":3610,"×¨×©×¤":3611,"Ġ×¤×¢×ł×¡":3612,"×¢×ĺ×ľ×Ļ×Ľ×¢":3613,"Ġ×ŀ×Ĳ×ł×ĺ":3614,"Ġ×§×Ĳ×ł×ĺ×¨×Ĳ×ľ":3615,"×ľ×¢×ĸ":3616,"Ġ×©×ĺ×Ļ×ľ":3617,"×ķ×ĳ×Ĳ":3618,"ł×ŀ×Ĳ":3619,"×Ķ×Ĳ×ľ×ĺ×Ł":3620,"Ġ×©×ŀ×Ĺ×Ķ":3621,"×Ļ×Ļ×Ľ×ł×ĺ":3622,"ĠHTML":3623,"Ġ×¤×Ĳ×¨×Ĳ×Ļ×Ļ×ł×Ļ×Ĵ×ĺ×¢":3624,"Ġ×¤×¨×ķ×ĳ×Ļ×¨×ĺ":3625,"ab":3626,"if":3627,"×¨×Ļ×ĳ×¢×¨":3628,"Ġ×ŀ×¦×ľ×Ļ×Ĺ":3629,"Ġ×¦×Ļ×ŀ×¢×¨":3630,"×¨×Ļ×¡×¢×ľ×Ļ×¡×ĺ":3631,"Ġ×Ķ×Ļ×Ļ×¡":3632,"Ġ23":3633,"um":3634,"Ġ×¦×¢×ł×ĺ":3635,"Ġ×ľ×Ĺ":3636,"ite":3637,"Ġ×ŀ×¢×ľ×ĵ":3638,"Ġ×ľ×ĵ":3639,"Ġ×¨×¢×Ĵ×Ļ×¡×ĺ×¨×Ĳ":3640,"Ø³":3641,"×Ļ×¢×ķ×ª":3642,"Ġ×Ļ×ł×§×ķ×ķ×¢×¨×Ļ×ĸ":3643,"×ķ×¢×ľ":3644,"×ĺ×ĸ":3645,"Ġ×§×Ļ×Ļ×ĺ":3646,"Ġ×Ĳ×Ļ×ł×ĺ×¢×¨×ķ×ķ×Ļ×ķ":3647,".\"":3648,"×ľ×ķ×Ļ×ĺ":3649,"Ġ×ķ×ķ×¢×§×¢×¨":3650,"Ġ×ł×¢×ĳ":3651,"×Ļ×Ľ×ľ×¢×ļ":3652,"11":3653,"Ġ×§×¨×¢×¤×ĺ×Ł":3654,"Ġ×Ĳ×ķ×¤":3655,"Ġ×ĳ×ľ×Ļ×§":3656,"Ġ×§×©×Ļ×Ĳ":3657,"Ġ×Ĳ×ķ×Ļ×¡×Ĵ×¢×©":3658,"Ġ×ĳ×¢×ľ×Ļ":3659,"×ķ×ľ×ĺ×Ĳ":3660,"Ġ×ĳ×¢×ł×§":3661,"×¨×ª":3662,"Ġ×Ļ×ķ×¨×Ĳ":3663,"Ġ×Ķ×Ļ×Ļ×ľ×Ļ×§×¢×¨":3664,"×©×ĺ×Ļ×Ļ×Ł":3665,"×ķ×ĸ×Ļ×¢":3666,"Ġ×ĺ×ķ×ķ×Ļ×ĺ×¢×¨":3667,"Ġ×Ķ×Ļ×¡×ĺ×Ĳ":3668,"Ġ×¦×ķ×Ĵ×¢×©×ĺ×¢×ľ×ĺ":3669,"Ġ×ĳ×Ļ":3670,"Ġ×ĺ×¨×Ļ×ł×§":3671,"×ķ×Ļ×¢×ĺ":3672,"×ł×ĺ×¢":3673,"Ġ×¨×ķ×Ĺ":3674,"Ġ×¤×¨×Ĳ×ł×§":3675,"×¨×©×¢×¨":3676,"Ġ×ŀ×Ĳ×ĵ×¢×ľ×Ł":3677,"×Ļ×Ļ×ł×Ļ×§×ķ×ł×Ĵ":3678,"×ŀ×©×ļ":3679,"Ġ×Ĳ×ķ×Ļ×ĺ×Ĳ":3680,"Ġ×ŀ×ķ×¡×ĵ×ķ×ª":3681,"×ł×Ļ×ķ×ª":3682,"Ġ×Ļ×Ĳ×Ķ":3683,"×ķ×ķ×Ĳ×ķ×¡×ĺ":3684,"Ġ×¤×¢×ľ":3685,"Ġ×¤×Ĳ×¨×ľ×Ĳ×ł×Ĵ×ĺ":3686,"Ġ×Ĳ×Ļ×ł×¡":3687,"Ġ×§×¨×Ļ×ª":3688,"×Ĵ×¢×ĳ×Ł":3689,"Ġ×§×ķ×§×Ļ×ł×Ĵ":3690,"×ĵ×ķ×§×ĺ":3691,"×Ĳ×Ĵ×¢×¨":3692,"Ġ×ĳ×Ĳ×¤×¢×ľ×§×¢×¨×ķ×ł×Ĵ":3693,"×¨×Ļ×Ĵ":3694,"ted":3695,"×¨×ķ×Ļ×ĵ":3696,"Ġ×ĳ×Ļ×ĺ":3697,"Ġ×¦×¤":3698,"×¢×ĵ×Ĳ":3699,"Ġ×Ĵ×¢×©×Ĳ×¡×Ł":3700,"Ġ×ŀ×¢×¨×¥":3701,"×Ļ×¦×Ļ×Ĳ":3702,"Ġ×Ĳ×§×Ĳ×ķ×ł×ĺ":3703,"Ġ×ĳ×Ļ×Ļ×ĳ":3704,"×ĸ×¢×Ł":3705,"Ġ×Ĳ×Ļ×©×Ļ×ª":3706,"Ġ×Ķ×¢×ŀ":3707,"gmail":3708,"×ķ×ł×ĸ":3709,"Ġ×¤×ľ×Ļ×¢×ł×ĵ×Ļ×§":3710,"Ġ×Ľ×ĵ×Ĳ×Ļ":3711,"×Ĳ×§×¦×Ļ×¢":3712,"×¡×ĺ×¨×Ĳ":3713,"Ġ×ĳ×¢×Ļ×ĳ×Ļ":3714,"ĠïŃĦ":3715,"×ł×ľ×Ļ×Ļ×Ĵ×Ł":3716,"Ġ×¤×ľ×Ĳ×Ł":3717,"×ĳ×ķ×ľ":3718,"Ġ×ĵ×Ļ×¨×¢×§×ĺ":3719,"Ġ×ĵ×Ķ":3720,"Ġ×¨×Ļ×¨":3721,"ĠÙĪ":3722,"Ġ×Ĳ×ľ×ĺ×¢×¨":3723,"Ġ×Ĵ×¢×¡×ĺ":3724,"×ķ×ķ×¢×¨×¡":3725,"Ġ×¤×¨×¢×Ĵ×ĺ":3726,"Ġ×©×ĺ×ķ×ĵ":3727,"×Ĳ×§×Ł":3728,"Ġ×ķ×ķ×Ļ×ľ×Ĳ×ł×Ĵ":3729,"Ġ×ŀ×¢×¨×¡×ĺ×¢":3730,"×ķ×¦×Ļ×¢":3731,"Ġ×Ĵ×¢×¢×¤×ł×ĺ":3732,"×ł×ķ×ķ×Ĳ":3733,"×Ĳ×¤×Ļ×¢":3734,"Ġ×Ĳ×ķ×ł×Ĵ":3735,"Ġ×ĳ×¡":3736,"×ŀ×Ĺ":3737,"Ġ×Ľ×Ļ×ł":3738,"Ġ×ŀ×¢×ł×ĺ×©×ľ×Ļ×Ľ×¢":3739,"Ġ×¨×Ļ×Ľ×ĺ×Ļ×Ĵ":3740,"Ġ×¢×Ľ":3741,"×ķ×ķ×¢×Ŀ":3742,"Ġ×¤×Ĳ×¨×ľ×ķ×¡×ĺ×Ł":3743,"Ġfor":3744,"Ġ×ĳ×ķ×ĵ":3745,"×Ļ×ĳ×Ĳ":3746,"Ġ×ĵ×¨×ķ×§×Ł":3747,"Ġ×ķ×ķ×¢×¡×ĺ×ķ":3748,"Ġ×Ĵ×Ļ×¨×ľ×¡":3749,"Ġ×¦×ķ×ĺ×¨×Ļ×ĺ":3750,"Ġ×¡×Ļ×ĳ×ķ×ª":3751,"×¨×©×ĺ×Ļ×Ļ×Ł":3752,"×ĺ×Ļ×ĸ":3753,"×Ľ×ĵ×Ļ":3754,"Ġ×Ļ×ķ×ł×Ĵ×¢":3755,"Ġ×§×¢×ŀ":3756,"Ġ×Ĳ×ł×ĵ×¢×¨×Ł":3757,"ĠØª":3758,"×¢×ĵ×Ļ×©×¢":3759,"Ġ×ŀ×Ļ×Ļ×§":3760,"Ġ×ĸ×¢×ľ×ĳ×Ł":3761,"Ġ×ŀ×¡×Ľ×Ļ×Ŀ":3762,"×§×Ĳ×ľ":3763,"Ġ×Ĳ×ĳ×Ĳ×ŀ×Ĳ":3764,"×¢×¨×ķ×ķ":3765,"×ľ×Ĺ×Ķ":3766,"×Ķ×Ļ×Ļ×ł×ĺ":3767,"Ġ×ķ×ķ×Ĳ×¨×ĺ×Ł":3768,"Ġ×Ľ×ĳ×ķ×ĵ":3769,"×§×¢×ĺ":3770,"Ġ×ľ×Ĵ":3771,"Ġ×Ķ×ŀ×ľ×Ĺ":3772,"×ľ×Ļ×¡×ĺ×Ļ×§":3773,"Ġ×ķ×ķ×Ļ×Ļ×ľ×¢":3774,"Ġ×ķ×ķ×Ļ×Ļ×¡×¢":3775,"×ĺ×¢×Ĵ×Ĳ":3776,"Ġ×ķ×¢":3777,"×Ļ×¨×ķ×ª":3778,"×ķ×ķ×Ĳ×¨×Ĵ":3779,"Ġ×Ĳ×Ļ×ł×ĺ×¢×¨×¢×¡×Ĳ×ł×ĺ":3780,"×Ĳ×ł×¤":3781,"ĠGoogle":3782,"Ġ×ŀ×¢×ł":3783,"×Ļ×ĵ×Ł":3784,"Ġ×ĺ×©×Ļ×Ļ×ł×Ĳ":3785,"Ġ×¢×ł×Ļ×ł×Ļ×Ŀ":3786,"Ġ×ĸ×ķ×Ľ×ĺ":3787,"×¢×¨×ĵ":3788,"Ġ×Ľ×ª":3789,"ter":3790,"Ġ×¨×Ļ×Ļ×ł×Ļ×§×ķ×ł×Ĵ":3791,"Ġ×¤×Ĳ×¨×Ķ×Ĳ×Ł":3792,"×Ļ×ĵ×Ĳ":3793,"ir":3794,"Ġ×¦×ķ×ĳ":3795,"×Ĳ×ľ×¡":3796,"Ġ×Ĳ×Ļ×ł×Ĵ×Ĳ×ł×¦×Ł":3797,"×ľ×ĺ×¢":3798,"Ðº":3799,"Ġ×¦×Ļ×Ļ×Ł":3800,"ion":3801,"Ġ×ĳ×¢×¤×Ĳ×¨":3802,"×ł×ĵ×Ļ×¨":3803,"ÙĦØ":3804,"Ġ×ľ×Ļ×ĺ×¢×¨×Ĳ":3805,"Ġ×ķ×ķ×Ļ×ľ×Ļ×Ĳ×ŀ×¡×ĳ×ķ×¨×Ĵ":3806,"Ġ×Ķ×Ļ×ł×ĺ×¢×¨":3807,"Ø¬":3808,"Ġ×ķ×Ľ×ĵ":3809,"×¡×Ļ×§":3810,"×Ĳ×ĳ×Ł":3811,"Ġ×§×¨×Ļ×¡×ĺ":3812,"Ġ0":3813,"Ġ×©×Ľ×ľ":3814,"Ġ×¤×Ĳ×¨×ĳ×¨×¢×ł×Ĵ×¢×Ł":3815,"×Ķ×¢×¨×Ł":3816,"×ĺ×Ļ×©":3817,"Ġ×Ĵ×¢×ķ×ķ×Ļ×Ļ×ł×ĺ":3818,"Ġ×ĵ×Ĳ×¨×¤":3819,"ĠïŃİï¬®":3820,"Ġ×ł×ķ×¡×Ĺ":3821,"Ġ×¢×ĸ×Ķ":3822,"Ġ×Ĵ×¢×Ľ×Ĳ×¤×ĺ":3823,"×§×ķ×Ļ×Ŀ":3824,"×Ļ×ķ×ķ×Ł":3825,"ĠØŃ":3826,"ĠÙĥ":3827,"Ġ×Ļ×Ĵ×Ĳ×ľ":3828,"×¤×Ĳ×ľ×¢×¡×ĺ×Ļ×ł×¢×¨":3829,"Ġ×ł×ķ×©×Ĳ×Ļ×Ŀ":3830,"Ġ×¨×Ļ×§×¦×ķ×Ĵ":3831,"×©×ĺ×Ĳ":3832,"one":3833,"×ķ×Ļ×ł×¢":3834,"ri":3835,"Ġ×Ķ×Ļ×Ļ×ł×ĺ×Ļ×Ĵ×¢":3836,"Ġ×ĺ×ķ×Ļ×ĸ×ł×ĺ":3837,"×Ĳ×ł×ĺ×¢×¨":3838,"60":3839,"Ġ--":3840,"ÙĪÙĨ":3841,"Ġ×¤×Ĳ×¡×Ļ×¨×ĺ":3842,"Ġ×ĳ×ł×Ļ×ŀ×¦×Ĳ":3843,"ag":3844,"×Ĳ×ł×Ļ":3845,"Ġ×Ļ×¢×ĵ×¢×¡":3846,"Ġ×Ļ×§×¡×¤":3847,"Ġ×Ĳ×Ļ×ł×¡×ĺ×Ļ×ĺ":3848,"Ġ×¡×¢×ł×Ĳ×ĺ":3849,"×ķ×¡×ĺ×Ĳ":3850,"×©×¢×Ł":3851,"×Ķ×Ĳ×ľ×ĺ":3852,"Ġ×Ĵ×¢×ĺ×ķ×Ł":3853,"Ġ×Ĳ×ł×Ĵ×¢×¤×Ĳ×ł×Ĵ×¢×Ł":3854,"Ġ×¦×°":3855,"Ġ×Ĳ×ķ×¦":3856,"Ġ×Ĵ×ľ×Ļ×Ļ×ĳ×Ł":3857,"):":3858,"Ġ×©×¤×Ļ×ľ":3859,"×¨×©×ĺ×Ĳ":3860,"×ķ×¨×Ļ":3861,"Ø§Ø¨":3862,"Ġ×Ĳ×¨×Ĵ×Ĳ×ł×Ļ×ĸ":3863,"Ġ×ĵ×¢×ŀ×Ĳ×§×¨×Ĳ×ĺ":3864,"Ġ×Ĳ×Ľ×ĺ":3865,"ĠÙĨØ":3866,"Ġ×¤×Ļ×Ļ×ľ":3867,"Ġ×ķ×ķ×¢×ł×ĵ":3868,"×Ķ×Ļ×Ļ×Ŀ":3869,"Ġ×ĳ×¨×ķ×ļ":3870,"Ġ×ŀ×ľ×ļ":3871,"Ġ×ĺ×¢×¡×¥":3872,"×ĳ×Ļ×©":3873,"×Ļ×Ļ×ĺ×Ļ×ĵ":3874,"Ġ×¤×Ĳ×ŀ":3875,"Ġ×¦×Ļ×ŀ":3876,"Ġ×Ĵ×¢×ķ×ķ×Ļ×ĸ×Ł":3877,"Ġ×ķ×ķ×Ļ×Ļ×Ľ":3878,"×Ļ×Ĵ×¨":3879,"Ġ×¨×Ļ×ĺ":3880,"×©×ĺ×Ļ×Ļ×ĺ":3881,"Ġ×Ĵ×¢×¤×Ļ×ľ":3882,"ĠØ§ÙĦØ¬":3883,"ÙĬØª":3884,"Ġ×¤×¢×¡×ĺ":3885,"Ġ22":3886,"×ł×Ł":3887,"×ŀ×ĳ×ľ×Ļ×ł×Ĵ":3888,"Ġ×Ľ×¡×ĵ×¨":3889,"×ĸ×Ļ×Ļ×Ł":3890,"Ġ×¤×ľ×Ļ×Ļ×¦×ķ×ł×Ĵ":3891,"Ġ×ľ×Ļ×§":3892,"Ġ×§×Ĳ×ŀ×Ĳ×ĵ×Ĳ":3893,"Ġ×ŀ×Ķ×ľ×ļ":3894,"Ġ×¤×ľ×Ļ×Ļ×¦×ķ×ł×Ĵ×¢×Ł":3895,"Ġ×ĺ×¨×Ĳ×Ĵ×¢×ĵ×Ļ×©×¢":3896,"ĠÙĬØ":3897,"Ġ×¤×¢×ĵ×¢×¨":3898,"Ġ×ł×Ļ×Ĳ":3899,"×¡×Ļ×Ľ×ķ×Ŀ":3900,"×¨×ł×Ļ×¢":3901,"Ġ×ķ×ķ×ĺ×¢×¨":3902,"Ġ×ĸ×¢×Ľ×¦×Ļ×Ĵ":3903,"×¨×¤×Ł":3904,"Ġ×¨×Ļ×Ļ×Ľ":3905,"ĠÙħØ¹":3906,"×¨×Ļ×§×¡":3907,"Ġ×Ĳ×ł×Ĵ×¢×¨×ķ×¤×Ł":3908,"Ġ×¡×Ļ×ĵ":3909,"Ġ×¨×ķ×¡×Ļ×©":3910,"Ø³Ø§":3911,"âĢĶ":3912,"Ø¬Ùĩ":3913,"×¤×Ļ×¡":3914,"Ġ×Ĳ×Ļ×Ļ×ĳ×¢×¨×©":3915,"Ġ2017":3916,"Ġ×ŀ×¡×Ľ×ª":3917,"ÙĬØµ":3918,"Ġ×ĳ×¢×Ļ×§×¨":3919,"×Ļ×Ĵ×¡×ĺ×¢":3920,"Ġ×©×¨×Ļ×ĺ":3921,"Ġ×¨×¢×ĸ×ķ×ľ×ĺ×Ĳ":3922,"Ġ×ĵ×¢×ķ×ķ×¢×ľ×Ĳ":3923,"®ÙĬØµ":3924,"¸Ø±":3925,"×ĺ×Ļ×¨":3926,"×¨×ĳ×¢×¨":3927,"×§×ķ×ŀ×ĺ":3928,"×ķ×ŀ×¢×ł×ĺ":3929,"Ġ×Ĵ×¨×Ļ×Ľ":3930,"ÙĦØ§ÙĨ":3931,"Ġ×ĵ×¨×Ļ×Ļ×ķ×ķ":3932,"Ġ×§×¤×ľ×Ł":3933,"¬Ø¦":3934,"×ķ×¨×¡":3935,"ĠØ§ÙĦÙĪÙĨ":3936,"Ġ×Ķ×¡×Ļ×ķ×¨":3937,"Ġ×ł×Ļ×¦×Ķ":3938,"ĠÙĨÙĬØª":3939,"ÙĪÙĦØ©":3940,"Ġ×ĳ×ĸ×ķ×Ļ×ª":3941,"ĠÙĪØ¬Ùĩ":3942,"ĠØªÙĦØ":3943,"ĠØŃÙĪÙĦ":3944,"ĠÙĥØ§Ø¨":3945,"ĠÙĨØ¸Ø±":3946,"ĠØ§ÙĦØ¬ÙĪÙĦØ©":3947,"ĠÙĬØ¬Ø¦":3948,"ĠÙĨÙĬØªØ³Ø§":3949,"ĠÙĪØ¬ÙĩØ©":3950,"ĠØªÙĦØ®ÙĬØµ":3951,"ĠÙĥØ§Ø¨ÙĦØ§ÙĨ":3952,"ĠÙĬØ¬Ø¦Ø§ÙĦ":3953,"×§×Ļ×Ļ×©×Ĳ":3954,"×¨×¢×ŀ":3955,"Ġ×ŀ×Ł":3956,"×ŀ×¢×ĵ×Ļ×¢":3957,"80":3958,"Ġ×¤×Ĳ×ĸ":3959,"×ľ×¦×Ļ×Ļ":3960,"Ġ×ĵ×¢×¨×ķ×ķ×Ĳ":3961,"Ġ×Ķ×¦×ľ×Ĺ×Ķ":3962,"Ġ×¤×Ĳ×¨×§×¢×¨×ĺ":3963,"Ġ×¤×¨×Ĳ×¤×¢×¡":3964,"×ķ×¦×Ļ×¨×Ł":3965,"!!!":3966,"Ġ×¤×Ĳ×¡×ĺ":3967,"Ġ×¡×§×Ĳ":3968,"×Ĳ×ĳ×¢":3969,"Ġ×Ĵ×Ĳ×ł×¦×¢×¨":3970,"Ġ×ľ×¢×¨×ł×ĺ":3971,"Ġ×ķ×ķ×Ĳ×ł×ĺ":3972,"×¨×Ļ×Ĺ":3973,"Ġ×Ĳ×Ļ×ł×Ĳ":3974,"Ġ×ĵ×Ĳ×¨×ĺ×Ł":3975,"ph":3976,"Ġ×Ĵ×ľ×Ĳ":3977,"Ġ×ĳ×¢×©×Ĳ":3978,"Ġby":3979,"Ġ×Ĳ×Ļ×ľ×ķ×ĸ×Ļ×¢":3980,"×¨×Ļ×ĺ":3981,"Ġ×§×ľ×Ļ×ł×Ĵ×¢×Ł":3982,"Ġ×¤×Ļ×ľ×Ŀ":3983,"Ġ×ĳ×Ĳ×ĸ×Ļ×¨×ĺ":3984,"×ł×Ļ×§×Ĳ":3985,"Ġ×ĸ×Ļ×Ļ×Ĵ×¢×¨":3986,"Ġ×ł×Ļ×Ļ×¢×¨":3987,"Ġ×ĳ×Ĳ×©×Ĳ×¤×Ł":3988,"Ġ+":3989,"Ġ×ĵ×Ĳ×ĸ":3990,"×ĳ×Ķ":3991,"Ġ×¨×Ļ×Ļ":3992,"Ġ×Ĳ×Ļ×ł×ĺ×¨":3993,"Ġ×¤×©×ķ":3994,"×Ľ×ŀ×Ĳ":3995,"Ġ×Ĵ×¢×ł×ķ×¦×ĺ":3996,"Ġ×¦×Ļ×ĺ":3997,"×¦×¢×¡":3998,"Ġ×Ĵ×¢×ĺ×ķ×Ļ×©×ĺ":3999,"Ġ×ĸ×Ĳ×ľ×ĺ":4000,"Ġ×ĵ×Ļ×Ļ×ĺ×Ļ×ł×Ĵ":4001,"Ġ×ŀ×Ĺ×©×ĳ×Ķ":4002,"×ĵ×¢×¡":4003,"Ġ×ĵ×ķ×ķ×§×Ĳ":4004,"Ġ×¤×Ĳ×¨×©×ĺ×Ĳ×ł×¢×Ł":4005,"Ġ×ľ×Ļ×Ĵ":4006,"ily":4007,"Ġ×ŀ×Ļ":4008,"Ġ×Ĵ×Ŀ":4009,"Ġ×ĺ×¨×Ļ×Ļ×ĵ":4010,"×Ļ×§×¢×Ł":4011,"Ġ×¤×ľ×Ļ":4012,"ook":4013,"Ġ×ĵ×Ļ×Ĳ":4014,"×ķ×¨×ª":4015,"Ġ×Ĺ×ĳ×¨×Ķ":4016,"Ġ×ŀ×¦×Ļ×Ĳ×ķ×ª":4017,"Ġ×§×Ĳ×ł×Ĵ×¨×¢×¡":4018,"Ġ×ķ×ķ×Ļ×¨×ĺ":4019,"×ķ×Ļ×ķ":4020,"×ķ×ł×Ĵ×¡":4021,"Ġ×¨×¢×ĵ×Ĳ×§×¦×Ļ×¢":4022,"Ġ×¢×ł×¢×¨":4023,"Ġ×¤×Ĳ×¨×Ĵ×¢×¡×Ł":4024,"Ġ×Ĺ×Ļ×¤":4025,"Ġ×ĺ×¢×Ľ×ł×Ĳ":4026,"Ġ×¢×¡×§":4027,"Ġ×ķ×ķ×¢×§×¡":4028,"×Ļ×Ĵ×ľ":4029,"Ġ×Ĳ×¨×Ļ×Ļ×ł":4030,"×ľ×¢×ŀ×¢×Ł":4031,"Ġ×¤×Ĳ×ľ×Ĵ":4032,"Ġ×Ĳ×ķ×Ļ×¡×Ĵ×¢×§":4033,"Ġ×¡×ŀ×¢×©×Ĳ":4034,"Ġ×¦×¢×ŀ×Ļ×©":4035,"ĠThe":4036,"Ġ×Ļ×¤":4037,"Ġ×¨×Ļ×¡×Ĳ":4038,"Ġ×Ĵ×Ĳ×¨×ł×Ļ×ĺ":4039,"×ķ×ķ×Ļ×Ļ×ĸ×Ł":4040,"×Ļ×Ļ×ĸ×ĵ":4041,"Ġ×¤×ķ×¤":4042,"90":4043,"Ġ×ŀ×ķ×ĺ×¢×¨":4044,"Ġ×ľ×Ļ×Ļ×ĺ":4045,"×Ļ×¡×ľ×¢×ļ":4046,"×¨×Ĵ×¢×¡×Ł":4047,"Ġ×ķ×ķ×¢×¨×§":4048,"×§×¡×Ł":4049,"Ġ×Ĳ×ķ×Ļ×¡×Ĵ×¢×¤":4050,"×ľ×Ļ×§":4051,"×Ļ×ŀ×¢×ł×ĺ":4052,"×¡×Ļ×Ĳ":4053,"Ġ×¡×¢×ŀ":4054,"×¢×Ķ×Ĳ×ľ×ĺ×Ł":4055,"Ġ×ŀ×Ļ×ľ×ļ":4056,"WS":4057,"Ġ×§×Ĳ×ł×ĵ×Ļ×ĵ":4058,"Ġ×¤×¨×ķ×ĳ×Ļ×¨×Ł":4059,"Ġ×©×ķ×ķ×Ĳ×¨×¦×¢":4060,"Ġ×Ĳ×ł×©×Ļ":4061,"Ġ×ĵ×Ĳ×ľ×¢×¨":4062,"Ġ×©×ĺ×Ļ×Ļ×Ĵ×¢×¨":4063,"Ġ×Ĳ×¤×©×ĺ×¢×ľ":4064,"Ġ×Ĵ×¨×Ļ×ł×Ĵ×¢×¨":4065,"×ł×ĺ×ķ×ķ×Ļ×§×ľ×ķ×ł×Ĵ":4066,"Ġ×ľ×¢×Ĵ×Ĳ":4067,"×¨×Ļ×Ļ×ĺ×Ł":4068,"×Ļ×ľ×ĵ":4069,"×ł×Ĵ×¢×©":4070,"Ġ×¤×Ĳ×¨×¨":4071,"×ķ×ķ×Ļ×¤":4072,"×ľ×Ļ×ĳ×ĺ":4073,"×Ĳ×¦×Ļ×Ĳ×ł×Ĳ×ľ×¢":4074,"Ġ×¤×ķ×ł×§":4075,"Ġ×§×Ļ×Ľ×ľ×¢×ļ":4076,"Ġ×ĺ×©×¢×ĺ":4077,"×ĺ×ĺ":4078,"Ġ×Ĵ×¢×©×ķ×ķ×Ļ×ł×ĵ":4079,"Ġ×¤×Ĳ×¨×ľ×ķ×Ļ×¨×Ł":4080,"Ġ×Ĵ×¢×ķ×ķ×¢×ł×ľ×Ļ×ļ":4081,"Ġ×¨×Ĳ×¡":4082,"Ġ×¤×Ĳ×¨×ķ×ķ":4083,"Ġ×¤×¨×Ļ":4084,"×Ĳ×ł×Ļ×©":4085,"Ġ×ŀ×¢×ł×ĺ×©×¢×Ł":4086,"×ł×ĺ×ķ×ķ×Ļ×§×ľ×ĺ":4087,"Ö¹":4088,"Ġ×Ĵ×Ĳ×¡×Ł":4089,"×¨×Ĵ×¨×¢×¡":4090,"×¢×ŀ×Ĳ×ľ":4091,"Ġ×ĵ×ķ×¨×ķ×ª":4092,"Ġ×ª×Ļ×¨":4093,"Ġ×ŀ×¦×¨×Ļ×Ŀ":4094,"Ġ×Ķ×Ļ×¤":4095,"Ġ×Ĵ×ľ×Ļ×Ļ×ĳ":4096,"Ġ×ĳ×Ĳ×§×ķ×ŀ×ĺ":4097,"Ġ×ŀ×§×ķ×Ŀ":4098,"66":4099,"Ġ×¦×¢×¨":4100,"ine":4101,"ord":4102,"×Ļ×¢×¦×ĺ":4103,"Ġ×ĳ×Ļ×Ļ×ĳ×Ļ×¡":4104,"Ġ×ĵ×²":4105,"Ġ×Ĺ×ĵ×¨":4106,"Ġ×¡×ĺ×ķ×ĵ×¢×ł×ĺ×Ł":4107,"×ķ×ŀ×ķ×ª":4108,"Ġ×Ĳ×ŀ×ķ×ł×Ķ":4109,"Ġ×Ĳ×Ļ×ł×ĺ×¢×¨×¡":4110,"Ġtat":4111,"Ġ×Ĳ×ĺ×Ĳ×§":4112,"×ĸ×Ļ":4113,"Ġ×ª×§×ķ×¤×Ķ":4114,"Ġ×©×ŀ×¢":4115,"×©×Ļ×¡×¢×¨×Ļ×Ļ":4116,"22":4117,"×©×ĺ×Ĳ×ĺ":4118,"?)":4119,"Ġ×Ļ×ł×¤":4120,"Ġ×Ĳ×¨×Ĳ×ĳ":4121,"Ġ21":4122,"Ġ×¤×Ĳ×¨×§×ķ×Ļ×¤×ĺ":4123,"×Ļ×Ļ×ł×ĸ":4124,"Ġ×Ĺ×¨×ĵ":4125,"Ġ×Ĵ×¢×ĵ×¢×ł×§×¢×Ł":4126,"×¨×Ĵ×¨×¢×¡×¢×¨×Ł":4127,"Ġ×ŀ×¢×ł×¢×¨":4128,"Ġ×Ļ×¢×Ļ×ľ":4129,"ĠâĢł":4130,"×ł×¢×ĺ×§×Ļ":4131,"Ġ×Ĳ×Ļ×ĳ×¢×¨×ĸ×¢×¦×ķ×ł×Ĵ":4132,"Ġ×ľ×Ĳ×ĺ":4133,"×¢×ľ×Ļ×Ļ×ĺ":4134,"Ġ×¤×Ĳ×ķ×Ł":4135,"ut":4136,"Ġ×¡×¤×¢×¦×Ļ×¢×ľ":4137,"Ġ×¤×Ļ×ł×Ĵ×¢×¨":4138,"×Ĳ×¨×Ļ×¢":4139,"Ġ×Ĳ×Ļ×Ļ×ķ×ķ":4140,"Ġ×Ĵ×Ļ×Ļ×¡×ĺ":4141,"Ġ×Ļ×ł×ĺ×¢×¨":4142,"ois":4143,"×¨×Ļ×Ł":4144,"Ġ×Ĵ×¨×¢×¡×¢×¨":4145,"Ġ×ĵ×Ļ×Ĵ":4146,"Ġ×ķ×ķ×Ĳ×ľ×Ł":4147,"Ġ×ĳ×Ļ×Ļ×ĳ×Ļ×¡×Ļ×ĺ×Ļ×ł×Ĵ":4148,"Ġ×Ĵ×Ĳ×ľ":4149,"×¢×Ľ×ĺ×¢×¨":4150,"Ġ×ķ×ķï¬¯×¡":4151,"×©×ķ×ľ×ĵ":4152,"×¢×ķ×ķ×ĵ×Ļ×§":4153,"×¨×ĳ×¢×¨×©×Ĳ":4154,"Ġ×ķ×ķ×Ĳ×ķ×Ļ×ł×¢×Ł":4155,"70":4156,"×ł×Ļ×¡":4157,"×ľ×Ĳ×ĸ":4158,"×ŀ×ĸ":4159,"Ġ×ł×Ĳ×¨×ŀ":4160,"ï¬¯×¨":4161,"Ġ×ľ×Ĳ×ł×ĵ×Ĳ×Ł":4162,"×ĳ×ĵ":4163,"Ġ×§×ľ×Ļ×ł":4164,"Ġ×Ĳ×ŀ×¢×¨×Ļ×§×Ĳ":4165,"×ķ×ĳ×ľ×Ļ×§×Ĳ×ł×¢×¨":4166,"Ġ×ŀ×ĵ×¨×Ĵ×Ķ":4167,"Ġ×Ļ×Ĳ×ł":4168,"×ķ×©×¢":4169,"ore":4170,"Ġ×¤×¨×¢×¡×¢":4171,"Ġ×Ĺ×ł":4172,"Ġ×ł×Ļ×ĺ×Ĳ":4173,"Ġ×Ĳ×ł×Ķ×Ļ×Ļ×ĳ×Ł":4174,"Ġ×Ĳ×Ļ×Ļ×ķ×ķ×¢×ľ×ĺ":4175,"Ġ×ĸ×Ļ×ĳ×Ł":4176,"Ġ×ķ×ķ×Ļ×Ļ×ł×Ļ×§×¢×¨":4177,"Ġ×©×Ĳ×¤×Ł":4178,"Ġ×¢×§×ĸ×Ļ×¡×ĺ×¢×ł×¥":4179,"Ġ×¦×¢×ŀ×Ļ×©×¢×ł×ĵ×Ļ×Ĵ×¢":4180,"Ġ×ŀ×ķ":4181,"Ġ26":4182,"×¨×©×ķ×ł×Ĵ":4183,"Ġ×Ĵ×¨×¢×¡×¢×¨×¢":4184,"Ġ×Ĵ×¢×©×ŀ×Ĳ×§":4185,"×Ļ×ĺ×Ĳ×ľ":4186,"Ġ×§×Ļ×Ļ×ł×¢×Ŀ":4187,"×ķ×ķ×Ļ×Ļ×ĺ":4188,"Ġ×ĳ×Ĳ×ł×ķ×¦":4189,"Ġ×Ĳ×©×¨":4190,"Ġ×ĳ×Ĳ×ĸ×ķ×ł×ĵ":4191,"×¨×ķ×ķ×Ļ×Ļ":4192,"ÙĤ":4193,"Ġ×¤×¢×ľ×ĺ":4194,"Ġ×©×ķ×ķ×Ļ×":4195,"Ġ×ķ×Ľ×ĵ×ķ×ŀ×Ķ":4196,"Ġ×¤×ķ×Ļ×ł×ĺ":4197,"Ġ×ķ×ķ×Ļ×ł×ĺ":4198,"Ġ×Ĳ×Ļ×ł×Ĳ×Ļ×Ļ×ł×¢×Ŀ":4199,"Ġ×¤×ķ×ĺ":4200,"ÑĥÑĥÑĥÑĥ":4201,"×ĳ×Ĳ×ľ":4202,"Ùģ":4203,"×ł×¦×Ł":4204,"Ġ×Ķ×Ĳ×¡×ĺ×ķ":4205,"Ġ×Ļ×Ķ×ķ×ĵ×Ķ":4206,"Ġ×¨×Ĺ×ŀ":4207,"×¨×ł":4208,"Ġ×ł×¢":4209,"×ŀ×Ļ×ł×Ĵ":4210,"Ġ×¡×¢×ł×¡":4211,"Ġ×§×ľ×Ļ×¤":4212,"Ġ×¦×ķ×©×ĺ":4213,"Ġ×§×Ĳ×ŀ×¤×Ļ×Ļ×Ł":4214,"×ł×Ļ×¥":4215,"Ġ×ĸ×Ļ×Ļ×ĺ×ľ×¢×ļ":4216,"Ġ×Ķ×Ļ":4217,"Ġ×ł×¢×Ĵ":4218,"Ġ×Ĳ×Ļ×Ļ×ł×ķ×ķ×Ĳ":4219,"Ġ×ĵ×Ļ×Ł":4220,"Ġ×ķ×ķ×Ĳ×©×Ļ×ł×Ĵ×ĺ×Ĳ×Ł":4221,"Ġ×ĳ×¢×§":4222,"Ġ×¦×ĵ×Ļ×§×Ļ×Ŀ":4223,"Ġ×ĳ×Ĳ×ŀ×¢×¨×§×ĺ":4224,"99":4225,"Ġ×¤×Ĳ×¢×ĸ×Ļ×¢":4226,"×ŀ×¢×¨×Ļ×§×¢":4227,"Ð¾Ð":4228,"×ĵ×Ļ×Ļ×Ł":4229,"Ġ×ľ×Ļ×¤":4230,"Ġ×¨×Ļ×Ļ×Ł":4231,"×Ļ×Ĵ×§×Ļ×Ļ×ĺ":4232,"Ġ×¤×Ĳ×¨×§×ķ×Ļ×¤×Ł":4233,"ÑģÑģÑģÑģ":4234,"Ġ×ĵ×¢×ĳ":4235,"×Ĳ×Ľ×¢×Ł":4236,"ire":4237,"×¡×Ļ×ĺ":4238,"×¢×ĺ×¡":4239,"Ġ×¤×¨×Ļ×©":4240,"Ġ×Ĵ×ķ×ĺ×Ł":4241,"Ġ×ķ×Ľ×ĵ×ķ":4242,"×¨×Ŀ":4243,"×¢×¨×¢×Ľ×ł×ĺ":4244,"Ġ×ĸ×Ķ":4245,"×¨×ĵ×¤":4246,"Ġ×©×Ĳ×ĵ":4247,"Ġ×¤×¨×¢×Ĵ":4248,"Ġ×Ĺ×Ľ×ŀ×Ķ":4249,"Ġ×©×¢×ĵ":4250,"Ġ×ĺ×Ķ":4251,"Ġ×Ĳ×¤×Ĵ×¢×©":4252,"Ġ×ĳ×Ļ×ĸ×Ł":4253,"Ġ×¤×Ĳ×¨×Ĵ×¢×§×ķ×ŀ×¢×Ł":4254,"Ġ×¤×¨×Ĳ×ĺ":4255,"av":4256,"×Ļ×¡×Ļ":4257,"ÙĦØ§":4258,"×ŀ×Ļ×ł×Ļ×¡×ĺ×¨":4259,"×§×¢×ĺ×Ł":4260,"×Ļ×©×¤":4261,"Ġ×ľ×Ľ×ª×Ĺ":4262,"Ġ×§×Ĳ×ł×ĺ×¢×§×ĺ×Ł":4263,"âĢĵ":4264,"×Ļ×Ļ×ĸ×Ļ×ł×Ĵ":4265,"Ġ×Ķ×Ļ×Ļ×ľ×Ļ×Ĵ×¢":4266,"Ġ×ł×¢×ĳ×¢×ļ":4267,"×¨×ķ×ķ×Ĳ":4268,"×©×ķ×ľ":4269,"Ġ×§×ķ×ŀ×¢×ł×ĵ×Ļ×Ĵ×¢":4270,"×°×Ĳ":4271,"×Ļ×¡×Ļ×Ł":4272,"Ġ40":4273,"Ġgily":4274,"oinois":4275,"Ġgilyoinois":4276,"pp":4277,"×Ĳ×¨×ĳ×Ł":4278,"×Ĳ×ľ×¤×Ł":4279,"Ġ×Ĵ×¢×ķ×ķ×¢×ĸ":4280,"×ł×¡×Ķ":4281,"Ġ×Ĳ×Ļ×Ļ×ł×Ļ×§":4282,"Ġ×Ĵ×¢×ķ×ķ×Ĳ×¨×¢×Ł":4283,"Ġ×ĳ×Ĳ×¡":4284,"×ķ×¨×ĵ":4285,"×Ļ×ķ×ķ×Ļ×ĺ":4286,"×ł×Ĵ×¢×¤":4287,"×¨×Ĳ×ĺ×Ł":4288,"Ġ×¨×ĳ×Ļ×ł×ķ":4289,"Ġ×Ĳ×¨×ĳ×Ļ×Ļ×ĺ":4290,"Ġ×ĸ×©×ķ×¨×ł×Ĳ":4291,"×Ļ×ł×ĸ":4292,"×ľ×ķ×§":4293,"×Ļ×Ĳ×¨×§":4294,"Ġhttp":4295,"Ġ×ŀ×¢×Ĵ×ľ×Ļ×Ľ×§×Ļ×Ļ×ĺ×Ł":4296,"Ġ×ĵ×¢×¨×ľ":4297,"×¢×§×¦×Ļ×¢":4298,"Ġ×§×ľ×Ļ×Ļ×ĵ×¢×¨":4299,"Ġ×ķ×ķ×¢×Ŀ":4300,"×Ĳ×¨×Ĵ":4301,"×ł×§×Ļ×Ļ":4302,"×ĺ×¢×Ĵ×Ļ×¢":4303,"×¨×ķ×ķ":4304,"Ġ×ĵ×ķ×§×Ĳ":4305,"×ķ×ķ×Ķ":4306,"Ġ×ĳ×Ĳ×Ķ×Ĳ×ł×ĵ×ľ×ĺ":4307,"Ġ×Ĵ×¢×ĵ×¢×ł×§×ĺ":4308,"×Ĵ×ķ×ĳ×ķ×ª":4309,"Ġ×¤×¨×Ĳ×Ĵ×¨×Ĳ×Ŀ":4310,"Ġ×ķ×ķ×Ļ×Ļ×Ľ×ķ×ķ×Ĳ×¨×Ĵ":4311,"×¢×ł×ĺ×¢":4312,"×ł×¢×¨×§":4313,"×Ĳ×ł×ĸ":4314,"×ľ×Ļ×©×¢":4315,"×¨×ĳ×¢×¡×¢×¨×Ł":4316,"Ġ×¤×ķ×ł×§×ĺ×ľ×Ļ×ļ":4317,"×¨×ĸ":4318,"Ġ×¨×Ĵ×¢":4319,"ĠÂ£":4320,"Ġ×Ĺ×¡×Ļ×ĵ×ķ×ª":4321,"Ġ×Ĵ×¢×©×ĺ×Ĳ×ł×¢×Ł":4322,"ĠNew":4323,"Ġ×¤×¨×Ĳ×Ĵ×¢":4324,"Ġ×Ĵ×¢×ľ×Ļ×Ļ×Ĵ×ĺ":4325,"×ķ×ķ×Ł":4326,"×Ĳ×ŀ×ĺ":4327,"×ŀ×ķ×ł":4328,"Ġ×¡×Ļ×Ĵ":4329,"×ł×Ľ":4330,"...)":4331,"×ĸ×¢×¦×Ł":4332,"Ġ×ĳ×¤×¨×ĺ":4333,"Ġ×¨×ķ×ŀ":4334,"Ġ×¦×ĳ×Ļ":4335,"Ġ×¡×ķ×Ľ×Ķ":4336,"Ġ×Ĵ×¨×Ĳ×ŀ×Ĳ×ĺ":4337,"×¨×ĺ×Ļ×§×ľ×¢×Ł":4338,"Ġ×Ĵ×¢×©×¢×¢×ł×Ļ×©×Ł":4339,"Ġ×ĺ×¢×ŀ×¤":4340,"×ķ×Ļ×¢×¨×Ł":4341,"×Ĵ×¢×¨×Ļ×¡×Ł":4342,"×ª×Ĳ":4343,"Ġ×Ĳ×Ļ×¨×Ĳ×Ł":4344,"×¢×©×ĺ":4345,"×Ļ×Ķ×ķ":4346,"Ġ×ķ×ķ×Ļ×¨×§":4347,"Ġ×Ĳ×ł×Ķ×Ļ×Ļ×ĳ":4348,"Ġ×§×¢×¡×ĺ":4349,"×Ļ×Ĵ×Ķ":4350,"Ġ×¤×¨×Ļ×Ļ×ľ":4351,"Ġ×§×ľ×ķ×Ĵ":4352,"Ġ×¨×¢×¤×ķ×ĳ×ľ×Ļ×§×Ĳ×ł×¢×¨":4353,"Ġ×ł×ĵ":4354,"×¨×Ĳ×¡":4355,"×¨×Ĺ":4356,"Ġ×ĺ×Ļ×Ļ×¤":4357,"×¢×ľ×ķ×ł×Ĵ":4358,"Ġ×Ĳ×Ķ×Ļ×Ł":4359,"×Ĵ×¨×¢×¡":4360,"Ġ×Ĵ×¢×ķ×ķ×Ĳ×ķ×Ļ×ł×ĺ":4361,"Ġ×Ĳ×±×¡":4362,"40":4363,"×¤×ĺ×ľ×¢×ļ":4364,"Ġ×©×¢×ł×§":4365,"×Ĳ×Ĵ×ĳ":4366,"Ġ×Ĳ×ķ×ķ×ĵ×Ĳ×Ļ":4367,"Ġ×ŀ×ĵ×¨×©":4368,"×©×ķ×ª":4369,"Ġ×ľ×¤":4370,"Ġ×Ķ×ķ×Ļ×Ľ×¢":4371,"Ġ×ľ×Ļ×¡":4372,"×Ļ×ł×Ĵ×ĸ":4373,"×¨×ĳ×Ķ":4374,"×¦×ķ×ķ×ª":4375,"88":4376,"×ķ×ĵ×Ļ":4377,"Ġ×ĳ×Ĳ×Ł":4378,"×Ļ×Ļ×¡×ĺ×¢×¨":4379,"ra":4380,"×Ļ×¢×§×ĺ":4381,"×Ļ×Ļ×ŀ×¢×¨":4382,"Ġ×¡×Ļ×¨×¢×ł×¡":4383,"Ġ×ĺ×Ļ×Ļ×¢×¨×¢":4384,"Ġ×Ķ×ķ×Ļ×ĺ":4385,"Ġ×©×ķ":4386,"×Ļ×ŀ×ķ×ª":4387,"Ġ×¤×Ĳ×¨×ĳ×Ļ×ł×ĵ":4388,"Ġ×Ľ×ķ×Ĺ×ķ×ª":4389,"Ġ×§×ķ×ł×Ķ":4390,"Ġ×¢×¨×ĺ×¢×¨":4391,"Ġ×ŀ×¢×§×¡×Ļ×§×Ĳ":4392,"Ġ×Ķ×©×Ŀ":4393,"×Ĺ×Ļ×Ŀ":4394,"ĠØ±":4395,"×¦×ľ":4396,"Ġ×¢×¨×Ĵ×¢×¨":4397,"ÙĦØ§Ùħ":4398,"Ġ)":4399,"Ġ×§×ĵ×ķ×©":4400,"ĠØ¬":4401,"Ġ×Ĳ×ĵ×ŀ×Ļ×ł×Ļ×¡×ĺ×¨":4402,"Ġ×ĵ×¢×ŀ×Ĳ×ľ×ĺ×¡":4403,"Ġ×©×Ļ×¤":4404,"×ł×Ļ×ķ":4405,"Ġ×¤×¨×Ĳ×ł×§×¨×Ļ×Ļ×ļ":4406,"Ùī":4407,"ĠY":4408,"Ġ×¡×Ĺ":4409,"×¨×¢×¤":4410,"×ŀ×ķ×ĸ":4411,"×¢×ľ×Ĳ×ĸ×ĺ":4412,"Ġ27":4413,"×¢×¦×¢×¨":4414,"Ġ×Ĵ×¢×¢×ł×ĵ":4415,"Ġ×ĳ×¢×ł":4416,"Ġ×©×ľ×¢×Ľ":4417,"Ġ×Ĵ×¢×ľ×Ļ×Ļ×ł×ĺ":4418,"our":4419,"×Ĳ×¨×ĳ×¢×ĺ×¢×¨":4420,"Ġ×ł×Ĳ×¨×ŀ×Ĳ×ľ×¢":4421,"×¡×Ļ×ĵ":4422,"×ª×Ĵ×ķ×ĳ×ķ×ª":4423,"Ġ×Ĳ×ľ×¢×ŀ×Ĳ×ľ":4424,"...!":4425,"Ġ×ĸ×ķ×Ľ×Ķ":4426,"ĠWeb":4427,"Ġ×¨×¢×ĸ×ķ×ľ×ĺ×Ĳ×ĺ×Ł":4428,"Ġ×ł×Ĳ×¨×ŀ×Ĳ×ľ":4429,"Ġ×¢×ľ×¢×§×ĺ":4430,"Ġ×Ĳ×ķ×Ļ×ĳ×¢×¨":4431,"Ø¨Ø±":4432,"Ġ×ł×ķ×Ļ×ĺ":4433,"×ŀ×¢×ł×ĵ":4434,"Ġ×Ĳ×ĵ×ķ×Ŀ":4435,"Ġ×¤×Ĳ×¨×Ĵ×Ĳ×ł×Ĵ":4436,"Ġ×Ĳ×Ĺ×¨":4437,"×Ĵ×¢×ĸ×¢×Ķ×Ł":4438,"Ġ×ĺ×Ĳ×ĺ":4439,"Ġ×Ĳ×Ĵ×ĳ":4440,"Ġ×Ĳ×ķ×Ļ×ĳ×¢×¨×©×ĺ×¢×¨":4441,"¨ÙĬ":4442,"Ġ×ĳ×Ĳ×¦×Ĳ×ľ×Ł":4443,"Ġ×ĺ×¢×§×¢":4444,"Ġ×ľ×Ľ×ª×Ĺ×Ļ×ľ×Ķ":4445,"Ġ×ŀ×ķ×Ļ×ľ":4446,"Ġ×Ķ×Ļ×ĳ":4447,"Ġ×§×Ĳ×ł×¤":4448,"Ø§Ø±Ø³":4449,"×Ĳ×¨×Ļ":4450,"Ġ×Ĵ×¢×¨×Ļ×Ľ×ĺ":4451,"Ġ×Ĳ×Ľ":4452,"×Ĳ×§×ĺ×Ł":4453,"Ġ×ĳ×Ĳ×§×Ĳ×ł×ĺ×¢":4454,"×ł×¦×¢":4455,"qu":4456,"Ġ×ĳ×Ĵ":4457,"Ġ×ĳ×Ļ×Ĳ":4458,"Ġ×¦×Ĳ×ľ×Ł":4459,"×Ķ×ķ×ł×ĵ×¢×¨×ĺ":4460,"×Ļ×ł×Ĵ×¡":4461,"Ġ×§×¢×¡":4462,"Ġ×ĺ×¨×Ļ×ĺ":4463,"Ø±ÙĬÙĨ":4464,"Ġ×Ļ×Ĳ×ł×ķ×Ĳ×¨":4465,"Ġ×¢×Ļ×¨":4466,"×¨×Ļ×§×Ĳ":4467,"Ġ×Ĳ×Ļ×Ļ×ĵ×¢×Ŀ":4468,"Ġ×Ĳ×Ķ×ķ×ĵ":4469,"ĠÙĤ":4470,"Ġ×¡×ĺ×Ļ×Ļ×ľ":4471,"×ł×ĸ×Ĳ":4472,"Ġ×Ķ×Ļ×Ļ×ŀ×Ļ×©×¢×¨":4473,"Ġ×ĵ×¢×¨×ŀ×Ĳ×ł×¢×Ł":4474,"×¢×¨×ŀ×Ĳ":4475,"Ġ×Ķ×¢×ĳ×¨×¢":4476,"×Ļ×ķ×ĺ":4477,"Ġ×¤×¨×Ļ×Ļ×ĺ":4478,"Ġ×§×¨×ķ×ĳ":4479,"Ġ×Ĳ×¨×ķ×Ļ×¡×¦":4480,"Ġ×Ĺ×Ľ×ŀ×Ļ×Ŀ":4481,"Ġ×ķ×¢×ķ×ĵ":4482,"×°×¢×ĺ":4483,"Ġ×ĵ×¢×¨×Ĵ×¨×Ļ×Ļ×Ľ×Ł":4484,"×ľ×ķ×¡":4485,"×ŀ×ŀ×©":4486,"Ġ×ľ×²":4487,"Ġ×Ĵ×¢×ľ×Ĳ×ĸ×ĺ":4488,"×Ĳ×ł×©×Ļ×Ŀ":4489,"Ġ×Ĵ×¨×Ĳ×ĵ×¢":4490,"×¨×ĳ×Ł":4491,"Ġ×Ļ×§":4492,"Ġ×Ļ×ĳ×ķ×¨":4493,"×¢×ĳ×ľ":4494,"Ġ×§×¤×¨":4495,"×ĳ×ĺ":4496,"×ł×Ļ×ĸ":4497,"×Ķ×Ķ":4498,"Ġ×ľ×Ļ×Ļ×ĸ":4499,"×Ļ×¦×ķ×¨":4500,"×¨×©×Ļ×Ļ×ĵ×ł×§×Ļ×Ļ":4501,"Ġ×Ĵ×¨×Ĳ×ŀ×Ĳ×ĺ×Ļ×§":4502,"Ġ×§×¤×¨×Ļ×¡×Ļ×Ł":4503,"×¤×¡":4504,"Ġ×ĵ×ĸ×©×Ĳ×ĳ":4505,"Ġ×ķ×ķ×Ļ×ł×ĵ×Ĳ":4506,"Ġ×ĸ×ķ×Ķ×Ł":4507,"Ġ×©×Ĺ":4508,"Ġ×Ļ×ł×ĺ":4509,"×¢×ĸ×¢×¨":4510,"Ø«":4511,"Ġ×¢×Ĵ":4512,"Ġ×§×ķ×¨×¥":4513,"Ġ×¢×ł×¢×¨×Ĵ×Ļ×¢":4514,"×¡×Ļ×ł×Ĵ":4515,"×ĳ×Ĺ":4516,"×¢×§×¡×ĺ×¢":4517,"Ġ×Ĳ×ķ×Ļ":4518,"Ġ×ĵ×Ļ×¢":4519,"×¢×ĸ×¢×Ł":4520,"ĠØ§ÙĦØ³":4521,"Ġon":4522,"Ġ×©×§":4523,"Ġ×ĺ×²":4524,"×Ĳ×ŀ×¢×ł×ĺ":4525,"ĠØ¨ÙĨ":4526,"ĠØ§ÙĦØ¯":4527,"Ġ×¤×¢×ľ×Ł":4528,"Ġ×ŀ×¢×§":4529,"×ŀ×Ļ×ľ":4530,"Ġ×ľ×Ļ×Ļ×Ł":4531,"Ġ×ĺ×¢×ľ×¢×¤×Ĳ×Ł":4532,"Ġ×©×Ĳ×ľ×ķ×ª":4533,"Ġ×Ĵ×¢×Ĳ×¨×ĳ×¢×ĺ":4534,"Ġ×Ĳ×Ļ×ł×Ķ":4535,"×ķ×ľ×ª":4536,"Ġ×ŀ×ķ×¡×ĺ×¢×¨":4537,"Ġ×¤×¨×§":4538,"ÙĦØ§ÙĦ":4539,"Ġ×©×¨×Ļ×Ļ×¢×Ł":4540,"ĠÙ¡":4541,"ĠØ§ÙĦØµ":4542,"ĠØ¨ÙĪ":4543,"iz":4544,"Ġ×ĵ×¢×ª":4545,"Ġ×¤×ķ×Ļ×ľ×Ł":4546,"Ġ×ķ×ķ×¢×ľ×Ľ×Ł":4547,"ĠØ§ÙĦØ¨ÙĬ":4548,"Ø¦Ø±":4549,"Ġ×Ķ×ŀ×ĵ×¨×©×Ļ×Ŀ":4550,"×¨×Ļ×Ĺ×Ķ":4551,"ĠØ§ÙĦØ³ÙĦØ§Ùħ":4552,"ĠØ§ÙĦØ¯ÙĬÙĨ":4553,"Ù¤":4554,"×¨×¢×ĵ×ĺ":4555,"×ľ×¢×§×¡":4556,"Ġ×ĳ×ľ×ķ×ŀ×¢×Ł":4557,"Ø±ÙĤ":4558,"ĠØ§ÙĦØ±Ø":4559,"Ġ×Ĺ×ĳ×¨×Ļ×Ŀ":4560,"Ø§ÙĨØ§":4561,"ĠØ¹Ùģ":4562,"Ġ×§×ķ×¨×¦×¢":4563,"ĠØ¨Ø¦Ø±":4564,"ÙħØ§ÙĨ":4565,"Ġ×Ķ×ĸ×¨×Ļ×Ĺ×Ķ":4566,"ĠØ±Ø¦":4567,"ĠØ¬ÙĦØ§ÙĦ":4568,"¦ÙĬØ³ÙĬ":4569,"×¤×Ļ×Ŀ":4570,"×ŀ×¢×¨×Ļ×§×Ĳ":4571,"ĠØ§ÙĦØ´Ø§Ø±Ø¹":4572,"ĠÙħØ§Ø±Ø³":4573,"ĠØ¹Ø«":4574,"Ġ×Ĺ×Ļ×¤×©×ķ":4575,"ĠÙĤØ§ÙĨØ§":4576,"ĠÙ¡Ù¤":4577,"ĠØ§ÙĦØµØ¨Ø±":4578,"ĠØ¨ÙĪØ±ÙĬÙĨ":4579,"ĠØ§ÙĦØ¨ÙĬØ±ÙĤ":4580,"ĠØ§ÙĦØ±Ø¦ÙĬØ³ÙĬ":4581,"ĠØ¹ÙģØ§ÙĨ":4582,"ĠØ±Ø¦ÙĬØ³ÙĬ":4583,"ĠÙħØ§Ø±Ø³ÙĨ":4584,"ĠØ¹Ø«ÙħØ§ÙĨ":4585,"ĠØ§ÙĦØ¨ÙĬØ±ÙĤÙī":4586,"Ġ×©×¤×¢×ĺ":4587,"Ġ×Ĳ×ķ×Ļ×¤×¦":4588,"Ġ×Ķ×©×Ļ":4589,"Ġ×ķ×ķ×Ļ×Ļ×ł×Ļ×Ĵ":4590,"×¨×±":4591,"×Ĵ×¢×ĵ":4592,"Ġ×¨×Ļ×Ļ×ĵ":4593,"Ġ×ĵ×ķ×¨×Ľ×Ĵ×¢×¤":4594,"Ġ×©×ĺ×¨×¢×ł×Ĵ":4595,"×ĺ×¢×§":4596,"Ġ×¨×¢×ķ×ķ":4597,"Ġ×ķ×ĵ×¢×ª":4598,"Ġ×ĺ×Ĳ×ŀ×¢×¨":4599,"×Ļ×¦×¢×Ł":4600,"Ġ29":4601,"Ġ×¤×Ĳ×¨×Ĳ×ķ×Ļ×¡":4602,"Ġ×Ĵ×ķ×¨×ľ":4603,"Ġ×§×Ļ×¨":4604,"Ġ×ľ×Ļ×Ļ×Ľ×ĺ":4605,"Ġ×¨×Ļ×Ļ×ĸ":4606,"×Ļ×ľ×ĸ":4607,"Ġ×Ķ×Ĳ×ĺ×¢×ľ":4608,"×ł×¡×¤":4609,"Ġ×ĳ×Ĳ×¨×Ĵ":4610,"Ġ×¤×¡×§":4611,"Ġ×ľ×¢×ķ×ķ":4612,"×ĺ×¢×¨×¢":4613,"×ķ×©×¨":4614,"Ġ×ĸ×¢×ľ×ĳ×Ļ×§×¢×¨":4615,"×Ĵ×¢×¦":4616,"Ġ×ª×Ĵ×ķ×ĳ×Ķ×ª×Ĵ×ķ×ĳ×ķ×ª":4617,"×§×¢×¤×ľ×Ĵ×¢×ĸ×¢×Ķ×Ł":4618,"Ġ×Ĳ×©×Ľ×ķ×ľ×ķ×ª×Ĳ×Ļ×Ļ×Ł":4619,"Ġ×ª×Ĵ×ķ×ĳ×Ķ×ª×Ĵ×ķ×ĳ×ķ×ª×§×¢×¤×ľ×Ĵ×¢×ĸ×¢×Ķ×Ł":4620,"Ġ×ŀ×ķ×ŀ":4621,"×ĳ×ľ×¢":4622,"Ġ×Ĵ×¢×©×Ĳ×¤×Ł":4623,"Ġ×Ĺ×ķ×©":4624,"Ġ×Ĳ×ķ×ķ":4625,"Ġ×Ĳ×Ļ×Ļ×¨×Ĳ":4626,"Ġ×ŀ×Ĳ×Ľ×¢×Ł":4627,"Ð¼Ð¼":4628,"Ġ×¨×¢×Ĵ×Ļ×¡×ĺ×¨×Ļ×¨×Ł":4629,"33":4630,"×ķ×ķ×ľ":4631,"×ĳ×Ļ×ĸ":4632,"Ġ×Ĵ×¢×ĸ×¢×¦×Ł":4633,"Ġ×ĵ×Ķ×Ļ×Ļ×ł×ķ":4634,"Ġ×©×¢×¤":4635,"ist":4636,"×ĳ×¨×¢×ł×Ĵ×¢×Ł":4637,"Ġ×ŀ×¢×ĵ×Ļ×¦×Ļ×Ł":4638,"Ġ×Ĵ×¢×©×¢×¤×ĺ×Ł":4639,"Ġ×Ĵ×ľ×ķ×Ļ×ĳ×Ł":4640,"Ġ2011":4641,"Ġ×ł×Ĳ×ł×ĺ":4642,"×¢×ł×¦×ĺ×¢×¨":4643,"×ķ×Ļ×Ķ":4644,"Ġ×ĸ×Ļ×Ļ×ĵ×¢":4645,"Ġ×ľ×¢×ĳ×ł×¡":4646,"Ġ×ł×ķ×ŀ×¢×¨×Ł":4647,"Ġ×Ĳ×¤×¦":4648,"×ĵ×Ļ×ł×ķ×ł×Ĵ×¢×Ł":4649,"×ķ×ķ×ł×ĺ":4650,"×Ĳ×ľ×¥":4651,"Ġ×¦×Ļ×ŀ×¢×¡":4652,"Ġ×©×Ĳ×¨":4653,"×Ĳ×ľ×ĵ×Ł":4654,"×ŀ×¢×¨×ĸ":4655,"Ġ×ĸ×©×Ĳ":4656,"Ġ×ĸ×Ļ×ł×Ĵ×ĺ":4657,"×ĸ×Ļ×Ļ×¢×¨":4658,"Ġ×Ĳ×ķ×Ļ×¡×ĵ×¨":4659,"Ġ×ķ×ķ×Ļ×¨×Ĳ":4660,"×Ĳ×¨×¡":4661,"×ĵ×Ļ×ł×Ĵ":4662,"Ġ×¤×¢×ĳ×¨":4663,"×ĸ×ķ×Ľ×Ł":4664,"×ķ×ŀ×Ĵ":4665,"Ġ×Ĳ×Ļ×Ļ×ł×ķ×ķ×Ĳ×ķ×Ļ×ł×¢×¨":4666,"Ġ×Ķ×Ļ×ĺ":4667,"od":4668,"×Ĳ×ŀ×ª":4669,"Ġ×Ĳ×ŀ×¢×¨×Ļ×§":4670,"iew":4671,"Ġ×¨×ŀ×ĳ":4672,"×ł×Ĵ×¢":4673,"×ķ×ķ×¢×§×ľ×Ļ×Ļ×Ĵ×Ł":4674,"×ķ×ª×ĵ×Ļ×§":4675,"Ġ×Ĳ×¤×ŀ":4676,"×¨×Ļ×§×¢":4677,"×¢×ĸ×Ĳ×Ĵ×ĺ":4678,"Ġ×ŀ×¢×ĺ×Ĳ":4679,"ÂŃ":4680,"×©×ª":4681,"×ķ×ķ×Ļ×Ļ×ĵ":4682,"Ġ×Ļ×ŀ":4683,"×ķ×ķ×Ļ×¥":4684,"Ġ×§×Ļ×Ļ×ł×ŀ×Ĳ":4685,"×¢×ł×¢×¡":4686,"Ġ×Ĵ×¨×¢×¡×ĺ×¢×¨":4687,"×Ļ×Ľ×ľ":4688,"Ġ×Ľ×Ĳ×¤×ĺ":4689,"×Ļ×ŀ×ķ×Ŀ":4690,"×Ĵ×ľ×Ļ×Ļ×ĺ×Ł":4691,"Ġ×Ĳ×ł×ĺ×ķ×ķ×Ļ×§":4692,"Ġ×Ĺ×ľ×ķ×Ŀ":4693,"×Ļ×Ļ×Ķ":4694,"Ġ×Ĵ×¢×ĵ×¨×ķ×§×ĺ":4695,"Ġ×Ĳ×Ļ×ł×ĸ×ľ":4696,"Ġ×ķ×ł×ĺ×¢×¨":4697,"Ġ×¤×Ĳ×ľ×ĺ":4698,"Ġ×ľ×Ĳ×ĸ":4699,"×Ĳ×ľ×¢×¨":4700,"Ġ×Ĳ×Ļ×ŀ×Ļ×Ĵ×¨":4701,"Ġbe":4702,"Ð°Ð°":4703,"×©×ľ×Ĳ":4704,"Ġ2013":4705,"Ġ×Ĵ×¢×ĺ×ķ×Ķ×Ł":4706,"Ġ×ŀ×Ĳ×ĵ×¢×¨":4707,"×Ļ×Ĵ×Ĳ":4708,"×ķ×ľ×¢×ĺ":4709,"Ġ×Ĵ×¢×©×¢×Ł":4710,"65":4711,"×¨×¢×Ĵ":4712,"×ĸ×¢×ĺ":4713,"Ġ×ŀ×Ļ×ł×Ļ×¡×ĺ×¢×¨":4714,"Ġ×Ļ×ł×ĵ×ķ×¡×ĺ×¨":4715,"Ġ×Ļ×ł×¡×ĺ×Ĳ":4716,"Ġal":4717,"Ġ×Ķ×Ĳ×¤":4718,"Ġ×©×Ĳ×ł×§":4719,"Ġth":4720,"×ķ×ĳ×Ł":4721,"×Ĳ×ł×Ļ×©×¢":4722,"Ġ×Ĵ×¨×Ĳ×¡":4723,"×ł×Ĵ×Ĳ":4724,"×Ĳ×ł×§×¢×Ł":4725,"Ġ×ŀ×¢×ľ×ĵ×ķ×ł×Ĵ":4726,"Ġv":4727,"Ġ×¤×Ļ×Ļ×Ł":4728,"×Ļ×ĺ×¢×ĺ×Ł":4729,"Ġ×Ķ×§×ĵ×ķ×©":4730,"45":4731,"×¢×¨×¤":4732,"×¡×¡×Ĳ":4733,"Ġ×Ĺ×Ļ×ķ×ª":4734,"Ġ×ŀ×©×ķ×Ĵ×¢":4735,"Ġ×¡×§×Ĳ×ł×ĵ":4736,"ce":4737,"ul":4738,"Ġ×ķ×ķ×Ļ×ł×ĺ×¢×¨":4739,"×¢×ĵ×Ł":4740,"×ķ×ĸ×ĺ":4741,"Ġ×¤×¨×Ĳ×ł×¦×ķ×Ļ×ĸ×Ļ×©":4742,"Ġ×ĺ×¢×ł×ķ×ª":4743,"200":4744,"Ġ×Ĵ×Ł":4745,"Ġ×ĳ×Ļ×Ļ×ĸ":4746,"×¢×Ľ×¢":4747,"Ġ×ĳ×¨×Ľ×Ķ":4748,"Ġ×ĳ×ķ×¨":4749,"Ġ×ĳ×¢×ĸ":4750,"Ġ×ĺ×©×¢×Ľ":4751,"Ġ×Ĵ×ĸ":4752,"×ķ×ł×Ĵ×¢×¨":4753,"Ġ×Ĵ×¢×©×ŀ×Ĳ":4754,"Ġ×ĺ×¨×Ļ×Ļ×ł×Ļ×ł×Ĵ":4755,"×Ļ×Ļ×ĺ×Ĳ":4756,"×ķ×ŀ×¡":4757,"Ġ×¤×ľ×Ļ×¡":4758,"77":4759,"Ġ×ŀ×Ļ×ł×Ļ":4760,"Ġ×§×Ĳ×ŀ×ķ×ł":4761,"Ġis":4762,"Ġ×¢×¡×§×Ĳ":4763,"Ġ×ĺ×Ĳ×Ĵ×Ĳ×Ļ×Ļ×Ł":4764,"Ġ×Ĺ×ĵ×©×Ļ×Ŀ×Ĳ×Ļ×Ļ×Ł":4765,"Ġ×Ĺ×ĵ×©×Ļ×Ŀ×ĸ×¢×§×¡":4766,"×ķ×ķ×¢×Ĵ×¡×Ĳ×¨×Ĳ×¤":4767,"×ķ×ķ×¢×Ĵ×¡×Ĳ×¨×Ĳ×¤×ķ×ķ×¢×Ĵ×¡":4768,"Site":4769,"Ġ×ķ×ķ×Ļ×Ľ×ĺ×Ļ×Ĵ×¢":4770,"Ġ×¤×¨×ķ×ŀ×¢":4771,"ãĤ":4772,"Ġ×ŀ×Ĳ×Ĵ":4773,"Ġ×ł×Ļ×Ļ×ĺ×Ļ×§":4774,"×ĳ×Ļ×¢":4775,"Ġ×¨×ķ×Ĳ":4776,"Ġ×Ĵ×¢×ķ×ķ×Ĳ×§×¡×Ł":4777,"×¢×¨×ĸ×¢×ł×ľ×¢×ļ":4778,"Ġ×Ĵ×¢×Ķ×¢×¨×Ļ×Ĵ":4779,"35":4780,"yp":4781,"×¨×Ļ×ł×Ĵ":4782,"×¡×ľ":4783,"Ġ×§×Ļ×ĵ×ķ×©":4784,"Ġ×ľ×ķ×§×¡":4785,"Ġ×ĳ×Ĳ×¨×Ĳ":4786,"Ġ×Ĳ×Ļ×Ļ×ł×Ļ×§×ľ":4787,"×Ĳ×Ļ×ł×ĺ×¢×¨":4788,"Ġ×©×ķ×ł×Ĳ":4789,"Ġ×Ĵ×¢×¤×ľ":4790,"ĠWebSite":4791,"×ĺ×Ļ×Ļ×Ł":4792,"Ġ×§×¢×ľ":4793,"×ķ×ł×ľ×Ĳ":4794,"Ġ×¤×ľ×Ĳ×ĺ":4795,"Ġ×ŀ×§×ķ×Ķ":4796,"!'":4797,"Ġ×ķ×ķ×Ļ×Ľ":4798,"Ġ×Ķ×Ļ×ķ×ª":4799,"×Ķ×Ļ×ľ":4800,"×Ĵ×¡":4801,"Ġ×ľ×Ļ×ķ":4802,"Ġ×ľ×¢×ĳ×ĺ":4803,"×Ĳ×Ļ×Ļ×ł×¢×¨":4804,"Ġ×¤×ľ×¢":4805,"×Ķ×©":4806,"Ġ×Ĳ×Ļ×ĺ×Ĳ×ľ×Ļ×¢":4807,"Ġ×ľ×Ĵ×ĳ×Ļ":4808,"×ĸ×Ļ×ł":4809,"Ġ×¡×¢×ĺ":4810,"×Ļ×ł×¢×ľ":4811,"Ġ×©×ķ×ľ×¢":4812,"Ġ×ł×Ĳ×ĺ":4813,"Ġ×©×ķ×ĺ":4814,"Ġ×ľ×ķ×¤":4815,"Ġ×ĵ×ĳ×¨×Ļ":4816,"Ġ×ª×ľ×ŀ×Ļ×ĵ×Ļ×Ŀ":4817,"Ġ×ĵ×¢×§":4818,"Ġ×©×Ļ×ľ":4819,"×Ļ×Ļ×¢×ł×ĺ":4820,"39":4821,"×ľ×Ļ×Ľ×ĺ":4822,"×ķ×ķ×Ļ×ł×¡":4823,"Ġ×ĳ×¨×Ļ×ĵ×¢×¨":4824,"res":4825,"×ķ×ķ×Ĳ×§×Ĳ×ĺ":4826,"Ġ×Ĵ×ķ×ķ×ŀ×Ĵ":4827,"Ġ×Ĵ×ł×ĳ":4828,"Ġ×ł×Ĳ×ĺ×ķ×¨":4829,"×§×ķ×Ŀ":4830,"×Ĵ×¢×¡":4831,"×Ļ×ľ×¢×¨×Ļ×Ļ":4832,"×ķ×ł×¢×ŀ×¢×Ł":4833,"Ġ×§×¢×ł×¡×ĺ×ķ":4834,"Ġ×ĳ×¨×¢×Ĵ":4835,"×ĳ×ľ×¢×Ŀ":4836,"Ġ×Ĳ×¨×ķ×Ļ×¡×Ĵ×¢×Ĵ×¢×ĳ×Ł":4837,"Ġ×Ĳ×ĵ×ŀ×Ļ×ł×Ļ×¡×ĺ×¨×Ĳ×¦×Ļ×¢":4838,"×¢×°":4839,"Ġ×ŀ×Ļ×Ĳ":4840,"×¢×ķ×ķ×Ĳ×¨":4841,"Ġ×¤×¨×Ļ×ķ×ķ×Ĳ×ĺ":4842,"×¢×ł×ĺ×ķ×¨":4843,"×¢×ł×Ĵ×ľ×Ļ×©":4844,"Ġ×¤×¨×Ļ×Ļ×ĸ×Ł":4845,"Ġ×Ľ×Ķ×Ł":4846,"ff":4847,"Ġ×ĺ×Ļ×§":4848,"Ġ×¢×ľ×¢×§×ĺ×¨":4849,"×Ļ×¨×Ļ×¢":4850,"×¢×Ĵ×¢×¨":4851,"×Ĵ×¢×ĺ":4852,"Ġ×¢×¨×ł×¡×ĺ":4853,"×Ļ×ł×ķ×ª":4854,"×©×ķ×Ł":4855,"Ġ×©×Ļ×§×ĺ":4856,"Ġ×ŀ×Ĺ×ŀ×ª":4857,"×ķ×ķ×¢×¨×ĺ×¡":4858,"Ġ×ŀ×¢×©×Ļ×ķ×ª":4859,"Ġ=":4860,"×¤×Ĳ×¨×ķ×ķ×Ĳ×¡":4861,"×ľ×ĺ×¢×¨":4862,"×ĳ×Ļ×ª":4863,"×ķ×ķ×Ļ×Ł":4864,"ĠÃ":4865,"Ġ×¡×Ĳ×ķ":4866,"×Ĵ×¢×ł":4867,"Ġ×¨×Ĳ×§":4868,"Ġ×ĵ×¢×¨×Ļ×Ł":4869,"×¢×§×ĺ×Ĳ":4870,"Ġ×Ľ×ľ×Ļ":4871,"Ġ×Ĵ×¢×¤×Ĳ×¨×Ł":4872,"Ġ×ŀ×ľ×ķ×Ľ×Ķ":4873,"Ġ×ŀ×Ĳ×":4874,"Ġ×ĳ×Ļ×Ļ×ł":4875,"Ġ×ĸ×Ļ×¦×ĺ":4876,"×Ļ×Ľ×§×Ļ×Ļ":4877,"Ġ×§×¨×Ĳ×ł×§":4878,"×ľ×Ļ×Ľ×§×Ļ×Ļ×ĺ":4879,"×Ĳ×©×Ł":4880,"×ķ×Ļ×¨×Ļ×Ŀ":4881,"Ġ×Ķï¬¯×ĺ":4882,"Ġ×ĸ×Ļ×ł×Ĵ×¢×Ł":4883,"×©×Ļ×¨×Ļ×Ŀ":4884,"×ĸ×ķ×ł×ĵ×¢×¨":4885,"Ġ×ŀ×ł×Ĺ×Ŀ":4886,"×ĳ×Ĳ×§":4887,"Ġ×Ļ×Ĳ×¨×Ķ×ķ×ł×ĵ×¢×¨×ĺ":4888,"Ġ×ł×¤×ĺ×¨":4889,"×Ļ×ł×¦×Ļ×§":4890,"38":4891,"×¨×¢×Ľ×ĺ":4892,"Ġ×Ļ×ĸ":4893,"Ġ×¨×¢×ł×ĺ":4894,"×¢×ķ×ķ×¢":4895,"Ġ×Ľ×ľ×Ļ×Ŀ":4896,"×¢×¢":4897,"×¨×¢×¡×ĺ":4898,"Ġ×ĳï¬®":4899,"Ġ×§×²×Ł":4900,"×ŀ×ĳ×Ĳ":4901,"Ġ×§×¨×¢×ł×§":4902,"×ĺ×Ļ×Ļ×ľ×Ł":4903,"Ġï¬®×ĸ":4904,"Ġ×ķ×ª":4905,"×ĳ×¨×Ļ×Ŀ":4906,"----------------":4907,"Ġ×¡×Ĺ×ķ×¨×Ķ":4908,"Ġ×¤×ķ×Ļ×ľ":4909,"×§×ķ×ķ×Ĳ":4910,"Ġ×ľ×¢×¨×¢×¨":4911,"Ġ×¨×ķ×¡×Ļ×©×¢":4912,"Ġ×Ļ×Ĳ×Ķ×¨":4913,"×¨×Ļ×ŀ":4914,"Ġ×Ĳ×¤×©":4915,"×ł×§×Ļ×Ļ×ĺ":4916,"Ġ×§×ľ×Ļ×ł×ĺ×Ĳ×Ł":4917,"Ġ×¨×Ĳ×ķ×ĵ":4918,"Ġ×ĵ×¢×¨×¦×Ļ×Ļ×ľ×Ł":4919,"×Ĳ×ķ×ł×ĵ":4920,"×ľ×Ļ×¦×Ļ×Ļ":4921,"×ŀ×ĺ":4922,"×ķ×ª×Ļ":4923,"Ġ×Ĵ×¨×Ĳ×ĵ":4924,"Ġ×ĳ×ŀ×©×ļ":4925,"Ġ×§×¢×ŀ×¤":4926,"Ġ×Ķ×Ļ×Ļ×ł×ĺ×Ļ×§×¢":4927,"Ġ×Ĺ×ľ×Ļ×ľ×Ķ":4928,"Ġ×Ķ×¢×Ľ×¡×ĺ":4929,"×ĺ×§×Ļ×Ļ×ĺ":4930,"Ġ×Ķ×¢×ŀ×§":4931,"Ġ28":4932,"Ġ2001":4933,"×Ĳ×ł×¡×Ĳ×Ł":4934,"×ķ×ķ×Ļ×©×Ł":4935,"×ł×Ļ×Ļ":4936,"Ġ×¨×¦":4937,"×¢×Ķ×¢×¨×ĺ":4938,"Ġ×¤×Ĳ×¨×©×ĺ×Ĳ×ł×ĵ":4939,"Ġ×Ĳ×ĵ×ķ×¨×ļ":4940,"Ġ×Ĳ×ł×ĺ×ľ":4941,"Ġ×ŀ×ķ×¡×¨":4942,"Ġ×¨×ķ":4943,"Ġ×Ĳ×¤×Ļ×¡":4944,"Ġ-----------------":4945,"Ġ×Ĵ×ľ×Ļ×Ļ×Ľ":4946,"???":4947,"Ġ×§×Ķ×Ļ×ľ×ķ×ª":4948,"Ġ×ĸ×ŀ×Ł":4949,"Ġ×Ĵ×¢×ĳ×ķ×¨×ĺ":4950,"Ġ×ŀ×§×Ļ×Ļ×Ŀ":4951,"ith":4952,"Öµ":4953,"Ġ×Ķ×¢×¨×ľ×Ļ×Ľ×¢":4954,"Ġ×Ĺ×Ľ×Ŀ":4955,"Ġ×ĳ×Ĳ×©×ľ×Ĳ×¡×Ł":4956,"Ġ×§×Ļ×ľ":4957,"×¢×ł×Ļ×¢":4958,"×ĺ×¢×¨×ĸ":4959,"Ġ×Ĵ×¢×ľ×¢×ĳ×ĺ":4960,"Ð»":4961,"×Ĳ×ķ×ł×ĸ":4962,"×Ķ×ľ":4963,"Ġ×Ļ×ķ×Ĵ":4964,"Ġ×ĺ×¨×Ĳ×¥":4965,"Ġ×Ĳ×Ļ×ŀ×¤×¢×¨":4966,"Ġ------------------":4967,"×Ļ×©×¨":4968,"×ķ×ĸ×©×Ĳ":4969,"×¨×ĳ×ł×ķ×ª":4970,"Ġ×Ĵ×¢×Ķ×Ĳ×ľ×¤×Ł":4971,"Ġ×©×ľ×Ļ×¡×ľ":4972,"Ġ×Ĳ×Ļ×ł×ĺ×¨×¢×¡":4973,"Ġ×ª×Ļ×¨×ķ×¥":4974,"Ġ×¢×¡×ł×ķ×ķ×Ĳ":4975,"Ġ×Ĳ×Ĺ×Ļ×¢×ĸ×¨":4976,"Ġ×ľ×Ľ×ĳ×ķ×ĵ":4977,"Ġ×¤×Ĳ×¨×¦×Ļ×Ļ×ľ×ĺ":4978,"Ġ×Ĳ×ķ×¦×¨":4979,"Ġ×ĳ×ķ×Ļ×Ŀ":4980,"Ġ×¢×¨×ł×¡":4981,"Ġ×ĵ×ķ×¨×Ľ×Ł":4982,"Ġ×ĵ×Ļ×ľ":4983,"Ġ×ķ×Ĺ":4984,"ation":4985,"Ġ×Ķ×Ĵ×Ķ":4986,"Ġ×ķ×ķ×¢×ł×ĺ":4987,"×ĵ×¢×ľ":4988,"Ġ×¦×Ļ×Ļ×ĺ×ķ×ł×Ĵ×¢×Ł":4989,"Ġ×©×ķ×ķ×¢×¡×ĺ×¢×¨":4990,"Ġ×¤×ķ×ł×ĺ":4991,"Ġ×ķ×ķ×Ļ×Ļ×":4992,"Ġ×ŀ×Ļ×ĺ×Ĳ×¨×ĳ×¢×ĺ×¢×¨":4993,"Ġ×Ĵ×¢×ŀ×ķ×ĸ×ĺ":4994,"×ķ×Ļ×ĳ×ĺ":4995,"Ġ×ł×ķ×¦×ĺ":4996,"Ġ×¨×¢×§×Ĳ×¨×ĵ":4997,"Ġ×§×¢×¡×Ļ×Ļ×ĵ×¢×¨":4998,"Ġ×©×Ļ×ĵ":4999,"Ġ×¤×ľ×ķ×¦":5000,"Ġ×Ĳ×ĵ×¨×¢×¡":5001,"Ġ×Ĳ×¤×¢×¨":5002,"Ġ×ĳ×Ļ×Ļ×©×¤×Ļ×ľ":5003,"Ġ×Ĳ×Ļ×ł×¡×ĺ×Ļ×ĺ×ķ×ĺ":5004,"Ġ×³":5005,"Ġ×Ĵ×¢×ŀ×Ĳ×ľ×ĵ×Ł":5006,"pl":5007,"×¢×Ļ×¡":5008,"Ġ×©×ķ×¨×ķ×ª":5009,"×ł×ĺ×ķ×ķ×Ļ×§×ľ×¢×Ł":5010,"Ġ×©×ŀ×¢×ķ×Ł":5011,"×ĳ×ķ×ª":5012,"Ġ×©×Ļ×£":5013,"Ġ×ĸ×¢×ľ×ĳ×¢×¨":5014,"Ġ×ł×Ļ×ķ×ĸ":5015,"ĠAn":5016,"Ġ×Ķ×§×ķ×ĵ×©":5017,"×ŀ×ŀ×©×ķ×ª×ĵ×Ļ×§":5018,"Ġ×ł×¢×ĺ":5019,"Ġ×ķ×ķ×¢×ĳ×ĸ×Ļ×Ļ×ĺ":5020,"ill":5021,"Ġ×¨×¢×¡×¤":5022,"Ġ×ĵ×Ĳ×ľ×Ĳ×¨":5023,"Ġ×ĳ×Ļ×Ľ×ķ×ľ×ª":5024,"×Ļ×ł×¤":5025,"Ġ×¡×ķ×ŀ×¢":5026,"Ġ×ĵ×Ļ×¨×Ķ":5027,"Ġ×ĳ×Ĳ×ĺ×¨×Ĳ×Ľ×ĺ":5028,"×Ļ×Ķ×ľ":5029,"×ľ×Ļ×Ļ×ĺ×¢×¨":5030,"34":5031,"Ġ×§×¢×¤":5032,"×©×ĺ×¢×ĺ":5033,"Ġ×¢×§×¡×ĺ":5034,"Ġ×§×ķ×Ļ×Ŀ":5035,"×¢×ł×Ļ":5036,"Ġ×Ļ×ĳ":5037,"×ª×¨":5038,"Ġ×Ļ×ł×ĵ×Ļ×Ĳ":5039,"Ġ×¡×¢×Ĳ":5040,"Ġ×Ĳ×ķ×ł×ĺ×¢×¨×Ł":5041,"Ġ×ĸ×Ļ×ł×Ĵ×¢×¨":5042,"Ġ×¢×ľ×¢×Ĵ":5043,"est":5044,"Ġ×ľ×ķ×Ļ×¤×ĺ":5045,"Ġ×Ķ×ł×Ķ":5046,"Ġ×ĳ×ĵ×¨×ļ":5047,"Ġ×¡×Ĳ×ķ×ĺ":5048,"75":5049,"×ľ×Ļ×ĺ×Ļ×§":5050,"VE":5051,"Ġ×¦×ķ×ĳ×¨":5052,"Ġ×Ĵ×¢×¢×ł×ĺ×¤×¢×¨×ĺ":5053,"Ġ×ĳ×Ĳ×ĵ×Ļ×Ļ×ĺ":5054,"Ġ×Ĳ×Ļ×ł×Ĵ×¢×¨":5055,"Ġ@":5056,"×ľ×Ļ×¦":5057,"ł×ĳ":5058,"Ġ×§×¨×Ļ×Ļ×ĸ":5059,"×ł×Ļ×ĺ×Ĳ":5060,"Ġ×©×¤×Ļ×ľ×Ł":5061,"Ġ×¦×ķ×§×¢×¨":5062,"×ķ×ķ×¢×ł×Ļ×ķ":5063,"64":5064,"Ġ×¤×Ļ×ł×§":5065,"×ľ×ķ×Ĵ":5066,"Ġ×Ķ×ķ×Ĳ":5067,"âĢŀ":5068,"Ġ×ĵ×ĵ×ĸ×©":5069,"×©×Ļ×Ŀ":5070,"Ġ×¤×¨×ł×¡×Ķ":5071,"×¨×§×¢×¨":5072,"Ġ×Ĵ×¢×ĳ×Ļ×ĺ×Ł":5073,"×ĵ×Ļ×§×¢×¨":5074,"×¢×ł×ĵ×Ļ×ł×Ĵ":5075,"Ġ2014":5076,"×ķ×Ļ×ĳ×¢×¨":5077,"Ö¼.":5078,"Ġ×ĵ×¨×²":5079,"Ġ×ķ×Ļ×Ķ":5080,"Ġ×ł×¢×¥":5081,"×ķ×ķ×Ĳ×ľ×ĺ":5082,"×ķ×¨×¨":5083,"Ġ2016":5084,"Ġ×Ĵ×¢×©×ĺ×Ĳ×¨×ĳ×Ł":5085,"×¨×ķ×¡×Ļ×©":5086,"Ġ×ŀ×Ĳ×¨×§×¢×ĺ":5087,"Ġ×ĺ×Ļ×£":5088,"âĢı":5089,"Ġ×¤×ľ×Ļ×¢×Ł":5090,"Ġ×Ĳ×Ļ×Ķ×¨":5091,"Ġ×ķ×ķ×Ĳ×§×¡":5092,"Ġ×ľ×Ļ×¡×ĺ×¢":5093,"×ĸ×±":5094,"×¢×ł×ĺ×Ĳ":5095,"×Ĳ×¤×¢×¨":5096,"×ķ×ķ×¢×¨×ĺ×Ļ×Ļ×ĸ":5097,"Ġ×¢×¡×§×ł×Ļ×Ŀ":5098,"**":5099,"Ġ×©×¢×¨":5100,"×ª×ķ":5101,"Ġ×Ĳ×ķ×Ļ×¤×Ĵ×¢×©×ĺ×¢×ľ×ĺ":5102,"Ġ×§×¨×Ļ×ĺ×Ļ×§":5103,"ht":5104,"×ĵ×ķ×ķ×Ĳ":5105,"×ĳ×ķ×ļ":5106,"×§×ĵ×©":5107,"×ķ×ķ×ķ":5108,"Ġ×Ľ×¢×ŀ":5109,"Ġ2004":5110,"Ġ×ŀ×Ĺ×ľ×ķ×§":5111,"Ġ×ľ×Ļ×ŀ×ķ×ĵ":5112,"×ł×Ļ×ł×Ĵ":5113,"×¨×¢×ĵ×Ł":5114,"Ġ×¤×¨×Ĳ×ĳ×Ļ×¨×ĺ":5115,"Ð¿":5116,"Ġ×ľ×ķ×Ĺ":5117,"×ķ×ľ×¢":5118,"Ġ×Ĳ×ľ×Ļ×¢×ĸ×¨":5119,"×¢×¡×ĺ×¨":5120,"×Ĳ×ĳ×Ļ×ľ":5121,"Ġ×ĺ×Ĳ×Ĵ×Ĳ":5122,"Ġ''":5123,"Ġ×ł×¢×¨":5124,"×ł×¢×ŀ":5125,"×ŀ×¨":5126,"Ġ×¤×Ĳ×¨×ĳ×ľ":5127,"×©×¨×Ļ×Ļ":5128,"Ġ×¢×ł×ĵ×¢×¨":5129,"Ġ×Ĵ×¢×ĵ×Ĳ×ł×§×¢×Ł":5130,"AA":5131,"×ĺ×¢×¨×ĺ":5132,"Ġ×ĳ×ľ×Ļ×Ļ":5133,"×¤×Ĳ×¨×©":5134,"Ġ×¤×ķ×ł":5135,"Ġ×ŀ×ķ×ĵ":5136,"Ġ×Ķ×Ļ×¨":5137,"Ġ×¦×Ļ×¨":5138,"Ġ×¡×§×ķ×ľ":5139,"×¨×ł×Ļ×©×ĺ":5140,"×ľ×Ĳ×ĸ×Ł":5141,"Ġ×ķ×ķ×Ļ×ľ×ĵ×¢":5142,"×ķ×ķ×¢×Ĵ×ķ×ł×Ĵ":5143,"×¨×Ļ×ĳ×¢×Ł":5144,"×ĺ×¢×ķ×ķ×¢×Ł":5145,"Ġ×ĺ×¡×ĺ":5146,"Ġ×ľ×Ļ×ł×Ļ×¢":5147,"ive":5148,"×ľ×Ĳ×Ĵ":5149,"×ľ×Ĳ×Ĵ×Ł":5150,"Ġ×§×ĳ×ľ":5151,"âĢĿ,":5152,"Ġ×¢×ŀ×¢×¦×¢×¨":5153,"Ġ×Ķ×Ļ×¥":5154,"Ġ×¢×¨×ľ×Ļ×Ľ×¢":5155,"Ġ×Ĳ×±×ļ":5156,"Ġ×Ĳ×Ļ×Ļ×ł×¦×Ļ×Ĵ×¡×ĺ×¢":5157,"Ġ×ĵ×Ĳ×§×ĺ×Ĳ×¨":5158,"×ľ×¤":5159,"×Ľ×ĵ×¢×Ŀ":5160,"×¨×©×ĺ×¢×ľ×ķ×ł×Ĵ":5161,"posted":5162,"Ġ×¨×Ļ×¨×¢×ķ×ķ×ĵ×Ļ×§":5163,"Ġ×¤×ķ×ĳ×ľ×Ļ×§":5164,"×ĸ×Ĳ×Ĵ×ĺ":5165,"Ġ×ĺ×¢":5166,"Ġ×Ĳ×Ļ×ł×ĺ×¢×¨×ł×Ĳ":5167,"Ġ×Ĳ×ł×ĺ×Ļ":5168,"×¢×ł×©×Ĳ":5169,"Ġ×¦×¨×ķ×ª":5170,"Ġ×ľ×Ļ×¡×ĺ":5171,"×¢×¡×ĺ×Ĳ":5172,"Ġ×ĳ×¨×ķ×§":5173,"ver":5174,"Ġ×ł×¢×Ŀ":5175,"Ġ×ĺ×¢×ĺ":5176,"Ġ×ĺ×©×¢×§×¡":5177,"×¢×ł×Ķ×Ļ×Ļ×ĺ":5178,"×Ļ×¢×ĵ×¢×¨":5179,"Ġ×ĺ×ķ×Ļ×ĸ×¢×ł×ĺ":5180,"Ġ×¤×Ĳ×ŀ×Ļ×ľ×Ļ×¢":5181,"85":5182,"Ġ×¦×Ļ×¢×Ł":5183,"Ġ×Ĳ×ķ×ł×ĺ×¢×¨×©":5184,"×ķ×¢×ķ×ª":5185,"×¨×¢×Ľ":5186,"×¦×¢×ł×ĺ":5187,"Ġ×Ķ×Ļ×Ļ×ľ×Ļ×Ĵ×¢×¨":5188,"×¢×¤×Ł":5189,"Ġ×Ĺ×ĵ×©×Ļ×Ŀ×Ĳ":5190,"ik":5191,"×ľ×Ļ×Ļ×¢×¨":5192,"Ġ×Ĳ×ķ×Ļ×Ľ":5193,"×Ļ×¤×ĺ×Ł":5194,"Ġ×Ĵ×¢×§×ķ×Ļ×¤×ĺ":5195,"Ġ×¢×ł×Ĵ×ľ×Ĳ×ł×ĵ":5196,"Ġ×Ĳ×¨×ķ×Ļ×£×Ĳ×¨×Ĳ×¤":5197,"tion":5198,"×Ĵ×¢×¨×¢×ĵ×ĺ":5199,"Ġ×ŀ×ķ×¡×§×ľ":5200,"Ġ×ŀ×©×¤×Ĺ×ķ×ª":5201,"Ġ×¦×ķ×ĳ×Ļ×¡×ľ×¢×ļ":5202,"×ĵ×¨×Ĳ":5203,"×ł×ĵ×ľ×ķ×ł×Ĵ":5204,"Ġ×Ĳ×Ļ×ł×ķ×ķ×¢×¡×ĺ":5205,"Ġ×Ķ×Ĵ×Ŀ":5206,"Ġ×ĸ×¢×ľ×ĳ×¡":5207,"Ġ×¤×Ĳ×ľ×Ļ×ĺ×Ļ×©×¢":5208,"Ġ×§×¢×¨×¤×¢×¨":5209,"84":5210,"Ġ×ł×Ĵ":5211,"Ġ×©×ĺ×Ļ×ŀ×ĺ":5212,"Ġ×ĺ×ķ×Ļ×ĸ×¢×ł×ĺ×¢×¨":5213,"Ġ×¨×¢×Ĵ×Ļ×¡×ĺ×¨×Ļ×¨×ĺ":5214,"Ġ×ĺ×¢×ŀ×¢×¡":5215,"×ł×¡×ŀ":5216,"Ġ×ŀ×¢×ľ×ķ×ª":5217,"×ĺ×©×Ĳ":5218,"Ġ×©×ĺ×¢×§×Ł":5219,"Ġ×Ĳ×Ļ×ł×¢×¨":5220,"Ġ×¢×ľ×ĺ×¢×¨×¢":5221,"Ġ×ľ×Ļ×Ļ×ł×¢×¨":5222,"Ġ×©×ĺ×Ļ×Ļ×¢×¨":5223,"Ġ×¤×¨×Ļ×Ļ×ĵ":5224,"Ġ×Ĳ×ľ×¢×ŀ×¢×Ł":5225,"×¢×ł×ĵ×Ĳ×¨":5226,"Ġ×ķ×ķ×Ļ×§×Ļ×¤":5227,"Ġ×ĳ×Ļ×ŀ":5228,"×Ļ×¡×ĺ×Ļ×§":5229,"Ġ×§×¨×Ļ×¡×ĺ×Ł":5230,"Ġ×Ĳ×ķ×ł×ĺ×Ł":5231,"×¢×ĳ×¨×Ĳ×Ľ×Ł":5232,"Ġ×¦×ķ×¤×Ļ×ľ":5233,"79":5234,"×ķ×ķ×Ĳ×ĵ":5235,"Ġ×Ĳ×ķ×Ļ×¢":5236,"×Ĺ×ķ×¥":5237,"Ġ×¤×Ĳ×¨×Ĳ×Ļ×Ļ×ł×Ļ×§×ĺ×¢":5238,"Ġ×ĵ×Ĳ×§×ĺ":5239,"×ľ×Ļ×Ļ×Ĵ":5240,"Ġ×§×ł×Ĳ":5241,"Ġ×§×©×¨":5242,"Ġ×¦×Ļ×¤":5243,"×ľ×¢×ĳ×Ł":5244,"ort":5245,"×Ļ×°":5246,"×ĵ×ķ×¨":5247,"×ŀ×¢×ł×ĺ×©":5248,"×Ĳ×¦×ĺ":5249,"Ġ×°×¢×Ł":5250,"Ġ×ŀ×ĸ×ľ":5251,"Ġ×ĳ×Ĳ×ĳ×¢":5252,"×ł×Ĵ×¢×¨×¢×Ľ×ł×ĺ":5253,"Ġ×Ĳ×ł×¢×¨×§":5254,"Ġ×§×ķ×ĵ×©":5255,"Ġ×Ĵ×¢×ł×ķ×Ļ":5256,"Ġ×¢×§×ĸ":5257,",\"":5258,"Ġ×¤×Ļ×ĸ":5259,"×Ķ×¨":5260,"Ġ×Ķ×Ĳ×ĵ":5261,"×Ļ×¤×Ķ":5262,"×Ļ×Ļ×£":5263,"Ġ×ĳ×¨×Ļ×§":5264,"Ġ×ĺ×¢×¡×ĺ":5265,"×Ļ×¨×Ļ×Ĳ":5266,"Ġ×¤×©×ķ×ĺ×¢":5267,"Ġ×Ĺ×©×ķ×ĳ×¢":5268,"Ġ×¤×¢×¨×ĸ×¢×ł×ľ×Ļ×ļ":5269,"21":5270,"LI":5271,"Ġ×ĸ×ķ×ł×ĺ":5272,"Ġ×Ļ×Ļ×ł×¦×Ļ×§":5273,"×Ĵ×¢×§×ķ×ŀ×¢×Ł":5274,"Ġ×ľ×¢×¤":5275,"Ġ×Ĳ×¨×ķ×Ļ×¡×Ĵ×¢×§×ķ×ŀ×¢×Ł":5276,"Ġ×ĺ×ķ×ĳ×Ķ":5277,"up":5278,"×ľ×ľ×Ļ×Ŀ":5279,"Ġ×ľ×Ĳ×Ĵ":5280,"Ġ×Ĳ×ľ×Ĳ":5281,"×¨×ĳ×¨×¢×ł×Ĵ×¢×Ł":5282,"Ġ×ĵ×Ļ×Ĵ×Ļ×ĺ×Ĳ":5283,"Ġ×Ĵ×ķ×ľ":5284,"Ġ×¨×ķ×£":5285,"Ġ×ĵ×Ļ×ĸ×Ļ×Ļ×ł×ĵ":5286,"Ġ×ĳ×Ĳ×©×ĺ×Ļ×ŀ×ĺ":5287,"Ġ×Ĵ×Ļ×ĳ×ĺ":5288,"Ġ×ª×ľ":5289,"×©×ĺ×¢×ł×ĵ×Ļ×§":5290,"Ġ×Ĳ×ł×Ĳ×ľ":5291,"×Ĳ×Ļ×Ļ":5292,"×ĺ×ķ×Ļ×¨":5293,"×©×ł×Ļ×ĺ":5294,"×ł×ķ×Ĳ":5295,"×Ļ×ľ×Ļ":5296,"Ġ×ľ×Ļ×Ļ×§×¡":5297,"Ġ×¢×Ľ×ĺ":5298,"×ķ×ķ×Ĳ×ļ":5299,"×Ļ×ľ×¡":5300,"×Ļ×ĵ×¢":5301,"Ġ×¤×Ĳ×¨×ł×ķ×ŀ×¢×Ł":5302,"×¨×¢×ĸ":5303,"×Ļ×Ļ×ł×¡×ĺ":5304,"Ġ×¢×ł×ľ×¢×ļ":5305,"Ġ×ĸ×Ļ×ĳ":5306,"×ĳ×Ļ×Ļ×Ł":5307,"×¤×ľ×Ĳ":5308,"Ġ×ł×Ĳ×¦":5309,"Ġ×ŀ×ľ×ŀ×ĵ":5310,"Ġ×©×¤×¨×Ĳ×Ľ×Ł":5311,"Ġ×Ļ×ł×ĵ×Ĳ":5312,"×ĺ×ķ×ķ×Ļ×ĺ":5313,"×©×©":5314,"×ĵ×ĵ":5315,"Ġ×¡×ķ×Ĵ":5316,"Ġ×¢×¨×ľ":5317,"Ġ×©×¤×Ļ×¨×Ł":5318,"×¢×ł×ĵ×ľ×Ļ×ļ":5319,"Ġ×¡×Ļ×ŀ×¤":5320,"Ġ×ĵ×¢×¨×§×ľ×¢×¨×Ł":5321,"Ġ×Ķ×ķ×¨":5322,"×Ľ×Ĳ×ĺ×©":5323,"Ġ×Ĵ×¢×ĵ×Ļ×ł×ĺ":5324,"ÐµÐµ":5325,"Ġ×ł×Ļ×¦×¢×¨×¡":5326,"Ġ×¤×ķ×¨×Ļ×Ŀ":5327,"×Ĳ×¨×ĺ×Ł":5328,"×¢×ĸ×¢×¦×ĺ":5329,"ĠFree":5330,"Ġ60":5331,"Ġ×ł×Ļ×Ĵ×ķ×ł×Ļ×Ŀ":5332,"×¢×Ļ×Ł":5333,"Ġ×§×ĺ":5334,"×©×Ĳ×Ł":5335,"Ġ×¡×¢×ľ×¢×§×ĺ":5336,"Ġ×Ļ×¡×ķ×ĵ×ķ×ª":5337,"36":5338,"×ĺ×¢×¡×ĺ":5339,"Ġ×¤×ĺ":5340,"Ġ×ŀ×Ļ×ķ":5341,"Ġ×¢×§×Ĳ":5342,"Ġ×¢×¨×Ļ×§":5343,"×¢×§×©×Ĳ":5344,"×ł×ĵ×¨×ķ×Ļ×ĵ":5345,"Ġ×¢×§×¡×ĺ×¨":5346,"Ġ×¢×ł×ĺ×¤×¢×¨×Ł":5347,"Ġ×¤×Ĳ×ĵ":5348,"×ľ×²":5349,"Ġ×Ļ×ª":5350,"×Ļ×¨×ķ×©":5351,"Ġ×§×ł×¢×¤":5352,"Ġ×Ĳ×¤×ĺ×Ļ×Ļ×ľ×ķ×ł×Ĵ":5353,"Ġ×Ĵ×¢×°×Ĳ":5354,"Ġ×Ĳ×Ļ×Ļ×ł×Ļ×§×ľ×¢×ļ":5355,"×ĺ×¢×ĵ":5356,"×¡×§×Ĳ":5357,"×ł×Ļ×©×¢":5358,"×§×ķ×ľ":5359,"Ġ×Ĵ×¢×¤×Ĳ×ľ×Ł":5360,"Ġ×©×ķ×ķ×Ĳ×Ľ×¢×¨":5361,"Ġ×ĵ×Ļ×Ļ":5362,"×Ļ×©×§×Ļ×Ļ×ĺ":5363,"×¢×¡×¢×¨":5364,"Ġ×ŀ×Ļ×Ļ×ĵ×ľ×¢×ļ":5365,"×©×ķ×Ļ×Ł":5366,"Ġ×¤×Ĳ×¨×Ľ":5367,"×¨×¨":5368,"Ġ×¤×Ļ×§":5369,"Ġ×ĳ×Ļ×Ļ×Ĵ":5370,"×Ĳ×¤×ľ":5371,"Ġ×¤×¢×¨×ĺ":5372,"Ġ×ķ×ķ×Ļ×ł":5373,"×Ļ×Ļ×ľ×ĺ×¢":5374,"Ġ×ł×§×ķ×ĵ×Ķ":5375,"Ġ×Ĳ×¤×ŀ×Ĳ×ļ":5376,"×ľ×Ĵ×¢×ŀ":5377,"Ġ×ĸ×Ľ×ķ×ª":5378,"×¤×¤":5379,"×ĳ×ķ×ł×Ĵ":5380,"×Ļ×©×Ĳ×Ł":5381,"Ġ×Ĵ×¢×¨×Ĳ":5382,"Ġ×ŀ×Ľ×©×Ļ×¨×Ļ×Ŀ":5383,"].":5384,"Ġ×ĵ×¢×ĺ":5385,"Ġ×ķ×ķ×¢×Ĵ×¢×Ł":5386,"Ġ×ĵ×Ļ×ł×Ĵ×¢×Ł":5387,"Ġ×Ķ×ķ×ł×ĺ":5388,"×¢×ľ×Ļ":5389,"ran":5390,"Ġ×ĸ×Ļ×Ł":5391,"Ġ×Ĵ×¢×ŀ×Ĳ":5392,"Ġ×ŀ×¦×ĵ":5393,"ess":5394,"Ġ×¢×§×ĸ×Ļ×¡×ĺ×Ļ×¨×ĺ":5395,"Ġ×ĸ×ķ×ļ":5396,"×ŀ×ĸ×¨×Ĺ":5397,"Ġ×Ľ×Ļ":5398,"Ġ×Ĳ×Ķ×Ļ×Ļ×Ŀ":5399,"×Ĵ×¢×©×ĺ":5400,"Ġ×Ļ×§×¡×Ļ×Ļ×ĺ×Ļ×ł×Ĵ":5401,"×ł×Ļ×ĸ×Ĳ":5402,"×Ļ×ĺ×¡":5403,"×Ļ×¨×¢×Ł":5404,"×¢×ĺ×¢×¨×Ļ":5405,"Ġ×¡×Ļ×ŀ×Ļ×Ĳ":5406,"×¨×Ļ×Ļ×ĳ×¢×Ł":5407,"Ġ×ĳ×¨×Ļ×Ļ×":5408,"×¢×ŀ×Ĳ×ĺ":5409,"Ġ×§×ľ×Ĳ×¡":5410,"Ġ×§×ľ×ķ×ĳ":5411,"×Ĵ×¢×Ĵ×Ĳ×ł×Ĵ×¢×Ł":5412,"Ġ×ĳ×Ļ×Ļ×ł×Ĳ×Ľ×ĺ":5413,"×ł×¢×¨×¡":5414,"Ġ×¨×¢×ĳ":5415,"Ġ×Ĵ×¢×©×ľ×¢×Ľ×ĺ":5416,"Ġ×¨×¢×ĵ×¢":5417,"×ľ×ľ×Ĳ":5418,"Ġ×ĵ×¨×ķ×Ļ×¡":5419,"×ķ×Ļ×ł×ĺ×¢×¨":5420,"Ġ×Ĳ×Ļ×ł×ĺ×¢×¨×¢×¡×Ļ×¨×ĺ":5421,"×Ĵ×¢×§×¨":5422,"Ġ×ĳ×Ĳ×ĸ×ķ×ł×ĵ×¢×¨×¢":5423,"ai":5424,"Ġ×¨×Ļ×Ľ×ĺ×¢×¨":5425,"Ġ×ĵ×Ļ×¨×ķ×ª":5426,"Ġ×Ļ×ł×ĵ×ķ×¡×ĺ×¨×Ļ×¢×¡":5427,"],":5428,"×§×ľ×Ĳ":5429,"Ġ×ľ×ĺ":5430,"×©×¨×Ļ×¤×ĺ":5431,"ate":5432,"Ġ×¤×¨×Ļ×Ļ×ĺ×Ĳ×Ĵ":5433,"×ľ×ķ×ł×Ĵ×¢×Ł":5434,"×ĳ×¡":5435,"Ġ×©×ĵ":5436,"Ġ×©×ľ×¢×Ľ×ĺ×¢":5437,"Ġ×ŀ×ķ×Ķ":5438,"Ġ×Ĳ×Ļ×Ļ×ł×¤":5439,"×¨×Ļ×§×Ł":5440,"Ġ×Ĳ×Ļ×ĳ×¢×¨×Ĵ×¢×Ĵ×¢×ĳ×Ł":5441,"×ķ×ķ×§":5442,"Ġ×¡×Ĳ×ľ":5443,"Ġ×©×ĺ×Ļ×Ļ×¢×Ł":5444,"Ġ×¡×ĺ×Ļ×ľ":5445,"95":5446,"×¢×¨×ł":5447,"Ġ×ľ×Ļ":5448,"×Ĳ×Ķ×ľ":5449,"×ł×©×ĺ×Ĳ":5450,"Ġ×§×Ĳ×ľ×¢×ĵ×ĸ×©":5451,"oun":5452,"www":5453,"Ġ×Ĳ×Ļ×ŀ×¤×¢×¨×Ļ×¢":5454,"Ġ×¤×Ĳ×ł":5455,"Ġ×ĳ×Ĳ×ķ×ķ×Ĳ×ķ×¡×ĺ":5456,"ãĢ":5457,"Ġ×Ĵ×Ļ×ĳ×Ł":5458,"×¨×ĺ×©":5459,"Ġ×¤×ľ×¢×Ĵ":5460,"Ġ×Ĳ×Ļ×ĳ×¢×¨×Ĵ×¢×ĵ×¨×Ļ×Ļ×ĺ":5461,"Ġ×ķ×ķ×¢×¨×¡×Ļ×¢×¡":5462,"76":5463,"×ľ×ķ×Ļ×ĳ×¢×ł×Ļ×©":5464,"Ġ×ĸ×Ľ":5465,"Ġ×§×Ļ×ł×¡×ĺ":5466,"×ł×Ĳ×Ľ":5467,"Ġ×°×¢×Ĵ×Ł":5468,"Ġ×¨×Ļ×ĸ×Ļ×Ĵ×¢":5469,"Ġ×Ĳ×¨×Ļ×Ļ×ł×Ĵ×¢×¨×¢×Ľ×ł×ĺ":5470,"Ġ×ķ×Ļ×Ķ×Ļ":5471,",,":5472,"×ķ×ķ×ł×Ķ":5473,"Ġ×ĵ×¢×¨×Ķ":5474,"Ġ×Ĳ×¨×¢×¡×ĺ":5475,"×Ļ×ł×¢×¡":5476,"ĳ×¢×¨×Ĵ":5477,"Ġ×Ĵ×¢×ĸ×ķ×Ľ×ĺ":5478,"×Ĳ×ł×Ĵ×Ł":5479,"Ġ×Ĳ×±×¤":5480,"Ġ×ĳ×¢×¦":5481,"Ġ×ł×ķ×ĵ":5482,"×§×ķ":5483,"×ª×Ļ":5484,"Ġ×¤×Ĳ×ľ×Ł":5485,"Ġ×ĳ×Ĳ×©×ķ×ľ×ĵ":5486,"Ġ×¡×ķ×ĵ":5487,"Ġ×¨×Ĳ×ŀ":5488,"×©×ĺ×Ļ×Ļ×¢×¨":5489,"Ġ×©×¨×Ļ×Ļ×ĳ×¢×Ł":5490,"Ġ×ľ×¢×¦×ĺ×¢×ł×¡":5491,"Ġ×ŀ×¢×Ĵ×ľ×Ļ×Ľ×§×Ļ×Ļ×ĺ":5492,"Ġ×ŀ×¢×ŀ":5493,"Ġ×¨×ķ×¤":5494,"×Ļ×¢×ĵ":5495,"Ġ×©×ĺ×ķ×ŀ":5496,"Ġ×¢×ĳ×ķ×ĵ×Ķ":5497,"×Ķ×¢×ľ":5498,"Ġ×¦×Ļ×ķ×ł":5499,"Ġ×ŀ×ķ×¨":5500,"Ġ×¡×Ĳ×¦":5501,"×ķ×¡×Ĳ":5502,"×¢×¨×©×Ĳ×¤×ĺ":5503,"Ġ×Ĳ×ł×ĵ×¢×¨×¢×¨":5504,"Ġ×ŀ×©×Ĳ":5505,"×ľ×Ļ×ĸ":5506,"Ġ×ŀ×Ĳ×¨×ĺ":5507,"Ġ×ľ×ķ":5508,"×¦×Ķ":5509,"Ġ×¤×¢×¡":5510,"×ľ×ľ×¡":5511,"×ĵ×Ļ×¨×Ł":5512,"Ġ×¤×¢×ĳ×¨×ķ×Ĳ×¨":5513,"Ġ×ķ×©":5514,"×¤×¢×ľ":5515,"Ġi":5516,"Ġ×¨×Ĳ×ĳ":5517,"×¢×¦×Ļ×¤":5518,"×¢×ª×Ļ":5519,"Ġ×ĵ×ķ×¨×Ľ×Ĵ×¢×ľ":5520,"Ġpro":5521,"Ġ×Ĳ×¨×Ĵ×Ĳ×ł×Ļ×ĸ×Ĳ×¦×Ļ×¢":5522,"×ĳ×©":5523,"×Ļ×ĸ×ķ×§":5524,"×¨×Ļ×Ļ×ĳ×ĺ":5525,"Ġ×§×Ĳ×ł×ĵ×Ļ×ĵ×Ĳ×ĺ":5526,"Ġ×ĵ×Ĳ×§×ĺ×ķ×Ļ×¨×Ļ×Ŀ":5527,"×ĸ×ľ":5528,"×ł×ĵ×ľ":5529,"Ġ×¢×ľ×¢×ŀ":5530,"×Ĳ×ŀ×Ĳ×ĺ×Ļ×©":5531,"Ġ×¦×¢×ł×ĵ×ľ×Ļ×Ĵ×¢×¨":5532,"ach":5533,"Ġ×ł×ķ×¥":5534,"Ġ×¤×ľ×¢×Ĵ×Ł":5535,"Ġ×Ĵ×Ļ×Ľ×§×Ļ×Ļ":5536,"×ķ×Ļ×§":5537,"Ġ×Ľ×Ĳ×Ļ×ľ×ķ":5538,"Ġ×Ķ×ľ×Ľ×ķ×ª":5539,"×ķ×Ļ×ķ×ķ×Ļ":5540,"×ĺ×ķ×Ļ×¨×ķ×ł×Ĵ":5541,"×§×ķ×§":5542,"×ł×ĺ×Ļ":5543,"×ķ×Ķ×Ĳ":5544,"Ġ×¦×ķ×Ĵ×¢×ľ×Ļ×Ļ×Ĵ×ĺ":5545,"org":5546,"âĢĿ.":5547,"Ġ×¡×¢×ķ×ĵ×Ķ":5548,"Ġ31":5549,"Ġ×Ĳ×Ļ×Ļ×ł×Ĵ×¢×©×¨×Ļ×ĳ×Ł":5550,"×ł×¨×Ĳ":5551,"Ġ×Ķ×¢×ľ×ĵ":5552,"Ġ×¨×¢×¤×ķ×ĳ×ľ×Ļ×§":5553,"own":5554,"Ġ×¡×ŀ×Ĳ×¨×ĺ":5555,"Ġ×ķ×ķ×Ļ×ł×ĵ×Ĳ×ķ×¡":5556,"74":5557,"Ġ×ŀ×ķ×ĵ×Ķ":5558,"Ġ×ĸ×Ļ×ľ":5559,"Ġ×¡×ķ×ĳ":5560,"Â©":5561,"Ġ×Ĺ×ķ×ľ":5562,"×Ĳ×ĵ×ķ×ķ×Ĳ×§×Ĳ×ĺ":5563,"Ġ×§×¨×Ĳ×¤×ĺ":5564,"×ŀ×ķ×ł×Ļ×§×Ĳ":5565,"Ġ×¨×Ļ×ľ":5566,"Ġ×ĺ×¨×Ļ×Ļ×":5567,"×¨×§×ķ×Ļ×£":5568,"Ġ×¦×ķ×¤×¨×Ļ":5569,"Ġ×Ĵ×ľ×¢×ĸ":5570,"Ġ×Ķ×Ĳ×§":5571,"×ľ×¢×©":5572,"Ġ×ĳ×¢×¡×¢×¨×¢":5573,"×Ĳ×ķ×ł×ĵ×ĸ×¢×¨":5574,"×ľ×Ĵ":5575,"Ġ×¢×ł×ĵ×¢":5576,"Ġ×ķ×ķ×Ĳ×¨×©":5577,"Ġ×ķ×ķ×Ļ×ĵ×Ļ×Ĳ×¡":5578,"be":5579,"Â´":5580,"Ġ×ł×Ļ×ĵ":5581,"×ł×¡×ĺ×¨×Ĳ":5582,"Ġ×ŀ×Ĺ×Ļ×Ķ":5583,"Ġ×Ķ×¢×Ľ×¢×¨×Ł":5584,"Ġ×ŀ×Ļ×ĵ×Ļ×¢":5585,"×Ĳ×Ļ×Ļ×¨":5586,"Ġ×¢×©×¨":5587,"×Ĳ×Ľ×¢":5588,"×ķ×¡×¤":5589,"Ġ×§×Ĳ×ŀ×¢×ł×ĺ":5590,"Ġ×ķ×§":5591,"×ķ×ķ×Ļ×¢":5592,"Ġ×ł×Ļ×Ļ×ĺ":5593,"Ġ×Ĳ×ķ×§×¨":5594,"Ġ×¨×©×¢":5595,"Ġ×Ĺ×ķ×¦":5596,"×¢×¤×Ļ×¨×ĺ":5597,"×ĳ×¢×¨×Ĵ":5598,"×¤×¨×Ļ":5599,"Ġ×ĺ×¨×Ļ×Ļ×ĵ×Ļ×ł×Ĵ":5600,"×Ĳ×Ļ×ĵ":5601,"Ġ×Ĳ×Ĳ×ĸ":5602,"Ġ×¦×ķ×ķ×Ļ×©":5603,"Ġ×Ĵ×¢×ł×¢×¨":5604,"×¢×ľ×¢×¨×ł×ĺ":5605,"×ľ×©×ķ×Ł":5606,"Ġ×¦×ķ×§×ķ×ł×¤×ĺ":5607,"×ł×Ļ×©×Ĳ":5608,"Ġ×¨×Ļ×Ľ×ĺ×ķ×ł×Ĵ":5609,"Ġ×¤×Ļ×Ļ×Ļ×§":5610,"Ġ×Ĺ×ł×ķ×Ľ×Ķ":5611,"×ŀ×Ĳ×Ľ×ĺ":5612,"Ġ×ĺ×ķ×Ļ×©":5613,"Ġ×Ĺ×ŀ":5614,"Ġ×Ĵ×¨×ķ×ł×ĺ×ľ×¢×Ľ×¢":5615,"Ġ×ķ×ķ×¢×§×¡×ľ×¢×Ł":5616,"Ġ×Ĵ×¢×§×ķ×§×ĺ":5617,"Ġ×ĺ×¨×Ļ×ł×§×¢×Ł":5618,"Ġ×ĳ×Ļ×ĳ×ľ":5619,"×¢×Ľ×Ĳ×¤×ĺ":5620,"Ġ×Ĳ×ķ×Ļ×ĺ×Ĳ×¨":5621,"Ġ×¤×Ĳ×¨×ĵ×Ļ×ł×ĺ":5622,"×ĺ×¤×Ĳ":5623,"Ġ×ł×¢×§×¡×ĺ×¢":5624,"×Ļ×¡×¢×ŀ":5625,"×¨×Ļ×Ļ×©":5626,"Ġ×Ĵ×¢×ĺ×¨×Ĳ×Ľ×ĺ":5627,"Ġ×¤×ķ×¡×§":5628,"Ġ×Ĳ×¤×Ļ×¦×Ļ×¢×ľ×¢":5629,"×Ĵ×¢×§×¨×ķ×Ļ×ł×ĺ×¢×¨":5630,"×¨×Ľ":5631,"Ġ×©×ĺ×¢×ł×ĵ×Ļ×Ĵ":5632,"Ġ×Ľ×Ĳ×¤":5633,"Ġtatto":5634,"\"...":5635,"×Ļ×¢×ł×ĺ":5636,"×ķ×ĳ×ķ×ª":5637,"ĠSh":5638,"Ġ×ŀ×Ĳ×¨×Ĵ×Ł":5639,"Ġ×¨×Ĳ×ĺ×¢×ķ×ķ×¢×Ł":5640,"78":5641,"×¢×ł×¤":5642,"Ġ×Ķ×¨×Ĵ":5643,"×ł×Ĵ×¢×Ķ×ķ×Ļ×ĳ×Ł":5644,"Ġare":5645,"Ġ×ķ×Ļ×ĵ":5646,"×¡×ķ×£":5647,"Ġ×§×ľ×Ļ×Ļ×ĵ":5648,"Ġ×§×¢×¡×ĺ×ľ":5649,"Ġ×¡×¢×ł×ĺ":5650,"×ĸ×§":5651,"Ġ×¤×Ĳ×¨×ĵ×¢×Ŀ":5652,"×Ĳ×¤×Ĳ×ľ":5653,"Ġ×ŀ×©×ª":5654,"Ġ×Ĵ×¢×ķ×ķ×Ļ×¡×ĺ":5655,"Ġ×ŀ×Ĺ×ĳ×¨×¦×Ļ×Ļ×ĺ":5656,"LIVE":5657,"×ķ×Ĳ×Ķ":5658,"×¨×Ļ×ĺ×¢×ĺ":5659,"Ġ×§×Ĳ×ł×¦":5660,"Ġ×©×ĺ×ķ×¨":5661,"Ġ×Ĳ×ľ×ĳ":5662,"×¤×Ĳ×¨×Ĳ":5663,"Ġ×ŀ×¢×ľ×Ķ":5664,"Ġ×ķ×ķ×¢×ĳ×ĸ×Ļ×Ļ×ĺ×ľ":5665,"Ġ×ķ×ķ×ķ×Ļ×ł":5666,"Ġ×©×Ļ×§":5667,"×¢×ł×Ļ×Ĵ×Ł":5668,"Ġ×Ļ×ķ×Ĺ":5669,"Ġ×Ĳ×ĵ×Ŀ":5670,"×ķ×ķ×Ļ×ľ×ľ×¢":5671,"Ġ×¤×Ļ×Ļ×Ļ×§×Ļ×Ļ":5672,"Ġ×Ĳ×ł×ľ×Ļ×Ļ×Ł":5673,"×¢×ĺ×Ļ×©":5674,"×¨×ŀ×Ļ×Ļ":5675,"×§×ķ×§×ĺ":5676,"×ł×ĺ×Ļ×Ļ×ľ":5677,"×¡×ĺ×Ļ×§":5678,"Ġ×Ĵ×¢×¦×Ļ×Ļ×ľ×ĺ×¢":5679,"×©×ŀ×Ļ×ķ×ª":5680,"Ġ×Ĳ×Ļ×¡×ķ×¨":5681,"Ġ×Ĳ×Ļ×ł×Ĵ×¢×¨×ŀ×Ĳ×Ł":5682,"Ġ×¤×Ĳ×§×ĺ×Ł":5683,"×§×Ļ×©":5684,"×Ļ×¤×Ĳ×¨":5685,"Ġ×Ĳ×Ļ×ĵ×¢×ł×ĺ":5686,"ĠCyp":5687,"Ġ×¤×Ļ×¨×ŀ×¢×¡":5688,"Ġ×¤×Ĳ×¨×ŀ×Ĳ×Ĵ×Ł":5689,"Ġ×Ļ×¡×ķ×ĵ":5690,"Ġ×ĵ×¢×§×Ĳ":5691,"Ġ×¢×¨×ŀ×¢×Ĵ":5692,"Ġ×ł×Ļ×ĺ×Ĳ×ŀ×Ĳ×ľ":5693,"Ġ×Ļ×Ļ×ĵ×Ļ×©×Ł":5694,"Ġ×ĵ×ķ×¨×Ľ×Ĳ×ķ×Ļ×¡":5695,"×ķ×ķ×Ĳ×¨×¤×Ł":5696,"×ľ×¢×ł×ĵ×Ļ×©":5697,"×ŀ×¢×¨×§×ĸ×Ĳ":5698,"Ġ×ŀ×ķ×©":5699,"×Ļ×ľ×Ŀ":5700,"Ġ×ĺ×Ļ×ĺ×ľ":5701,"Ġ×Ĳ×ķ×Ļ×¡×Ĵ×Ĳ×ĳ×¢":5702,"Ġ×Ķ×©×¤":5703,"Ġ×Ĵ×¢×¤×¢×¨×ľ×¢×ļ":5704,"ĠCypLIVE":5705,"Ġ×¢×ķ×ĳ×¨":5706,"×ŀ×Ļ×Ł":5707,"Ġ×Ļ×ķ×ł":5708,"Ġ×¡×ľ":5709,"Ġ2000":5710,"×ĺ×Ļ×Ļ":5711,"×¦×ķ×¨":5712,"Ġ×ķ×ķ×Ĳ×ķ×Ļ×ľ":5713,"Ġ×Ĵ×ľ×²":5714,"Ġ×¢×ł×ĵ×¢×¨×©":5715,"Ġ×Ļ×ł×§×¨×Ļ×¡":5716,"Ġ×Ķ×ĵ×ķ×¨":5717,"Ġ×ĵ×¢×ŀ×Ĳ×§×¨×Ĳ×ĺ×Ł":5718,"Ġ×¨×Ļ×ĸ×Ļ×§×Ļ×¨×Ł":5719,"Ġ×Ķ×¢×ĳ×¨×¢×Ļ":5720,"×¨×ĵ×¢×¨":5721,"Ġ×Ĳ×ĸ×ķ×Ļ×ł×¢":5722,"Ġ×Ĳ×¨×Ļ×Ļ×ł×§":5723,"Ġ×Ķ×Ļ×Ļ×ľ×Ļ×Ĵ×Ł":5724,"Ġ×Ĺ×ª×Ł":5725,"Ġ×Ĵ×¢×©×¢×¢×ł×Ļ×©":5726,"Ġ×ŀ×¦×ķ×ķ×ª":5727,"Ġ×Ķ×ķ×Ļ×¤×ĺ×©×ĺ×Ĳ×ĺ":5728,"Ġ×ķ×ķ×Ļ×¨×ĺ×ķ×Ĳ":5729,"Ġk":5730,"×Ļ×Ľ×£":5731,"Ġ×¤×Ļ×ľ×ĺ×¢×¨":5732,"Ġ×§×Ĳ×ľ×¢×ł×ĵ×Ĳ×¨":5733,"×Ĳ×ķ×Ļ×¤":5734,"×Ķ×¨×ĳ":5735,"Ġ×ľ×Ļ×Ĳ":5736,"Ġ×Ĳ×¨×ķ×ł×ĺ×¢×¨":5737,"Ġ×ĺ×¨×Ĳ×ł×¡":5738,"Ġ2002":5739,"Ġ×ŀ×§×ĳ×ľ":5740,"Ġ×Ļ×ķ×ł×Ĵ×¢×¨×ŀ×Ĳ×Ł":5741,"×ľ×ķ×Ĵ×Ļ×Ł":5742,"×ł×¡×Ļ×ĸ":5743,"Ġ×§×Ĳ×ł×Ĳ×ĵ×¢":5744,"×ĵ×ķ×¨×ļ":5745,"Ġ×¤×ľ×Ļ×Ĵ×¢×¨":5746,"Ġ×ŀ×©×ľ":5747,"Ġ×¡×Ļ×ŀ×Ł":5748,"Ġ×¡×Ļ×ĺ×ķ×Ĳ":5749,"Ġ×¤×¨×Ļ×ķ×ķ×Ĳ×ĺ×¢":5750,"?\"":5751,"tu":5752,"×ĺ×Ļ×ĺ":5753,"×ł×ķ×ķ×¢×¨":5754,"×©×ľ×ķ×Ŀ":5755,"Ġ×ľ×Ļ×Ļ×ĸ×ķ×ł×Ĵ":5756,"×ĵ×Ķ":5757,"×Ļ×§×Ļ×Ļ×ĺ×Ł":5758,"×¨×Ķ×ķ×ł×ĵ×¢×¨×ĺ":5759,"Ġ×¨×Ļ×¤×Ĳ×ĳ×ľ":5760,"×ĺ×Ļ×ķ×ķ×¢":5761,"Ġ×¨×Ļ×§×Ĳ":5762,"×Ķ×Ĵ":5763,"×Ĳ×¤×©×¨":5764,"Ġ×ĳ×Ĳ×ķ×ķ":5765,"Ġ×ŀ×Ļ×ľ×Ļ×Ĳ×ł×¢×Ł":5766,"Yiddish":5767,"×¢×ľ×ĺ×Ł":5768,"Ġ×ª×¤":5769,"Ġ×ŀ×Ļ×ĺ×Ĵ×ľ×Ļ×ĵ":5770,"Ġ×ķ×ľ":5771,"×Ļ×ķ×ĳ":5772,"×Ļ×ķ×ķ×Ļ×ł×Ĵ":5773,"Ġ×ŀ×Ļ×ľ×Ļ×ĺ×¢×¨×Ļ×©×¢":5774,"×¨×Ļ×ŀ×ĺ":5775,"×ŀ×ľ×ķ×ł×Ĵ":5776,"Ġ×ĵ×¢×¨×ł":5777,"Ġ×Ķ×©×ł×Ķ":5778,"×ľ×ŀ×Ł":5779,"×ĳ×ķ×ľ×Ĵ×Ĳ":5780,"×©×Ļ×§":5781,"×ķ×Ľ×Ļ×Ŀ":5782,"Ġ×Ĵ×ľ×ķ×ª":5783,"ï¬¯×ľ":5784,"Ġ×¡×Ĳ×ĺ×ŀ×Ĳ×¨×¢×¨":5785,"Öľ":5786,"Ġ×ĺ×Ļ×ł×ĺ":5787,"Ġ×¡×Ļ×ĸ":5788,"Ġ×©×ŀ×Ļ×Ŀ":5789,"×ŀ×ķ×¢×¡×ĺ":5790,"Ġ×¤×¨×Ĳ×ĵ×ķ×§":5791,"Ġ×Ķ×ĺ":5792,"×ķ×ŀ×¢×ł×ĺ×Ł":5793,"×Ĺ×Ł":5794,"Ġ×ŀ×ľ×Ĳ×Ľ":5795,"Ġ×Ĳ×Ļ×ĳ×¢×¨×Ĵ×¢×ł×ķ×ŀ×¢×Ł":5796,"Ġ×ķ×¤×ŀ×¢×¨×§×ĸ×Ĳ":5797,"Ġ×Ĵ×ķ×Ļ×Ŀ":5798,"Ġ×ĸ×Ļ×Ļ×¢×ł×ĵ×Ļ×Ĵ":5799,"Ġ×Ļ×¨×Ĳ":5800,"×Ĵ×¢×Ĵ×¢×ĳ×Ł":5801,"×Ļ×§×ķ×ł×Ĵ":5802,"×¦×ķ×¤":5803,"Ġ×¤×¨×Ļ×Ļ×¢":5804,"Ġ×ĳ×Ĳ×©×ĺ×Ļ×Ļ×ĺ":5805,"×ķ×§×¡×¢×¡":5806,"×ķ×ķ×ķ×ķ×ķ×ķ×ķ×ķ×ķ×ķ×ķ×ķ×ķ×ķ×ķ×ķ×ķ×ķ×ķ×ķ×ķ×ķ×ķ×ķ×ķ×ķ×ķ×ķ×ķ×ķ×ķ×ķ":5807,"×ķ×ķ×²":5808,"Ġ×ĵ×¨×Ļ×§×ĺ":5809,"×¨×ķ×ŀ×¤×Ĳ":5810,"Ġ×¦×°×²":5811,"Ġ×Ĳ×£":5812,"Ġ×ŀ×Ļ×§":5813,"×ĵ×¢×ŀ":5814,"×ĳ×Ĳ×ĸ":5815,"Ġ×ľ×Ļ×Ļ×¢×ł×ĺ":5816,"Ġ×ĳ×Ĳ×¦×Ĳ×ľ×ĺ":5817,"×ķ×ķ×Ļ×¨×Ĳ":5818,"×ľ×¢×ĺ":5819,"×ĳ×¨×Ļ×Ļ×ĺ":5820,"×Ļ×ķ×ķ×Ļ×ĺ×¢×ĺ×Ł":5821,"Â¨":5822,"Ġ×Ĳ×¤×©×ĺ":5823,"Ġ×Ĳ×ķ×Ļ×¡×Ĵ×¢×ľ":5824,"Ġ×ĸ×©×Ĳ×ł×¡×Ĳ×Ł":5825,"Ġwith":5826,"ĠIn":5827,"Ġ×¤×Ĳ×¨×¤×Ĳ×¨×Ł":5828,"Ġ×§×¨×ĳ×ł×ķ×ª":5829,"×§×ķ×§×Ł":5830,"Ġ×¨×¤":5831,"Ġ×ĸ×¢×¢×Ł":5832,"89":5833,"×Ľ×Ŀ":5834,"Ġ×ĺ×Ļ×ĺ":5835,"Ġ×ĵ×¨×Ļ×Ļ×ĺ":5836,"×¦×ķ×Ĵ×¢×ĳ×Ł":5837,"×ł×¡×ŀ×Ļ×ĺ×¢×¨":5838,"Ġtattoos":5839,"Ġ×ł×¢×¤":5840,"×ĸ×Ļ×¡":5841,"×§×ķ×ķ×¢×Ŀ":5842,"×ķ×ķ×¢×ĵ":5843,"×Ĳ×ł×ĵ×ľ×¢×Ł":5844,"×ľ×¢×¨×ł×¢×Ł":5845,"×ľ×ŀ×ķ×ĵ":5846,"Ġ×Ĳ×Ļ×ĳ×¢×¨×ĸ×¢×¦×Ł":5847,"Ġ×ĳ×ķ×ľ":5848,"×¤×¨×Ļ×Ļ":5849,"Ġ×©×Ķ":5850,"×ŀ×§×Ļ×Ļ":5851,"×ŀ×Ļ×Ļ×ĸ×Ļ×ł×Ĵ":5852,"Ġ×Ķ×¢×ķ×ľ×Ŀ":5853,"Ġ×§×ķ×©":5854,"×ĳ×¢×¨×Ļ":5855,"Ġ×ª×©×¢":5856,"×Ĳ×ľ×ĺ×¢×Ł":5857,"Ġ×Ļ×ķ×Ĵ×ł×ĺ":5858,"Ġ×ĳ×Ļ×Ļ×§":5859,"×ł×Ļ×¢×¡":5860,"×¨×Ļ×£":5861,"Ġ×ĵ×ķ×¨×Ľ×©×ł×Ļ×ĺ":5862,"Ġ×Ĳ×Ļ×ł×ĵ×¨×ķ×Ļ×¡":5863,"Ġ×§×ķ×ķ×Ĳ×ľ":5864,"×ľ×ķ×ª":5865,"×§×¡×Ĳ":5866,"Ġ×Ĵ×¢×ķ×ķ×Ĳ×ľ×ĵ×Ļ×Ĵ×¢":5867,"×ķ×Ļ×Ķ×Ļ":5868,"×©×¤×¨":5869,"×ĵ×ķ×¦×Ļ×¨×Ł":5870,"Ġ×Ĵ×¢×ķ×ķ×Ļ×Ļ×ł×ĺ×ľ×¢×ļ":5871,"×¨×Ļ×¤":5872,"ï¬»":5873,"ind":5874,"×Ĵ×¢×©×¨×Ļ×ĳ×Ł":5875,"Ġ×ĺ×¢×¨×ŀ×Ļ×Ł":5876,"49":5877,"Ġ×¤×ķ×¨":5878,"Ġ×¤×Ĳ×ł×ĺ":5879,"Ġ×¨×Ĳ×¤":5880,"Ġ×¨×¢×Ľ×ĺ×Ł":5881,"Ġ×Ĳ×¨×ŀ×Ļ×Ļ":5882,"×Ĺ×ĵ":5883,"Ġ×§×ķ×ŀ×¢×ł×ĵ":5884,"ass":5885,"×ŀ×Ļ×©×Ļ":5886,"ey":5887,"×¨×Ļ×Ĵ×¢":5888,"Ġ×¤×¢×ľ×§×¢×¨":5889,"×ĸ×Ļ×¢":5890,"×ł×Ĳ×ĺ":5891,"×¢×ł×¢×¨×¢":5892,"Ġ×ª×Ļ×Ľ×£":5893,"Ġ×§×¨×ĳ×Ł":5894,"×Ĳ×ł×§×¡":5895,"Ġ×¦×ķ×Ĵ×¢×Ĵ":5896,"Ġ×ŀ×¡×ª×ŀ×Ĳ":5897,"Ġ×Ķ×Ļ×ĳ×©":5898,"×¦×ķ×Ŀ":5899,"Ġ×¤×¨×Ļ×ł×¦":5900,"Ġ×ŀ×©×ķ×Ĵ":5901,"Ġ×ł×Ļ×ĵ×¢×¨×Ļ×§":5902,"×ľ×Ļ×Ļ×ĸ":5903,"×ľ×ķ×©×Ĳ":5904,"Ġ×ķ×ķ×Ļ×ĸ×Ĳ":5905,"×Ĺ×ķ×Ł":5906,"Ġ×ĳ×¨×¢×ł×¢×Ł":5907,"Ġ×ĳ×¨×Ĳ×©":5908,"×ł×¡×ª":5909,"Ġ×Ĳ×ĳ×Ļ×¡":5910,"×¨×Ĳ×©":5911,"×¡×¢×ľ":5912,"Ġ×ĳ×Ļ×Ļ×ľ":5913,"Ġ×ĵ×¨×©×Ķ":5914,"×¢×ķ×ķ×Ĳ×¨×¤×Ł":5915,"Ġ×¨×¢×¡×ĺ":5916,"×¢×¡×ĺ×Ļ×§×ĺ":5917,"Ġ×ŀ×ĳ×©×¨":5918,"×ľ×Ĳ×ŀ":5919,"Ġ×¨×¢×¨":5920,"×Ļ×¨×ª":5921,"×¢×ĺ×¥":5922,"×ķ×ĵ×¨":5923,"×ŀ×¢×¨×ĳ":5924,"Ġ×¤×Ļ×©×ĳ×Ļ×Ļ×Ł":5925,"×ľ×ĳ×Ĳ":5926,"Ġ×¡×¢×§×¡":5927,"Ġ×Ĳ×Ķ×ĳ×ª":5928,"Ġ×©×Ļ×Ĺ":5929,"×ĺ×¢×¨×Ļ×¢":5930,"Ġ×Ĳ×ķ×Ļ×¡×ł":5931,"Ġ×ĺ×¨×¢×¤×ĺ":5932,"Ġ×ĵ×¨×Ļ×ĺ×¢":5933,"Ġ×ŀ×Ļ×ł×Ļ×Ŀ":5934,"Ġ×Ĳ×Ļ×Ļ×Ĵ×¢×ł×¢×Ŀ":5935,".,":5936,"Ġ×¤×Ĳ×ĳ":5937,"Ġ×¦×¢×ľ":5938,"×ŀ×Ĳ×ĵ":5939,"×Ļ×§×Ļ×Ļ":5940,"×¦×ķ×ł×Ĵ":5941,".....":5942,"Ġ×Ĳ×ľ×¢×Ŀ":5943,"Ġ×ª×Ĺ":5944,"Ġ×ĳ×¨×Ļ×ĺ×Ļ×©×¢":5945,"Ġ×¨×Ĺ×ŀ×ł×ķ×ª":5946,"Ġ×ĵ×ķ×¨×Ľ×Ĵ×¢×ľ×Ļ×Ļ×ł×ĺ":5947,"Ġ×ľ×ķ×§×¡×ķ×¡":5948,"×Ĳ×Ĳ":5949,"×Ĳ×Ļ×Ļ×":5950,"×¡×ľ×Ĳ":5951,"Ġ×ľ×¢×§":5952,"×ª×§":5953,"Ġ×Ĵ×¢×©×¨×Ļ×ĳ×¢×Ł":5954,"Ġ×©×¨×Ļ×Ļ×ĺ":5955,"Ġ×ŀ×¢×ł×©×Ł":5956,"×ĺ×Ļ×¨×ľ×¢×ļ":5957,"Ġ×Ķ×Ļ×Ļ×ĳ×Ł":5958,"Ġ×ª×¤×Ļ×ľ":5959,"×ķ×ķ×Ļ×Ľ":5960,"×¢×ĸ×Ĳ×Ł":5961,"Ġ×Ķ×¢×¨×©×ĺ":5962,"Ġ×Ļ×Ķ×ķ×©×¢":5963,"Ġ×¢×ŀ×¤":5964,"×§×§×ľ":5965,"×ķ×§×¨×Ĳ":5966,"×Ļ×ł×§×¡":5967,"Ġ×Ļ×ĵ×Ļ×¢×ķ×ª":5968,"Ġ×Ĺ×Ļ×ĸ×ķ×§":5969,"×Ļ×ŀ×ĺ×¢":5970,"Ġ×Ĳ×Ļ×ĵ×Ļ×©×Ł":5971,"×¤×¨×Ļ×¢×¨×ĵ":5972,"×©×ĳ×ª":5973,"Ġ×¦×Ļ×ķ×ķ×Ļ×ľ":5974,"×¢×¨×¥":5975,"×ŀ×Ļ×ĵ":5976,"Ġ×ĵ×¢×¨×ľ×ķ×Ļ×ĳ×¢×ł×Ļ×©":5977,"×¦×ķ×ª":5978,"Ġ×ŀ×ł×Ķ×ľ×Ļ×Ŀ":5979,"55":5980,"×ĵ×Ļ×Ĵ×¢×¨":5981,"Ġ×ł×¢×Ľ×ĺ":5982,"×Ļ×ķ×ł×ķ×ª":5983,"Ġ×©×¤×Ļ×ĺ×Ĳ×ľ":5984,"Ġ×Ĳ×Ļ×Ļ×ł×ĸ":5985,"×ĸ×©×¢×¨":5986,"×ł×¡×Ļ×¨×ĺ×¢":5987,"×Ĳ×¦×Ł":5988,"Ġ×Ĳ×¨×ĳ×¢×ĺ×¢×¨":5989,"×¨×ķ×Ļ":5990,"Ġ×ĵ×¨×Ļ×Ļ×¡":5991,"Ġ×ŀ×ľ×Ĳ":5992,"×ĳ×Ļ×ľ×Ĳ":5993,"Ġ×¡×ķ×§×¡×¢×¡":5994,"Ġ×ĺ×¨×Ĳ×Ĵ×ĺ":5995,"Ġ×Ĳ×ł×Ĵ×¢×¦":5996,"×Ļ×Ķ×Ŀ":5997,"Ġ×¤×ĺ×Ļ×¨×Ķ":5998,"Ġ×ĵ×Ĳ×ł":5999,"Ġ×Ĵ×ĳ×Ĳ":6000,"×¢×ĸ×¨":6001,"×ĳ×¨×Ļ":6002,"Ġ×¨×¢×Ľ×¢×ł×¢×Ł":6003,"×¡×Ļ×ĸ":6004,"Ġ×Ķ×ŀ×©":6005,"Ġ×Ĳ×ĸ×ķ×Ļ×ķ×ķ×Ļ":6006,"×¢×Ĵ×Ĳ×¨":6007,"Ġ×¡×¤×§":6008,"×±×Ł":6009,"×¨×ľ×Ļ×¨×Ł":6010,"Ġ×ĵ×Ļ×¢×ľ":6011,"Ġ×ķ×Ĳ":6012,"×©×ł":6013,"Ġ×¢×ķ×ķ×¢×ł×Ļ×ķ":6014,"×ķ×¨×Ĵ":6015,"Ġ×ĳ×¨×¢×ł×Ĵ":6016,"ell":6017,"Ġ×Ĳ×ķ×Ļ×Ľ×¢×ĺ":6018,"37":6019,"Ġ×¦×Ļ×ķ×Ł":6020,"×Ļ×¨×ķ×ł×Ĵ×¢×Ł":6021,"Ġ×ŀ×Ļ×ĺ×ķ×ķ×Ĳ×ļ":6022,"Ġ×ĳ×¨×¢×Ľ×Ł":6023,"Ġ×§×ķ×ŀ×¡×ĺ":6024,"×ķ×ł×§×¢×Ł":6025,"Ġ×ŀ×Ĵ×Ļ×ĵ":6026,"×ŀ×Ĳ×ł×ĺ":6027,"×§×§×Ĳ":6028,"×Ĵ×¢×¨×Ł":6029,"×Ĳ×Ĵ×Ļ×¨×ĺ":6030,"×Ļ×¤×¡":6031,"ity":6032,"×¨×ĺ×Ļ×ł×Ĵ":6033,"×¨×Ļ×©×¢":6034,"×Ļ×Ļ×ĺ×©":6035,"Ġ×¢×ĵ×ķ×ª":6036,"Ġ×¤×¨×¢×ŀ×ĵ":6037,"Ġ×ĺ×Ļ×Ļ×ĺ×©":6038,"×ĳ×ľ×Ļ":6039,"×Ļ×Ĵ×ķ×¨":6040,"Ġ×Ĵ×¨×Ļ×ł×ĵ×¢×¨":6041,"×ķ×¦×Ł":6042,"Ġ2015":6043,"all":6044,"Ġ×ŀ×¢×©×Ļ×Ŀ":6045,"Ġ×§×¢×ł×Ļ×Ĵ×¨×Ļ×Ļ×ļ":6046,"Ġ×ĳ×¢×¦×Ŀ":6047,"69":6048,"Ġ×ķ×ľ×Ĳ":6049,"×§×ķ×ĵ×©":6050,"×Ķ×ŀ":6051,"×ł×ĵ×ľ×¢×Ł":6052,"×Ĳ×¤×ĺ×Ł":6053,"Ġ×ĳ×Ļ×ľ×Ļ×Ĵ":6054,"Ġ×¤×¨×Ļ×ķ×ķ×Ĳ×ĺ×§×Ļ×Ļ×ĺ":6055,"Ġ×Ĳ×¦":6056,"Ö·:":6057,"Ġ×ĳ×ķ×§×¨":6058,"×ŀ×Ĳ×¡":6059,"Ġ×¤×¨×Ĳ×Ĵ×¨×Ĳ×ŀ×¢×Ł":6060,"×¨×±×¡":6061,"Ġ×Ĵ×¨×Ĳ×¡×¢×¨×Ļ":6062,"Ġ×Ķ×Ĳ×¨×ĺ":6063,"Ġ×ĳ×Ļ×ľ×Ļ×Ĵ×¢×¨":6064,"×Ĵ×¨×ķ×ł×ĺ":6065,"Ġ×¤×Ĳ×¨×§×¢×¨":6066,"Ġ×ŀ×ª×¤×ľ":6067,"×ķ×ķ×Ļ×¨×ĺ":6068,"Ġ×Ĳ×Ļ×ł×ĵ×¢×¨×Ķ×Ļ×Ļ×Ŀ":6069,"Ġ×ĸ×Ĳ×Ľ×¢×Ł":6070,"Ġ×ľ×¢×¨×Ł":6071,"Ġ×Ĳ×ľ×Ļ×ŀ":6072,"Ġ×¡×Ľ×ł×Ķ":6073,"Ġ×Ĵ×¢×©×¤×Ļ×ľ×ĺ":6074,"Ġ×ķ×ķ×Ĳ×ĸ":6075,"Ġ×©×¨×Ļ×Ļ":6076,"Ġ×¨×Ĳ×ĸ":6077,"end":6078,"Ġ×ĵ×¢×¨×¦×Ļ×Ļ×ľ":6079,"Ġ×Ķ×Ļ×ĺ×Ł":6080,"Ġ×ŀ×¢×¨×¡×ĺ×ł×¡":6081,"Ġ×ŀ×Ļ×ĸ×ĺ":6082,"Ġ×Ķ×¨×¢":6083,"×Ļ×ľ×Ļ×ĺ×Ļ":6084,"×ĺ×©×ķ×¡":6085,"Ġ×¢×ł×Ļ":6086,"Ġ×ł×ª×Ł":6087,"Ġ×¦×ķ×ł×ķ×Ļ×¤":6088,"Ġ×¤×ķ×ł×ĵ":6089,"Ġ×ķ×ł":6090,"Ġ×ŀ×Ļ×ł×ĵ":6091,"×¡×ŀ":6092,"Ġ×Ĺ×ŀ×Ļ×©×Ļ":6093,"×Ļ×Ļ×ĳ×Ĳ":6094,"Ġ×¡×Ļ×¨×Ļ×¢":6095,"Ġ×ª×ŀ×Ļ×ĵ":6096,"×Ĳ×ķ×ķ":6097,"Ġ×ĵ×©":6098,"×¦×Ļ×¢×Ł":6099,"Ġ×Ĵ×Ĳ×ķ×ķ×¢×¨":6100,"×©×ŀ×ķ":6101,"Ġ×¦×Ļ×Ĵ":6102,"×¦×ķ×ľ":6103,"×ł×ľ×Ĳ×ł×ĵ":6104,"×¨×¤×Ļ×¨×Ł":6105,"Ġ×¤×Ĳ×ľ×Ĵ×¢×ł×ĵ×¢":6106,"sh":6107,"Ġ×§×ĳ":6108,"×©×§×¢":6109,"Ġ×Ĵ×¢×ł×¢×¨×Ĳ":6110,"Ġ×¤×Ĳ×¨×©×ĺ×Ļ×Ļ×¢×Ł":6111,"×§×¨×¢×ĵ×Ļ×ĺ":6112,"×¨×§×¡":6113,"×§×Ļ×Ł":6114,"Ġ×¡×Ļ×ł×Ĵ":6115,"Ġ×ĵ×¢×¨×ľ×ķ×Ļ×ĳ×ĺ":6116,"Ġ×Ĳ×ķ×Ļ×¡×ĸ×¢×Ł":6117,"Ġ×ĺ×¨×Ĳ×¤":6118,"hone":6119,"Ġ×¤×¨×Ļ×ĵ":6120,"×Ļ×Ļ×ĵ×¢×¡":6121,"Ġ×Ĵ×¢×¨×ķ×¤":6122,"Ġ×ķ×Ļ×¡×¨×Ļ×Ľ×ĺ":6123,"Ġ×ł×¦":6124,"×¢×ł×ĵ×Ł":6125,"Ġ×©×ł×¢×ľ×¢×¨":6126,"Ġ×Ĳ×Ļ×Ļ×ł×©×¨×Ļ×Ļ×ĳ×¢×Ł":6127,"×ķ×ķ×¡×§×Ļ":6128,"×¢×ł×ĳ":6129,"Ġ×©×ĺ×ķ×ŀ×£":6130,"×Ļ×Ĳ×ľ×¢":6131,"Ġ×¨×ĳ×Ļ×Ł":6132,"×Ĳ×Ļ×ł":6133,"×¨×ĸ×¢×¦×Ł":6134,"Ġ×©×Ĳ×§":6135,"Ġ×ķ×ķ×Ĳ×¡×¤×Ĳ×¨×Ĳ":6136,"Ġ×Ĳ×¨×Ļ×Ļ×ł×Ĵ×Ļ×Ļ×Ł":6137,"Ġ×¢×¡×ĺ×¨×Ļ×Ļ×ļ":6138,"Ġ×§×ķ×Ŀ":6139,"×ĳ×Ļ×ĺ×¢":6140,"×¢×ĳ×Ĳ":6141,"Ġ×Ĵ×¢×ł×Ļ×¡×Ł":6142,"Ġ×¦×ķ×ĸ×Ĳ×Ŀ":6143,"Ġ×ŀ×Ļ×¡×ĺ":6144,"Ġ×ĸ×ľ×ŀ×Ł":6145,"Ġ×¦×Ļ×Ļ×Ľ×Ł":6146,"Ġ×Ĳ×ĸ×Ļ×¢":6147,"×ĺ×Ļ×Ļ×ľ×ĺ":6148,"Ġ×¡×§×Ļ×ľ×ĸ":6149,"×ŀ×¢×¨×§×ķ×ł×Ĵ×¢×Ł":6150,"×ł×ŀ×Ĳ":6151,"×ľ×ķ×ŀ":6152,"Ġ×ĸ×ķ×ł":6153,"Ġ×ĺ×ķ×ŀ":6154,"×Ļ×ľ×Ļ×Ĳ":6155,"Ġ×Ĳ×Ļ×Ļ×ĳ×¢×¨×©×ĺ×¢×¨":6156,"×Ļ×ŀ×Ļ×ł":6157,"Ġ×ĳ×ľ×ķ×Ļ":6158,"×Ĳ×ł×ĵ×¢×¨":6159,"Ġ×ĸ×©×¢":6160,"Ġ×ŀ×©×Ļ×Ĺ×ĺ×¢":6161,"Ġ×Ĳ×ĵ×¨":6162,"Ġ×¨×²":6163,"×Ļ×Ļ×ł×ľ×Ļ×ļ":6164,"×¢×ł×ĺ×¤":6165,"×§×¨×Ļ×¤":6166,"ia":6167,"Ġ×ł×ŀ":6168,"Ġ×ķ×¡":6169,"Ġ×ĸ×Ļ×ł×ĵ":6170,"×ĵ×ķ×ľ":6171,"×ĳ×ķ×§":6172,"×ķ×ŀ×Ļ×ł×Ĵ":6173,"×ł×ĵ×Ļ×§×¢×¨":6174,"×ķ×ĵ×ª":6175,"×¢×Ĳ×Ł":6176,"Ġ×¤×Ļ×ľ×ĺ":6177,"×¨×¤×¢×¡×ĺ×Ļ×§×ĺ":6178,"Ġ×ĳ×Ĳ×ł×Ļ×¦×¢×Ł":6179,"Ġ×Ķ×ķ×ĵ×¢×Ķ":6180,"×Ļ×Ļ×Ļ×Ļ×Ļ×Ļ×Ļ×Ļ×Ļ×Ļ×Ļ×Ļ×Ļ×Ļ×Ļ×Ļ×Ļ×Ļ×Ļ×Ļ×Ļ×Ļ×Ļ×Ļ×Ļ×Ļ×Ļ×Ļ×Ļ×Ļ×Ļ×Ļ×Ļ×Ļ×Ļ×Ļ×Ļ×Ļ×Ļ×Ļ×Ļ×Ļ×Ļ×Ļ×Ļ×Ļ×Ļ×Ļ×Ļ×Ļ×Ļ×Ļ×Ļ×Ļ×Ļ×Ļ×Ļ×Ļ×Ļ×Ļ×Ļ×Ļ×Ļ×Ļ":6181,"×¨×¢×Ĳ":6182,"Ġ×©×±×Ł":6183,"×ł×ĵ×ĸ×©":6184,"Ġ×ĳ×ľ×Ļ×¦":6185,"Ġ×Ķ×ŀ×ľ×ļ":6186,"Ġ×¤×Ĳ×¨×©×¤×¨×Ļ×Ļ×ĺ":6187,"Ġ×¤×¢×ł×¡×ĺ×¢×¨":6188,"izer":6189,"Ġ×¨×¢×ķ×ķ×Ĳ×ľ":6190,"Ġ×ŀ×Ļ×Ļ×ł×¡×ĺ":6191,"Ġ×ĳ×ĺ":6192,"Ġ×ĺ×ķ×ł":6193,"×Ļ×¦×Ļ×¢×¡":6194,"Ġ×©×ľ×Ĳ×¤×Ł":6195,"Ġ×ŀ×¦×ķ×ª":6196,"Ġ×ŀ×ķ×¡×ĵ":6197,"Ġ×§×¢×Ĵ×ł×¢×¨":6198,"×Ĵ×¢×Ĵ×¢×ł×Ļ×©":6199,"Ġ×¡×ª":6200,"Ġ×ĺ×¨×Ĳ×ĵ":6201,"Ġ×¡×¤×¢×Ļ×¡":6202,"Ġ×ĵ×¢×Ļ":6203,"Ġ×ķ×ķ×Ļ×¨×§×ķ×ł×Ĵ":6204,"×¢×¨×¢×ł×¥":6205,"×ľ×Ļ×¨":6206,"Ġ×ĳ×Ļ×ķ":6207,"×¤×Ļ×§×¡":6208,"Ġ×©×Ļ×ĺ×Ķ":6209,"Ġ×Ļ×¢×ł":6210,"×Ļ×ĵ×¡":6211,"×Ļ×§×ľ×¢×¡":6212,"Ġ×ŀ×Ĺ×ľ×ķ×§×ª":6213,"Ġ×Ĳ×Ļ×¦":6214,"Ġ×ĺ×ķ×Ķ":6215,"×Ļ×§×ľ×Ļ":6216,"Ġ×Ĵ×¢×¤×Ļ×ľ×Ł":6217,"Ġ×¦×ķ×¨×Ļ×§×§×ķ×ŀ×¢×Ł":6218,"........":6219,"Ġ×Ĵ×¢×¤×¢×¨×ľ×Ļ×Ľ×¢":6220,"44":6221,"×ĳ×¢×ľ":6222,"×ĳ×Ļ×Ĳ":6223,"×¢×ł×¡×ĺ×¢":6224,"Ġ×¦×ķ×ŀ×Ĳ×ľ":6225,"Ġ×Ĳ×ŀ×¢×¨×Ļ×§×Ĳ×ł×¢":6226,"ead":6227,"Ġ×¤×¢×ĺ":6228,"Ġ×ľ×Ļ×¢×§":6229,"Ġ×¢×¨×ľ×ķ×Ļ×ĳ×ĺ":6230,"Ġ×©×¤×Ļ×ľ×¢×¨":6231,"×Ĳ×ŀ×Ĳ×¢×ľ×ĵ":6232,"×ĳ×¨×Ļ×§×Ĳ":6233,"Ġ×Ĳ×Ļ×ł×ĺ×¢×¨×ł×¢×¥":6234,"Ġ×¨×Ļ×Ļ×Ľ×¢":6235,"Ġ×¦×ķ×©×ĺ×Ĳ×ł×ĵ":6236,"Ġ×ĳ×¨×ķ×§×ľ×Ļ×Ł":6237,"×¨×Ļ×Ļ×©×Ĳ":6238,"×ĵ×Ļ×Ļ":6239,"×ĺ×¨×Ĳ×ŀ×¤":6240,"×¢×ł×¡×Ļ":6241,"×ĺ×©×¢×¨":6242,"Ġ500":6243,"×ł×¤×©":6244,"Ġ×¦×¢×ĺ×Ļ×Ļ×ľ×ĺ":6245,"Ġ×¤×ľ×Ĳ×ĺ×¤×Ĳ×¨":6246,"×¨×ķ×¤×Ł":6247,"Ġ×ĵï¬¯×¡":6248,"Ġ×ŀ×¢×ĺ×¢×¨":6249,"×ĸ×²":6250,"Ġ×¢×Ł":6251,"Ġ×ķ×ķ×Ļ×ľ×ĵ":6252,"Ġ×Ĳ×ł×Ĵ×¢×©":6253,"Ġ×Ĳ×ķ×ŀ×ŀ×¢×Ĵ":6254,"Ġ×¨×¢×Ĵ×¢×¡×ĺ×¨":6255,"Ġ×Ĺ×ķ×¦×¤×Ķ":6256,"×¢×ł×Ļ×¡":6257,"Ġ×ĳ×¨×¢×ł×Ĵ×Ł":6258,"×Ļ×Ļ×ŀ×Ļ×ł×Ĵ":6259,"×ł×Ļ×§×¢×¡":6260,"Ġ×§×Ĳ×¡×ĺ×Ł":6261,"59":6262,"×ķ×ĺ×Ł":6263,"×¨×Ļ×Ĵ×Ł":6264,"Ġ×©×ķ×¥":6265,"Ġ×©×ĺ×Ļ×¦×¢":6266,"×Ļ×Ĳ×Ķ":6267,"Ġ×ĳ×¨×Ļ×ª":6268,"×¢×ł×¡×¢":6269,"Ġ×Ĵ×¨×ķ×¤×¢×¡":6270,"×ŀ×ľ×Ĺ×ŀ×Ķ":6271,"Ġ×Ķ×Ĳ×£":6272,"×¤×Ĳ×ľ×Ĵ":6273,"Ġ×¤×Ĳ×¨×ł×Ļ×Ľ×ĺ":6274,"Ġ×Ĳ×Ļ×ł×ĵ×¨×ķ×Ļ×¡×Ł":6275,"!\"":6276,"68":6277,"Ġ×§×ķ":6278,"×ŀ×Ļ×ł×Ĳ":6279,"×ķ×§×ķ×ŀ×¢×Ł":6280,"×Ĳ×ł×ĵ×¢":6281,"Ġ×Ĳ×Ļ×ĵ×Ļ×©×¢×¨":6282,"Ġ×¤×Ĳ×§×ĺ×Ļ×©":6283,"Ġ×ľ×Ļ×ķ×ĳ×Ĳ":6284,"Ġ×ľ×¢×ĸ":6285,"×ķ×ŀ×¤":6286,"Ġ×ĳ×Ĳ×¨×ĵ":6287,"×ĺ×©×ķ×¡×¢×ĺ×¥":6288,"×Ĳ×Ļ×¦×ĺ":6289,"Ġ×Ļ×ł×Ĳ":6290,"Ġ×¤×¨×Ĳ×¡":6291,"Ġ×Ĳ×ķ×Ļ×¤×Ĵ×¢×¨×Ļ×¡×Ł":6292,"Ġ×ĳ×¢×Ļ×¡":6293,"Ġ×Ĳ×Ļ×Ļ×ĳ×¢×¨×©×ĺ×Ł":6294,"Ġ×¨×¢×Ĵ×Ł":6295,"×Ļ×ķ×ķ×§":6296,"Ġ×§×Ĳ×ķ×ĵ":6297,"Ġ×¨×Ĳ×Ļ":6298,"Ġ2007":6299,"×Ļ×Ļ×Ľ×¢×ł×¢×Ł":6300,"Ġnad":6301,"Ġ×ł×Ĳ×ŀ×ĳ×¢×¨":6302,"Ġ×Ĳ×¨×Ļ×Ļ×ł×ľ×Ļ×Ļ×Ĵ×Ł":6303,"Ġ×ĵ×Ł":6304,"Ġ×Ĵ×ķ×Ļ×Ĳ":6305,"Ġ×Ķ×Ĳ×¤×Ł":6306,"×ĸ×¢×Ķ×ĺ":6307,"Ġ×Ľ×ŀ":6308,"Ġ×ł×Ĳ×¨×Ļ×©":6309,"Ġ×Ķ×Ĵ×Ĳ×ķ×Ł":6310,"Ġ×ĳ×ª×Ļ":6311,"Ġhttps":6312,"izerou":6313,"Ġ×ĸ×Ĳ×ŀ":6314,"Ġ×ĳ×Ļ×Ļ×ŀ×¢×¨":6315,"Ġ×Ĺ×©×ķ×ĳ×¢×¨":6316,"ame":6317,"Ġ×¤×Ĳ×¨×ĸ×Ļ×Ľ":6318,"Ġ×ŀ×ł×Ļ×Ł":6319,"Ġ×Ĳ×ł×Ĳ×ľ×Ļ×ĸ":6320,"Ġ×Ķ×Ļ×Ĵ×¢":6321,"×§×ķ×¡":6322,"×¢×¡×§":6323,"Ġ×¤×Ĳ×¨×Ĵ×¢×©":6324,"Ġ(?)":6325,"×ķ×¤×¨":6326,"Ġ×Ĳ×Ļ×ł×ĺ×¢×ľ":6327,"×¨×ĳ×Ļ×Ļ":6328,"×ķ×Ĺ×Ķ":6329,"ĠJizerou":6330,"Ġ×ľ×¢×ĳ×¢×ĵ×Ļ×§":6331,"Ġ×Ĵ×¨×Ļ×Ľ×ł×ľ×Ĳ×ł×ĵ":6332,"Ġ×ŀ×Ĳ×ł×Ķ":6333,"×Ļ×¤×Ĳ×¨×ł×Ļ×¢":6334,"Ġ×Ĳ×ķ×ĺ":6335,"×ķ×©×ĺ×¢×ľ×Ł":6336,"Ġ×Ĵ×ķ×ĺ×¢×¨":6337,"Ġ×ĵ×Ĳ×¨×¤×¡×ĺ":6338,"Ġ×¨×¢×Ĵ×¢×¡×ĺ×¨×Ļ×¨×Ł":6339,"×¢×ĵ×Ļ×§":6340,"×ķ×ł×ĺ×¨":6341,"Ġ×Ĵ×¢×§×ľ":6342,"Ġsh":6343,"Ġ×Ļ×ł×ķ×ķ×Ĳ":6344,"ight":6345,"Ġ×Ĵ×Ĳ×ĵ":6346,"Ġ×Ķ×Ļ×ª":6347,"Ġ×ĳ×Ļ×ĵ":6348,"Ġ×Ĺ×Ł":6349,"Ĥ¬":6350,"×ĵ×Ļ×§×Ł":6351,"×¢×ĵ×Ļ×Ĵ×¢":6352,"Ġ×©×ĳ×ĺ":6353,"Ġ×ĵ×¢×ŀ×Ĳ×ľ×¡":6354,"Ġ×ķ×ķ×Ļ×¡×¢×Ł":6355,"Ġ×ŀ×Ļ×©":6356,"Ġ×§×Ĳ×ł×¢×Ł":6357,"Ġ×ł×Ĳ×¦×Ļ×Ĳ×ł×Ĳ×ľ×¢":6358,"×ĳ×ł":6359,"Ġ×ĵ×¢×¨×ķ×ķ×¢×Ĵ×Ł":6360,"×¨×Ļ×ł×¦":6361,"Ġ×Ĳ×Ļ×ł×Ķ×Ĳ×ľ×ĺ":6362,"×§×¦×Ļ×¢":6363,"Ġ×¨×¢×ĵ×Ĳ":6364,"Ġ×Ĵ×¢×Ĵ×¢×ł×ĺ":6365,"Ġ×Ķ×§×ĵ":6366,"Ġ70":6367,"Ġ×¨×Ĳ×©×Ļ":6368,"Ġ×¤×Ļ×Ļ×¢×¨×Ł":6369,"×ľ×Ļ×Ļ×©×Ĳ":6370,"Ö¸-":6371,"Ġ×ł×ķ×§":6372,"×¢×§×¥":6373,"Ġ×ŀ×©×ļ":6374,"Ġ×¤×Ĳ×¨×ľ×Ĳ×ĸ×Ł":6375,"×Ĳ×ķ×ŀ":6376,"×ĺ×ŀ×Ĳ":6377,"×¨×¢×¨":6378,"×¨×ŀ×¢":6379,"×Ķ×¢×ł×Ĵ":6380,"×Ļ×¨×ŀ×¢":6381,"×¢×ĵ×ķ×¨":6382,"×Ĳ×§×Ĳ":6383,"Ġ×ĳ×¨×Ĳ×ł×§×¡":6384,"×¤×Ĳ×¨×©×ĺ":6385,"Ġ×¦×ķ×¦×ķ×Ĵ":6386,"Ġ×Ĳ×ķ×Ļ×¡×Ĵ×¢×§×ľ×Ļ×ĳ×Ł":6387,"×¢×ķ×ľ×Ŀ":6388,"Ġ×Ĳ×Ļ×ł×©":6389,"×ĳ×ľ×Ĳ":6390,"×Ļ×ľ×¢":6391,"Ġ×Ĳ×ľ×ĸ×Ĳ":6392,"Ġ×¡×§×¨×Ļ×Ł":6393,"Ġ×Ĵ×¢×¦×ķ×Ļ×Ĵ×Ł":6394,"×¢×ĺ×¨×¢×ĺ×Ł":6395,"ak":6396,"Ġj":6397,"Ġ×¡×ķ×¨":6398,"×¢×¡×¤":6399,"×¦×Ļ×ķ":6400,"×¢×ŀ×Ĳ×Ľ×ĺ":6401,"Ġ×ª×Ľ×ľ":6402,"Ġ×Ĳ×¤×¦×Ļ×¢":6403,"Ġ×ĳ×ľ×¢×§":6404,"Ġ×©×ķ×ŀ":6405,"Ġ×Ĵ×¢×¤×Ĳ×¨":6406,"Ġ×ŀ×Ļ×ľ×Ľ":6407,"Ġ×Ĳ×Ļ×ł×ĺ×¢×¨×¢×¡×Ĳ×ł×ĺ×¢":6408,"Ġ×¦×ĵ×§×Ķ":6409,"Ġ×Ĳ×Ļ×ł×ĵ×¢×¨×¤×¨×Ļ":6410,"Ġ×¤×¢×¨×ĸ":6411,"Ġ×¤×ľ×¢×ł×¢×¨":6412,"Ġ×ĳ×Ĳ×©×¢×¤":6413,"×ĵ×Ļ×©×Ĳ":6414,"×¨×¤×Ĳ":6415,"Ġ×¤×Ļ×Ļ×ł×¢":6416,"Ġ×ľ×Ļ×Ļ":6417,"×Ĳ×ĺ×ŀ×Ĳ×¨":6418,"×ł×§×Ĳ":6419,"ïŃĮ":6420,"×Ĵ×¨×ķ×Ļ×¡":6421,"×ŀ×¢×ł×ĺ×¡":6422,"×ł×Ļ×Ļ×Ł":6423,"Ġ×¡×¢×¤":6424,"×¨×Ļ×Ļ×Ŀ":6425,"Ġ×Ĳ×ķ×Ļ×¡×§×ľ":6426,"Ġ×ĳ×Ĳ×ĵ×¢×¨×¤":6427,"×ķ×¨×©":6428,"×Ĳ×Ĵ×¡":6429,"×ķ×ķ×¢×¨×§":6430,"Ġ×Ĳ×Ĵ×¢×ł×ĺ×ķ×¨":6431,"Ġ×ķ×ķ×Ļ×Ľ×Ļ":6432,"Ġ×¢×¨×ł×¡×ĺ×¢":6433,"Ã¡":6434,"×ĺ×ķ×ĺ":6435,"Ġ×ĸ×Ĳ×¨":6436,"×ĵ×Ļ×¤":6437,"×ĳ×ķ×Ļ×¢×Ł":6438,"Ġ×¨×Ļ×ĳ":6439,"Ġ×Ĺ×ķ×ŀ":6440,"Ġ×Ĵ×¢×ĳ×ķ×Ļ×¢×ĺ":6441,"Ġ×¢×¦×Ŀ":6442,"Ġ×Ĳ×ľ×Ļ×ŀ×ľ×ļ":6443,"Ġit":6444,"Ġ×¨×ķ×Ļ×ĸ":6445,"Ġ×Ĳ×¨×Ľ":6446,"×ķ×§×ĺ×ķ×¨":6447,"×Ļ×ł×ĵ×ķ×ł×Ĵ":6448,"Ġ×©×ľ×Ļ×Ĺ":6449,"als":6450,"Ġ×Ĳ×ł×Ļ":6451,"Ġ×Ĳ×ķ×Ļ×¤×Ĵ×¢×ł×ķ×ŀ×¢×Ł":6452,"×ķ×ķ×Ļ×©×¢":6453,"Ġ×ł×ĳ×Ļ×Ĳ":6454,"Ġ×ĵ×ĸ×©×Ĳ×ĳ×¡":6455,"×ĳ×¨×Ļ×Ļ×ĺ×¢×¨×Ł":6456,"Ġ×Ĳ×Ļ×Ĵ":6457,"×ŀ×ŀ":6458,"×ŀ×Ĳ×Ľ×Ł":6459,"×Ķ×Ł":6460,"Ġ×ľ×¤×Ļ":6461,"Ġ×Ĵ×¢×©×ĺ×Ĳ":6462,"Ġ×ĳ×¨×Ľ×ķ×ª":6463,"×ŀ×©×Ķ":6464,"ĠÂ«":6465,"Ġ×ŀ×Ĳ×ŀ×¨":6466,"Ġwh":6467,"Ġ×§×Ķ×ľ":6468,"Ġ×¡×§×Ĳ×ł×ĵ×Ĳ×ľ×Ł":6469,"Ġ×Ĳ×Ĳ":6470,"×ľ×£":6471,"Ġ×ĵ×¨×Ļ×ĺ":6472,"Ġ×ĺ×©×Ĳ×¨":6473,"!!!!":6474,"Ġ×ŀ×¢×ł×ĵ":6475,"Ġ×ķ×ķ×Ļ×ĺ":6476,"Ġ×©×¤×Ļ×¨×ĺ":6477,"Ġ×ĳ×Ļ×¡×ĺ×ķ":6478,"Ġ×¡×Ļ×ĺ×ķ":6479,"×ľ×¢×ĵ×ĸ×©":6480,"Ġ×ĳ×Ļ×ł×¢":6481,"Ġ×¤×¨×©×ª":6482,"Ġ×ķ×ķ×¢×¨×ĵ":6483,"×§×Ĳ×Ł":6484,"Ġ×ķ×ķ×Ļ×Ļ×ĺ×Ĳ×Ĵ":6485,"Ġ×ŀ×ķ×Ĺ×ľ":6486,"oc":6487,"×§×¡×Ļ":6488,"Ġ×¤×ľ×Ĳ×¨":6489,"Ġ×Ļ×©×Ļ×ĳ×ķ×ª":6490,"Ġ×¢×ł×Ĵ×ľ×Ļ×©×¢":6491,"Ġ×ľ×Ļ×Ļ×ĵ×Ł":6492,"Ġ×Ĵ×ŀ×ľ":6493,"Ġ×ĳ×ľ×¢×ĺ×¢×¨×¢×¨":6494,"ress":6495,"Ġ×ĵ×Ĳ×ĺ":6496,"Ġ×ķ×ķ×Ļ×Ļ×Ł":6497,"Ġ×ĳ×Ĳ×ķ×ķ×Ļ×ĸ×Ł":6498,"×¢×ĸ×©":6499,"Ġ×Ĳ×Ļ×ĵ×¢×Ł":6500,"Ġ×ĳ×Ĳ×©×ľ×ķ×¡":6501,"Ġ×§×Ĳ×¨×ĺ×ľ×¢×ļ":6502,"Ġ×ķ×ķ×Ļ×§×Ļ×¤×¢×ĵ×Ļ×¢":6503,"×ŀ×ķ×¡":6504,"Ġ×ľ×Ļ×ĳ×Ķ":6505,"×Ĳ×ŀ×ĳ":6506,"Ġ×ĳ×Ĳ×ķ×ķ×Ļ×Ļ×ĸ×Ł":6507,"×ľ×¢×Ķ":6508,"Ġ×©×ķ×ľ×ĵ×Ļ×Ĵ":6509,"art":6510,"Ġ×¤×¨×Ĳ×Ĵ×¢×¡":6511,"ip":6512,"ãĥ":6513,"×ĸ×Ļ×§×¢":6514,"×ľ×¢×ł×¦":6515,"Ġ×ĳ×¨×ĳ×Ļ×Ŀ":6516,"×ŀ×Ļ×ĺ×ľ":6517,"Ġ×Ĵ×¢×¦×Ļ×Ļ":6518,"Ġ×ľ×Ļ×Ļ×ĵ×Ļ×Ĵ":6519,"Ġ×¤×¨×Ĳ×ĵ×ķ×§×ĺ":6520,"Ġ×©×ķ×ķ×Ĳ×¨×¥":6521,"Ġ×Ĵ×ŀ×ľ×Ļ×Ĳ×ľ":6522,"×¨×ĵ×Ļ":6523,"Ġ×Ķ×ķ×ĺ":6524,"Ġ×¢×¨×Ļ×Ļ×ĸ":6525,"×ĵ×¨×Ļ×Ļ×¢×Ł":6526,"Ġ×©×ł×Ļ×ĺ":6527,"Ġ×Ķ×ŀ×§×ĵ×©":6528,"Ġ×Ĳ×Ļ×ł×ĵ×ķ×¡×ĺ×¨×Ļ×¢×ľ×¢":6529,"Ġ×Ĵ×ľ×¢×ł×¦":6530,"×¤×ķ×ł×§×ĺ":6531,"×ķ×ĸ×Ļ×ł×Ĵ":6532,"×ķ×Ĵ×ŀ×Ĳ":6533,"Ġ×§×ľ×¢×ł×¢×¨×¢":6534,"ï¬Ŀ":6535,"Ġ90":6536,"Ġ×ŀ×Ļ×¡×Ļ×¢":6537,"Ġ×©×ķ×ķ×Ĳ×Ľ×¢":6538,"×ł×ķ×Ł":6539,"Ġ×ľ×ĺ×ķ×ĳ":6540,"×¢×¤×Ĳ×ľ×Ł":6541,"Ġ×©×ľ×Ĳ×¤×¢×Ł":6542,"Ġ×ł×Ľ":6543,"Ġ×Ĵ×¢×©×ŀ×Ĳ×§×¢":6544,"Ġ×¤×¨×Ĳ×¤×¢×¡×Ĳ×¨":6545,"Ġ×©×ķ×ł×Ĳ×Ļ×Ŀ":6546,"×ľ×ľ×Ļ":6547,"Ġ×ŀ×Ļ×©×Ł":6548,"Ġ×ĳ×ķ×§":6549,"×Ļ×¦×Ļ×¨×Ł":6550,"Ġ×Ļ×¢×ĵ×¢×Ŀ":6551,"Ġ×§×Ĳ×¨×Ļ×¢":6552,"×¤×ľ×¢×§×ĺ":6553,"Ġ×ľ×¢×ł×Ĵ×¢×¨×¢":6554,"Ġ×Ĳ×ķ×ł×Ĵ×Ĳ×¨×Ł":6555,"Ġ×§×Ļ×ł×¡×ĺ×ľ×¢×¨":6556,"ep":6557,"×¨×©×Ļ×ĵ×Ł":6558,"Ġ×ĳ×Ļ×Ľ×ľ":6559,"Ġ×ĵ×¢×¨×©×Ļ×Ļ":6560,"Ġ×©×ķ×ĺ×¢×£":6561,"31":6562,"Ġ×ĸ×¢×ľ×ĺ":6563,"Ġ×¢×¨×¤":6564,"×ł×ĺ×ķ×Ŀ":6565,"Ġ×Ĵ×Ĳ×ķ×Ł":6566,"Ġ80":6567,"Ġ×Ĵ×ĵ×ķ×ľ×Ļ":6568,"Ġ×ŀ×Ĳ×©×Ļ×ł×¢×Ł":6569,"Ġ×Ĵ×Ĳ×ĵ×Ĵ":6570,"Ġ×©×¢×ķ×ª":6571,"Ġ×ľ×Ĳ×ķ":6572,"Ġ×Ĵ×ķ×Ļ×Ļ×Ŀ":6573,"Ġ×ĳ×¨×Ļ×ĺ×Ĳ×ł×Ļ×¢":6574,"Ġ×ĳ×Ĳ×ł×ķ×¦×¢×¨":6575,"Ġ×©×ķ×ª":6576,"Ġ×¤×¨×ķ×Ľ×ĺ":6577,"Ġ×ĳ×Ĳ×ĵ×¢×¨×¤×¢×ł×Ļ×©×Ł":6578,"Ġcom":6579,"ł×Ľ":6580,"Ġ×Ĳ×Ļ×ł×§":6581,"Ġ×ķ×ķ×¢×Ķ":6582,"×ĵ×§":6583,"Ġ×©×Ļ×ĺ":6584,"Ġ×Ĳ×ľ×ĺ×Ł":6585,"Ġ×ª×ķ×¨×ª":6586,"Ġ×¢×ª":6587,"×ķ×ł×ķ":6588,"Ġ×Ĳ×¤×ĵ×¢":6589,"Ġ×ĵ×Ļ×¡×§×Ĳ":6590,"Ġ×¦×ķ×§×ķ×ŀ×¢×Ł":6591,"Ġ×¦×ķ×ķ×Ļ×©×¢×Ł":6592,"×¨×ķ×£":6593,"×¡×Ļ×¡×ĺ":6594,"×ķ×ª×¨":6595,"Ġ×ª×ķ×Ľ×Ł":6596,"Ġ×ĳ×Ļ×ĸ×ĺ":6597,"Ġ×ĵ×ķ×¨×Ľ×¤×Ļ×¨×Ł":6598,"×ŀ×ĵ×Ļ×ł×ª":6599,"bs":6600,"×©×Ļ×ķ×ª":6601,"×ĸ×Ĳ×Ĵ×Ł":6602,"×§×Ļ×Ĳ":6603,"ïŃĬ":6604,"Ġ×ŀ×ł×Ĺ×Ķ":6605,"Ġ×Ĳ×Ļ×ł×¦":6606,"Ġ×ŀ×ķ×Ļ×ĸ":6607,"×§×¢×Ĵ×Ł":6608,"Ġ×Ĳ×¤×ľ":6609,"Ġ×Ĳ×ĵ×ķ×ķ×¢×¨×ĺ×Ļ×Ļ×ĸ":6610,"Ġ×¨×Ļ×Ľ×ĺ×Ļ×§":6611,"48":6612,"Â»":6613,"×¤×Ĳ×ķ×Ł":6614,"Ġ×¦×ķ×Ķ":6615,"Ġ×¡×Ļ×ľ":6616,"Ġ×¡×¦":6617,"Ġ×Ĳ×¨×Ĳ×ĳ×¢×¨":6618,"×Ĳ×ĵ×Ł":6619,"Ġ×ĳ×¢×ľ×ĸ×¢×¨":6620,"Ġ×Ĳ×ł×¤×Ĳ×ł×Ĵ":6621,"×ķ×¦×Ĳ×ķ×ª":6622,"×ķ×ķ×Ļ×Ľ×ĺ":6623,"Ġ×¤×¢×ľ×¢×¨":6624,"Ġ×ŀ×¢×¨×¢×¨×¢":6625,"Ġ×§×¨×Ļ×Ļ":6626,"Ġ×ĳ×Ļ×ľ×Ļ×Ĳ×Ł":6627,"Ġ×Ĵ×¢×ŀ×Ļ×Ļ×ł×ĵ":6628,"Ġ×ĺ×¢×Ĵ×ľ×¢×ļ":6629,"×©×ķ×ĳ":6630,"Ġ×ĵ×¢×¨×ł×Ĳ":6631,"Ġ×Ĺ×ķ×ĸ":6632,"Ġ×Ĳ×ķ×Ļ×¡×ĵ×¢×¨":6633,"Ġ---":6634,"×ĵ×¨×ķ×ª":6635,"Ġ×§×¨×Ļ×Ĵ×Ł":6636,"Ġ×Ĳ×¨×ķ×Ļ×¡×§×ķ×ŀ×¢×Ł":6637,"×ľ×¢×¨×ľ×Ļ×Ļ":6638,"ina":6639,"Ġ×ķ×ķ×Ĳ×ĸ×ł×¢×¨":6640,"×ĵ×Ļ×¦×Ļ×Ĳ":6641,"Ġ×ľ×¢×ł":6642,"Ġ×¢×¨×ķ×ķ×Ĳ×¨×ĺ":6643,"Ġ×¤×Ļ×ľ×Ĳ×¡":6644,"×¨×Ĵ×¢×ĺ":6645,"Ġ×Ĳ×¨×Ĳ×¤×Ĵ":6646,"Ġ×©×ĺ×Ĳ×¨×§×¢×¨":6647,"Ġ×ĸ×ķ×ł×ĺ×Ĳ×Ĵ":6648,"Ġ×Ĳ×ł×ł×¢×ŀ×¢×Ł":6649,"Ġ×ĵ×Ļ×ŀ":6650,"Ġ×ĳ×ķ":6651,"Ġ×¡×§×ķ×ķ×¢×¨":6652,"×©×ľ×Ļ×¡×Ł":6653,"Ġ×Ķ×¦×ľ×Ķ":6654,"×¢×¨×©×ĺ":6655,"Ġ×¤×¢×¨×¡":6656,"×ľ×ķ×¦":6657,"Ġ×Ĳ×Ļ×Ļ×¤":6658,"×¢×Ľ×¥":6659,"ĠâĤ¬":6660,"Ġ×§×ķ×ķ×Ĳ×ĵ":6661,"Ġ×¨×ķ×Ļ×ĺ×¢":6662,"×ģ":6663,"×Ĳ×²":6664,"×ľ×Ļ×ĵ":6665,"Ġ×ľ×ķ×Ļ×ł×ĺ":6666,"Ġ×¨×Ļ×ł×Ĵ":6667,"×¢×Ĵ×Ĳ":6668,"Ġ×Ĳ×ĵ×¨×ĳ×Ķ":6669,"Ġ×ĳ×©×Ŀ":6670,"Ġ×¢×ł×ĵ×Ļ×Ĵ×Ł":6671,"Ġ×ŀ×¨×ª":6672,"Ġ×¨×Ļ×Ļ×ĸ×¢":6673,"Ġ×Ĳ×ķ×Ļ×¡×ĵ×¨×ķ×§":6674,"Ġ×Ķ×Ĳ×¡":6675,"Ġ×¨×ķ×Ļ×ŀ":6676,"Ġ×Ĳ×¤×¨×Ļ×§×¢":6677,"×¨×ĺ×ķ×Ĵ":6678,"Ġ×¤×Ĳ×ľ×Ļ×¡×Ļ":6679,"×ľ×ĵ×ķ×ķ×Ļ×Ļ×ĵ":6680,"Ġ×ľ×¢×¦×ĺ×¢×¨":6681,"Ġ×Ĳ×¨×Ļ×Ļ×ł×Ĵ×¢×ľ×Ļ×Ļ×Ĵ×ĺ":6682,"Ġ×ķ×ķ×Ļ×Ļ×ł×Ļ×§":6683,"Ġ×Ĵ×¢×Ķ×¢×¨×Ļ×Ĵ×¢":6684,"×¦×ķ×©×ĺ×¢×ľ×Ł":6685,"Ġ×¨×Ļ×¤×Ĳ×ĳ×ľ×Ļ×§×¢×Ł":6686,"ł×ł":6687,"Ġ×Ķ×Ļ×ĵ":6688,"Ġ×¦×¢×ĺ×ľ":6689,"Ġ×¤×Ĳ×¨×ł×Ļ×Ľ×ĺ×¢×ĺ":6690,"Ġ×ĸ×Ļ×Ľ":6691,"Ġ×ĳ×Ļ×¡":6692,"×¤×Ĳ×¨×Ł":6693,"Ġ×ľ×Ĳ×¡":6694,"Ġ×©×ĺ×Ĳ×ŀ×ĺ":6695,"×¢×ł×ĺ×ľ×Ļ×ļ":6696,"Ġ×ľ×ĳ×ł×Ķ":6697,"Ġ×ł×Ĺ×ŀ×Ł":6698,"Ġ×ĺ×Ļ×Ļ×¢×¨×¢×¨":6699,"Ġ×ĺ×Ĳ×ľ×Ĳ×ł×ĺ":6700,"×ķ×ł×ª":6701,"Ġ×ŀ×¢×ŀ×ĳ×¢×¨":6702,"Ġ×ĳ×Ľ×ľ":6703,"Ġ×§×ķ×¤":6704,"Ġ×©×ķ×Ķ":6705,"ows":6706,"Ġ×ĵ×¨×Ļ×Ļ×ķ":6707,"Ġ×ĵ×¢×¨×ľ×Ĳ×ł×Ĵ×ĺ":6708,"Ġ×Ĵ×¢×¢×ł×ĵ×Ļ×Ĵ×ĺ":6709,"×¨×¢×ł×ĵ":6710,"Ġ×¤×Ļ×Ļ×ł×ĺ":6711,"×ķ×ŀ×Ļ":6712,"Ġ×Ľ×Ł":6713,"×Ĳ×¤×Ļ×ľ×ķ":6714,"Ġ×ķ×ķ×¢×¨×ľ×ĵ×ķ×ķ×Ļ×Ļ×ĵ":6715,"Ġ×Ļ×ĵ×Ļ×ĵ":6716,"va":6717,"×ĺ×Ļ×¢":6718,"×ľ×Ĳ×ŀ×Ļ×¨":6719,"Ġ×Ķ×ĳ×Ĳ":6720,"×¦×Ļ×Ļ×Ĵ":6721,"Ġ×¤×¨×©×Ķ":6722,"×ł×©×ķ×¨":6723,"Ġ×©×¢×¤×¢×¨":6724,"Ġ×¨×¢×ĵ×Ĳ×§×ĺ":6725,"ĠMore":6726,"Ġ×©×Ļ×¢×ķ×¨×Ļ×Ŀ":6727,"Ñı":6728,"×ķ×ł×¥":6729,"Ġ×¡×ĺ×Ĳ×¨":6730,"×ĳ×Ļ×¨×ķ×ª":6731,"×¤×¤×¢×¨×¡":6732,"Ġ×ŀ×¢×Ľ×ĺ":6733,"×ĸ×ĸ":6734,"Ġ×¨×Ļ×Ļ×ĵ×Ł":6735,"×¢×ŀ×ľ":6736,"Ġ×ŀ×¢×¨×Ķ×Ļ×Ļ×ĺ":6737,"Ġ×°×¢×ĺ":6738,"×Ļ×¢×§×ĺ×Ł":6739,"Ġ×¤×Ļ×ĺ":6740,"Ġ×ŀ×Ļ×Ļ×ĸ":6741,"×ķ×ķ×¢×ĸ":6742,"Ġ×ĺ×Ļ×©×Ł":6743,"Ġ×ĺ×Ļ×Ļ×ĺ×Ł":6744,"×ł×ĺ×Ļ×ł":6745,"Ġ×ŀ×Ĺ×ķ×ª":6746,"Ġ×¤×¢×¨×ĵ":6747,"Ġ×¤×Ĳ×¤×ķ×ľ×¢×¨":6748,"Ġ×ĵ×¢×ŀ×Ĳ×§×¨×Ĳ×ĺ×Ļ×©×¢":6749,"×ķ×¢×Ķ":6750,"Ġ×¡×ķ×ķ×Ļ×":6751,"Ġ×¤×Ĳ×¨×¤×ľ":6752,"Ġ×ĳ×¨×ķ×Ļ×ĺ":6753,"×ķ×ķ×Ĳ×ķ":6754,"Ġ×°×¢×ľ×ĺ":6755,"Ġ×©×Ļ×ĵ×ķ×ļ":6756,"Ġ×Ĳ×ķ×§×¨×Ĳ":6757,"Ġ×¨×¢×¦":6758,"Ġ×¤×Ĳ×¨×ĺ×¨":6759,"Ġ×Ļ×Ļ×ł×Ĵ×ľ":6760,"Ġ×¢×ł×ĵ×¢×¨×ķ×ł×Ĵ×¢×Ł":6761,"Ġ×ĳ×¢×ĵ":6762,"×§×Ļ×Ļ×Ł":6763,"×Ĵ×Ļ×ľ×ĺ":6764,"×ľ×¢×¦×ĺ":6765,"Ġ×¤×ľ×Ļ×Ľ×ĺ":6766,"Ġ×Ĳ×ķ×Ļ×¡×Ĵ×¢×ĵ":6767,"ont":6768,"Ġ×¤×Ĳ×¨×ľ×Ĳ×ł×Ĵ":6769,"×¡×ĺ×¨×Ļ×ĸ":6770,"Ġ×ĺ×Ļ×§×¢×ĺ":6771,"rom":6772,"Ġ×ľ×¦":6773,"Ġ,âĢ¬":6774,"ĠFl":6775,"Ġ×ĳ×Ĳ×ľ×Ĳ×ł×Ĵ×ĺ":6776,"Ġ×¤×¢×ĵ×¢×¨×Ĳ×ľ×¢":6777,"RA":6778,"ef":6779,"Ã©":6780,"Ġ×ĵ×ķ×ĳ":6781,"Ġ×§×ĳ×¨":6782,"Ġ×Ĳ×ľ×¤×Ļ×Ŀ":6783,"×Ļ×ŀ×¤":6784,"Ġ×ĳ×¨×§":6785,"×ŀ×Ļ×ĺ×Ĳ×Ĵ":6786,"×ł×Ļ×¢×ķ×ª":6787,"32":6788,"×ĳ×§":6789,"Ġ×¦×Ļ×Ļ×Ĵ":6790,"×Ļ×ĺ×Ĳ×¨":6791,"Ġ×¨×Ļ×Ļ×¢":6792,"Ġ×©×ĺ×Ļ×ŀ×¢":6793,"Ġ×¤×Ĳ×ķ×ľ":6794,"Ġ×Ĵ×¢×ĳ×ĺ":6795,"×ľ×ŀ×¢×©×Ķ":6796,"×Ļ×¡×¢×ŀ×Ļ×ĺ":6797,"apos":6798,"Ġ×ĵ×Ĳ×Ľ×ĺ":6799,"Ġ×ŀ×Ĳ×¡×Ł":6800,"Ġ×¢×ĳ×Ļ×¨×ķ×ª":6801,"×Ķ×Ļ":6802,"Ġ×ľ×ķ×Ļ":6803,"Ġ×Ĳ×ľ×¢×ĸ×¨":6804,"Ġ×ł×Ĳ×¨×ĺ":6805,"Ġyou":6806,"Ġ×§×¢×ŀ×¤×Ł":6807,"Ġ×¤×Ĳ×¨×ķ×ķ×Ĳ×ł×ĵ×ľ×ĺ":6808,"ÑĥÑĥÑĥÑĥÑĥÑĥÑĥÑĥ":6809,"ÑģÑģÑģÑģÑģÑģÑģÑģ":6810,"500":6811,"×ľ×ķ×Ŀ":6812,"Ġ×ŀ×ķ×ĺ":6813,"Ġ×¡×ĳ":6814,"×ķ×¨×¢×ł×¡":6815,"ĠCh":6816,"Ġ×ĵ×Ĳ×ľ×ľ×¢×¨":6817,"Ġ×ł×ķ×Ĵ×¢":6818,"×ĸ×Ĳ×Ŀ":6819,"×¢×ĵ×Ļ×Ĵ":6820,"Ġ×Ĳ×ŀ×Ł":6821,"Ġ×©×Ľ×ł×Ļ×Ŀ":6822,"Ġ×¤×¨×Ĳ×ĺ×¢×¡×ĺ":6823,"Ð¿Ð¿":6824,"×¤×Ĳ×Ł":6825,"Ġ×Ļ×Ļ×©×¨":6826,"×Ļ×Ļ×¢×ł×ĵ×Ļ×§":6827,"×ķ×Ľ×ķ×ª":6828,"Ġ×¨×¢×¡×Ĳ":6829,"ÑĮ":6830,"×§×ķ×ĵ×Ŀ":6831,"×Ķ×Ļ×Ļ×ŀ":6832,"×Ļ×Ľ×Ĳ×ľ":6833,"×ķ×ķ×Ļ×ľ×Ĳ×ł×Ĵ":6834,"ah":6835,"×ĵ×ŀ×Ļ×ł":6836,"Ġ×¢×ł×ĵ×Ļ×Ĵ":6837,"Ġ×ĺ×¨×Ĳ×Ĵ×Ł":6838,"Ġ×ŀ×ľ×Ĳ×ļ":6839,"Ġ×Ĳ×Ļ×ĳ×¢×¨×Ĵ×¢×ĸ×¢×¦×ĺ":6840,"Ġ×Ĳ×Ļ×Ļ×ł×¦×Ļ×§×¢":6841,"×ł×ł×Ĳ":6842,"Ġ×§×ķ×ķ×Ĳ×ĵ×¨×Ĳ×ĺ":6843,"uc":6844,"×¢×§×ľ×¢×ļ":6845,"×¢×§×ķ×§×ĺ":6846,"×Ļ×¦×ķ×ª":6847,"ĠâĢı":6848,"Ġ×ĸ×Ĳ×ľ×¡×ĺ×ķ":6849,"Ġ×¢×ł×ĵ×¨×ķ×Ļ×ĵ":6850,"×¨×Ļ×ĳ×¢×¨×¤×Ļ×¨×Ł":6851,"×Ĳ×ķ×ł×ĸ×¢×¨":6852,"ĠAnim":6853,"Ġ×Ķ×ķ×ł×Ĵ×¢×¨":6854,"Ġ×ĳ×¢×ł×ĵ":6855,"Ġ×Ļ×ŀ×Ļ×Ŀ":6856,"Ġ×©×ĺ×¨×Ĳ":6857,"×ķ×ľ×§":6858,"×ķ×¤×Ĳ":6859,"Ġ×ĳ×Ĳ×ł×ĵ":6860,"Ġ×¤×ľ×Ĳ×ł":6861,"Ġ×Ĳ×ł×Ĵ×¢":6862,"ĠWord":6863,"Ġ×¦×ĵ×§":6864,"Read":6865,"are":6866,"Ġ×ĵ×¢×ł×§":6867,"×Ļ×ŀ×ķ×ł×Ĵ":6868,"Ġ×¦×Ļ×Ļ×ĺ×©×¨×Ļ×¤×ĺ":6869,"Ġ×Ĳ×Ļ×ł×ĵ×Ļ×¢":6870,"Ġ×¤×¡×§×¡":6871,"×Ļ×Ĳ×ł×Ļ×©×Ł":6872,"Ġ×Ĳ×Ļ×ł×Ĵ×¢×ľ×Ļ×Ļ×ĺ":6873,".[":6874,"Ġ×¤×¢×Ĳ":6875,"×§×¢×¨×Ł":6876,"×ķ×ķ×Ļ×Ļ×ľ×ĺ":6877,"×Ļ×¦×ķ×ł×Ĵ":6878,"×¢×ł×¡×ĺ":6879,"Ġ×Ķ×Ļ×Ļ×ŀ×Ļ×©×Ł":6880,"Ġ×Ķ×Ļ×¨×©":6881,"Ġ×Ķ×Ļ×ł×ĵ":6882,"Ġ×§×ķ×ł×ĺ×¨":6883,"Ġ×Ĳ×ķ×Ļ×¡×ĵ":6884,"×¨×Ļ×§×¢×¨":6885,"Ġ×°×¢×¨":6886,"ines":6887,"Ġ×ł×Ĳ×Ľ×Ĳ×ł":6888,"Ġ×¤×Ĳ×¨×ĺ×Ļ×Ļ×ĵ":6889,"×ķ×¦×Ĳ×Ļ":6890,"Ġ×ľ×Ĳ×§×Ĳ×ľ×¢":6891,"×¨×ł×Ĳ":6892,"Ġ×ķ×Ĵ":6893,"Ġ×§×Ļ×ł×Ĳ":6894,"×Ļ×§×Ļ":6895,"able":6896,"67":6897,"Ġ×Ļ×§×¢×¨":6898,"Ġ×Ĵ×¢×ł×¦":6899,"Ġ×¡×Ĵ":6900,"×¢×ľ×Ķ":6901,"×§×¡×¢×¡":6902,"×ľ×ĺ×ķ×ł×Ĵ":6903,"Ġ×ŀ×ľ×Ľ×ķ×ª":6904,"Ġ×Ĳ×¨×Ļ×Ļ×ł×©":6905,"Ġ×ŀ×¢×ķ×¨×¨":6906,"Ġ×ŀ×ķ×ĵ×Ļ×¢":6907,"Ġ×ķ×ķ×Ļ×Ļ×ĵ":6908,"×Ĳ×¨×ĳ×¨×Ļ×Ļ×ĺ×¢×¨×Ł":6909,"Ġ×§×Ĳ×©":6910,"×©×Ļ":6911,"×ĸ×¢×ł×¢×Ł":6912,"Ġ×©×Ļ×Ļ×ł×¢×Ŀ":6913,"×ŀ×Ĳ×Ľ":6914,"×Ļ×ĺ×¢×ĵ":6915,"×Ľ×ł×Ĳ":6916,"Ġ×ĳ×Ĳ×ķ×ķ×Ĳ":6917,"Ġ×ĸ×Ļ×Ľ×¢×¨×Ķ×Ļ×Ļ×ĺ":6918,"Ġ×Ĺ×¡×Ļ×ĵ×Ļ×©×¢×¨":6919,"ķ×ķ×¢":6920,"Ġ×ŀ×Ļ×Ļ×ł×ķ×ł×Ĵ×¢×Ł":6921,"Ġ×ĳ×Ĳ×¦×Ļ×Ĳ":6922,"Ġ×©×ĺ×¨×Ļ×ļ":6923,"×Ļ×Ļ×¨×Ĳ×ĺ":6924,"×Ĵ×¢×Ķ×Ĳ×ľ×ĺ×Ł":6925,"Ġ×Ĳ×Ļ×ĳ×¢×¨×¦×Ļ×Ļ×Ĵ×ĺ":6926,"×ľ×Ļ×ĵ×¢×¨":6927,"Ġ×©×Ĳ×ĺ":6928,"Ġ×©×ĵ×¨×ķ×ª":6929,"×ł×ĵ×ľ×¢×ļ":6930,"×Ļ×¡×ĺ×Ļ×©×¢×¨":6931,"Ġ×Ĵ×¢×¦×¢×ľ×ĺ×Ł":6932,"Ġ×Ĳ×Ļ×Ļ×ĳ×Ļ×§":6933,"Ġ×ĳ×ĵ×¢×Ķ":6934,"Ġ×©×ķ×ķ×Ļ×ł×ĵ":6935,"×Ĵ×Ļ×©":6936,"Ġ×¡×Ļ×¤":6937,"Ġ×¨×ķ×ĺ":6938,"Ġ×¤×Ĳ×¨×ķ×ŀ×¡":6939,"×Ĵ×¢×©×Ļ×Ľ×ĺ×¢":6940,"Ġwww":6941,"Ġ<":6942,"×¨×ĺ×¢":6943,"Ġ×Ļ×ķ×ĸ×©×Ĳ":6944,"×Ĵ×Ļ×ł×Ĵ":6945,"×Ĳ×ĺ×Ĳ×¨":6946,"Ġ×¨×Ĳ×ŀ×Ĳ×¢×ľ×ĵ":6947,"×Ļ×¨×Ļ×Ļ×ĺ":6948,"×Ĳ×ŀ×ĺ×¢":6949,"×ł×Ĵ×ľ":6950,"Ġ×ŀ×ľ×Ĺ":6951,"×ľ×Ļ×¢×ł×Ļ×©":6952,"Ġ×¤×Ĳ×¨×©×¤×¨×Ļ×Ļ×ĺ×Ł":6953,"Ġ×¤×ķ×¤×¦×Ł":6954,"Ġ×ŀ×ķ×ŀ×Ĺ×Ķ":6955,"×ľ×§×¢":6956,"Ġ×ŀ×¢×ł×ĵ×ľ":6957,"×Ļ×ĺ×Ļ×Ĳ":6958,"×ł×ĺ×Ļ×§":6959,"Ġ×©×¤×Ĳ×ł×Ļ×¢":6960,"Ġ×Ĳ×ķ×Ļ×¡×¤×Ĳ×¨×©":6961,"Ġ×ĳ×Ľ×ĵ×Ļ":6962,"Ġ×Ĳ×¤×Ļ×¦×Ļ×¢×ľ":6963,"Ġ×ķ×ķ×¢×ł×ĵ×ĺ":6964,"Ġ×Ķ×§×ĵ×ŀ×Ķ":6965,"ï¿":6966,"×Ļ×ĺ×Ļ×ķ×ķ":6967,"Ġ×ľ×ķ×Ļ×£":6968,"Ġ×Ĳ×¤×Ł":6969,"Ġ×Ĳ×ķ×Ļ×¡×¤":6970,"×ķ×ł×ĵ×¢":6971,"Ġ×Ĳ×¨×ķ×Ļ×¡×ł×¢×ŀ×¢×Ł":6972,"×¨×§×Ļ×Ļ":6973,"Ġ×Ĳ×Ļ×Ļ×¨×Ĳ×¤":6974,"Ġ×ĳ×Ĳ×¤×¨×Ļ×Ļ×ĺ":6975,"Ġ×¦×ķ×ĸ×Ĳ×ŀ×¢×ł×Ĵ":6976,"Ġ×¡×Ļ×ĵ×Ļ":6977,"Ġ×Ĳ×¨×Ĳ×ĳ×Ļ×©×¢":6978,"Ġ×ĸ×Ļ×¥":6979,"×ĸ×¢×ľ×Ľ×¢":6980,"Ġ×ķ×ķ×¢×¨×¢×Ł":6981,"Ġ×ŀ×§×ķ×ŀ×ķ×ª":6982,"Ġ×¤×¨×Ĳ×Ļ×¢×§×ĺ":6983,"Ġ×¡×¢×ľ×¢×§×ĺ×Ļ×¨×Ł":6984,"Ġ×Ĵ×¢×ł×¢×¨×Ĳ×ľ":6985,"×©×¢×ł":6986,"Ġ×©×¤×Ĳ×¦":6987,"×Ļ×ŀ×¡":6988,"Ġ×Ĳ×ķ×ŀ×Ĵ×ľ":6989,"×¨×§×Ļ×ł×Ĵ":6990,"Ġ×ŀ×ķ×ĸ×Ļ×Ļ":6991,"Ġ×ŀ×ĵ×ĳ×¨":6992,"Ġ×ĵ×Ļ×Ļ×ĺ×©×¢":6993,"Ġ×¨×¢×Ľ×ĺ×¢":6994,"×¡×Ļ×ĺ×¢×¡":6995,"Ġ×ľ×ĺ×ĵ":6996,"Ġ×Ļ×ķ×Ĺ×ł×Ł":6997,"Ġ×¦×Ĳ×ł×ĸ":6998,"Ġ×Ļ×ľ":6999,"×Ļ×ľ×ª":7000,"Ġ×ķ×ķ×Ĳ×ķ×Ļ×ł×ĺ":7001,"Ġ×¢×¤×¢×§×ĺ×Ļ×ķ×ķ":7002,"Ġ×Ĳ×Ļ×ĳ×¢×¨×Ĵ×¢×ľ":7003,"Ġ×Ļ×ł×ĵ×ĸ×©":7004,"Ġ×Ļ×¦×¨":7005,"Ġ×¤×Ĳ×¨×ł×¢×Ŀ":7006,"ØĮ":7007,"Ġ×Ķ×Ļ×Ļ×¡×Ł":7008,"×ł×ķ×ķ":7009,"Ġ×©×¤×Ļ×¥":7010,"×¨×Ĵ×¢×ł×Ļ×Ĵ×Ł":7011,"Ġ×¦×ķ×Ĵ×¢×Ĵ×¢×ĳ×Ł":7012,"Ġ×ŀ×Ĳ×ł×ĺ×Ĳ×Ĵ":7013,"Ġ×Ĳ×Ļ×ł×ĺ×¢×¨×¡×Ĳ×ł×ĺ":7014,"×¨×©×Ĳ":7015,"Ġ×¤×Ļ×ł×¦":7016,"Ġ×©×Ļ×Ļ":7017,"×¢×ľ×¢×¡":7018,"×Ļ×¨×¢":7019,"×¦×ķ×ķ×Ļ×©×Ł":7020,"Ġ×ª×¤×ľ":7021,"×¤×Ĳ×¨×©×ĺ×Ļ×Ļ×ĺ":7022,"×ķ×ķ×Ĳ×¨×ĵ":7023,"Ġ×¤×Ĳ×¨×ĵ×Ļ×ł×¢×Ł":7024,"Ġ×ł×Ĳ×ŀ×Ĳ×¡×ĺ":7025,"Ġ×ŀ×Ĳ×©×Ļ×Ł":7026,"×¢×¦×Ļ×¤×Ļ×©":7027,"Ġ×Ĳ×¦×Ļ×ł×ĵ":7028,"×ķ×¢×Ł":7029,"×ĳ×¢×ĺ":7030,"Ġ×ľ×Ĳ×ĵ":7031,"×¢×¦×ķ×Ļ×Ĵ×Ł":7032,"Ġ×Ĳ×ķ×Ļ×¡×Ĵ×¢×©×ĺ×¢×ľ×ĺ":7033,"Ġ×¢×ł×ĵ×ľ×Ļ×ļ":7034,"Th":7035,"ment":7036,"Ġ×ĵ×¢×§×Ł":7037,"Ġ×ĸï¬Ł":7038,"×ĳ×¢×¡":7039,"Ġ×Ļ×ŀ×Ĳ":7040,"×¢×ĺ×Ļ×Ļ×ľ×ĺ":7041,"Ġ×©×ĺ×Ļ×Ļ":7042,"×ķ×ķ×¢×Ļ":7043,"Ġ×ľ×Ļ×ĺ×¢×¨×Ĳ×ĺ×ķ×¨":7044,"Ġ×©×ķ×ķ×Ļ×ŀ":7045,"×Ļ×¨×Ļ×¢×ł×¡":7046,"?'":7047,"×ķ×ł×¢":7048,"×ķ×Ļ×¡×Ł":7049,"Ġ×¢×¤×¢×§×ĺ":7050,"×ķ×Ļ×¢×¨×ĺ":7051,"Ġ×ĵ×ĸ×©×¢×ł×¢×¨":7052,"Ġ×¡×¤×¢×¦×Ļ×¤":7053,"Ġ×Ķ×¡×ĳ×¨":7054,"Ġ×ĳ×Ĳ×Ĵ×ľ×Ļ×Ļ×ĺ":7055,"×¢×ł×¦×Ł":7056,"Ġ×Ĳ×Ļ×ĳ×¨×Ļ×Ĵ×¢":7057,"×¨×ķ×§":7058,"×¨×Ļ×Ķ":7059,"Ġ×ĸ×¢×ľ×ĺ×Ł":7060,"Ġ×ĳ×Ĳ×ł×Ļ×¦×¢×¨":7061,"Ġ×Ĺ×ľ×§×Ļ×Ŀ":7062,"Ġ×¤×¨×¢×ŀ×Ļ×¢×¨":7063,"Ġ×¦×ķ×ł×¢×ŀ×¢×Ł":7064,"×Ļ×Ļ×ª":7065,"×ľ×ĵ×Ĳ":7066,"×ĵ×Ļ×Ĵ×Ł":7067,"Ġ×¤×Ĳ×¨×ŀ×¢×¡×ĺ":7068,"Ġ×ĵ×¨×Ļ×§×Ł":7069,"×§×§×ľ×Ļ×ł×§×¡":7070,"×ĺ×ķ×¡":7071,"×ľ×ŀ×©×ľ":7072,"Ġ×¢×¨×Ĳ":7073,"×Ĳ×Ĵ×¢×¡":7074,"×Ļ×ĸ×©":7075,"Ġ×ª×ľ×ŀ×ķ×ĵ":7076,"×¡×ĺ×Ļ×ł×Ĵ":7077,"ĠâĢĺ":7078,"Ġ×Ĵ×¢×Ĵ×¢×¡×Ł":7079,"Ġ×¤×Ĳ×¨×ľ×Ĳ×ł×Ĵ×¢×Ł":7080,"×Ĵ×¨×Ļ×Ľ":7081,"Ġ×¤×ķ×ľ×¢":7082,"Ġ×ĳ×Ĳ×ľ×Ļ×Ļ×ĵ":7083,"Ġ×¢×§×¡×¤×Ļ×¨×Ļ×¢×ł×¡":7084,"Ġ×Ĳ×Ļ×ł×ĸ×ľ×¢×Ł":7085,"Ġ×¡×Ļ×ĺ×ķ×Ĳ×¦×Ļ×¢":7086,"Ġ×ľ×Ļ×ĳ×Ķ×Ĳ×ĳ×¢×¨":7087,"×¨×¢×Ĵ×Ł":7088,"Ġ×¤×Ļ×Ļ×Ĵ":7089,"Ġ×ķ×ķ×¢×ŀ":7090,"×Ĵ×ķ×ĺ":7091,"Ġ×Ĳ×ĳ×ķ×ª":7092,"Ġ×Ķ×ĳ×Ļ×ª":7093,"Ġ×Ĳ×ķ×§×¨×Ļ×Ļ×ł×Ĳ":7094,"Ñĭ":7095,"×ł×§×¢×Ł":7096,"ard":7097,"Ġ×¦×¢×ł×ĺ×¨×Ĳ×ľ":7098,"')":7099,"×Ĳ×ķ×ł×ĺ×¢×¨":7100,"Ġ×ĵï¬¯":7101,"Ġ×¤×¢×ĵ":7102,"Ġ×Ĵ×¢×ĸ×¢×¦":7103,"Ġ×¢×¤×ľ":7104,"Ġ×©×¨×Ļ×¤×ĺ":7105,"Ġ×ĳ×¢×ľ×ĸ×Ĳ":7106,"Ġ×Ĵ×¢×ķ×ķ×Ĳ×ľ×ĵ×Ļ×§×¢":7107,"Ġ×ĳ×Ĳ×Ĵ×¢×Ĵ":7108,"ĠïŃİï¬®×¨":7109,"Ġ×ŀ×Ĳ×Ĵ×Ĳ×ĸ":7110,"Ġ×§×ķ×ł×ĺ×¨×¡":7111,"ts":7112,"×ķ×ł×©":7113,"×ľ×Ļ×Ĵ":7114,"Ġ×©×¢×Ľ×ĺ×¢×¨":7115,"Ġ×¢×ĸ":7116,"Ġ×ĺ×ķ×ł×§":7117,"Ġ×¨×Ļ×ĵ":7118,"×¢×ł×ĵ×Ĳ":7119,"×Ĳ×ĳ×ľ×Ļ×§":7120,"ĠPh":7121,"Ġ×Ĵ×¨×¢×ł×¢×¥":7122,"Ġ×ĵ×Ļ×¡×§×ķ×¡":7123,"Ġ×©×Ĳ×ł×¡":7124,"×Ķ×ķ×Ļ×¤×ĺ":7125,"Ġ×ª×Ļ×§":7126,"Ġ×¤×Ĳ×¨×ĳ×ķ×ł×ĵ×Ł":7127,"×ķ×ķ×Ļ×Ļ×¡×ĺ":7128,"Ġ×©×¤×Ļ×ľ×ĺ":7129,"Ġ×§×ľ×Ļ×Ļ×ł×¢×¨":7130,"Ġ2003":7131,"×ĺ×©×ľ×Ĳ":7132,"×ł×Ļ×©×ĺ×Ĳ":7133,"Ġ×ĳ×Ĳ×Ķ×Ĳ×ľ×ĺ×Ł":7134,"Ġ×¨×ķ×Ĺ×ł×Ļ×ķ×ª":7135,"Ġ×ĳ×¡×ļ":7136,"Ġ×ĳ×ľ×Ļ×¦×¤":7137,"Ġ×¦×ķ×¦×ķ×Ĵ×¢×ĳ×Ł":7138,"ied":7139,"Ð²":7140,"Ġ×Ķ×Ļ×ķ×Ŀ":7141,"Ġ×¦×Ĳ×ŀ":7142,"×§×¢×ł×¢×Ł":7143,"Ġ×Ĵ×¢×Ĺ":7144,"Ġ×ĳ×Ĳ×Ĵ×¨×¢×ł":7145,"Ġ×¤×ķ×ĺ×ĳ×Ĳ":7146,"Ġ×ķ×ķ×Ĳ×¨×©×Ļ×Ļ×ł×ľ×Ļ×ļ":7147,"Ġ×ł×Ļ×§×¡":7148,"Ġ×Ĳ×Ļ×ł×ĺ×¢×¨×¢×¡×Ł":7149,"Ġ×Ĳ×ķ×Ļ×¡×Ĵ×¢×Ķ":7150,"×ĺ×©×¢":7151,"×¢×ł×§×Ĳ":7152,"Ġ×Ĳ×ŀ×ª×¢":7153,"Ġ×Ķ×Ļ×¡×ĺ×Ĳ×¨×Ļ×©×¢":7154,"×ķ×ľ×¢×ĺ×ĺ×¢":7155,"Ġ×¤×Ļ×Ļ×ĺ×Ļ×ł×Ĵ":7156,"Ġ×Ķ×ķ×Ļ×£":7157,"×Ĳ×¨×Ĵ×ĺ":7158,"×Ļ×ł×Ļ×ł×Ĵ":7159,"Ġ×§×ľ×Ļ×¢×ł×ĺ":7160,"irst":7161,"!)":7162,"×¢×¨×¢×¨":7163,"Ġ×¤×Ķ":7164,"×Ĵ×Ļ":7165,"×¢×ĳ×¢×Ł":7166,"Ġ×Ĵ×¢×ľ×ķ×ł×Ĵ":7167,"×Ļ×Ļ×ŀ×¡":7168,"Ġ×Ĳ×ĵ×ķ×¨":7169,"×ĵ×ĸ×©×Ļ×§×Ĳ":7170,"Ġ×ĳ×Ĳ×ĸ×ķ×Ľ×Ł":7171,"Ġ×ľ×¢×¦×ĺ×Ł":7172,"Ġ×¤×ķ×¤×¦×Ļ×Ĵ":7173,"Ġ×ľ×¢×ķ×ķ×¢×ľ×¡":7174,"Ð¼Ð¼Ð¼Ð¼":7175,"Ġ×ŀ×Ļ×Ĳ×ķ×¡":7176,"×¨×¦×¢":7177,"Ġ×ŀ×Ļ×¡×ĺ×Ĳ":7178,"×¤×¢×¡":7179,"×§×ķ×ķ":7180,"Ġ×ŀ×Ĺ×ľ×Ļ×ĺ":7181,"Ġ×¤×Ĳ×¨×©×ķ×Ļ×ł×¢×Ł":7182,"Ġ×¨×¢×ĸ×¢×¨":7183,"Ġ×Ĳ×Ļ×ł×©×ķ×¨×¢×ł×¡":7184,"×Ĵ×Ĳ×ł×Ĵ":7185,"×Ľ×ŀ×Ķ":7186,"×¢×§×ĺ×¢×¨":7187,"Ġ×Ĳ×¤×¢×Ł":7188,"Ġ×¤×Ĳ×¨×ľ×Ļ×¨×Ł":7189,"Ġ×ķ×ķ×¢×ĳ×¡×Ļ×ĺ×¢×¡":7190,"Ġ×¢×ł×ĵ×ľ×¢×ļ":7191,"ï¼":7192,"Ġ×ľ×Ļ×Ļ×ł×ĺ":7193,"Ġ×Ĵ×¢×ĺ×¨×Ĳ":7194,"Ġ×ĳ×¢×¨×ľ":7195,"Ġ×¤×¨×Ĳ×ĵ×ķ×§×ĺ×Ł":7196,"×ĳ×Ĳ×ĸ×Ļ×¨×ĺ":7197,"Ġ×Ĳ×Ļ×Ļ×ľ":7198,"×§×¢×¨×¡":7199,"Ġ×©×ĺ×Ĳ×§":7200,"×Ļ×Ľ×ķ×ª":7201,"Ġ×Ĳ×Ļ×ł×¢×ķ×ķ":7202,"×Ļ×ł×ĺ×ľ":7203,"Ġ195":7204,"Ġ45":7205,"×¨×Ķ×Ŀ":7206,"Ġ×ŀ×Ĳ×Ľ×¢×¨":7207,"Ġ×¤×Ĳ×¨×ĸ×Ĳ×ŀ":7208,"Ġ×ĳ×§×Ļ×¦×ķ×¨":7209,"ĠUS":7210,"×¨×Ļ×Ĵ×Ļ×ł×¢×ľ":7211,"Ġ>":7212,"Ġ×¤×ĺ×ķ×¨":7213,"×Ĳ×ľ×Ļ":7214,"×Ļ×ľ×§×¢":7215,"Ġ×¢×¨×§×ľ":7216,"×¢×Ĵ×Ĳ×ł×Ĵ×¢×Ł":7217,"×¨×Ļ×ł×¡":7218,"Ġ×§×Ĳ×¨×¢×¡×¤":7219,"Ġ×ĳ×Ĳ×ĸ×ķ×ł×ĵ×¢×¨":7220,"Ġ×ł×©×Ļ×Ŀ":7221,"Ġ×©×ĺ×ķ×¨×¢×Ŀ":7222,"eg":7223,"×ŀ×¢×ĵ":7224,"×§×Ĳ×¨":7225,"Ġ×ĺ×ķ×Ļ×Ĵ":7226,"Ġ×ŀ×Ļ×ĺ×Ĳ":7227,"Ġ×Ĵ×¨×Ĳ×¤":7228,"Ġ×Ĳ×ķ×Ļ×¡×ĺ×¨":7229,"×¤×Ĳ×¨×ĳ":7230,"Ġ×Ĵ×ķ×ĺ×¡":7231,"Ġ×Ĳ×¨×Ļ×Ļ×ł×Ĵ×¢×§×ķ×ŀ×¢×Ł":7232,"Ġ×Ĵ×¢×ľ×¢×Ĵ×ł×Ķ×Ļ×Ļ":7233,"×ķ×Ļ×ŀ×¢×Ł":7234,"Ġ×ĳ×¢×ł×¢×¤":7235,"Ġ×¤×ľ×ķ×¦×ľ×Ļ×ł×Ĵ":7236,"×ĵ×ŀ×Ļ×ł×Ļ×¡×ĺ×¨×Ĳ":7237,"Ġ×ĳ×Ļ×ł":7238,"Ġ×ĳ×ķ×ł×ĵ":7239,"×Ĳ×ĺ×¢×ķ×ķ×¢×ĺ":7240,"Ġ×©×ĺ×Ļ×Ļ×ł×¢×¨":7241,"Ġ×Ľ×Ļ×ĵ":7242,"×Ļ×ĸ×Ļ×¨×ĺ":7243,"×ĵ×¢×¨×ł×Ĳ×ļ":7244,"×¢×¨×¡×Ĳ":7245,"×ł×Ķ×Ļ×Ļ×ĺ":7246,"Ġ×Ĳ×Ļ×ł×ĺ×¢×¨×ķ×ķ×Ļ×Ĳ":7247,"ice":7248,"×Ĵ×¢×ĵ×¢×ł×§":7249,"×Ĵ×¢×¦×Ļ×Ļ×Ľ×ł×ĺ":7250,"Ġ×Ĳ×Ļ×ŀ×Ļ×Ĵ×¨×Ĳ×ł×ĺ×Ł":7251,"Ġ×ķ×Ļ×ĵ×Ĳ×ķ":7252,"×¨×Ļ×Ļ×ł×Ļ×§×ĺ×¢":7253,"Ġ×ĵ×Ļ×§":7254,"Ġ×¡×ŀ×Ĳ":7255,"Ġ×Ĺ×Ļ×Ķ":7256,"Ġ×Ĳ×Ļ×Ļ×ł×§":7257,"Ġ×Ĳ×ĳ×Ĳ×ŀ×¢":7258,"Ġ×¡×§×ķ×ķ×Ļ×¨×Ĳ":7259,"Ġ×ł×¡×Ļ×¢×Ķ":7260,"Ġ×¨×¢×ĸ×ķ×ľ×ĺ×Ĳ×ĺ":7261,"ä¸":7262,"Ġ×ĵ×Ļ×Ľ×ĺ×¢×¨":7263,"Ö¸Ö¾":7264,"Ġ×ĺ×ķ×Ļ×¢×¨":7265,"Ġ×¨×Ļ×Ļ×ł×¢":7266,"Ġ×Ľ×ŀ×Ķ":7267,"Ġ×ĵ×Ĳ×¨×¤×ĺ":7268,"Ġ×ĵ×Ļ×¡×Ĳ":7269,"Ġ×ĸ×Ĳ×Ĵ×¡×ĺ":7270,"Ġ×ŀ×Ĵ×Ļ×ľ×Ķ":7271,"Ġ×¤×¨×¢×ŀ×ĵ×¢":7272,"Ġ×ĵ×Ĳ×§×ĺ×¢×¨":7273,"Ġ×©×¢×ł×§×¢×Ł":7274,"Ġ×Ļ×ł×ĺ×¢×ľ":7275,"Ġ×ĳ×ľ×¢×§×ĳ×¢×¨×Ļ":7276,"Ġz":7277,"Ġ×ł×Ļ×¡×Ł":7278,"×Ĳ×Ĵ×¢×Ł":7279,"Ġ×Ķ×Ĺ×Ļ×Ļ×Ŀ":7280,"Ġ×Ĵ×ķ×¨×Ŀ":7281,"Ġ×ĳ×ķ×©×¢×ķ×ķ×¢×Ł":7282,"Ġ×ĸ×Ļ×ľ×ĳ×¢×¨":7283,"Ġ×ł×Ĳ×Ľ×Ĳ×ł×Ĳ×ł×ĵ":7284,"Ġ×¤×Ļ×ł×Ĳ":7285,"×ĳ×²":7286,"Ġ×¨×Ļ×Ļ×¥":7287,"×Ļ×¡×¢":7288,"Ġ×Ĵ×¢×§×Ĳ":7289,"Ġ×ľ×Ļ×ĳ×ľ×Ļ×ł×Ĵ":7290,"Ġ×Ļ×ķ×ĵ×Ł":7291,"Ġ×ĵ×Ĳ×ł×¢×¨×©×ĺ×Ļ×Ĵ":7292,"Ð°Ð°Ð°Ð°":7293,"Ġ×ĵ×¢×Ķ":7294,"×©×Ļ×¦×Ł":7295,"Ġ×ł×Ĳ×ĸ":7296,"×ł×¢×ŀ×ĺ":7297,"×Ļ×©×¢×Ł":7298,"×Ķ×¨×Ķ":7299,"Ġ×ľ×Ļ×ł":7300,"Ġ×Ĳ×ĸ×Ļ×Ļ×Ĵ×¢×¨":7301,"Ġ×©×ĺ×¢×ľ×¢":7302,"×ķ×ľ×Ļ×¨×Ł":7303,"×Ĳ×ł×Ļ×¡":7304,"Ġ×Ĵ×¢×ľ×ķ×ł×Ĵ×¢×Ł":7305,"Ġ×¡×ĺ×Ĳ×ĺ":7306,"Ġ×¨×¢×¤×Ĳ×¨":7307,"Ġ×¤×Ĳ×¨×ŀ×Ĳ×Ľ×ĺ":7308,"×©×ľ×ķ×¡":7309,"Ġ×ĳ×Ĳ×ĺ×Ļ×Ļ×ľ":7310,"ĠShow":7311,"Ġ×ĵ×Ļ×ł×ĺ":7312,"×Ĳ×¨×¥":7313,"Ġ×§×¢×¤×ľ":7314,"Ġ×ľ×Ľ×ľ":7315,"Ġ×ĵ×¨×Ļ×ĺ×¢×¨":7316,"Ġ×ĸ×¢×ľ×ł×¢×¨":7317,"Ġ×¢×§×ķ×ķ×Ļ×¤":7318,"Ġ×§×Ĳ×¨×ĵ":7319,"×ķ×ĳ×¨×¢×ł×Ĵ×¢×Ł":7320,"Ġ×¡×¢×¨×ķ×ķ×Ļ×¡×¢×¡":7321,"\"?":7322,"Ġ×ĵ×Ļ×ł":7323,"Ġ×ĵ×Ļ×ł×¢×¨":7324,"Ġ×§×Ļ×Ļ×ľ":7325,"Ġ×©×²":7326,"Ġ×ĺ×ķ×Ļ×©×ĺ":7327,"×Ľ×ł×ĸ":7328,"Ġ×©×ĳ×ķ×¢×ķ×ª":7329,"Ġ×Ĺ×¡×ĵ":7330,"Ġ×¡×ķ×¤×¨":7331,"Ġ×ĵ×¨×Ļ×Ļ×ķ×ķ×¢×¨":7332,"ber":7333,"Ġun":7334,"Ġ×ķ×¢×ľ":7335,"×¡×Ļ×¤":7336,"×ł×Ļ×ŀ":7337,"×¦×¨":7338,"×Ļ×ķ×ķ×ľ×Ļ":7339,"×ł×ĵ×ĸ":7340,"Ġ×¤×¨×¢×ĸ":7341,"×Ļ×Ļ×¡×¢×¨":7342,"×Ĳ×ĵ×Ĳ×§×¡":7343,"Ġ×ŀ×¢×¡×¢×ĵ×ĸ×©":7344,"Ġ×ĵ×¢×ķ×ķ×¢×ľ":7345,"Ġ×¤×ķ×ł×§×ĺ×Ł":7346,"Ġ×Ķ×ł×Ķ×ľ×Ķ":7347,"Ġ×ŀ×Ļ×§×¨×Ĳ":7348,"Ġ×ŀ×Ľ×ľ":7349,"Ġ×ķ×ķ×Ĳ×ĺ":7350,"Ġ×Ķ×Ł":7351,"Ġ×ĺ×ľ":7352,"Ġ×¨×Ļ×Ļ×ļ":7353,"×ķ×ŀ×Ļ×Ŀ":7354,"Ġ×ŀ×¢×¨×§":7355,"×§×ĺ×Ļ×ķ×ķ×Ļ×ĺ×¢×ĺ×Ł":7356,"Ġ×ĳ×Ļ×ľ×Ļ×Ĳ":7357,"Ġ×Ļ×©×Ļ×ĳ":7358,"too":7359,"Ġ×Ķ×Ļ×Ķ":7360,"×¢×ł×¢×ĸ":7361,"×Ķ×ĺ":7362,"×Ļ×Ļ×ł×ķ×ł×Ĵ":7363,"×Ĳ×ł×ĵ×Ł":7364,"×¨×ĺ×Ļ×Ļ":7365,"×¨×ķ×Ļ×¡×Ĵ×¢×ĳ×Ł":7366,"ĠPro":7367,"out":7368,"Ġ×ĵ×Ļ×ł×¡×ĺ×Ĳ×Ĵ":7369,"×ľ×¢×Ĵ×ĺ":7370,"×¡×ĵ":7371,"Ġ×§×ķ×¨×Ĳ":7372,"×¢×§×ĺ×¢":7373,"âĢİ":7374,"Ġ×ķ×ķ×¢×ľ×¢×Ľ×¢":7375,"Ġ×Ĵ×¢×©×Ĳ":7376,"Ġ×Ĵ×ľ×Ĳ×ĸ":7377,"Ġ190":7378,"Ġ×©×ł×Ļ":7379,"Ġ×©×ķ×ľ×Ł":7380,"Ġ×Ĳ×Ļ×©×Ļ":7381,"×ł×ķ×¡×¢×¡":7382,"Ġ×Ĵ×¨×¢×ł×Ļ×¥":7383,"Ġ×ª×¤×Ļ×ľ×Ķ":7384,"co":7385,"×ĺ×Ļ×ŀ":7386,"Ġ×Ĵ×¨×¢×Ĵ×Ĳ×¨":7387,"Ġ×©×ŀ×¢×ľ":7388,"Ġ×ĳ×Ĳ×§×ķ×ķ×¢×Ŀ":7389,"Ġ×¢×§×¡×ĺ×¢×¨":7390,"Ġ×©×ķ×ķ×¢×¨×¢×¨":7391,"Ġ×¢×ł×Ĵ×ľ":7392,"Ġ×ŀ×Ĳ×ĵ×ł×¢":7393,"Ġ×Ķ×²×¡×Ł":7394,"Ġ×¡×Ľ×ķ×Ŀ":7395,"ï¿½":7396,"98":7397,"Ġ×Ĵ×Ļ×Ļ×ĵ":7398,"Ġ×Ķ×¢×ł":7399,"×ĵ×ķ×¡":7400,"×Ļ×ľ×Ļ×ł×Ĵ":7401,"Ġ×Ľ×ľ×¢×¨×ľ×Ļ×Ļ":7402,"Ġ×Ĵ×¢×©×¤×¨":7403,"Ġ×ł×Ĳ×Ľ×ŀ×Ļ×ĺ×Ĳ×Ĵ":7404,"Ġ×©×ķ×ķ×Ļ×Ļ×¥":7405,"Ġ×ŀ×Ĳ×ł×Ĳ×ĺ×Ł":7406,"ÑĢÑĢ":7407,".âĢŁ":7408,"×¨×ļ":7409,"Ö·âĢł":7410,"Ġ×Ĵ×Ĳ×ĸ":7411,"Ġ×Ķ×ĸ×Ķ":7412,"Ġ×ĳ×Ļ×Ļ×¡":7413,"×ĳ×ĵ×ĸ×©":7414,"×ł×ķ×ł×Ĵ":7415,"Ġ×Ľ×Ĳ×¨":7416,"Ġ×ĸ×Ļ×Ľ×¢×¨×§×Ļ×Ļ":7417,"Ġ×Ļ×ķ×ł×Ĵ×¢×ľ×Ļ×Ļ×ĺ":7418,"Ġ×¦×¢×ł×ĵ×ľ×Ļ×Ĵ×¢":7419,"×ľ×Ļ×Ļ×ĺ×¢×¨×ĸ":7420,"Ġ×ķ×ķ×¢×Ķ×Ļ×§×ľ×¢×¡":7421,"×§×Ĳ×ł×¡":7422,"Ġ×¤×Ĳ×¨×§×ķ×ŀ×¢×Ł":7423,"Ġ×Ĺ×¤":7424,"×ķ×ĳ×¢":7425,"Ġ×Ĳ×¤×©×ĺ×¢×ľ×Ł":7426,"Ġ×Ĵ×¢×ĸ×¢×¡×Ł":7427,"Ġ×ŀ×©×Ľ":7428,"Ġ×Ĳ×¨×ķ×Ļ×¡×Ĵ×¢×©":7429,"Ġ×ĸ×²×¢×¨":7430,"Ġ×¤×ķ×ĺ×Ļ×Ł":7431,"Ġ×Ĳ×§×¡":7432,"×ĺ×ķ×ł×Ĵ":7433,"Ġ×Ĵ×¨×Ļ×Ļ×¡":7434,"×ĸ×¢×ķ×ķ×¢":7435,"×Ķ×¢":7436,"Ġ×ĺ×Ĳ×¤":7437,"×ª×©":7438,"Ġ×ĵ×¨×©×ķ×ª":7439,"ong":7440,"Ġ×©×ķ×ķ×¢×ĳ":7441,"×¨×¢×Ļ":7442,"ĠAl":7443,"×ķ×Ļ×Ľ×Ł":7444,"sc":7445,"Ġ×Ĵ×©×ŀ×Ļ×ķ×ª":7446,"Ġ×ĺ×Ĳ×©":7447,"Ġ×ĳ×¨×¢×ĺ":7448,"×Ĳ×ĳ×¢×¡":7449,"×¢×Ĳ×Ļ×©×¢":7450,"Ġ×¡×ĺ×¨×ķ×§×ĺ×ķ×¨":7451,"×Ĳ×¨×ĳ×¢×ĺ":7452,"Ġ×©×ĺ×¢×¨×§×¢×¨":7453,"Ġ×Ĵ×¢×ŀ×Ļ×Ļ×ł×ĵ×¢":7454,"Ġ×ĳ×ĳ":7455,"×©×¢×¤":7456,"×ĸ×Ļ×Ľ×¢×¨":7457,"Ġ×Ķ×¢×Ľ×¢×¨×¢":7458,"×¨×Ļ×ĵ×ĸ×©":7459,"Ġ×Ĳ×Ĺ×ĵ":7460,"×¨×Ļ×Ļ×¡×ĺ":7461,"»¿":7462,"×¡×¢×§":7463,"Ġ×Ĳ×¨×Ļ×Ĵ":7464,"Ġ×¤×¨×Ļ×Ļ×ł×ĵ":7465,"Ġ×§×¨×¢×Ĳ":7466,"Ġ×§×ľ×Ĳ×¨×¢":7467,"Ġ×ĳ×Ĳ×ĵ×¢×§×ĺ":7468,"Ġ×ª×ľ×ŀ×Ļ×ĵ×Ļ":7469,"×Ĵ×¨×Ļ×Ľ×Ļ×©":7470,"FT":7471,"Ġ×ĵ×ŀ":7472,"Ġ×§×ĵ":7473,"×¤×¢×Ł":7474,"×Ĳ×§×¢×¨":7475,"Ġ×ĺ×¨×Ĳ×¡×ĺ":7476,"×¨×§×¢×¨×ĺ":7477,"×¤×¨×Ļ×Ļ×ĺ":7478,"×ł×©×ĺ×¢×ľ":7479,"×ł×Ĺ×¡":7480,"Ġ×©×¢×ĵ×Ļ×§×Ł":7481,"Ġ×¢×§×¡×ĺ×¨×¢":7482,"lu":7483,"og":7484,"×ĺ×¢×Ĳ":7485,"×ľ×ª":7486,"Ġ×¢×ķ×ľ":7487,"Ġ×ĺ×¢×¡×ĺ×Ĳ":7488,"×ķ×ķ×Ļ×Ĵ":7489,"×¢×ł×ĵ×¡":7490,"×ķ×©×Ļ×Ŀ":7491,"×¨×©×¢":7492,"atch":7493,"Ġ×¡×Ļ×ŀ×ĳ×Ĳ×ľ":7494,"Ġ×Ĵ×¢×©×ĺ×Ļ×¦×ĺ":7495,"Ġ×ł×©×ŀ×ķ×ª":7496,"Ġ×§×¢×Ļ×¡":7497,"Ġ×Ĳ×Ļ×ł×ĺ×¢×¨×ł×Ĳ×¦×Ļ×Ĳ×ł×Ĳ×ľ×¢":7498,"Ġ×Ĵ×Ļ×ľ":7499,"Ġ×Ļ×ķ×©×¨":7500,"Ġ×§×ľ×Ļ×§":7501,"×¢×ĸ×¢×Ķ×Ł":7502,"Ġ×¢×¤×Ĳ×Ľ×¢":7503,"Ġ×ĳ×Ĳ×Ķ×Ĳ×ľ×ĺ":7504,"Ġ×ľ×Ļ×Ļ×Ĵ×¢×Ł":7505,"Ġ×¡×¢×ŀ×¢×ĺ×¢×¨×Ļ":7506,"RC":7507,"ian":7508,"Ġ×ŀ×Ļ×Ļ×¡×ĺ×¢×¨":7509,"Ġ×§×Ļ×Ŀ":7510,"Ġ×§×Ĳ×ĸ":7511,"Ġ×§×ķ×Ļ×¤×ĺ":7512,"Ġ×ł×Ļ×Ļ×Ĵ×¢×¨":7513,"Ġ×¢×Ķ":7514,"Ġ×¡×Ĳ×ľ×ĵ":7515,"Ġ×ķ×ķ×Ļ×ľ×¡×ĺ×ķ":7516,"its":7517,"×ĳ×Ļ×ľ×Ļ×ĺ×Ļ":7518,"Ġ×¢×ĳ×Ļ×¨×Ķ":7519,"Ġ×ĳ×Ĳ×¨×Ļ×Ľ×ĺ×¢×ĺ":7520,"Ġ×ĳ×Ļ×ĳ×ľ×Ļ×Ĳ":7521,"ï»¿":7522,"×¨×¢×ĸ×Ļ×ĵ×¢×ł×ĺ":7523,"×ĳ×ĸ":7524,"×ł×ĺ×ķ×ķ×Ĳ":7525,"Ġ×Ļ×Ĳ×¨×¦×Ļ×Ļ×ĺ":7526,"Ġ×¤×Ĳ×ľ×Ļ×¡":7527,"Ġ×Ļ×©×ķ×ĳ":7528,"Ġ×Ĳ×¨×ķ×Ļ×¡×Ĵ×¢×ĳ×¨×¢×ł×Ĵ×ĺ":7529,"Ġ×©×ĺ×¢×ĺ×ľ×¢×ļ":7530,"Ġ×¤×Ĳ×¨×¤×Ĳ×¡×ĺ":7531,"Ġ×ĵ×¢×¤×Ĳ×¨×ĺ":7532,"×ľ×¢×ĳ×ĺ":7533,"×ŀ×¢×ł×ĺ×©×Ł":7534,"47":7535,"ru":7536,"×¨×ķ×ķ×¢×¨×ĺ×¡":7537,"×Ĵ×¢×¨×¡":7538,"Ġ×¡×ķ×Ĺ":7539,"×Ĵ×ľ×Ķ":7540,"Ġ×Ĳ×Ļ×ĳ×¢×¨×Ĵ×¢×ľ×Ĳ×ĸ×ĺ":7541,"âĢ¬âĢ¬":7542,"Ġ×¡×Ļ×ŀ×ĳ×Ĳ":7543,"Ġ×ĳ×¢×ĺ×Ļ×ł×Ĵ":7544,"×¨×ķ×¤":7545,"Ġ×Ĵ×Ļ×ĺ×¢":7546,"Ġ×©×Ľ×Ł":7547,"Ġ($":7548,"ĠBen":7549,"Ġ×Ķ×Ĳ×ł×ĵ×ľ":7550,"Ġ×Ĳ×ĺ×Ĳ×§×¢×¡":7551,"×ķ×ķ×ĵ":7552,"Ö·-":7553,"Ġ×ŀ×ĳ×¨":7554,"Ġ×©×°":7555,"×Ľ×¡":7556,"Ġ×Ĳ×¤×¢×ł×¢":7557,"Ġ×Ĳ×¤×Ĵ×¢×©×ĺ×¢×ľ×ĺ":7558,"Ġ×Ĳ×Ļ×ĳ×¢×¨×Ĳ×ľ":7559,"Ġ×Ĵ×¢×ľ×Ļ×ĺ×Ł":7560,"Ġ×Ĵ×¢×§×¨":7561,"Ġ×ŀ×¢×ĵ×Ļ×¢":7562,"×¡×ĺ×¨×¢×Ĳ":7563,"Ġ×ľ×Ļ×ĵ×Ļ×ł×Ĵ":7564,"Ġ×ĳ×Ĳ×¦×Ļ×Ĳ×ķ×ł×Ĵ×¢×Ł":7565,"ld":7566,"×Ĳ×Ļ":7567,"Ġ×Ĵ×Ļ×Ĳ":7568,"Ġ×§×ľ×¢×ł×¢×¨":7569,"×ĳ×ľ×¢×ŀ×¡":7570,"Ġ×Ĳ×¨×ķ×Ļ×¡×Ĵ×¢×ĳ×Ł":7571,"Ġ×Ĳ×ķ×Ļ×¤×Ĵ×¢×Ķ×¢×¨×ĺ":7572,"Ġwor":7573,"Ġ×Ĳ×ľ×ĺ×ŀ×Ĳ×ĵ":7574,"×ł×Ĵ×¢×¨×©×Ĳ":7575,"Ġ×Ķ×Ļ×Ļ×¡×¢":7576,"Ġ×Ĳ×Ĺ×¨×Ļ×ķ×ª":7577,"×¨×¢×ĸ×¢×ł×ĺ":7578,"Ġ×Ĵ×ĳ×Ĳ×Ļ":7579,"Ġ×§×Ļ×¤":7580,"Ġ×ł×Ļ×¡":7581,"Ġ×©×§×¨":7582,"Ġ×ľ×ķ×ŀ":7583,"Ġ×¡×Ĳ×ŀ×¢":7584,"×¨×ĳ×ķ×ª×Ļ":7585,"×¨×ĵ×Ļ×ł×¢×Ł":7586,"Ġ×ķ×Ļ×¡×ŀ×Ļ×Ļ":7587,"Ġ×ĳ×¨×Ļ×Ļ×ĺ×¢":7588,"×ķ×Ļ×Ĵ×ľ":7589,"ust":7590,"Ġ×¨×¢×¡×¤×¢×§×ĺ":7591,"Ġ×§×ķ×ķ×Ļ×ĺ":7592,"Ġ×§×ķ×Ļ×ľ×Ł":7593,"×ĳ×Ĳ×ł":7594,"×Ļ×¡×§":7595,"×Ļ×¡×ĺ×Ļ×©":7596,"Ġ×ĳ×ľ×Ļ":7597,"×ĳ×Ĳ×ķ×ķ×Ĳ×ķ×¡×ĺ":7598,"Ġ×Ķ×©×Ĵ":7599,"Ġ×§×Ĳ×ŀ×¤×Ĳ×ł×Ļ":7600,"Ġ×ķ×ķ×Ĳ×§×¡×ĺ":7601,"Ġ×ķ×Ļ×¡×Ĵ×¢×¦×Ļ×Ļ×Ľ×ł×ĺ":7602,"Ġ×©×ĵ×Ľ×Ł":7603,"×¨×ķ×Ļ×ĺ":7604,"Ġ×Ķ×ķ×ŀ":7605,"Ġ×¡×Ļ×§":7606,"×Ļ×¤×¢×¨":7607,"×©×¨×²":7608,"Ġ×ŀ×Ļ×ł×Ļ×ŀ×ķ×Ŀ":7609,"Ġ×ķ×ķ×Ĳ×¨×ĵ":7610,"Ġ×¡×Ļ×¡×ĺ×¢×ŀ×¢×Ł":7611,"Ġmav":7612,"Ġ×Ĺ×©×ĳ×ķ×ł×ķ×ª":7613,"Ġ×ŀ×Ĳ×ĺ×¢×ŀ×Ĳ×ĺ":7614,"Ġ×¤×¨×Ļ×ł×¦×Ļ×¤×Ł":7615,"100":7616,"×Ļ×ł×©":7617,"×§×ķ×¤":7618,"Ġ×¦×ķ×ķ×Ļ×ł×Ĵ":7619,"×ł×ĺ×©":7620,"Ġ×ŀ×ĵ×Ļ×ł×ķ×ª":7621,"Ġ×¤×Ĳ×¨×Ĳ×Ļ×Ļ×ł":7622,"Ġ×ŀ×ŀ×©×Ļ×ļ":7623,"×¢×ł×ĳ×¢×¨×Ĵ":7624,"Ġ!":7625,"×ĺ×²":7626,"Ġ×¦×Ĳ×ľ×ĺ":7627,"Ġ×ĵ×¢×¨×©×ĺ":7628,"×ª×ľ×Ļ":7629,"Ġ×ª×Ķ":7630,"×Ļ×Ļ×ĵ×Ļ×©":7631,"Ġ×Ĵ×¢×ĳ×Ļ×Ļ×ĵ×¢":7632,"Ġ×Ĳ×ł×ĺ×¤×ľ×¢×§×ĺ":7633,"Ġ×ķ×ķ×Ļ×¡×ł×©×Ĳ":7634,"Ġ×ł×Ĺ×ª":7635,"Ġ×¤×Ĳ×¤×Ļ×¨":7636,"Ġtattoo":7637,"Ġ×ŀ×Ĳ×ĵ×¢×¨×ł×¢":7638,"Ġmavic":7639,"nd":7640,"Ġ×ĵ×¢×ĺ×Ĳ":7641,"×ľ×Ĳ×¡×Ł":7642,"Ġ×Ķ×Ĳ×ŀ":7643,"Ġ×§×Ļ×Ļ×ł×¢":7644,"Ġ×ĺ×¢×ľ×¢×¨":7645,"Ġ×¡×ĺ×¢×¨":7646,"Ġ×Ĳ×¨×Ļ×Ļ×ł×Ĵ×¢×©":7647,"Ġ×Ķ×¢×Ľ×¡×ĺ×Ł":7648,"Ġam":7649,"Ġ×¨×©×ķ×ª":7650,"Ġ×¡×¢×ľ×¢×§×¦×Ļ×¢":7651,"×¢×¡×ĺ×Ł":7652,"Ġ×¤×¨×¢":7653,"×Ĳ×ł×¢×¡":7654,"×©×ĺ×Ĳ×ł×ĵ":7655,"Ġ×Ĳ×ķ×ł×ĵ×ĸ×¢×¨×¢":7656,"Ġ2005":7657,"Ġ×ĳ×Ĳ×ĸ×ķ×ļ":7658,"Ġ×Ĳ×ķ×Ļ×¤×Ĵ×¢×ķ×ķ":7659,"Ġ×ŀ×¢×ĺ×¨":7660,"Ġline":7661,"×¨×Ļ×Ļ×¢×Ł":7662,"Ġ×ĸ×Ļ×Ĵ":7663,"Ġ×Ķ×ķ×¦×Ĳ×ķ×ª":7664,"Ġ×ł×Ļ×Ļ×ŀ":7665,"×§×¤":7666,"Ġ×Ĳ×¨×ĳ×Ļ×Ļ×ĺ×¢×¨":7667,"Ġ×©×Ĳ×ķ×ľ":7668,"×ķ×ľ×ĵ×ķ×ª":7669,"×¨×¢×ĵ×Ĳ×§×ĺ×Ĳ×¨":7670,"Ġ×ĵ×¢×¨×§×ľ×¢×¨":7671,"Ġ×ŀ×Ļ×Ļ×§×¨×Ĳ":7672,"Ġ×§×Ĳ×¨×¢×¡×¤×Ĳ×ł×ĵ":7673,"Ġ×Ĵ×Ļ×Ľ×¢×¨":7674,"Ġ×§×Ĳ×ł×§":7675,"Ġ×©×ĺ×Ļ×¦×¢×¨":7676,"...\"":7677,"Ġ×Ĵ×¢×¤×ķ×ł×ĺ":7678,"×¡×ĺ×¢×¨×Ĳ":7679,"Ġ×Ĳ×ķ×ł×Ĵ×Ĳ×¨":7680,"Ġ×ķ×ķ×Ļ×Ļ×ĳ×¢×¨":7681,"Ġ×ĺ×Ĳ×ĺ×Ł":7682,"×Ĳ×ľ×¢×¡":7683,"Ġ×¨×Ļ×Ĳ":7684,"×¦×ķ×Ķ":7685,"Ġ×Ķ×Ļ×Ļ×ľ×Ł":7686,"Ġ×Ĺ×¨×ĵ×Ļ×©×¢":7687,"Ġ×Ĳ×ķ×ĵ×Ĳ×Ļ":7688,"×Ĳ×ŀ×¨":7689,"×ł×ĺ×ľ×Ļ":7690,"Ġ×Ĳ×ķ×Ķ":7691,"Ġ×¢×ľ×Ļ×ł×ķ":7692,"Ġ×Ķ×Ļ×Ļ×ł×ĺ×Ļ×§×¢×¨":7693,"Ġ×¢×§×¡×ĺ×¢×¨×¢":7694,"ified":7695,"Ġ×©×ķ×ķ×¢×ĳ×¢×ľ×¢×ļ":7696,"ain":7697,"×ĺ×¢×ŀ×ĳ×¢×¨":7698,"×Ķ×Ĳ×ĳ×Ł":7699,"Ġ×¤×Ĳ×¨×Ļ×Ĵ×¢":7700,"×Ļ×©×ĺ×©":7701,"Ġ×Ĺ×ķ×§":7702,"×¢×¤×Ĳ×¨×Ł":7703,"Ġ×Ĵ×¢×¨×¢×Ľ×ł×ĺ":7704,"esp":7705,"Ġ×©×ĺ×¢×ľ×ķ×ł×Ĵ":7706,"Ġmy":7707,"×ĳ×Ĳ×¨×¢":7708,"×Ļ×Ĵ×Ķ×ĺ":7709,"Ġ×¨×¦×ķ×Ł":7710,"×ľ×Ĵ×Ł":7711,"Ġ×©×¢":7712,"×ķ×ķ×ķ×¢×¨":7713,"×ķ×ķ×Ĳ×©×Ļ×ł×Ĵ×ĺ×Ĳ×Ł":7714,"×Ĵ×¢×ľ×ĺ":7715,"Ġ×¤×Ĳ×¨×¢×¤×ł×ĺ":7716,"×ł×ļ":7717,"×ł×ĵ×Ļ×Ĵ×¢":7718,"Ġ×Ĳ×Ļ×ŀ×¤":7719,"Ġ×Ĳ×Ļ×Ļ×ł×©×ķ×ķ×¢×¨":7720,"Ġ×§×Ĳ×ł×¡×¤×Ļ×¨":7721,"Ġ×ĺ×¢×Ĳ×ĺ×¢×¨":7722,"Ġ×¨×Ļ×¡×¤":7723,"age":7724,"Ġ×¤×Ĳ×¨×Ĵ×Ĳ×ł×Ĵ×¢×ł×Ķ×Ļ×Ļ×ĺ":7725,"Ġ×Ĵ×¢×ł×¦×ľ×Ļ×ļ":7726,"97":7727,"Ġ×¤×Ĳ×ł×ĵ":7728,"×ĵ×¢×§":7729,"×ĳ×ķ×¡":7730,"Ġ×ĺ×Ļ×ŀ":7731,"Ġ×Ĳ×ķ×Ļ×ľ":7732,"×Ļ×¢×ĵ×¢":7733,"×¢×Ĵ×¨":7734,"×Ļ×Ļ×ľ×ĸ":7735,"Ġ×Ĳ×ŀ×ĳ":7736,"×¢×ľ×ĺ×ľ":7737,"Ġ×Ĵ×ľ×Ļ×Ļ×ĳ×ĺ":7738,"Ġ×Ĳ×ķ×Ļ×¡×Ĵ×¢×ŀ":7739,"Ġ×Ĳ×ĳ×Ļ":7740,"Ġ×Ĳ×ĳ×Ļ×ĳ":7741,"Ġ×ĳ×¢×ľ×Ĵ×Ļ×¢":7742,"ĠAI":7743,"×ŀ×ĳ×Ļ×¨×Ł":7744,"×¨×¢×Ľ×¢×ł×¢×Ł":7745,"Ġ×ŀ×ª×¤×ľ×ľ":7746,"×¨×ľ×Ļ×Ļ×Ĵ×Ł":7747,"Ġ×¦×Ļ×Ļ×Ľ":7748,"Ġ×¨×Ļ×Ļ×ĺ":7749,"×ĵ×¢×¨×ĺ":7750,"×Ļ×¦×Ļ×Ĳ×ł":7751,"Ġ×Ĳ×ł×Ĵ×¢×Ķ":7752,"Ġ×¤×Ļ×ł×Ĳ×ł×¦":7753,"×ľ×Ļ×¡×Ļ×¡":7754,"×¨×Ĳ×¡×Ĳ×¤×ĺ":7755,"Ġ×Ĳ×ł×¢×¨×§×¢×ł×ĺ":7756,"Ġ×¡×ķ×ķ×Ļ×ķ×ķ×¢":7757,"Ġ×ĳ×¢×ł×ĺ×©":7758,"Ġ×¦×¢×ĺ×¨×¢×ĺ×Ł":7759,"Ġ×¤×¨×Ļ×Ļ×Ķ":7760,"×ķ×ĵ×Ļ×Ĳ":7761,"×ķ×ĺ×¢×Ł":7762,"Ġ×Ĵ×¢×ľ×Ĳ×¤×Ł":7763,"Ġ×Ĳ×ł×Ĵ×¢×ĺ":7764,"Ġ×Ĳ×ĳ×Ļ×ł×ķ":7765,"×Ĵ×ľ×Ļ×Ļ×ĳ":7766,"Ġ×ĸ×Ļ×Ľ×¢×¨×Ķ×Ļ×Ļ":7767,"Ġ×ĺ×¢×¨×Ĳ":7768,"Ġ×ŀ×¢×Ĵ×ľ×¢×Ľ×§×Ļ×Ļ×ĺ":7769,"Ġ×Ĳ×ł×ķ×ķ×Ļ×Ļ×ĸ":7770,"Ġ×ŀ×¢×ľ×ĵ×Ł":7771,"Ġ1999":7772,"Ġve":7773,"Ġ×ĸ×§":7774,"Ġ×§×ķ×Ļ×ľ":7775,"×¢×¡×Ļ":7776,"Ġ×¤×¨×¢×©":7777,"Ġ×¨×ĳ×ł×ķ×ª":7778,"Ġ×Ĵ×¢×ĺ×Ļ×ł×Ĵ":7779,"Ġ×¨×Ĺ×ľ":7780,"ĠOff":7781,"Ġ×¦×¢×©×ĺ×¢×¨×Ł":7782,"Ġ×¨×ķ×Ĳ×Ļ×Ĵ":7783,"\")":7784,"Ġr":7785,"×¨×Ļ×¢×¨":7786,"Ġ×ĵ×Ļ×ķ×ķ":7787,"Ġ×ŀ×¢×§×Ł":7788,"Ġ×©×Ļ×©":7789,"Ġ×¦×Ļ×ľ×Ł":7790,"×Ķ×Ĳ×ľ":7791,"×Ķ×¢×¨×ĺ":7792,"Ġ×ľ×§":7793,"×¦×ķ×ĸ":7794,"Ġ×Ĳ×ķ×Ļ×¡×ĺ×¢×¨":7795,"Ġ×¢×ł×ĺ×¢×¨":7796,"Ġ×ĵ×ĳ×¨×Ļ×Ŀ":7797,"==":7798,"×ľ×Ļ×§×ĺ":7799,"Ġ×¨×¢×Ľ×ł×ĺ":7800,"×Ļ×ł×¢×ľ×¢":7801,"Ġ×¤×¨×Ĳ×§×ĺ":7802,"Ġ×¤×Ĳ×ľ×§×¡":7803,"×ĳ×ľ×ķ×Ŀ":7804,"Ġ×ŀ×Ļ×ł×ķ×ĺ×Ł":7805,"Ġ×ĳ×ŀ×Ĺ":7806,"Ġ×¨×Ĳ×ĵ×Ļ×Ĳ":7807,"×ĳ×©×¢×ª":7808,"Ġ×¨×¢×ķ×ķ×Ĳ×ľ×ķ×¦×Ļ×¢":7809,"×¨ï¬®":7810,"Ġ×ŀ×ķ×Ľ":7811,"×¡×§×¡":7812,"×Ĵ×¢×ĵ×ĸ×©":7813,"×Ĵ×¢×ķ×ķ×¢×Ł":7814,"×Ļ×Ĵ×ĺ×¢":7815,"×ł×ĺ×ľ":7816,"×ķ×ķ×Ļ×ł×§":7817,"Ġ×Ĵ×¢×ĸ×ķ×ł×Ĵ×¢×Ł":7818,"Ġ×ŀ×ķ×ĸ×ĺ":7819,"Ġ×ľ×Ļ×ĳ×©×Ĳ×¤×ĺ":7820,"×ķ×ķ×Ļ×ĺ×©×¢×¨":7821,"Ġ×¨×¢×¤×Ĳ×¨×ĺ":7822,"Ġde":7823,"Ġ×ķ×ķ×¢×ł×ĵ×Ł":7824,"Ġ×Ĳ×ķ×ŀ×ŀ×¢×Ĵ×ľ×¢×ļ":7825,"TE":7826,"Ġ×ĸ×Ļ×ł×Ĵ":7827,"×¤×¡×ĺ×¨×¢×Ĳ":7828,"Ġ×¢×ķ":7829,"×¦×²":7830,"Ġ×¢×ł×ĺ×¤×¢×¨×ĺ":7831,"Ġ×ŀ×ĵ×¨×©×Ļ×Ŀ":7832,"Ġ×Ĵ×Ļ×Ĵ":7833,"Ġ×Ĵ×Ļ×Ļ×ŀ×Ļ×ł×Ĵ":7834,"×¡×Ļ×ľ":7835,"Ġ×ĸ×ķ":7836,"Ġ×ĳ×ķ×Ľ":7837,"×ł×Ĳ×Ľ×ĺ":7838,"×ķ×¨×¡×Ł":7839,"×ķ×¡×§":7840,"Ġ×Ĳ×¤×Ļ×¨":7841,"×Ļ×¦×Ļ×¨×ĺ":7842,"×Ļ×Ķ×¨":7843,"Ġ×ĳ×Ĳ×ł×ķ×¦×ĺ":7844,"Ġ×§×Ĳ×¨×¡":7845,"Ġ×¨×Ļ×ĺ×©×Ĳ":7846,"Ġ×Ĵ×ķ×ľ×¤×¡×ĺ×¨×¢×Ĳ":7847,"86":7848,"×ĺ×Ļ×Ļ×¢×¨":7849,"Ġ×ķ×ķ×Ĳ×Ľ":7850,"Ġ×§×©×Ļ×ķ×ª":7851,"×Ľ×ĺ×¢×¨":7852,"Ġ×ŀ×Ļ×ĺ×ľ×¢×Ł":7853,"×Ĳ×ł×Ļ×¢×¡":7854,"×Ļ×Ľ×Ŀ":7855,"×ķ×ĸ×¢×¨":7856,"×¢×§×ĺ×¢×ĵ":7857,"×¨×Ĵ×ľ":7858,"Ġ×Ķ×Ļ×Ļ×ł×ĺ×Ļ×§×Ł":7859,"Ġ×¢×§×¡×Ļ×ĵ×¢×ł×ĺ":7860,"Ġ×ĺ×¢×Ľ×ł×Ļ×©":7861,"Ġ×Ĵ×¢×©×ĺ×Ļ×ŀ×ĺ":7862,"Ġ;":7863,"×ĵ×¢×§×Ł":7864,"×ķ×ķ×Ļ×Ļ×¨":7865,"×Ĵ×Ĳ×¨":7866,"Ġ×ĳ×Ĳ×Ĳ×ŀ×ĺ×¢":7867,"Ġ×¦×ķ×ķ×¢×ľ":7868,"Ġ×ķ×ķ×Ļ×Ļ×ľ×Ł":7869,"Ġ×¡×ĺ×Ĳ×ł×ĵ":7870,"Ġ×¦×ķ×¨×Ļ×§×Ĵ×¢×ĳ":7871,"×Ļ×Ļ×§×Ĳ":7872,"ang":7873,"Ġ×Ĳ×ł×ĺ×©×ķ×ľ×ĵ":7874,"Ġ×Ķ×¢×Ľ×¡×ĺ×¢":7875,"×¤×ķ×ľ×¢":7876,"×¨×Ļ×ł×Ĵ×¢×Ł":7877,"×¨×ŀ×Ļ×ĺ×ľ":7878,"Ġ×ĵ×¢×ĵ":7879,"Ġ×ŀ×ķ×¦":7880,"Ġ×©×Ļ×ļ":7881,"Ġ×¤×Ĳ×¨×Ļ×ĸ":7882,"Ġ×©×ĺ×Ł":7883,"Ġ×Ĳ×ķ×Ļ×¡×Ĵ×¢×ľ×¢×¨×ł×ĺ":7884,"×Ĵ×¨×Ĳ×¤":7885,"Ġ×ŀ×ķ×¡×Ļ×£":7886,"ĠSt":7887,"......":7888,"Ġ×Ļ×¡×ķ×¨×Ļ×Ŀ":7889,"×ĸ×Ļ×ļ":7890,"×ŀ×ĺ×¢×¨":7891,"×ŀ×¢×¤":7892,"Ġ×¨×ķ×ĵ":7893,"Ġ×¤×Ĳ×¨×ķ×ķ×Ĳ":7894,"×ª×ķ×¨×Ķ":7895,"×¢×ŀ×Ļ×Ŀ":7896,"ĠTom":7897,"Ġ×Ĳ×ľ×Ĵ×¢×ŀ×Ļ×Ļ×ł×¢×¨":7898,"Ġ×ľ×¢×Ļ×§":7899,"×ķ×ł×ľ×Ĳ×ķ×ĵ":7900,"×Ĳ×Ļ×ł×¢×Ŀ":7901,"Ġ×Ĳ×ķ×Ļ×¡×¤×Ĳ×¨×©×ķ×ł×Ĵ":7902,"ere":7903,"Ġ×©×Ļ×¨":7904,"×Ĵ×ķ×Ĵ×ľ":7905,"Ġ×Ĳ×ķ×ŀ×Ĳ":7906,"Ġ×ĳ×Ĳ×©×¨×Ļ×Ļ×ĳ":7907,"Ġ×Ĳ×¨×Ļ×Ļ×ł×¦×ķ×ľ":7908,"Ġ×¨×ķ×ŀ×¢×ł×Ļ×¢":7909,"Ġ×§×¨×Ļ×Ļ×ĸ×Ł":7910,"Ġ×©×ķ×Ķ×ľ":7911,"op":7912,"Ġ×ŀ×¢×Ĵ×Ł":7913,"Ġ×ĸ×Ļ×ĵ":7914,"Ġ×ĸ×Ļ×ł×¢×Ł":7915,"×ĵ×¢×ľ×¡":7916,"Ġ×¡×¢×¨×ĺ":7917,"×Ĳ×ĺ×Ļ×ķ×ķ":7918,"×Ĳ×Ķ×Ł":7919,"Ġ×§×Ĳ×ľ×Ļ×¨":7920,"Ġ×ĵ×Ļ×¡×§×¨":7921,"Ġ×ŀ×ł×ķ×Ĺ×Ķ":7922,"Ġ×Ĳ×ł×Ĵ×¢×ķ×ķ×Ļ×ĸ×Ł":7923,"ct":7924,"×ł×Ļ×¡×Ĳ":7925,"×ķ×ķ×Ļ×ĳ":7926,"×¢×ł×¡×Ĳ":7927,"Ġ×ŀ×¡×ĵ×¨":7928,"Ġ×ĵ×¢×¨×Ĵ×¨×Ļ×Ļ×Ľ×ĺ":7929,"Ġ×¤×Ļ×ł×§×ĺ":7930,"×ľ×¢×§×ĺ×Ļ×ķ×ķ":7931,"Ġ×ķ×ķ×Ĳ×¤×Ł":7932,"Ġ×ķ×ķ×ķ×ł×ĵ×¢×¨":7933,"Ġ×Ķ×Ļ×©":7934,"Ġ×ĳ×Ļ×ł×Ĵ":7935,"×¢×ŀ×Ļ":7936,"×Ĳ×Ĵ×¢":7937,"Ġ×Ĳ×Ļ×ł×ĺ×©":7938,"×ĳ×¨×ļ":7939,"Ġ×¡×ĺ×¢×¤":7940,"Ġ×ĳ×Ļ×ľ×Ļ×Ĵ×¢":7941,"Ġ×§×Ĳ×¨×¢×Ĳ":7942,"ïŃİ×Ł":7943,"Ġ×Ķ×Ĳ×ľ×ĺ×¢×Ł":7944,"Ġ×Ĳ×Ļ×ĳ×¢×¨×Ĵ×¢×ĳ×Ł":7945,"Ġ×Ķ×Ĳ×ľ×Ĳ×ł×ĵ":7946,"×Ļ×ĵ×ĸ×©×Ļ×ĸ":7947,"ast":7948,"Ġ×¤×Ĳ×¤×ķ×ľ":7949,"Ġ×ĳ×Ļ×ŀ×Ļ":7950,"Ġ×Ĺ×ŀ×¥":7951,"ĠÖ¾":7952,"×ĺ×Ĳ×¨":7953,"Ġ×Ĵ×ķ×Ĳ":7954,"Ġ×ĳ×§×¨":7955,"Ġ×§×Ļ×ķ×ĺ":7956,"×ĸ×ľ×¢×ļ":7957,"×Ļ×©×Ķ":7958,"Ġ×ľ×Ļ×ĺ×¢":7959,"×¢×ĺ×Ļ":7960,"×Ľ×Ļ×ł":7961,"Ġ×¤×Ĳ×ľ×¢×¡×ĺ×Ļ×ł×¢×¨":7962,"Ġ×Ĵ×¢×ĵ×ķ×ľ×ĵ":7963,"Ġ×¤×ľ×Ĳ×ĺ×¤×Ĳ×¨×ŀ×¢":7964,"Ġ×©×ķ×ķ×Ļ×ł×ĵ×ľ":7965,"Ġ×¤×Ĺ×ĵ":7966,"Ġ×Ļ×ķ×¦×Ĳ":7967,"×¢×ĺ×Ļ×§":7968,"×ł×Ĵ×¢×ĺ×Ĳ":7969,"Ġ×¡×¤×¨×Ļ":7970,"×¢×¨×¡×Ļ":7971,"Ġ×Ĵ×¢×ķ×ķ×Ĳ×ľ×ĵ×Ļ×§×¢×¨":7972,"×ĵ×ľ×ķ×ª":7973,"Ġ×Ĵ×ĵ×ķ×ľ×Ļ×Ŀ":7974,"×Ļ×Ļ×ĳ×¢×¨":7975,"Ġ×§×ķ×Ļ×¤":7976,"×Ļ×ĺ×ķ×¨":7977,"×Ĵ×¢×ĳ×¢×¨":7978,"Ġ×ľ×Ļ×¢":7979,"×Ļ×Ĵ×ķ×ł×Ĵ":7980,"Ġ×ª×¤×Ļ×¡":7981,"Ġ×Ĳ×Ļ×ł×ĺ":7982,"Ġ×Ĵ×¢×ĳ×¢×Ł":7983,"Ġ×ĳ×Ĳ×§×Ĳ×ł×ĺ×¢×¨":7984,"Ġ×ĺ×¢×¨×§×Ļ×Ļ":7985,"Ġ×Ĵ×¢×ķ×ķ×¢×ĸ×¢×ł×¢×¨":7986,"Ġ×ĺ×©×¢×Ľ×Ļ×©":7987,"Ġ×¢×¨×ľ×ķ×Ļ×ĳ×Ł":7988,"Ð´":7989,"ĠX":7990,"×¤×¨×ĺ":7991,"Ġ×ľ×¢×ĺ":7992,"Ġ×ĵ×¢×¨×Ķ×Ļ×Ļ":7993,"×ķ×ĺ×Ķ":7994,"Ġ×ĳ×ľ×²":7995,"Ġ×ĸ×Ĳ×ľ×¢×Ł":7996,"Ġ×ł×¤×ª×ľ×Ļ":7997,"×ŀ×¢×ł×ĵ×Ļ×¨×Ł":7998,"ji":7999,"th":8000,"Ġ×ĵ×§":8001,"Ġ×Ĵ×ĵ×¨":8002,"Ġ×§×Ĳ×ľ×ĺ":8003,"×Ĳ×ĺ×Ļ×ķ×ķ×¢":8004,"×Ļ×¡×ķ×ł×Ĵ":8005,"Ġ×Ĺ×Ļ":8006,"Ġ×Ĳ×Ļ×Ļ×ł×Ķ":8007,"×¢×ł×ĺ×©×Ĳ":8008,"Ġ×¢×¤×¤":8009,"Ġ×Ĵ×¢×¢×¤":8010,"Ġ×Ĵ×¢×¨×Ĳ×ĺ×¢×ķ×ķ×¢×ĺ":8011,"Ġ×Ĵ×¢×ķ×ķ×Ĳ×ķ×ł×¢×Ł":8012,"Ġst":8013,"ost":8014,"Ġpm":8015,"Ġ×¡×¤×¢×¦×Ļ×¢":8016,"Ġ×Ĳ×ł×©×ĺ":8017,"Ġ×¤×¨×Ĳ×ĵ×ķ×¦":8018,"load":8019,"Ġ×Ľ×Ļ×ł×¢×ĸ×¢×¨":8020,"Ġ×¤×ľ×Ļ×¡×ł×ĵ×Ļ×§":8021,"ek":8022,"Ġ×ĳ×Ļ×ĺ×¢×¨":8023,"×¤×Ļ×ĵ":8024,"×ĸ×Ļ×ł×ĺ":8025,"Ġ×Ĳ×¨×Ļ":8026,"Ġ×©×ĺ×ķ×ª":8027,"Ġ×©×ĺ×Ļ×¦×ĺ":8028,"Ġ×¤×¨×¢×Ķ":8029,"Ġ×ķ×ķ×¢×ľ×¢×Ł":8030,"Ġ×ĵ×¨×ķ×§×ĺ":8031,"Ġ×Ĳ×Ļ×Ļ×ĵ×ľ":8032,"Ġ×ĳ×Ĳ×ĸ×ķ×Ľ×ĺ":8033,"Ġ×ĵ×Ļ×Ļ×ĺ×©×Ł":8034,"×ķ×Ļ×ĵ×¢×¨":8035,"Ġ×¤×Ļ×Ļ×¢×¨×¡":8036,"Ġ150":8037,"Ġ×ŀ×Ľ×ķ×Ĺ":8038,"Ġ×©×¨×¢×§×ľ×Ļ×Ľ×¢":8039,"Ġ×¤×¢×¨×ĸ×¢×ł×ľ×Ļ×Ľ×¢":8040,"RAFT":8041,"First":8042,"Ġ×Ĵ×Ļ×Ķ":8043,"Ġ×¦×Ļ×Ļ×Ĵ×ĺ":8044,"×ķ×¨×¢":8045,"×ł×ĺ×Ļ×§×Ł":8046,"×Ļ×ķ×ķ×¢×Ł":8047,"Ġ×Ĳ×ķ×Ļ×¡×Ĵ×¢×¨":8048,"×ķ×ķ×Ĳ×¨×ĵ×Ļ×Ļ×Ł":8049,"Ġ×¤×¢×ľ×ĵ×¢×¨":8050,"Ġ×¤×Ĳ×¨×ĳ×ľ×Ļ×ĳ×Ł":8051,"Ġ×Ĳ×¨×Ļ×Ļ×ł×§×ķ×ŀ×¢×Ł":8052,"Phone":8053,"Ġ×ĵ×¢×¨×ĸ×¢×Ł":8054,"×ł×ĵ×Ļ×ł×Ĵ":8055,"Ġ×ª×¢×ł":8056,"×ĸ×©×¢×ĺ":8057,"Ġ×Ĳ×ķ×Ļ×¡×Ĵ×¢×ĳ×¨×Ĳ×Ľ×Ł":8058,"×ķ×Ļ×¢×ļ":8059,"Ġ×ŀ×Ļ×ľ×Ĳ":8060,"Ġ×Ĳ×¡×ķ×¨":8061,"Ġ×Ĳ×ł×ĺ×Ļ×Ļ×ľ":8062,"Ġ×Ķ×©×ª":8063,"Ġ×Ĳ×Ļ×ł×¤×Ĳ":8064,"ĠPre":8065,"Ġ×ķ×ķ×Ĳ×§×¡×Ł":8066,"×ľ×¢×ĳ×Ĳ":8067,"Ġ×Ĳ×Ļ×ł×¡×ĺ×Ĳ":8068,"Ġ×Ķ×Ļ×ł×ĺ":8069,"×ĸ×ķ×ł×ĵ":8070,"Ġ×¡×Ĳ×¨×ĺ×Ł":8071,"×ķ×ª×Ĳ":8072,"Ġ×¤×¨×Ļ×Ļ×¢×Ł":8073,"×§×Ĳ×ķ×ķ×Ļ×ĺ×©":8074,"Ġ×©×ľ×¢×¤":8075,"Ġ×Ļ×¢×¦×ĺ×Ļ×Ĵ×¢":8076,"Ġ×Ĳ×©×Ľ×ł×ĸ":8077,"Ġ×¨×ķ×¡×Ļ×©×¢×¨":8078,"×¨×¢×ĺ×ķ×Ŀ":8079,"Ġ×¡×ĺ×¢×Ļ×ĺ×ŀ×¢×ł×ĺ":8080,"Ġ×ł×ķ×ŀ×ĳ×¢×¨":8081,"Ġ×¤×Ļ×Ļ×ľ×¡":8082,"×ŀ×Ļ×ľ×ľ×¢×¨":8083,"×ĺ×Ļ×¢×ł×¥":8084,"×ł×ĺ×Ļ×ł×Ļ×ķ":8085,"Ġ×Ĳ×Ļ×Ļ×ł×©×ķ×ķ×¢×¨×ķ×ł×Ĵ":8086,"Ġ×ł×Ķ":8087,"Ġ×¢×ĳ×ķ×ĵ":8088,"Ġ×¢×ł×©×ķ×¨":8089,"×ł×Ŀ":8090,"×Ļ×ķ×ł":8091,"×Ļ×Ļ×¢×¨×ĸ":8092,"×Ļ×Ļ×¡×Ĳ":8093,"Ġ×Ĳ×ķ×ŀ×ĸ×Ļ×¡×ĺ":8094,"Ġ×Ĳ×ķ×Ļ×¡×Ĵ×¢×ł":8095,"Ġ×Ļ×Ĳ×¤×Ĳ×Ł":8096,"Ġ×ľ×¢×ł×Ĵ×¢×¨":8097,"Ġ×Ķ×¢×¨×©×Ł":8098,"Ġ×¢×Ľ×ĺ×¢":8099,"Ġ×¨×¢×ĵ×Ĳ×§×ĺ×Ĳ×¨×Ł":8100,"Ġï¬»":8101,"×¢×ł×ĺ×Ļ×ł×¢":8102,"×Ĺ×Ļ×ľ×Ķ":8103,"×¤×¨×Ĳ×ł×¦×ķ×Ļ×ĸ":8104,"Ġ×Ļ×©×Ł":8105,"Ġ×ĳ×©×ķ×Ŀ":8106,"×ł×ĳ×Ĳ":8107,"Ġ×ĵ×¢×¨×§×¢×ł×ĺ":8108,"Ġ×Ĳ×Ļ×ł×ĺ×¨×¢×¡×Ĳ×ł×ĺ":8109,"×Ļ×ķ×ķ×Ļ×ł×Ĵ×¡":8110,"MS":8111,"×ĺ×ĺ×Ĳ":8112,"Ġ×ŀ×ķ×ĺ×©":8113,"×¤×Ļ×¢":8114,"Ġ×ł×¢×ķ":8115,"×ĸ×Ļ×Ľ×ĺ":8116,"×ł×Ļ×§×¡":8117,"×ĺ×¢×¨×ĵ×Ļ×§":8118,"×Ļ×ĸ×Ļ×¡":8119,"Ġ×Ĳ×¨×Ļ×Ļ×ł×ĳ":8120,"ĠPl":8121,"Ġ×ŀ×ł×Ķ×ľ":8122,"×¨×ķ×¢×Ł":8123,"Ġ×ŀ×¢×ĵ×Ļ×¦×Ļ×ł":8124,"Ġ×§×¨×ķ×ĳ×Ļ×Ŀ":8125,"Ġ×©×Ļ×Ĺ×ª":8126,"×Ĳ×Ļ×Ļ×ł×ŀ×Ĳ×ľ":8127,"RCRAFT":8128,"46":8129,"87":8130,"Ġ×łï¬¯×¨":8131,"×ŀ×¢×ł":8132,"Ġ×Ļï¬Ŀ":8133,"Ġ×¡×Ĳ×ŀ":8134,"Ġ×¤×Ĳ×¨×©×¨":8135,"Ġ×¤×Ĳ×¨×Ĳ×ł×ĺ":8136,"×ĺ×¢×¨×§":8137,"×Ļ×¡×Ļ×¢":8138,"×ķ×ĵ×Ļ×Ŀ":8139,"×Ļ×ł×§×ĺ":8140,"×ķ×ķ×Ļ×¡×ĺ":8141,"×¨×Ļ×Ļ×¡×Ł":8142,"ĠDes":8143,"Ġ×ł×ķ×§×ľ×¢×Ĳ":8144,"Ġ×Ĵ×Ļ×ľ×ĺ":8145,"Ö¸...":8146,"×¡×Ļ×©":8147,"Ġ×Ķ×¢×ĳ×¨":8148,"Ġ×¦×Ļ×Ļ×Ĵ×Ł":8149,"Ġ×©×ĺ×ķ×¤":8150,"Ġ×Ĺ×Ļ×ķ×ĳ":8151,"×Ļ×ĸ×Ļ×©":8152,"×Ļ×Ļ×Ĵ×¢×Ł":8153,"×¤×Ĳ×¨×ĵ":8154,"Ġ×¢×ŀ×ĳ×Ĳ":8155,"Ġ×¡×Ĳ×ĺ×ŀ×Ĳ×¨×¢":8156,"Ġ×ĺ×ķ×ķ×Ļ×ĺ×ĺ×¢×¨":8157,"×ķ×ł×Ŀ":8158,"×Ĳ×Ļ×Ļ×¨×Ĳ×¤×¢":8159,"×ľ×ŀ×Ĳ":8160,"Ġ×§×Ļ×ŀ×ĺ":8161,"×©×ķ×ķ":8162,"×Ĳ×ľ×¢×Ł":8163,"Ġ×ĵ×¢×¨×ĳ×Ļ×Ļ":8164,"×ķ×ŀ×¢×¨×¡":8165,"×¤×Ĳ×¨×ķ×Ŀ":8166,"Ġ×§×Ļ×Ļ×¤":8167,"×ľ×ĳ×ķ×Ļ×Ŀ":8168,"Ġ×ĳ×ł×Ļ×ŀ×Ļ×Ł":8169,"'!":8170,");":8171,"Ġ×ĵ×Ĳ×Ķ":8172,"Ġ×Ĵ×Ļ×ļ":8173,"Ġ×¨×ŀ":8174,"×¢×¤×¢×¡":8175,"Ġ×Ĵ×¢×Ķ×Ļ×Ļ×¨×Ĳ×ĺ":8176,"Ġ×¢×¤×ł×ĺ":8177,"Ġ×¡×Ĳ×ķ×ķ×¢×ĺ":8178,"Ġ×¤×Ļ×ł×¢×Ŀ":8179,"Ġ×ŀ×ķ×¦×Ĳ×Ļ":8180,"Ġ×©×Ĳ×¤":8181,"Ġ×©×Ľ×¨":8182,"×Ļ×¦×Ķ":8183,"Ġ×¨×Ĳ×Ļ×Ĳ×Ł":8184,"Ġ×Ĳ×ķ×Ļ×¡×Ĵ×¢×ĸ×¢×Ł":8185,"×Ļ×ł×ĺ×ľ×¢×ļ":8186,"×ķ×ķ×Ļ×Ļ×ĸ×ĺ":8187,"Ġ×¨×Ļ×ĸ×Ł":8188,"Ġ×Ķ×Ĵ×ĵ×ķ×ľ":8189,"Ġ×Ĵ×¢×Ķ×¢×¨×©×ĺ":8190,"Ġ×¤×ķ×¡×ĳ×Ĳ":8191,"Ġ×¢×ľ×¢×ŀ×¢×ł×ĺ×Ł":8192,"ownload":8193,"Ġ×ľ×Ļ×ĳ×Ķ×Ĳ×ĳ×¢×¨×¡":8194,"Ġ×ĵ×ĳ":8195,"Ġ×§×Ļ×ł×Ĵ":8196,"×¢×ł×Ļ×§":8197,"Ġ×ĺ×Ļ×Ļ×Ŀ":8198,"Ġ×Ļ×ł×Ĵ":8199,"Ġ×¡×ł×Ĳ":8200,"Ġ×¨×Ĳ×ľ×¢":8201,"×Ľ×ĸ":8202,"×ł×ĵ×¡":8203,"Ġ×ŀ×¢×¨×¡×¢×¨":8204,"×Ļ×Ļ×ĵ×ĸ×©":8205,"Ġ×°×¢×¨×ĺ":8206,"Ġ×ĳ×Ĳ×ĸ×¢×¦×ĺ":8207,"×Ĵ×¢×ķ×ķ×Ļ×Ļ×ł×ĺ":8208,"ack":8209,"Ġ×Ĳ×Ļ×ĵ×¢×ł×ĺ×Ļ×ĺ×¢×ĺ":8210,"Ġ×¤×¨×Ļ×Ļ×Ķ×Ļ×Ļ×ĺ":8211,"Ch":8212,"Ġ×ķ×ķ×Ļ×Ļ×¨":8213,"Ġ×§×ķ×ĺ×©":8214,"Ġ×ĺ×Ĳ×ł×¦×Ł":8215,"Ġ×ľ×¢×Ľ×¢×¨":8216,"×ł×²":8217,"Ġ×Ĵ×¢×ľ×Ĳ":8218,"Ġ×¤×Ĳ×¨×©×ķ×Ļ×Ł":8219,"Ġ×¤×¨×ķ×ĳ×Ļ×¨":8220,"Ġ×Ĳ×ķ×Ļ×ĳ×¢×¨×©×ĺ×Ł":8221,"Ġ×ŀ×Ĺ×©×ĳ×ķ×ª":8222,"Ġ×ŀ×ķ×¢×ĵ":8223,"×ľ×Ļ×¦×Ļ×Ĳ":8224,"×©×Ŀ":8225,"Ġ×Ĳ×ķ×Ļ×¤×ķ×ķ×¢×§":8226,"Ġ×¦×ķ×ķ×Ļ×Ļ×¤":8227,"ani":8228,"Ġ×¨×¢×Ľ×ĺ×¡":8229,"Ġ×¨×¢×ľ×Ļ×Ĵ×Ļ×¢×ĸ×¢":8230,"×ľ×Ļ×¦×Ļ×¨×ĺ":8231,"Ġ×§×ĳ×ľ×Ķ":8232,"Ġ×¤×Ļ×ĵ":8233,"Ġ×¤×Ļ×Ĵ×ķ×¨":8234,"Ġ×ł×¢×¨×ķ×ķ":8235,"Ġ×Ľ×¤×¨":8236,"×ľ×ĺ×Ļ":8237,"×¨×¡×¢×ľ×Ĳ":8238,"Ġ×Ĳ×ĵ×ķ×¨×Ľ":8239,"×ĺ×¢×ł×¦":8240,"Ġ×ĵ×¢×§×ľ":8241,"Ġ×Ķ×Ļ×Ļ×¤":8242,"×ĳ×Ĳ×©":8243,"×ŀ×¨×¢":8244,"Ġ×ĺ×ķ×ľ":8245,"Ġ×Ĳ×ľ×Ļ×Ķ×ķ":8246,"Ġ×ĳ×Ĳ×§×¡":8247,"×ĺ×©×Ł":8248,"Ġ×¤×¨×Ĳ×ķ×ķ×Ļ×":8249,"Ġ×Ĳ×ł×Ķ×Ĳ×ľ×ĺ×Ł":8250,"Ġ×ĳ×ª×Ļ×Ŀ":8251,"Ġ×ŀ×Ļ×¡×ĺ×¢×¨×Ļ×¢":8252,"Ġ×Ķ×Ľ×©×¨":8253,"×©×ĺ×¢×ĺ×Ļ×§×Ł":8254,"×ĸ×Ļ×¡×ķ×ķ×Ĳ":8255,"Ġ×ĳ×Ĳ×©×¢×¤×¢×ł×Ļ×©×Ł":8256,"Ġ×¢×ł×ĵ×Ļ×Ĵ×ĺ":8257,"×¢×¨×Ļ×Ļ×©×Ĳ":8258,"Ġ×¤×Ĳ×¦×Ļ×¢":8259,"Ġ×¡×Ļ×Ļ×ķ":8260,"×¦×Ļ×§":8261,"×Ļ×¤×Ĳ":8262,"×Ĳ×ł×¦×¢×Ł":8263,"Ġ×Ĳ×ķ×Ļ×¡×Ĵ×¢×ķ×ķ":8264,"Ġ×©×ĺ×Ĳ×¨×§×Ł":8265,"×Ĵ×¢×¤×Ĳ×¨×Ł":8266,"Ġ×ĵ×¢×¨×©×Ļ×ł×¢×Ł":8267,"Ġ×§×ĵ×ķ×©×Ķ":8268,"Ġ×ª×Ľ×ľ×Ļ×ª":8269,"Ġ×ķ×ķ×¡":8270,"Ġ×¢×ķ×ľ×Ķ":8271,"×Ĵ×ĵ":8272,"×¦×¢×ł×ĺ×¢×¨":8273,"Ġ×¤×¨×Ĳ×§":8274,"Ġ×¨×Ļ×ĸ×Ļ×§×¢":8275,"Ġ×Ĵ×¢×ĳ×¨×Ĳ×Ľ×ĺ":8276,"Ð·":8277,"âī":8278,"×¨×ĸ×Ĳ":8279,"Ġ×ŀ×Ĳ×Ķ":8280,"Ġ×¢×Ļ":8281,"Ġ×¢×ķ×ķ":8282,"×Ľ×ĸ×Ĳ":8283,"Ġ×©×ĺ×Ļ×ľ×¢×¨":8284,"×ľ×¢×ł×¡":8285,"×¤×Ĳ×¨×§":8286,"Ġ×ŀ×¢×ł×Ļ×ķ":8287,"Ġ×¦×Ļ×¨×ķ×§":8288,"au":8289,"×¨×ķ×Ļ×¢":8290,"Ġ×ĵ×Ļ×ł×Ĳ":8291,"×ķ×Ļ×ł×¡":8292,"Ġ×ĳ×¢×©":8293,"×§×Ļ×ķ":8294,"Ġ×¨×ķ×Ŀ":8295,"×Ļ×ķ×ķ×Ļ×ĵ":8296,"×ł×¡×¢":8297,"Ġ×Ĵ×¢×ķ×ķ×Ļ×§":8298,"Ġ×Ĳ×ķ×ŀ×ĳ×Ĳ":8299,"×Ļ×ª×Ķ":8300,"Ġ×Ķ×¢×ľ×ĵ×Ł":8301,"Ġ×¦×ķ×Ĵ×Ĳ":8302,"Ġ×Ĺ×¡×¨":8303,"Ġ×ŀ×Ļ×Ļ×ł×Ļ×ł×Ĵ":8304,"Ġ×¤×ķ×¡×§×Ļ×Ŀ":8305,"Ġ×¢×ľ×¢×§×ĺ×¨×Ĳ":8306,"Ġ×Ķ×Ĳ×¤×¢×ł×ķ×ł×Ĵ":8307,"Ġ×ľ×Ļ×ŀ×ķ×ĵ×Ļ×Ŀ":8308,"Ġ×Ł":8309,"Ġ×ŀ×¢×Ľ":8310,"Ġ×¢×ĵ×Ł":8311,"×ŀ×Ļ×ľ×Ĳ":8312,"Ġ×ľ×ļ":8313,"Ġ×Ľ×ŀ×ķ":8314,"oment":8315,"Ġ×¤×Ĳ×¨×ľ×Ĳ×ĸ×ĺ":8316,"Ġ×Ĳ×¨×ĺ×Ĳ×ĵ×Ĳ×§×¡":8317,"Ġ×§×¨×Ļ×ĺ×Ļ×©":8318,"Ġ×ķ×Ľ×ľ":8319,"Ġ×Ĵ×ķ×ľ×Ŀ":8320,"×ĸ×Ļ×Ļ×©×Ĳ":8321,"Ġ×©×Ĳ×¡":8322,"Ġ×Ļ×¢":8323,"Ġ×ľ×Ļ×Ļ×Ľ":8324,"Ġ×¡×Ļ×ł":8325,"Ġ×¨×Ĳ×ĺ×¢":8326,"Ġ×ĵ×¢×¨×©×¨":8327,"Ġ×ª×ł":8328,"Ġ×Ĳ×Ļ×Ļ×ĵ×Ļ×¢":8329,"Ġ×¤×Ĳ×¨×©×Ļ×ĵ":8330,"Ġ×Ĳ×ķ×ŀ×Ĵ×¢×§":8331,"Ġ×Ĳ×Ļ×Ļ×ł×Ĵ×¢×ł×ķ×ŀ×¢×Ł":8332,"Ġsp":8333,"Ġ×Ĳ×§×¢×Ĳ×Ł":8334,"Ġ×ŀ×Ļ×Ļ×§×¨×Ĳ×¡×Ĳ×¤×ĺ":8335,"Ġ×©×§×Ļ×¢×Ķ":8336,"Ġ×ĵ×¢×¡×ĺ":8337,"Ġ×ĳ×ĺ×ľ":8338,"×¤×¨×Ĳ":8339,"×ĸ×ķ×ļ":8340,"Ġ×¦×ķ×ĺ×Ļ×Ļ×ľ×ĺ":8341,"Ġ×ŀ×Ļ×ĺ×Ĵ×¢×Ķ×Ĳ×ľ×ĺ×Ł":8342,"×ķ×ŀ×¢×ł×¢":8343,"Ġ×¤×¨×Ĳ×ł×ĺ":8344,"Ġ×ª×§×ľ":8345,"Ġ().":8346,"×Ļ×ł×Ŀ":8347,"×Ļ×¢×ľ×ĵ":8348,"Ġ×ľ×Ļ×Ļ×ĵ×Ļ×ĸ":8349,"Ġ×ķ×ķ×Ļ×¨×ķ×¡":8350,"Ġ×ĳ×§×Ļ×¢×¡":8351,"Ġ×ł×Ļ×ĵ×¢×¨×Ļ×§×¢×¨":8352,"×ł×Ĵ×¢×¤×Ļ×ľ×ĺ":8353,"×ľ×¢×ł":8354,"Ġ×ŀ×¨×Ļ×Ŀ":8355,"Ġ×Ĵ×Ĳ×¡×ĺ":8356,"×Ļ×¨×ĺ×¢×¨":8357,"Ġ×©×ĺ×Ļ×§×¢×¨":8358,"Ġ×Ĳ×ķ×Ļ×¤×ĺ":8359,"×¢×§×ĺ×Ĳ×¨":8360,"erb":8361,"Ġ×Ķ×Ļ×Ļ×ŀ×Ļ×©":8362,"×¨×Ļ×Ļ×ĺ×ķ×ł×Ĵ":8363,"Ġ×©×ĺ×Ĳ×¨×ĳ×Ł":8364,"Ġ×Ĵ×Ĳ×ľ×ĵ×¢×ł×¢":8365,"Ġ×¤×Ĳ×ĸ×Ļ×¦×Ļ×¢":8366,"rans":8367,"Ġ×ŀ×Ĳ×¨×ĺ×Ĵ×¢×ĵ×ĸ×©":8368,"×ĳ×Ĳ×ķ×ķ×Ĳ×ķ×¡×ĺ×ĸ×Ļ×ł":8369,"ap":8370,"Ġ×ĵ×Ļ×ĺ":8371,"Ġ×©×Ļ×¤×Ł":8372,"×ŀ×Ĳ×ł×ĺ×¢":8373,"×§×ķ×¨":8374,"Ġ×¨×ķ×ľ×¢×ĺ":8375,"×Ĳ×¤×Ĳ":8376,"×¨×ĳ×Ļ×§":8377,"Ġ×ľ×Ļ×Ļ×ĵ×Ļ×§":8378,"Ġ×Ĳ×ł×§×¢×ĺ×¢":8379,"Ġ×ª×¤×Ļ×ľ×Ļ×Ł":8380,"Ġ×ŀ×Ĳ×ł×Ķ×¢×ĺ×Ł":8381,"×ķ×ĺ×¢":8382,"Ġ×¤×Ļ×§×¡":8383,"Ġ×¤×ł×Ĺ×¡":8384,"×¡×Ļ×¡":8385,"×ĸ×Ļ×Ł":8386,"×Ķ×ķ×Ļ×ĸ":8387,"Ġ×¨×ķ×§×Ł":8388,"Ġ×ĳ×Ĳ×ķ×ķ×¢×Ĵ×ķ×ł×Ĵ":8389,"Ġ×ĺ×¨×¢×¨×Ł":8390,"Ġ×ĳ×ł×Ļ×ł×Ļ×Ŀ":8391,"Ġ×¤×Ĳ×¨×ĺ×Ĳ×Ĵ×¡":8392,"ĠAIRCRAFT":8393,"96":8394,"ĠÑģ":8395,"×ľ×Ŀ":8396,"×ŀ×Ļ×§":8397,"×Ĳ×¡×ĺ×Ł":8398,"×Ļ×Ĳ×ª":8399,"×ł×ĵ×Ļ×§×Ł":8400,"×Ĳ×ŀ×¢×ĺ×¢×¨":8401,"×ķ×ĺ×¡":8402,"×Ļ×¦×Ļ×Ł":8403,"Ġ×ĳ×¨×Ĳ×ĸ":8404,"Ġ×ł×Ĳ×¨×Ļ×©×¢":8405,"Ġ×§×¨×Ļ":8406,"Ġ×Ĵ×¢×ľ×ĺ×¢×¨":8407,"any":8408,"Ġ×ŀ×¡×ķ×¨×Ķ":8409,"×Ļ×Ļ×ĺ×¢×¨×ĸ":8410,"×ł×¦×¢×¨":8411,"×ł×¦×Ļ×¢":8412,"Ġ×Ĳ×ĺ×ŀ×Ĳ×¡":8413,"Ġ×Ĵ×¢×ķ×ķ×Ļ×¡×Ł":8414,"Ġ×Ĳ×²×Ł":8415,"Ġ×ĺ×¢×§×¢×¡":8416,"Ġ×¤×Ĳ×¨×¦×Ļ×Ļ×ľ×Ł":8417,"ign":8418,"Ġ×ŀ×ľ×Ĺ×ŀ×ķ×ª":8419,"×ĺ×ľ×¢":8420,"×¨×¨×Ĳ":8421,"Ġ×ķ×ķ×Ķ×Ĳ":8422,"Ġ×ŀ×¢×Ķ":8423,"Ö¸âĢ¬":8424,"×ĸ×Ĳ×ŀ":8425,"×§×Ĳ×ŀ":8426,"×Ĵ×¤":8427,"×Ļ×ľ×ľ×Ĳ":8428,"Ö¿,":8429,"Ġ×Ľ×ķ×ľ":8430,"×ľ×¢×ł×Ĵ":8431,"×©×ĺ×¢×ľ×ĺ":8432,"Ġ×ĺ×¨×ķ×Ļ×¢":8433,"×ķ×¦×Ļ×¢×¡":8434,"Ġ×Ĵ×¢×ľ×Ļ×Ļ×¢×ł×ĺ":8435,"×Ĳ×ł×¦×ĺ":8436,"ĠÐ¿":8437,"Ġex":8438,"Ġ×ĵ×Ĳ×Ķ×Ļ":8439,"56":8440,"×ľ×¢×§×ĺ":8441,"×ĳ×Ĳ×ĵ":8442,"×¨×Ļ×Ļ×ŀ":8443,"Ġ×ŀ×©×¤×ĺ":8444,"Ġ×Ļ×©×ķ×ĸ":8445,"Ġ×Ĳ×ł×ĺ×Ļ×¡×¢×ŀ×Ļ×ĺ":8446,"×¨×¢×¡×¢":8447,"Ġ×¡×¢×¨×ķ×ķ×Ļ×¨":8448,"Ġ×¢×ŀ×Ļ×¦×¢×¨":8449,"Ġ×ĳ×ŀ×Ļ×ľ×Ĳ":8450,"Ġ×¤×Ĳ×¨×Ĳ×ł×ĺ×ķ×ķ×Ĳ×¨×ĺ":8451,"Ġ×¤×Ĳ×ĳ×ľ×Ļ×§":8452,"Ġ×ķ×ķ×Ļ×Ļ×ł×¢×Ł":8453,"×ŀ×¢×ľ":8454,"×Ķ×Ĳ×¨":8455,"×¢×¤×Ĳ":8456,"×Ĳ×§×ĺ×¢×¨":8457,"×¢×ĳ×¨×Ĳ":8458,"×¢×ĸ×Ĳ":8459,"Ġ×©×ľ×Ĳ×¤×ĺ":8460,"Ġ×Ĺ×¡×Ļ×ĵ×Ļ×©":8461,"Ġ×Ĳ×Ļ×ŀ×¢×¨":8462,"Ġ×§×ķ×¨×¦×Ł":8463,"Ġ×Ķ×Ļ×ľ×ľ":8464,"Ġ×¡×¢×Ļ×ķ×ķ×Ļ×ł×Ĵ×¡":8465,"Ġ×ľ×ĺ×ķ×ĳ×ª":8466,"Ġ×¦×ķ×¨×Ļ×§×Ĵ×¢×ĳ×ľ×Ļ×ĳ×Ł":8467,"×Ĳ×ķ×ł":8468,"Ö·!":8469,"×ľ×Ļ×Ļ×ĸ×ĵ":8470,"Ġ×ĸ×Ļ×Ļ×ĵ×Ł":8471,"Ġ×Ķ×Ļ×Ľ×ľ":8472,"Ġ×¢×ŀ×Ĳ":8473,"×ķ×ķ×ĺ":8474,"Ġ×¤×Ĳ×¨×¢×ł×ĵ":8475,"×¦×Ļ×Ŀ":8476,"Ġ×ŀ×Ļ×ĺ×ĺ×Ļ×Ļ×ľ×Ł":8477,"Ġ×Ĳ×ľ×Ļ":8478,"Ġ×¢×¤×¢×Ŀ":8479,"Ġ×©×ľ×Ĳ×Ĵ×Ł":8480,"Ġ×Ĵ×¢×§×Ĳ×ł×ĺ":8481,"ated":8482,"Ġ×Ĳ×ĺ×ľ":8483,"Ġ×©×Ĳ×ķ":8484,"Ġ×ĵ×¢×Ļ×Ŀ":8485,"ĠSp":8486,"Ġ×ĳ×Ļ×ĺ×¢×¨×¢":8487,"Ġ×Ĺ×¨×ĵ×Ļ×Ŀ":8488,"Ġ×ĺ×¨×Ĳ×ł×¡×¤×Ĳ×¨×ĺ":8489,"yiddish":8490,"Ġ×ķ×Ļ×ľ":8491,"Ġ×§×¢×ľ×ĺ":8492,"×¤×ķ×ª":8493,"Ġ×¡×ĳ×¨×Ĳ":8494,"×Ĳ×ľ×Ļ×©×¢":8495,"×Ĳ×ł×Ĳ":8496,"...]":8497,"Ġ×¨×Ĳ×Ļ×Ķ":8498,"Ġ×Ĳ×ķ×ŀ×ľ×¢×Ĵ":8499,"Ġ300":8500,"Ġ×ŀ×§×ķ×¨×ķ×ª":8501,"Ġ×¦×ķ×Ĵ×¢×ĸ×Ĳ×Ĵ×ĺ":8502,"Ġ×¨×¢×ĸ×©×Ļ×Ŀ":8503,"Ġ×¤×Ĳ×¨×ĳ×Ĳ×ĺ×Ł":8504,"Ġ×ŀ×¢×ĵ×Ļ×¦×Ļ×ł×Ļ×©":8505,"Ġ×Ĳ×ķ×Ļ×¡×ĵ×¢×¨×ķ×ķ×Ļ×Ļ×ľ×ĺ":8506,"×¨×Ĳ×Ķ":8507,"×ł×Ĳ×¨×ĺ":8508,"×ł×¢×ĸ":8509,"×ŀ×¦":8510,"×ķ×ĵ×Ļ×ł×Ĵ":8511,"×ł×Ĵ×¢×ł×¢×Ŀ":8512,"×Ĵ×¨×Ĳ×ĵ×¢":8513,"Ġ×¦×ķ×¤×Ĳ×¨×Ł":8514,"Ġ×ķ×ķ×Ļ×Ļ×ĺ×¢":8515,"Ġ×Ļ×Ĺ×ĸ":8516,"Ġ×ŀ×ĸ×Ļ×§":8517,"×¨×Ļ×Ļ×Ł":8518,"×¨×Ĳ×ľ×¢":8519,"Ġ×Ĳ×Ļ×ķ":8520,"×ĸ×Ĳ×Ĵ":8521,"×ŀ×Ĳ×§":8522,"×¦×Ļ×ŀ×¢×¨":8523,"Ġ×Ľ×Ķ×Ĳ×ĳ":8524,"×ķ×¡×ĺ×¢×¨":8525,"×Ļ×ĳ×ĺ":8526,"Ġ×¡×¤×¨×ĵ":8527,"×Ĳ×ĸ×¢":8528,"Ġ×Ĵ×ľ×ķ×Ļ×ĳ":8529,"Ġ×¤×Ĳ×¨×ĳ×Ļ×ł×ĵ×Ł":8530,"Ġ×ŀ×¢×ĺ×Ķ×Ĳ":8531,"×¢×ł×ł":8532,"ĠOffers":8533,"×Ľ×Ļ×ł×¢×ĸ×Ļ×©":8534,"IN":8535,"RE":8536,"moment":8537,"×ĵ×Ļ×¨":8538,"×ŀ×¢×ĸ×Ļ×©":8539,"×ķ×ķ×¢×ĳ":8540,"×Ĵ×¢×Ĳ":8541,"Ġ×ŀ×Ļ×ĺ×Ļ×ł×Ĵ×ĸ":8542,"Ġ×¢×¨×ľ×Ļ×ļ":8543,"âĢĺ":8544,"ics":8545,"Ġ×Ĳ×Ļ×Ļ×ł×¦×Ļ×Ļ×ĺ×Ļ×§":8546,"×Ĳ×ķ×Ļ×¡×¢×¨":8547,"Ġ×ŀ×ł×Ķ×Ļ×Ĵ":8548,"Ġ×ł×Ĺ×ķ×Ŀ":8549,"Ġ×¡×¢×ł×Ĳ×ĺ×Ĳ×¨":8550,"×ķ×¢×ľ×¢":8551,"×¨×¢×ľ":8552,"×ľ×Ļ×Ļ×ĵ":8553,"×©×¨×Ļ×Ļ×ĳ×Ł":8554,"Ġ×¦×¢×ł×ĸ":8555,"Ġ×¢×ŀ×¢×¡":8556,"Ġ×Ļ×Ļ×ľ":8557,"Ġ×ľ×Ĳ×Ľ×Ł":8558,"Ġ×¡×Ĳ×¡":8559,"Ġ×¤×¨×Ĳ×¡×ĺ":8560,"×ķ×©×Ķ":8561,"×Ļ×ķ×ķ×¢×¡":8562,"×°×²":8563,"Ġ×Ĳ×Ļ×Ļ×Ĵ×ł×ĺ":8564,"Ġ×¤×Ĳ×¡×ĺ×Ł":8565,"Ġ×Ĵ×¢×ķ×ķ×Ļ×ł×¢×¨":8566,"Ġ×ĵ×¢×¨×§×¢×ł×¢×Ł":8567,"Ġ×¦×°×Ļ×©×Ł":8568,"Ġ×ĵ×Ĳ×ĸ×Ļ×Ĵ×¢":8569,"Ġ×ķ×ķ×ķ×Ļ×ł×ķ×ł×Ĵ":8570,"×¤×¨×Ĳ×ł×¦×ķ×Ļ×ĸ×Ļ×©":8571,"oy":8572,"sk":8573,"×ĵ×ĸ":8574,"Ġ×¡×¢×ł×ĵ":8575,"×Ĳ×ľ×Ĳ×Ĵ×Ļ×¢":8576,"×¢×ĺ×¢×¡":8577,"Ġ×Ľ×ľ×Ķ":8578,"×Ļ×Ļ×ķ×ķ×Ĳ":8579,"×¨×©×Ļ×Ļ×ĵ×¢×ł×¢":8580,"×ł×Ļ×¡×Ŀ":8581,"Ġ×Ĳ×ł×ĺ×ľ×Ĳ×¤×Ł":8582,"Ġ×Ĳ×¨×¢×¡×ĺ×Ļ×¨×ĺ":8583,"Ġ×Ĳ×Ļ×ĳ×¢×¨×Ĵ×¢×ľ×¢×ĳ×ĺ":8584,"×Ĳ×ķ×Ļ":8585,"Ġ×ĵ×Ĳ×ŀ":8586,"×¡×ķ×ķ×Ĳ":8587,"Ġ×ł×¢×ł×ĺ×¢×¨":8588,"Ġ×©×ķ×ŀ×¨":8589,"×§×ķ×ŀ×¢×ł×ĺ":8590,"×Ķ×Ļ×¡×ĺ×Ĳ×¨":8591,"×Ĵ×¢×ķ×ķ×Ĳ":8592,"Ġ×Ľ×ķ":8593,"×ĵ×¢×¨×ķ×ķ×Ļ×Ļ×ľ":8594,"×©×¨×Ļ":8595,"Ġ×Ĳ×Ĺ×¨×Ĳ":8596,"Ġ×ľ×Ļ×ĺ×ķ×ķ×Ļ×©×¢":8597,"Ġthat":8598,"43":8599,"Ġ{":8600,"×ľ×Ļ×ŀ":8601,"×ª×ľ×§":8602,"Ġ×¨×ĳ×ķ×ª×Ļ":8603,"Ġ×Ļ×¢×ĵ×¢×Ł":8604,"×±×¤":8605,"×Ļ×Ĺ×Ķ":8606,"Ġ×Ķ×Ĳ×¨×¦×Ł":8607,"Ġ×§×Ĳ×ľ×¢×ł×ĵ×¢×¨":8608,"Ġï¬®×Ł":8609,"ÐµÐµÐµÐµ":8610,"Ġ×Ĺ×ķ×ŀ×©":8611,"On":8612,"Ġ×ķ×Ļ×ķ":8613,"×ķ×§×§":8614,"Ġ×Ĳ×ķ×Ļ×¡×ľ×Ĳ×ł×ĵ":8615,"Ġ×ŀ×¢×¨×ĵ×¢×¨":8616,"Ġ×ĺ×¨×¢×Ĵ×¢×¨":8617,"×ł×¡×Ļ":8618,"×¤×¨×¢×ĸ×Ļ×ĵ×¢×ł×ĺ":8619,"Ġ×Ĳ×ł×ĺ×Ķ×Ĳ×ľ×ĺ":8620,"×ķ×Ļ×Ľ×ĺ":8621,"Ġ×Ĳ×ķ×Ļ×ĺ×Ĳ×ŀ×Ĳ×ĺ×Ļ×©":8622,"Ġ×ĺ×Ļ×¤×¢":8623,"Ġ×§×Ĳ×ł×¡×¢×¨×ķ×ķ":8624,"Ö¼,,":8625,"×Ķ×Ķ×Ķ×Ķ":8626,"×¨×ĺ×ķ×Ĵ×¢×ĸ×Ļ×©":8627,"iv":8628,"ng":8629,"×¨×ķ×ķ×¢×Ĵ":8630,"Ġ×Ķ×¢×¤":8631,"×©×¢×¨×ĸ":8632,"Ġ×¢×¨×ķ×ļ":8633,"×ķ×ł×Ĵ×Ł":8634,"Ġ×ĵ×Ĳ×ķ×ł×ľ×Ĳ×ķ×ĵ":8635,"Ġ×¤×Ĳ×Ł":8636,"Ġ×Ĳ×Ļ×ĳ×¢×¨×Ļ×Ĵ×¢":8637,"001":8638,"Ġ×ŀ×¢×ł×ĺ×©×ľ×¢×ļ":8639,"Ġ×Ĳ×Ļ×ĵ×¢×Ĳ":8640,"×ł×§×¢":8641,"Ġ×°×Ļ×ľ":8642,"Ġ×¦×ķ×Ĵ×¢×ĳ":8643,"Ġ×¤×Ļ×¨×ķ×ª":8644,"Ġ×Ĳ×ł×¦×ķ×Ķ":8645,"Ġ×§×ĳ×ľ×ª":8646,"Ġ×Ĳ×ĳ×Ļ×¡×¢×ľ":8647,"×¡×Ļ×¡×ĺ×¢×Ŀ":8648,"Ġ×¤×Ļ×ľ×Ĳ×¡×Ĳ×¤×Ļ×¢":8649,"Ġ×¤×Ļ×ł×¦×ĺ×¢×¨":8650,"Ġ×ĳ×§×¨×ķ×ĳ":8651,"×¡×ľ×Ļ":8652,"×©×Ļ×¡":8653,"×©×Ļ×§×Ł":8654,"Ġ×¢×ķ×ĳ":8655,"×Ĵ×Ļ×Ļ":8656,"Ġ×ľ×Ļ×ľ":8657,"Ġ×¡×Ĳ×ł×§":8658,"×Ļ×§×ķ×ª":8659,"×¢×ł×ĺ×©×ĺ":8660,"×ł×ĵ×¨":8661,"×ķ×ĸ×Ļ×ł×Ļ×©":8662,"Ġ×ĺ×¨×ķ×Ļ×¢×¨":8663,"Ġ×ĳ×Ĳ×¨×¢×Ľ×ĺ":8664,"×ŀ×Ļ×ĺ×Ĳ":8665,"Ġ×Ĳ×Ļ×Ļ×ł×Ĵ×¢×¤×Ļ×¨×ĺ":8666,"Ġ×©×ĺ×Ļ×Ļ×ĺ×ľ×Ļ×ļ":8667,"Ġ×ķ×ķ×Ĳ×ľ×£":8668,"×Ĳ×¨×ĳ×¢×ĺ×Ł":8669,"Ġ×ĵ×Ĳ×§×ķ×ŀ×¢×ł×ĺ":8670,"Ġ×§×¨×Ļ×¡×ĺ×ľ×¢×ļ":8671,"ĠiPhone":8672,"×¤×Ĳ×¨×ķ×Ŀ×§×¢×¤×ľ":8673,"ial":8674,"Ġ×Ĳ×Ŀ":8675,"Ġ×Ĵ×ł":8676,"Ġ×Ķ×ĵ×¨":8677,"×Ĵ×¢×Ł":8678,"×¢×ĺ×ľ":8679,"×Ļ×ĵ×©":8680,"Ġ×Ĳ×ľ×ķ×ľ":8681,"Ġ×Ľ×Ļ×Ļ":8682,"Ġ×ĳ×¨×¢×ł×ĺ":8683,"×¨×ĺ×ķ×Ł":8684,"Ġ×¦×ķ×ķ×¢×§×Ł":8685,"Ġ×Ĳ×ķ×ŀ×ĳ×Ĳ×§":8686,"Ġ×Ĵ×¨×¢×¡×ĺ×Ł":8687,"Ġ×ŀ×Ļ×ĵ×ķ×ª":8688,"Ġ×¨×¢×¡×ķ×¨×¡×Ł":8689,"Ġ×ĳ×Ĳ×ŀ×¢×¨×§×Ł":8690,"×ķ×ķ×¢×ł×Ļ×¢":8691,"Ġ×Ĳ×Ļ×ł×Ķ×Ĳ":8692,"Ġ×ķ×ķ×¢×ŀ×¢×ł×¡":8693,"Ġ×Ĳ×§×¢":8694,"×¨×Ķ×Ĳ":8695,"Ġ×¤×¢×ł":8696,"Ġ×¤×Ĳ×ĺ×©":8697,"Ġ×Ĵ×²":8698,"×¡×Ļ×Ļ×ĺ":8699,"Ġ×ĳ×Ļ×Ĵ":8700,"×ĵ×Ļ×Ł":8701,"×§×¢×ĵ×Ĳ":8702,"×Ļ×ľ×ĺ×¢":8703,"Ġ×Ĵ×¢×ķ×ķ×Ļ×ĵ":8704,"Ġ×Ĵ×ľ×Ļ×Ļ×Ľ×Ł":8705,"Ġ×Ĵ×¢×ĳ×ķ×Ļ×¨":8706,"×Ļ×ł×§×¢":8707,"Ġ×Ĳ×ķ×Ļ×¡×Ĵ×¢×Ķ×Ĳ×ľ×ĺ×Ł":8708,"Ġ×ĵ×ĸ×©×¢×ĺ":8709,"Ġ×¨×Ļ×ĸ×Ĳ":8710,"Ġ×§×¢×©×¢×ł×¢":8711,"Ġ×¤×¨×Ĳ×¤×¢×¡×Ļ×Ĳ×ł":8712,"Ġ×Ĵ×ĸ×Ļ×¨×Ķ":8713,"Ġ×©×ĺ×Ļ×Ļ×¢×¨×Ł":8714,"ï¼Į":8715,"Ġ×ª×¤×Ļ×¡×Ķ":8716,"×ľ×Ļ×Ļ×Ĵ×ĺ":8717,"×¡×Ĳ×Ł":8718,"Ġ×ĳ×¢×Ķ":8719,"Ġ×Ĺ×ķ×ĳ":8720,"×©×ĺ×Ļ×ŀ×¢×Ł":8721,"×Ļ×ķ×ķ×¢×Ļ":8722,"Ġ×Ĳ×ķ×ŀ×¢×ĺ":8723,"Ġ×ĳ×Ĳ×©×Ļ×¦×Ł":8724,"Ġ×ĳ×Ĳ×¨×ķ×Ĳ":8725,"Ġ×¢×ł×ĵ×¢×¨×Ł":8726,"Ġ×Ĺ×©×Ļ×ĳ×ķ×ª":8727,"Ġfrom":8728,"Ġ×ĵ×¢×ľ×Ļ×ķ×ķ":8729,"Ġ×ŀ×¢×ŀ×ĵ":8730,"Ġ×Ļ×ł×§×¨×Ļ×¡×Ļ×ł×Ĵ":8731,"ĠPhot":8732,"gan":8733,"Ġ×ł×ĸ":8734,"×ľ×ķ×ķ×Ĳ":8735,"×¡×§×Ļ":8736,"Ġ×§×Ļ×ļ":8737,"×¤×Ļ×©":8738,"×¤×ķ×ł×Ĵ":8739,"×ĸ×¢×Ķ":8740,"×ŀ×Ĳ×¨×§":8741,"×§×ľ×¢×¨":8742,"Ġ×Ľ×Ļ×Ļ×¤":8743,"Ġ×Ĳ×Ļ×¨×Ĳ×§":8744,"Ġ×Ĵ×¢×©×¨×Ļ×Ĵ×Ł":8745,"×¢×¦×Ļ×Ł":8746,"Ġ×Ĵ×¢×ł×Ĳ":8747,"ile":8748,"Ġ×Ĳ×¨×ķ×Ļ×¡×Ĵ×Ļ×Ļ×Ł":8749,"Ġ×ĺ×¢×Ľ×ĺ×¢×¨":8750,"ĠÐ²":8751,"Ġï¬¯ïŃĦ":8752,"Ð¾Ð²":8753,"×Ķ×Ĵ×Ŀ":8754,"Ġ×ĵ×¢×¤×Ĳ×¨×ĺ×ŀ×¢×ł×ĺ":8755,"Ġ×ª×§×ľ×Ļ×ĺ×ķ×¨":8756,"×¨×Ļ×©×¢×¨":8757,"Ġ×ĳ×ķ×ĺ":8758,"×ĳ×¢×ľ×Ĳ":8759,"×Ļ×Ľ×¢":8760,"×¢×ł×ĵ×Ļ×§×¢":8761,"Ġ×Ĳ×ķ×Ļ×¡×Ĵ×Ĳ×ĳ×¢×¡":8762,"×±×ĸ":8763,"Ġ×ĳ×Ĳ×¨×Ļ×ŀ×ĺ×¢":8764,"×¡×ĺ×¢×Ļ×ĺ":8765,"Ġ×¤×Ĳ×¨×ĺ×Ļ×Ļ×¢×Ł":8766,"Ġ×¨×¢×¤×¢×¨":8767,"Ġse":8768,"Ġ×Ĳ×Ļ×Ļ×ĸ×Ł":8769,"×Ĵ×¢×Ķ×¢×¨×ĺ":8770,"Ġ×ĸ×Ļ×¡×¢":8771,"×ĺ×¡":8772,"×ľ×Ĳ×§":8773,"Ġ×ķ×ķ×ķ×Ļ×ľ":8774,"Ġ×Ķ×ł×¤×©":8775,"×§×¤×Ķ":8776,"Ġ×ĺ×Ļ":8777,"Ġ×Ļ×Ļ×©":8778,"×Ĵ×¢×ľ×Ĳ":8779,"×Ļ×¡×¤":8780,"×Ļ×ĸ×Ļ×¨×Ł":8781,"×ķ×©×Ŀ":8782,"Ġ×ķ×ķ×¢×¨×ĺ×ľ":8783,"Ġ×ĳ×Ļ×ľ×ĵ×Ļ×ł×Ĵ":8784,"×ľ×Ļ×ĺ×ķ×ķ×Ļ×©":8785,"Ġ×ł×ª×ł":8786,"Ġ×Ĳ×ķ×¦×¨×ķ×ª":8787,"×ł×Ĵ×¢×©×¨×Ļ×ĳ×Ł":8788,"×Ĳ×Ļ×ł×ĺ×¢×¨×¢×¡":8789,"for":8790,"Õ¡":8791,"Ġ×Ķ×Ļ×ķ":8792,"Ġ×ĳ×ĸ×Ķ":8793,"×Ĳ×¨×Ĳ":8794,"×ĳ×ķ":8795,"Ġ×¦×Ļ×Ļ×ľ×Ł":8796,"Ġ×¡×Ļ×Ļ×ĸ":8797,"Ġ×Ĳ×Ļ×Ļ×¡":8798,"×ĳ×¨×ķ×ļ":8799,"Ġ×ŀ×ľ×Ľ×Ķ":8800,"Ġ×©×ĳ×ĺ×Ļ×Ŀ":8801,"Ġ×¢×ł×ĵ×ĸ×©×Ĳ":8802,"Ġ×ķ×ķ×¢×¨×ĺ×¢×¨×ĳ×ķ×ļ":8803,"Ġ×Ĳ×Ļ×Ļ×ł×¦×Ļ×Ĵ×¢":8804,"Ġ×¨×¢×ĸ×ķ×ľ×ĺ×Ĳ×ĺ×Ł×Ĳ×Ļ×Ļ×Ł":8805,"Ġ×Ĵ×¢×ķ×ķ×Ļ×ĵ×ŀ×¢×ĺ":8806,"Ġup":8807,"Ġ×Ĵ×¤":8808,"Ġ×ĺ×¢×§×¡×ĺ×Ł":8809,"Ġ×¤×Ĳ×¨×ĺ×Ļ×Ĵ":8810,"×ķ×Ļ×ł×ĺ×ŀ×Ĳ":8811,"Ġ×ĵ×Ĳ×§×ķ×ŀ×¢×ł×ĺ×Ł":8812,"Ġ×Ĳ×ķ×Ļ×¡×ĵ×¨×ķ×§×Ł":8813,"Ġ×©×¢×¤×¢×¨×Ļ×©":8814,"73":8815,"Äį":8816,"×¤×Ļ×§":8817,"×ĳ×¢×§":8818,"Ġ×©×Ļ×Ļ×ł×¢×¨":8819,"Ġ×©×Ĳ×¨×£":8820,"×ł×Ļ×ĺ×Ł":8821,"×Ĳ×ĺ×Ļ×¢":8822,"×Ļ×ł×Ĳ×¦×Ļ×¢":8823,"Ġ×©×ĺ×Ĳ×ŀ×¢×Ł":8824,"×¢×Ľ×Ļ×©":8825,"Ġ×Ĵ×¢×Ĵ×ł×ĺ×Ł":8826,"Ġ×©×ĺ×Ļ×§×ľ×¢×ļ":8827,"Ġ×§×Ļ×ľ×Ĳ×ŀ×¢×ĺ×¢×¨":8828,"Ġ×¤×Ĳ×¨×§×¢×¨×ĺ×¢":8829,"Ġ×ĺ×¨×Ĳ×ĵ×Ļ×¦×Ļ×Ĳ×ł":8830,"Ġ×¤×Ĳ×¨×ĸ×Ļ×Ľ×¢×¨×ĺ":8831,"Ġ×ĺ×ľ×Ļ×ª":8832,"bum":8833,"Ġ×ķ×ķ×¢×¤":8834,"×ł×Ļ×Ļ×©×Ĳ":8835,"Ġ×Ļ×ķ×©":8836,"×Ļ×§×¢×¡":8837,"×Ļ×ł×ĺ×Ł":8838,"×Ĳ×Ľ×ĺ×¢":8839,"×¢×ŀ×¢×ł×¥":8840,"Ġ×ĳ×ľ×¢":8841,"Ġ×ŀ×©×ŀ×¢":8842,"Ġ×Ĳ×¨×ķ×Ļ×¡×Ĵ×¢×©×ĺ×¢×ľ×ĺ":8843,"Ġ×°×ķ":8844,"Ġ×ł×ķ×¦×ľ×¢×ļ":8845,"Ġ×ķ×ķ×Ĳ×¨×¤×Ł":8846,"Ġ×Ļ×Ĺ×Ļ×Ĳ×ľ":8847,"Ġ×Ľ×Ļ×ł×¢×ĸ×Ļ×©":8848,"inese":8849,"Ġ×ķ×ķ×¢×ĵ":8850,"×¡×¢×ĺ":8851,"×ĸ×Ļ×¦×Ļ×¢":8852,"Ġ×©×Ļ×Ľ":8853,"Ġ×©×ł×ª":8854,"×Ķ×Ļ×Ļ×¡×ĺ":8855,"Ġ×¤×Ĳ×¨×Ĳ×Ľ×ĺ×Ł":8856,"Ġ×Ĵ×¢×ķ×ķ×ķ":8857,"×ł×Ĵ×§×Ļ×ł×Ĵ":8858,"Ġ×ĳ×ľ×Ĳ×§":8859,"×ķ×Ĵ×Ļ×Ļ×Ł":8860,"Ġ×ĵ×ĸ×©×Ļ":8861,"Ġ×Ĳ×ķ×ł×ĺ×¢×¨×ł×¢×ŀ":8862,"Ġ×ŀ×§×¢×Ł":8863,"Ġ×¤×Ĳ×¨×§×Ļ×ł×Ĵ":8864,"Ġ×©×ĺ×Ĳ×¨×§×Ļ×Ļ×ĺ":8865,"Ġ×Ĳ×§×¢×Ĵ×Ł":8866,"×¦×ķ×Ĵ×Ļ×Ļ×Ł":8867,"Ġ×ľ×Ļ×ĺ×ĺ×ľ×¢":8868,"×Ĵ×¢×ķ×ķ×Ļ×Ļ×ł×ĺ×ľ×¢×ļ":8869,"×ľ×Ļ×ķ":8870,"×ľ×Ĳ×ĵ":8871,"Ġ×¢×ľ×ĺ":8872,"×ŀ×Ļ×Ļ×¡×ĺ×¢×¨":8873,"×¨×Ļ×Ļ×¤":8874,"×¨×Ļ×Ļ×Ĳ":8875,"×¢×¦×Ļ×Ĳ":8876,"Ġ×ĺ×¨×¢":8877,"Ġ×©×ŀ×©":8878,"ink":8879,"Ġ×ĺ×¢×¨×Ļ×ĺ×Ĳ":8880,"Ġ×Ķ×¢×¨×ķ×ª":8881,"Ġ×§×ķ×ľ×ķ×ª":8882,"Ġ×ľ×©×Ŀ":8883,"Ġ×ķ×ķ×Ļ×¤×ľ":8884,"×ĺ×Ļ×ł×Ĵ×¡":8885,"Ġ×ŀ×ł×Ķ×Ĵ×Ļ×Ŀ":8886,"Ġ×©×Ĳ×ĵ×Ł":8887,"Ġ×Ĳ×ł×ĺ×ľ×ķ×Ļ×¤×Ł":8888,"Ġ×ĺ×¨×Ļ×Ļ×ł×Ĵ":8889,"Ġ×¦×ķ×Ĵ×¢×Ĵ×¨×Ļ×Ļ×ĺ":8890,"Ġ×Ĳ×ķ×Ļ×¡×§×ľ×Ļ×Ļ":8891,"ł×Ľ×¢":8892,"×ĺ×¢×ł×¦×Ļ×¢×ľ":8893,"×¨×ķ×Ļ×¢×§×ĺ":8894,"ĠÖ·":8895,"Ġ×ĳ×Ļ×§×¡":8896,"Ġ×ł×Ļ×¥":8897,"Ġ×¦×Ļ×Ķ×ľ":8898,"Ġ×¢×Ļ×ĳ×ķ×¨":8899,"Ġ×Ļ×ķ×¨":8900,"Ġ×¨×Ĳ×ł×Ĵ":8901,"×¢×ĺ×Ļ×Ĵ×ĺ":8902,"×Ļ×Ļ×¢×¡":8903,"×¢×ĳ×ķ×Ļ×ĺ":8904,"Ġ×Ĳ×Ļ×Ļ×ĵ×¢×ľ×¢":8905,"Ġ×ĳ×Ĳ×¦×Ļ×Ļ×Ľ×ł×ĺ":8906,"Ġ×©×¢×ł×§×ĺ":8907,"Ġ×¢×¨×ŀ×¢×Ĵ×ľ×Ļ×Ľ×Ł":8908,"41":8909,"Ġ×ł×Ĳ×ł×ĺ×¢":8910,"Ġ×Ĳ×ĸ×©":8911,"Ġ×ĳ×Ļ×ĸ×ĺ×ķ":8912,"Ġ×ĺ×©×¢×¨×ł":8913,"Ġ×ŀ×Ĺ×ķ×Ļ×ĳ":8914,"Ġ×ĳ×¢×¨×ľ×Ļ×Ł":8915,"Ġ×¨×¢×Ľ×¢×ł×ķ×ł×Ĵ":8916,"Ġrequ":8917,"Ġ×ľ×Ļ×Ĵ×¢×ł×ĺ":8918,"Ġ×¢×§×¡×ĺ×¨×¢×Ŀ":8919,"Ġ×ŀ×Ļ×ł×ĵ×¡×ĺ×¢×¨":8920,"book":8921,"http":8922,"rot":8923,"×Ļ×ĺ×¢×Ł":8924,"×Ķ×²":8925,"Ġ×¦×ķ×ĺ×Ĳ×Ĵ":8926,"×Ļ×¨×¡":8927,"×Ľ×¤×Ĳ":8928,"Ġ×Ĵ×¢×©×¢×Ķ×Ł":8929,"Ġ\"\"":8930,"Ġ×Ĵ×¢×ĵ×¨×Ļ×Ļ×ĺ":8931,"Ġ×ĺ×¢×Ĳ×¨×Ļ×¢":8932,"Ġ×Ĵ×¢×¤×¢×¨×ľ×Ļ×ļ":8933,"×ł×Ľ×Ĳ":8934,"×¦×ķ×¨×Ļ×§":8935,"Ġ×Ĵ×ķ×Ļ×Ĳ×Ļ×©×¢":8936,"×¨×Ļ×ł×¦×Ļ×¤":8937,"82":8938,"×ľ×Ļ×ĺ×Ļ":8939,"Ġ×ĸ×Ĳ×ĳ":8940,"Ġ×Ķ×¢×ĵ":8941,"Ġ×§×Ļ":8942,"×¤×Ļ×Ļ×ĵ":8943,"×Ļ×ĺ×Ĳ×¨×Ļ×¢":8944,"Ġ×¡×§×ľ":8945,"Ġ×ĳ×¨×ķ×¡×ĺ":8946,"×ķ×©×Ł":8947,"Ġ×¤×ľ×Ļ×ĺ":8948,"Ġ×Ĳ×¨×ķ×Ļ×¡×ĳ×¨×¢×ł×Ĵ×¢×Ł":8949,"Ġ×ŀ×§×¨×ĳ":8950,"Ġ×¤×¨×Ĳ×Ļ×¢×§×ĺ×Ł":8951,"×Ĳ×ŀ×Ĳ×ĺ×Ļ×©×¢":8952,"Ġ×ĺ×¢×ĺ×Ļ×§×Ļ×Ļ×ĺ":8953,"Ġ×ŀ×Ĺ×ķ×ª×Ł":8954,"×¢×ł×Ł":8955,"Ġ×¡×ķ×Ľ×ķ×ª":8956,"×Ĺ×Ĺ":8957,"×Ĳ×ł×Ļ×©×¢×¨":8958,"×ł×ĺ×§×Ļ×Ļ":8959,"×ķ×¤×ª":8960,"×ŀ×¢×ł×ĺ×Ĳ":8961,"âĢ¦]":8962,"Ġ×Ľ×ª×ĳ":8963,"Ġ×¤×¨×Ļ×Ļ×ľ×¢×ļ":8964,"Ġ×¦×Ļ×¤×¢×¨×Ł":8965,"Ġ×¤×ľ×Ĳ×¨×Ļ×ĵ×¢":8966,"Ġ×ķ×ķ×ĳ":8967,"Ġ×¤×Ĳ×¨×Ĳ×Ĵ×¨":8968,"Ġ×¤×Ĳ×¨×ł×¢×ŀ×¢×Ł":8969,"Ġ×Ĳ×¨×ķ×Ł":8970,"×¢×¨×ĺ×ķ×ł×Ĳ":8971,"Ġ×Ĵ×ľ×ķ×ĺ×¢×Ł":8972,"Ġ×ĵ×ĸ×©×Ĳ×¨":8973,"Ġ×¤×Ĳ×¨×©×¢×¨":8974,"Ġ×¨×¢×Ĵ×ķ×ľ×¢×¨":8975,"×¨×Ļ×ĵ×Ł":8976,"×¨×ķ×ŀ×¢×ł×Ļ×©":8977,"Ġ×§×Ĳ×¨×ĺ×ľ":8978,"Ġ×¢×Ļ×¨×ķ×ĳ":8979,"Ġ×ĺ×©×¢×Ľ×Ļ×Ļ":8980,"×¢×¨×Ļ×Ļ×ĺ×Ļ×ł×Ĵ":8981,"×ĵ×ĺ":8982,"×ĸ×¢×ľ":8983,"Ġ×©×ķ×ĺ×¢×¨":8984,"×¢×ŀ×ĳ×Ĳ":8985,"×Ļ×Ļ×ĵ×ĺ":8986,"×Ĳ×ľ×ĺ×Ļ×ĸ×Ļ×©":8987,"×¨×ĳ×ķ×ł×ĵ×Ł":8988,"Ġ×Ĳ×ł×Ĵ×¢×©×ĺ×¢×ľ×ĺ":8989,"Ġ×ĳ×Ĳ×©×¨×Ļ×Ļ×ĳ×Ł":8990,"Ġ×©×ķ×ķ×Ĳ×ļ":8991,"×ķ×§×¨×Ļ×Ļ×ł":8992,"×¨×ł×ĺ":8993,"Ġ×ĵ×Ļ×ĳ":8994,"Ġ×ŀ×¨×Ł":8995,"Ġ×©×ŀ×Ĳ":8996,"Ġ×ĺ×Ĳ×Ķ":8997,"×ł×ĵ×Ł":8998,"×Ļ×¤×Ļ×§":8999,"Ġ×ŀ×©×ł×Ļ×ķ×ª":9000,"Ġ×¨×¢×ĵ×Ĳ×Ĵ×Ļ×¨×ĺ":9001,"Ġ×°×¢×ľ":9002,"Ġ×Ĵ×¢×ŀ×Ļ×©×ĺ":9003,"Ġ35":9004,"×ŀ×¡×Ľ×ª":9005,"ĠTh":9006,"×¨×ŀ×ĸ":9007,"ames":9008,"Ġ×ŀ×Ĳ×Ľ×¡×ĺ":9009,"Ġ×Ĳ×Ļ×¡×ĺ":9010,"impl":9011,"Ġ×ĳ×Ļ×ķ×¨×Ĳ":9012,"Ġ×¨×¢×ĸ×¢×¨×ķ×ķ×Ļ×¨×ĺ":9013,"Ġ×Ķ×©×Ĵ×Ĺ×Ķ":9014,"06":9015,"×ķ×ķ×ĵ×Ĳ×Ļ":9016,"×¢×¨×Ļ×¢":9017,"Ġ×¤×Ļ×Ļ×ł":9018,"Ġ×Ķ×¢×ľ×ĺ":9019,"Ġ×ĳ×Ļ×©":9020,"Ġ×ĳ×ķ×¨×Ĳ":9021,"Ġ×©×Ļ":9022,"Ġ×¢×£":9023,"×§×¢×ł×ĺ":9024,"Ġ×¦×ķ×ĺ":9025,"Ġ×¤×Ĳ×¨×Ĵ×¨":9026,"Ġ×Ĳ×Ļ×ĳ×¢×¨×ľ×¢×ĳ":9027,"×ķ×Ĵ×Ĳ":9028,"×¨×ĳ×¢×ĺ×¢×¨":9029,"Ġ×§×¨×Ļ×¤":9030,"Ġ×ĵ×ĸ×©×ķ×ľ":9031,"ĠSMS":9032,"Ġ×Ķ×¡×ª×Ŀ":9033,"×ĺ×¢×ľ×ĺ×¢×¨":9034,"Ġ×§×Ĳ×ł×ĺ×¨×Ļ":9035,"×Ĳ×¦×Ļ×Ĳ×ł×Ĳ×ľ":9036,"Ġ×ĳ×§×©×Ķ":9037,"Ġ×ĸ×Ľ×¨×ķ×Ł":9038,"42":9039,"ev":9040,"×¢×ł×ŀ":9041,"Ö¸Ö¼":9042,"Ġ×ĳ×Ļ×Ļ×Ł":9043,"Ġ×Ĳ×ľ×¢×§×¡":9044,"Ġ×Ľ×ķ×ķ×ł×Ķ":9045,"×ĳ×¢×¨×ĺ":9046,"×ł×Ĵ×¢×ł×Ķ":9047,"Ġ×ĺ×©×¢×¤":9048,"×Ļ×ł×ł":9049,"×¨×©×ĺ×Ļ×Ļ×ĺ":9050,"Ġ×¡×ĺ×¨×Ĳ×©":9051,"Ġ×Ĳ×¨×ĳ×¢×ĺ×¡":9052,"Ġ×Ķ×ľ×ķ×Ļ":9053,"Ġ×ĳ×Ķ×ŀ×Ķ":9054,"Ġ×ĵ×¢×ľ×Ļ×ķ×ķ×¢×¨":9055,"Ġ×Ĵ×¨×¢×Ĵ×Ĳ×¨×Ļ×Ĳ×ł×Ļ×©×Ł":9056,"implified":9057,"Ġ×¤×Ļ×¦":9058,"×¡×ŀ×Ĳ":9059,"Ġ×Ķ×ĳ×ľ":9060,"Ġ×¡×ł":9061,"Ġ×¤×Ĳ×¨×Ĵ×ľ":9062,"×Ļ×ł×¢×ĺ":9063,"×Ļ×ł×ĵ×¢×Ł":9064,"Ġ×ĳ×©×ł×ª":9065,"Ġ×¢×ł×ľ×Ļ×Ľ×¢":9066,"Ġpos":9067,"Ġ×¤×Ĳ×¡×Ļ×¨×Ł":9068,"Ġ×Ļ×¨×ķ×©×Ķ":9069,"Ġ×ĳ×Ľ×ķ×ķ×ł×Ķ":9070,"×¨×Ļ×Ľ×ĺ×Ļ×Ĵ":9071,"×ķ×ķ×¢×ĵ×Ļ×©":9072,"Ġ×Ĺ×ķ×ĸ×§":9073,"Ġ×¢×ĳ×ķ×ĵ×ª":9074,"×¨×ķ×Ĳ":9075,"Ġ×ķ×ķ×Ļ×ł×ĵ":9076,"×§×ł":9077,"×¢×ľ×ĺ×¢":9078,"×¢×ĺ×¨×Ĳ":9079,"×ĺ×¢×ķ×ª":9080,"Ġ×¤×Ĳ×¨×§×ķ×Ļ×¤":9081,"Ġ[âĢ¦]":9082,"Ġ×ķ×ķ×Ĳ×¨×¤×ĺ":9083,"ich":9084,"Ġ×ľ×¢×ĳ×¢×Ł":9085,"×¡×¢×¨×ĳ×Ļ×©":9086,"×ĺ×¢×ľ×ĺ×¢":9087,"Ġ×§×Ĳ×ł×¡×ĺ×Ļ×ĺ":9088,"Ġ×ĺ×Ļ×Ļ×ĺ×ľ×ĳ×ķ×Ļ×Ŀ":9089,"Ġ×Ļ×ł×§×¨×Ļ×¡×Ļ×ĸ":9090,"AN":9091,"ure":9092,"×§×ł×Ĳ":9093,"Ġ×ľ×Ĳ×ļ":9094,"×Ĳ×ł×Ļ×Ŀ":9095,"×¢×ł×ĵ×ĺ":9096,"×ķ×¦×Ļ×Ŀ":9097,"Ġ×Ķ×Ĳ×ĳ×¢×ļ":9098,"Ġ×Ĵ×¢×ŀ×¢×Ĵ×ĺ":9099,"Ġ×¦×ķ×Ĵ×¢×ĳ×Ł":9100,"×ĵ×ĸ×©×Ļ":9101,"Ġ×ĺ×¢×Ĵ×ľ×Ļ×Ľ×¢":9102,"Ġ×ĵ×ķ×¨×Ľ×¤":9103,"Ġ×ĺ×ķ×¨×¢×Ŀ":9104,"Ġ×ĺ×ķ×¨×ŀ×¢":9105,"Ġ×ĳ×ķ×©×Ķ":9106,"Ġ×ĳ×Ĳ×Ĵ×¨×Ĳ×ĳ×Ł":9107,"Ġ×ĵ×Ĳ×¨×¤×¡×ĺ×ķ":9108,"×¤×¨×Ļ×¢×¨×ĵ×Ļ×Ĵ×¢":9109,"Ġ×©×ĺ×ķ×ª×Ļ×Ŀ":9110,"×ķ×ķ×ł":9111,"Ġ×ŀ×Ļ×¡×Ĳ":9112,"×§×²×ĺ":9113,"×Ĺ×¡×Ļ×ĵ":9114,"×ł×¡×¢×¨":9115,"Ġ×§×ľ×Ļ×ł×Ĵ×ĺ":9116,"×³×³":9117,"×Ĵ×¨×ķ×ĸ×Ļ×ł×Ļ×©":9118,"Ġ×Ĳ×Ļ×Ļ×Ĵ×¢×ł×¢×¨":9119,"Ġ×¤×¢×¨×¦×Ļ×Ĵ":9120,"Ġ×¤×Ĳ×¨×ĳ×Ĳ×ł×ĵ":9121,"Ġ×¨×Ĳ×©×ķ×Ł":9122,"Ġ×ł×§×ķ×ĵ×ķ×ª":9123,"Ġ×Ļ×§×¢×¨×ĵ×Ļ×§":9124,"yiddishmoment":9125,"jani":9126,"zerb":9127,"×ĺ×Ķ×Ĳ":9128,"Ġ×ĵ×Ļ×§×ĺ":9129,"×ľ×Ĳ×ĺ":9130,"Ġ×©×Ļ×ľ×¢×¨":9131,"×ª×ª":9132,"Ġ×Ĳ×¤×Ĵ×¢×¨":9133,"Ġ×Ĵ×¨×Ļ×ł×¢":9134,"×ł×¤×Ĳ":9135,"×´.":9136,"Ġ×Ĳ×Ĺ×ķ×¥":9137,"Ġ×ŀ×ĳ×ķ×ľ":9138,"×ľ×¢×ł×ĵ×¢×¨":9139,"Ġ×Ĳ×ķ×Ļ×¡×¢×¨×Ĵ×¢×ķ×ķ":9140,"Ġ×ĺ×Ĳ×ľ×¢×¨":9141,"zerbai":9142,"ael":9143,"ob":9144,"×¨×¢×ķ×ķ":9145,"Ġ×ĸ×¢×¡×ĺ":9146,"Ġ×¤×Ĳ×¨×ĵ×¨":9147,"×ĺ×¢×¨×ĵ":9148,"Ġ×Ĵ×¢×ķ×ķ×Ĳ×¨×ĺ":9149,"Ġ×Ĳ×¤×Ķ":9150,"×©×ĺ×ķ×ª":9151,"Ġ×ĺ×¨×ķ×§":9152,"×ķ×ķ×Ĳ×¡×¢×¨":9153,"Ġ×Ķ×ŀ×Ĺ":9154,"Ġ×Ĺ×©×§":9155,"Ġ×¨×Ĳ×©×ķ×ł×Ļ×Ŀ":9156,"ash":9157,"×¡×¢×¡×Ļ×ł×Ĵ":9158,"Ġ×¡×¢×ĺ×ĺ×Ļ×ł×Ĵ×¡":9159,"Ġ×ł×Ĳ×¦×Ļ×¡":9160,"Ġ×Ĵ×ľ×¢×ĸ×ľ":9161,"zerbaijani":9162,"71":9163,"×ĺ×Ļ×©×ĺ×©":9164,"×ľ×Ļ×Ļ×ĳ×ĺ":9165,"Ġ×ĸ×ŀ":9166,"×ĸ×Ľ×¨":9167,"Ġ×ľ×Ļ×Ļ×£":9168,"Ġ×¡×Ļ×Ļ×ĵ":9169,"×Ļ×¨×Ļ×©×Ĳ":9170,"×¢×ĺ×¢×Ł":9171,"×Ļ×¡×ľ×¢×ł×ĵ":9172,"Ġ×Ĵ×¢×©×ŀ×ķ×¢×¡×ĺ":9173,"×Ļ×ł×ĵ×Ļ×©×Ĳ":9174,"Ġ×°×Ļ×§":9175,"×ĺ×©×Ĵ×¨×Ļ×Ľ×Ļ×©":9176,"×ķ×Ļ×ľ×Ļ×©×¤":9177,"Ġ×Ĳ×ł×ĺ×§×¢×Ĵ×Ł":9178,"Ġ×Ķ×¢×¨×¦×¢×¨":9179,"Ġ×ķ×ķ×Ĳ×¨×©×¢":9180,"×ł×Ļ×©×Ķ×Ĳ":9181,"Ġ×Ĳ×ķ×Ļ×¤×Ĵ×¢×ĺ":9182,"×©×ľ×¢×ĺ×Ļ×©":9183,"Ġ×ŀ×ŀ×ľ×Ĳ":9184,"×Ļ×©×Ĳ×Ļ×ł×ĵ×Ĳ":9185,"×Ļ×©×Ĳ×ķ×§×¨×Ļ×Ļ×ł":9186,"×Ļ×©×Ĳ×Ļ×¨×Ļ×©×Ĳ":9187,"×Ļ×©×Ĳ×Ļ×¡×ľ×¢×ł×ĵ":9188,"Ġ×¢×§×ĸ×Ļ×¡×ĺ×Ļ×¨×Ł":9189,"Ġ×ĸ×¢×§×¡×¢×¨":9190,"×¨×Ļ×©×§×Ĳ":9191,"×¨×Ļ×©×©×¤":9192,"×¢×ĳ×¨×¢×Ļ×©×Ķ":9193,"×Ļ×ł×Ļ×©×¤×¨×Ĳ×ł×¦×ķ×Ļ×ĸ×Ļ×©":9194,"×ķ×ł×Ĵ×¢×¨×Ļ×©×Ĳ×Ļ×¡×ľ×¢×ł×ĵ":9195,"×Ķ×Ļ×ľ×Ļ×©":9196,"×¢×ł×Ĵ×ľ×Ļ×©×Ĳ":9197,"×¨×ķ×¡×Ļ×©×ĳ×ķ×ľ×Ĵ×Ĳ":9198,"×¨×ķ×¡×Ļ×©×¡×¢×¨×ĳ×Ļ×©":9199,"ai×ĺ×¢×¨×§":9200,"×§×Ļ×©×ĳ×ķ×ľ×Ĵ×Ĳ":9201,"×ľ×¢×ł×ĵ×Ļ×©×ĵ×Ĳ":9202,"Ġ×ŀ×Ļ×ľ×Ľ×Ļ×§":9203,"×ľ×Ļ×¢×ł×Ļ×©×Ļ×Ĳ":9204,"Thai×ĺ×¢×¨×§":9205,"×ł×¢×ĸ×Ļ×©×Ĳ×Ļ×¨×Ļ×©×Ĳ":9206,"×¨×ķ×ķ×¢×Ĵ×Ļ×©×¤":9207,"×¢×Ľ×Ļ×©×ĵ×Ĳ":9208,"×¨×ķ×ŀ×¢×ł×Ļ×©×¨×ķ×¡×Ļ×©×¡×¢×¨×ĳ×Ļ×©":9209,"×ĺ×Ļ×©×ĺ×©×¢×Ľ×Ļ×©×ĵ×Ĳ":9210,"×Ļ×ł×ĵ×Ļ×©×Ĳ×ķ×ł×Ĵ×¢×¨×Ļ×©×Ĳ×Ļ×¡×ľ×¢×ł×ĵ":9211,"×¢×ĳ×¨×¢×Ļ×©×Ķ×Ļ×ł×ĵ×Ļ×©×Ĳ×ķ×ł×Ĵ×¢×¨×Ļ×©×Ĳ×Ļ×¡×ľ×¢×ł×ĵ":9212,"Thai×ĺ×¢×¨×§×Ļ×©×Ĳ×ķ×§×¨×Ļ×Ļ×ł":9213,"×ł×¢×ĸ×Ļ×©×Ĳ×Ļ×¨×Ļ×©×Ĳ×Ļ×ĺ×Ĳ":9214,"×¨×ķ×ŀ×¢×ł×Ļ×©×¨×ķ×¡×Ļ×©×¡×¢×¨×ĳ×Ļ×©×¡×ľ×Ĳ":9215,"×¢×ĳ×¨×¢×Ļ×©×Ķ×Ļ×ł×ĵ×Ļ×©×Ĳ×ķ×ł×Ĵ×¢×¨×Ļ×©×Ĳ×Ļ×¡×ľ×¢×ł×ĵ×Ļ×©×Ĳ×Ļ×ł×ĵ×Ĳ":9216,"Simplified":9217,"×ķ×Ĳ×ľ":9218,"Ġ×ĵ×Ļ×ķ":9219,"×¡×ľ×ĳ":9220,"×ĸ×Ļ×Ļ×ł×¢×Ł":9221,"×ŀ×ł×Ķ":9222,"×¦×ķ×ł×¢×ŀ×¢×Ł":9223,"×Ĺ×¨":9224,"Ġ×Ĵ×¨×Ļ×ł":9225,"Ġ×Ĳ×ķ×Ļ×¡×ŀ":9226,"Ġ×§×¨×Ĳ×ŀ×¤":9227,"ï¬®×¨":9228,"×¢×ł×§×ľ":9229,"ïŃİ×ĺ":9230,"Ġ×ľ×Ĳ×ł×ĵ×Ĳ×ł×¢×¨":9231,"Ġ×Ĳ×Ļ×Ļ×ł×¦×Ļ×§×¢×¨":9232,"×¨×¢×ĵ×Ĳ":9233,"Ġ×ĳ×Ĳ×ŀ×¢×¨×§":9234,"Ġ×Ĵ×¢×ķ×ķ×¢×ł×ľ×Ļ×Ľ×¢":9235,"Ġalbum":9236,"Ġ×¢×¨×ŀ×¢×Ĵ×ľ×Ļ×Ľ×ĺ":9237,"âīł":9238,"×©×ľ×¢×ĺ×Ļ×©×ľ×Ļ×ĺ×ķ×ķ×Ļ×©":9239,"Azerbaijani":9240,"RL":9241,"TC":9242,"Ġ×¤×Ļ×©×¢×¨":9243,"Ġ×ŀ×ķ×ľ×ĺ":9244,"Ġ×Ĵ×Ļ×ŀ":9245,"Ġ×ł×Ļ×§×Ĳ":9246,"×ŀ×Ĳ×ľ×ĺ×Ļ×ĸ×Ļ×©":9247,"×§×¢×ł":9248,"×ķ×ķ×ķ×Ļ×¢×ĺ":9249,"Ġ×¨×ķ×Ļ×Ŀ":9250,"×ļ×¢×ł×Ĵ×ľ×Ļ×©×Ĳ":9251,"×ĵ×¢×¨×ķ×ł×Ĵ":9252,"×Ļ×Ļ×¢×¨×¡":9253,"×Ļ×ł×ĵ×ĺ":9254,"Ġ×¨×ĳ×Ļ×Ŀ":9255,"×¢×¨×¡×Ļ×©×¤":9256,"Ġ×Ĵ×¢×ľ×¢×Ľ×ĺ×¢×¨":9257,"Ġ×§×Ĳ×¨×Ĳ×ľ":9258,"Ġ×©×ķ×ķ×¢×¨×Ļ×§×Ļ×Ļ×ĺ×Ł":9259,"×ł×Ļ×©×§×Ĳ":9260,"×ł×Ļ×©Ch":9261,"×ł×Ļ×©×¡×ķ×ķ×Ĳ":9262,"×ł×Ļ×©×Ĵ×¨×ķ×ĸ×Ļ×ł×Ļ×©":9263,"Ġ×Ķ×ľ×ľ":9264,"×Ļ×©×Ĳ×ķ×¨×ĵ":9265,"×Ĳ×¨×ŀ×Ĳ×ł×Ļ×©":9266,"Ġ×ĺ×Ļ×¤×¢×¨":9267,"×¡×§×ĳ×¢×ľ×Ĳ":9268,"Ġ×Ĳ×Ľ×ĺ×ķ×ł×Ĵ":9269,"×ĳ×Ļ×©×ŀ×Ĳ×ľ×ĺ×Ļ×ĸ×Ļ×©":9270,"×ĳ×Ļ×©×Ĳ×¨×ŀ×Ĳ×ł×Ļ×©":9271,"Ġ×ķ×ķ×Ļ×ł×ĺ×©×Ł":9272,"×ľ×¢×Ķ×¢×ĳ×¨×¢×Ļ×©×Ķ×Ļ×ł×ĵ×Ļ×©×Ĳ×ķ×ł×Ĵ×¢×¨×Ļ×©×Ĳ×Ļ×¡×ľ×¢×ł×ĵ×Ļ×©×Ĳ×Ļ×ł×ĵ×Ĳ":9273,"Ġ×Ĳ×Ļ×ł×¢×ķ×ķ×Ļ×Ļ×ł×Ļ×Ĵ":9274,"Ġ×ķ×Ļ×ľ×¢×Ŀ":9275,"×¨×ĺ×ķ×Ĵ×¢×ĸ×Ļ×©×¨×ķ×ŀ×¢×ł×Ļ×©×¨×ķ×¡×Ļ×©×¡×¢×¨×ĳ×Ļ×©×¡×ľ×Ĳ":9276,"×ķ×ķ×¢×ĵ×Ļ×©Thai×ĺ×¢×¨×§×Ļ×©×Ĳ×ķ×§×¨×Ļ×Ļ×ł":9277,"×ĺ×©×Ĵ×¨×Ļ×Ľ×Ļ×©×Ķ×Ĳ":9278,"×Ļ×ł×Ļ×©×¤×¨×Ĳ×ł×¦×ķ×Ļ×ĸ×Ļ×©×Ĵ×Ĳ":9279,"×Ķ×Ļ×ľ×Ļ×©×ķ×ķ×¢×ĵ×Ļ×©Thai×ĺ×¢×¨×§×Ļ×©×Ĳ×ķ×§×¨×Ļ×Ļ×ł":9280,"Azerbaijani×ĳ×Ĳ":9281,"×ķ×ķ×ķ×Ļ×¢×ĺ×ł×Ĳ":9282,"×ł×Ļ×©Chinese":9283,"×ł×Ļ×©×Ĵ×¨×ķ×ĸ×Ļ×ł×Ļ×©×ĵ×Ļ×Ļ":9284,"×Ļ×©×Ĳ×ķ×¨×ĵ×ķ×ķ×ķ×Ļ×¢×ĺ×ł×Ĳ":9285,"×ĳ×Ļ×©×ŀ×Ĳ×ľ×ĺ×Ļ×ĸ×Ļ×©×ł×Ĳ":9286,"×ĳ×Ļ×©×Ĳ×¨×ŀ×Ĳ×ł×Ļ×©Azerbaijani×ĳ×Ĳ":9287,"×Ķ×Ļ×ľ×Ļ×©×ķ×ķ×¢×ĵ×Ļ×©Thai×ĺ×¢×¨×§×Ļ×©×Ĳ×ķ×§×¨×Ļ×Ļ×ł×Ļ×©×Ĳ×ķ×¨×ĵ×ķ×ķ×ķ×Ļ×¢×ĺ×ł×Ĳ":9288,"Â®":9289,"×¢×¨×ľ":9290,"×¤×¢×¨×¢":9291,"×ĳ×Ľ×ľ×ľ":9292,"Ġ×©×ĺ×Ĳ×¤×ľ":9293,"Ġ×Ĺ×ł×Ķ":9294,"Ġ(\"":9295,"Ġ×¢×ĺ×ķ×ķ×Ĳ×¡":9296,"Ġ×Ĺ×ľ×ķ×ŀ×ķ×ª":9297,"Ġ×¢×ŀ×¢×ĸ×Ĳ×Ł":9298,"Ġ×ĳ×Ļ×ĸ×ł×¢×¡×¢×¨":9299,"×¨×ĺ×¢×¨×¡":9300,"Ġ×Ĳ×Ļ×ł×¢×¨×Ķ×Ĳ×ľ×ĳ":9301,"×©×ľ×¢×ĺ×Ļ×©×ľ×Ļ×ĺ×ķ×ķ×Ļ×©×ŀ×Ĳ":9302,"81":9303,"Ġ×¤×Ļ×ł×¤":9304,"Ġ×ĸ×Ĳ×¤×ĺ":9305,"Ġ×łï¬¯":9306,"×ŀ×§":9307,"Ġ×Ļ×ł×¢×¨":9308,"×Ĵ×ľ×Ĳ":9309,"×ĵ×¢×¨×¡":9310,"Ġ×ª×Ĳ×ķ":9311,"ĠâĨ":9312,"Ġ×Ĵ×¨×ķ×Ļ×¡×§×Ļ×Ļ×ĺ":9313,"×ł×§×¡":9314,"Ġ×©×ŀ×ķ×¦":9315,"Ġ×Ĳ×ķ×ŀ×Ĳ×Ł":9316,"×ķ×ł×ĺ×Ļ":9317,"Ġ×ŀ×¡×Ĳ×ĺ×ŀ×Ĳ×¨":9318,"×Ľ×Ķ×Ł":9319,"Ġ×Ķ×Ĵ×ĵ×¨":9320,"Ġ×ķ×ķ×Ļ×Ļ×ĺ×Ļ×§":9321,"Ġ×¡×¢×ķ×ĵ×ķ×ª":9322,"Ġ×ĵ×Ļ×¢×Ĵ×Ĳ":9323,"×¢×ł×ĺ×¤×¢×¨×Ł":9324,"×ľ×¢×¤×ĺ":9325,"×ł×¢×§×¡×ĺ":9326,"×¢×ł×ķ×ł×Ĵ×¢×Ł":9327,"Ġ×Ĵ×¢×ķ×ķ×¢×ĳ":9328,"×¢×ŀ×¢×ł×ĺ":9329,"Ġ×©×¤×Ļ×Ĳ×ł":9330,"×Ļ×¤×ķ×¨":9331,"Ġ×ĸ×Ĳ×ľ×¥":9332,"Ġ×Ĳ×ķ×Ļ×¤×Ķ×¢×¨×Ł":9333,"Ġ×ĵ×¢×ŀ×¢×§":9334,"Ġ×¦×ķ×Ĵ×¢×©":9335,"×ķ×ķ×Ļ×¡×Ł":9336,"iss":9337,"Ġpl":9338,"×Ĵ×¢×ŀ×Ĳ×Ľ×ĺ":9339,"×¨×Ļ×Ļ×¡×Ļ×ł×Ĵ":9340,"Ġ×ĸ×¦×ķ×§":9341,"Ġ×©×ĺ×ķ×ĵ×Ļ×¢×¡":9342,"Ġ×Ĵ×¨×Ļ×Ľ×Ļ×©":9343,"Ġ×§×Ĳ×ł×ĵ×Ļ×ĵ×Ĳ×ĺ×Ł":9344,"Ġ×ĵ×ķ×¨×Ľ×Ĵ×¢×¤×Ļ×¨×ĺ":9345,"Ġ×§×ĺ×Ŀ":9346,"Ġ×¤×Ĳ×¨×Ľ×Ĳ×¤×ĺ":9347,"Ġ×¡×¦×¢×ł×¢":9348,"ix":9349,"×¨×¢×ł×ĺ":9350,"Ġ×©×ĳ×¢":9351,"Ġ×¨×Ĳ×ĺ×Ł":9352,"×Ļ×ķ×ł×Ĵ":9353,"Ġ×Ľ×ĳ":9354,"×§×ĺ×Ļ×Ĳ":9355,"Ġ×°×¢×¨×Ł":9356,"Ġ×Ĳ×ķ×ł×ĺ×¢×¨×Ĵ×¢×©×¨×Ļ×ĳ×Ł":9357,"×ŀ×¢×¨×§×Ł":9358,"Ġ×§×Ĳ×¤×Ļ":9359,"Ġ×Ĳ×Ĺ×¨×ķ×Ł":9360,"Ġ×¨×¢×ł×ĺ×Ĵ×¢×ł":9361,"Ġ×Ĳ×ķ×Ļ×¢×¨":9362,"Ġ×Ĳ×ķ×Ļ×¢×¨×Ł":9363,"Ġ×¢×§×ĸ×¢×§":9364,"US":9365,"Ġ×¡×ķ×ķ×Ĳ":9366,"Ġ×¨×Ļ×ĺ×©":9367,"Ġ×¨×¢×¤×Ĳ×ĳ×ľ":9368,"×Ĵ×¢×ķ×ķ×Ļ×ĸ×Ł":9369,"ÑģÑĤ":9370,"Ġ×Ĳ×ķ×Ļ×¡×Ĵ×¢×¤×Ļ×¨×ĺ":9371,"Ġ×ĵ×¢×ĳ×Ĳ×ĺ×¢":9372,"Ġ×©×Ĺ×Ļ×ĺ×Ķ":9373,"Ġ×Ķ×Ļ×ĺ×ľ×¢×¨":9374,"Ġ×ĵ×¨×Ļ×Ļ×¡×Ļ×Ĵ":9375,"Ñĩ":9376,"Ġ×Ļ×ķ×ĺ":9377,"Ġ×Ļ×ķ×ł×Ķ":9378,"Ġ×¤×Ĳ×¨×ł×ĺ":9379,"Ġ×Ĳ×ľ×ķ×§":9380,"×ķ×ķ×¢×¨×ĵ":9381,"Ġ×¤×Ĳ×¨×©×ĺ×¢×ľ×Ł":9382,"Ġ×¤×Ĳ×¨×©×ĺ×Ļ×Ļ×¡×ĺ":9383,"Ġ×©×ķ×ķ×Ĳ×Ĵ×¢×¨":9384,"Ġ×Ķ×Ĳ×ľ×ĳ×¢×¨":9385,"Ġ×©×ĺ×¢×¨×ĺ":9386,"Ġ×ł×¢×ĺ×ķ×ķ×Ĳ":9387,"×ĵ×ķ×¨×Ľ":9388,"Ġ×Ĳ×Ļ×Ļ×¨×Ĳ×¤×¢×Ĳ×Ļ×©×¢":9389,"Ġ),":9390,"×ĺ×ĺ×©":9391,"×¡×¤×¨":9392,"×ŀ×ŀ×Ĳ":9393,"Ġ×ŀ×Ļ×ĺ×Ļ×ł×Ĵ":9394,"Ġ×Ĵ×¢×ķ×ķ×¢×¨":9395,"×Ļ×ķ×ķ×ĵ":9396,"×Ĳ×ŀ×¢×¡":9397,"Ġ×Ĳ×¤×Ļ×ł":9398,"Ġ×Ĵ×¢×©×Ĳ×ł×§×¢×Ł":9399,"×¨×ĺ×¨×Ĳ":9400,"×¢×¨×¡×ĺ×¢":9401,"Ġ×©×ľ×Ĳ×£":9402,"Ġ×Ļ×Ĺ×ķ×¡":9403,"ĠDownload":9404,"ÑĢÐ°":9405,"×ľ×ķ×ķ×ĵ":9406,"Ġ×Ķ×ķ×¨×Ĳ×Ķ":9407,"Ġ×ĸ×¢×ľ×ĺ×¢×ł×¢":9408,"×ł×Ĵ×¢×ł×Ķ×Ļ×Ļ":9409,"×Ļ×ł×¥":9410,"Ġ×§×²":9411,"×¤×Ļ×ľ×ĺ":9412,"×ł×Ļ×Ļ×ĺ":9413,"Ġ×ĺ×ķ×Ļ×ĳ":9414,"×Ĵ×ł×Ĳ":9415,"×Ļ×ł×Ļ×Ĳ":9416,"Ġ×ĳ×ľ×¢×Ŀ":9417,"Ġ×ŀ×Ĳ×ł×¨×Ĳ":9418,"Ġ×Ĳ×ŀ×Ĳ×ľ×Ļ×Ĵ×¢":9419,"Ġ×Ĵ×¢×ķ×ķ×Ļ×¡×¢×¨":9420,"Ġas":9421,"Ġ×Ĳ×ķ×ķ×ł×ĺ":9422,"Ġfree":9423,"Ġ×¡×ķ×¤×¢×¨":9424,"Ġ×¢×ĳ×¨×Ļ×ª":9425,"Ġ×ĵ×¢×ĳ×Ĳ×ĺ":9426,"Ġat":9427,"×ĳ×¢×Ł":9428,"Ġ×¢×ķ×©×¨":9429,"×Ļ×ķ×ķ×Ĵ":9430,"Ġ×Ľ×¡":9431,"Ġ×§×ľ×¢×¨":9432,"Ġ×¨×¢×ĵ×Ĳ×§×ĺ×Ĳ×¨":9433,"Ġ×ĺ×©×Ļ×Ļ×ł×¢":9434,"×¨×Ĵ×¢":9435,"Ġ×ĺ×¢×¨×Ļ×ĺ×Ĳ×¨×Ļ×¢":9436,"Ġ×ķ×ķ×¢×ĳ×¡×Ļ×Ļ×ĺ":9437,"Ġ×§×Ĳ×¨×¢×¢":9438,"Ġ×ķ×ķ×Ļ×¡×§×Ĳ×ł×¡":9439,"Ġ×¦×ķ×ķ×Ļ×Ļ×ĺ×¢×Ł":9440,"Ġ×§×¢×Ĵ×ł×©×ĺ×¢×ľ":9441,"Ġ×Ĳ×ĺ×Ĳ×§×Ļ×¨×ĺ":9442,"Ġ×ł×Ĳ×ĺ×Ļ×¨":9443,"Ġ×§×Ļ×Ļ×ľ×Ļ×Ŀ":9444,"Ġ×¢×ł×ĺ×¢×¨×¤":9445,"Ġ×§×¨×Ĳ×ŀ×¤×ľ×Ļ":9446,"row":9447,"Ö²":9448,"Ġ×ľ×ķ×Ļ×ĳ":9449,"Ġ×¨×Ļ×Ļ×ł":9450,"Ġ×¨×¢×ĵ×ķ×¦×Ļ×¨×Ł":9451,"×¤×Ĳ×ķ×ł×¡":9452,"Ġ×¤×Ļ×¨×¢×¨×©×Ĳ×¤×ĺ":9453,"×¨×Ļ×Ļ×ĵ×ł×ĵ×Ļ×§×¢":9454,"×¨×Ļ×Ļ×Ľ×Ł":9455,"×ŀ×¢×ł×ĵ×Ļ×ĵ":9456,"Ġ×¢×Ĵ×Ļ×¤×ĺ×Ł":9457,"Ġ×ł×¦×Ĺ×ķ×Ł":9458,"Ġ×ŀ×Ĳ×Ĵ×Ĳ×ĸ×Ļ×Ł":9459,"Ġ×§×Ĳ×¨×¢×¡×¤×Ĳ×ł×ĵ×¢×ł×ĺ":9460,"Ġ×ĳ×Ĳ×©×¨×Ļ×Ļ×ĳ×ķ×ł×Ĵ":9461,"Ġ×ĳ×¨×Ĳ×ĸ×Ļ×ľ":9462,"Ġ×Ĳ×ķ×ŀ×¢×ĺ×ķ×Ŀ":9463,"Ĵ×¢×¨":9464,"×§×Ĳ×ŀ×¤":9465,"Ġ×¡×Ļ×ł×Ļ":9466,"Ġ×¨×Ļ×¢×ľ":9467,"×¢×¡×Ļ×¢":9468,"×¦×Ĳ×ľ":9469,"×¦×¢×Ŀ":9470,"×ķ×ľ×Ļ×ł×Ĵ":9471,"Ġ×Ľ×¤":9472,"×ĳ×¨×¢×ł×Ĵ×Ł":9473,"Ġ×Ĳ×¤×Ĵ×¢×¤":9474,"Ġ×¤×¨×Ĳ×ĳ×Ļ×¨×Ł":9475,"indows":9476,"Ġ×ľ×¢×§×¦×Ļ×¢×¡":9477,"Ġhe":9478,"×¨×Ļ×¨×Ł":9479,"×ľ×Ļ×Ļ×ĳ":9480,"Ġ×§×Ļ×ĵ×¡":9481,"×ĳ×Ĳ×Ł":9482,"×§×ľ×¢":9483,"×Ļ×§×ķ×¨×¡":9484,"Ġ×¨×ķ×Ļ":9485,"×ķ×ŀ×ĵ":9486,"Ġ×Ľ×©":9487,"×Ĳ×¤×Ĳ×ľ×Ļ×¢":9488,"Ġ×Ĵ×¨×±":9489,"Ġ×ĳ×¨×ķ×Ļ×Ł":9490,"×Ĳ×ł×ĵ×¢×¨×¢":9491,"Ġ×§×¨×Ļ×ĸ×Ļ×¡":9492,"Ġ×¡×ĺ×Ĳ×§":9493,"Ġ×Ĺ×¡×¨×ķ×Ł":9494,"Ġ×§×Ĳ×ľ×Ļ×¤×Ĳ×¨×ł×Ļ×¢":9495,"ĠBas":9496,"Ġ×ĳ×ķ×ĵ×ĸ×©×¢×ĺ":9497,"ession":9498,"Ġ×Ķ×Ļ×ª×¨":9499,"Ġ×§×Ļ×¤×¨×Ĳ×¡":9500,"Ġ×ķ×ķ×Ļ×Ļ×¨×ķ×¡":9501,"Ġ×Ļ×Ĺ×ĸ×§×Ĳ×ľ":9502,"Ġ×ķ×ķ×Ļ×¡×§×Ĳ×ł×¡×Ļ×Ł":9503,"72":9504,"æľ":9505,"Ġ×¤×Ļ×Ļ×ł×ĵ":9506,"×¡×Ĺ":9507,"×§×Ļ×ł×ĵ":9508,"×¢×Ĵ×Ĳ×¨×Ļ×¢":9509,"×Ļ×Ĳ×ł×¢×Ł":9510,"Ġ×Ľ×ĵ":9511,"Ġ×Ľ×¢×¡":9512,"Ġ×Ĳ×Ļ×ĳ×¢×¨×ĳ×ľ":9513,"Ġ×Ĳ×ķ×Ļ×¤×Ķ":9514,"×¨×ĺ×¢×ĵ":9515,"Ġ×Ĵ×¨×ķ×Ļ×¡×ķ×ķ×Ĳ×¨×ĵ×Ļ×Ļ×Ł":9516,"Ġ×Ĳ×¨×ķ×Ļ×¤×ľ×Ļ×Ļ×Ĵ×Ł":9517,"Ġ×Ķ×Ļ×Ļ×ľ×Ļ×§":9518,"Ġ×ĵ×Ļ×¤×ľ":9519,"Ġ×ĵ×ĵ×ĸ×©×¡":9520,"Ġ×©×Ļ×ĺ×ķ×ª":9521,"Ġ×Ĺ×¡×¨×ķ×ł×ķ×ª":9522,"ry":9523,"Ġ×ŀ×Ķ×Ĳ×ĺ":9524,"Ġ×ł×¢×ķ×ķ":9525,"×Ĵ×¢×ĺ×¨":9526,"×Ļ×¡×Ļ×ĸ":9527,"×ľ×Ĳ×Ł":9528,"×¢×Ķ×Ĳ":9529,"×Ļ×Ļ×ĸ×Ł":9530,"Ġ×Ĵ×¢×ĳ×¢×ł×ĺ×©×ĺ":9531,"Ġ×¡×Ļ×ŀ×ł×Ļ×Ŀ":9532,"Ġ×Ķ×¢×Ľ×¢×¨×ķ×ł×Ĵ":9533,"Ġ×¨×Ļ×§×ķ×ķ":9534,"Ġ×ł×§×ŀ×Ķ":9535,"Ġ×ķ×ķ×Ļ×ĸ×©":9536,"ection":9537,"Ġ×Ĳ×Ļ×ł×¡×ĺ×¨":9538,"×ł×Ĳ×Ľ×ĵ×¢×Ŀ":9539,"Ġ×ŀ×ľ×Ĳ×Ľ×Ļ×Ŀ":9540,"Ġ×Ķ×ĳ×Ĳ×Ļ×Ŀ":9541,"Ġ×ª×Ķ×ľ×Ļ×Ŀ":9542,"×¨×¢×Ł":9543,"Ġ×ĵ×¢×ĸ":9544,"Ġ×ĳ×¦×ľ":9545,"×¤×¢×§×ĺ":9546,"×ł×Ļ×©×Ł":9547,"×Ĳ×ľ×ĺ×¢":9548,"Ġ×¨×ķ×¦":9549,"Ġ×Ĳ×Ļ×¨×ľ×Ĳ×ł×ĵ":9550,"×Ļ×Ļ×¢×¨×ĺ":9551,"×¢×ł×ĵ×ľ×¢×ļ":9552,"Ġ×ķ×ķ×¢×ľ×ĺ×¡":9553,"×ľ×ĺ×Ļ×¤":9554,"Ġ×ĳ×Ĳ×§×ķ×ķ":9555,"Ġ×Ĳ×¨×Ĳ×¤×ł×¢×ŀ×¢×Ł":9556,"Ġ×ĸ×©×ķ×§":9557,"Ġ×¡×ĺ×¨×¢×ł×Ĵ×ĺ":9558,"ĠTV":9559,"Ġ×ŀ×ª×ł×Ķ":9560,"Ġ×ĺ×ķ×Ļ×ĺ×¢":9561,"Ġ×Ķ×²×¡×ĺ":9562,"×¨×¢×ĺ×Ĳ×¨":9563,"Ġ×ĵ×Ĳ×ĸ×Ļ×§×¢":9564,"Ġ×Ĳ×ł×ĺ×ķ×ķ×Ļ×§×ľ×ĺ":9565,"Ġ×Ļ×¢×ł×¢×ŀ×¡":9566,"Ġ×Ĳ×Ļ×ł×¦×Ļ×ĵ×¢×ł×ĺ":9567,"Ġ×Ĳ×ŀ×ĳ×Ĳ×¡":9568,"Ġ×Ĳ×§×¢×Ļ":9569,"83":9570,"ie":9571,"ric":9572,"Ġ×Ĳ×ļ":9573,"Ġ×¤×Ļ×Ļ×¤":9574,"Ġ×ŀ×Ļ×Ľ×Ĳ×ľ":9575,"×¡×Ŀ":9576,"Ġ×Ķ×¢×Ĳ":9577,"×Ķ×Ļ×Ł":9578,"×Ļ×¢×¨×Ĳ":9579,"×ķ×¨×ł×Ĳ×ľ":9580,"ĳ×¢×¨×Ĵ×¢×¨":9581,"Ġ×ª×ķ×ľ×ĵ×ķ×ª":9582,"Ġ×ĳ×¨×ķ×Ĵ":9583,"Ġ×§×ľ×Ĳ×¤":9584,"Ġ×¢×ĺ×§":9585,"Ġ×ŀ×ľ×Ľ×Ļ×Ŀ":9586,"ilable":9587,"Ġ75":9588,"Ġ×Ļ×ķ×ĵ×Ļ×©×¢":9589,"Ġ×ŀ×ĺ×ŀ×Ĳ":9590,"Ġ×Ĺ×Ļ×ĵ×ķ×©×Ļ×Ŀ":9591,"Ġ×ĳ×ķ×ĵ×Ĳ×¤":9592,"AAAA":9593,"×ł×ĺ×Ļ×ł×Ļ×ķ×Ļ×ł×Ĵ":9594,"Ġ×¤×Ĳ×©":9595,"×ľ×Ļ×§×Ĳ":9596,"Ġ×Ĺ×ĺ×Ĳ":9597,"×ķ×ł×Ł":9598,"Ġ×Ĳ×ķ×Ļ×¡×ľ×Ļ×Ļ×Ĵ":9599,"Ġ×ĳ×¨×Ļ×Ļ×ĺ×¢×¨":9600,"×ĵ×¨×Ļ×ĵ":9601,"×ķ×Ĳ×Ļ":9602,"×ŀ×¢×¨×Ĳ":9603,"Ġ×ŀ×Ļ×ĺ×ľ×©×ķ×ľ":9604,"Ġ×Ķ×§×Ķ×ľ":9605,"Ġ×Ĵ×¢×ķ×ķ×Ĳ×ľ×ĵ×Ļ×§×Ł":9606,"Ġnot":9607,"Ġ×¤×©×ķ×ĺ×¢×¨":9608,"Ġ×ľ×Ļ×Ĵ×ł×ĺ":9609,"ĠYiddish":9610,"Ġ×ŀ×ķ×¨×Ĳ×ĵ":9611,"Ġ×¡×Ĳ×¦×Ļ×Ĳ×ľ":9612,"×ĳ×Ĳ×ł×ķ×¦":9613,"Ġ×²":9614,"Ġ×©ïŃĦ":9615,"×ŀ×Ĳ×ĺ":9616,"Ġ×ľ×Ļ×¨":9617,"Ġ×¨×Ļ×Ļ×¡×ĺ":9618,"Ġ×¤×Ĳ×¨×¢×Ŀ":9619,"Ġ×¤×¨×ĺ":9620,"Ġ×§×¨×Ļ×Ľ×Ł":9621,"Ġ×Ĵ×¢×ł×Ļ×ĺ":9622,"Ġ×Ļ×©×ķ×¢×Ķ":9623,"×Ĵ×¨×Ļ×¡×Ł":9624,"Ġ×¤×Ĳ×¨×ĺ×ķ×Ĵ":9625,"Ġ×ĳ×Ĳ×ĸ×¢":9626,"Ġava":9627,"Ġ×Ļ×ł×§×Ĳ":9628,"Ġ×Ĳ×ł×Ĵ×¢×¤×Ļ×¨×ĺ":9629,"Ġ×¢×ł×§×Ĳ":9630,"Ġ×ĵ×ķ×¨×Ľ×Ĵ×¢×¤×Ĳ×¨×Ł":9631,"Ġ×¡×Ļ×Ļ×ķ×ķ×Ļ":9632,"Ġ×ĳ×¦":9633,"Ġ×ĳ×ķ×Ļ×ŀ":9634,"Ġ×§×Ļ×ĳ":9635,"×©×¢×ł×§":9636,"×Ļ×©×Ĳ×ł×¡":9637,"Ġ×Ĳ×ľ×£":9638,"Ġ×ŀ×¢×ł×ĺ×©×Ķ×Ļ×Ļ×ĺ":9639,"Ġ×Ĵ×¢×¤×¢×ľ×ĺ":9640,"Ġ×¡×ĺ×Ĳ×¤":9641,"Ġ×ŀ×Ĺ×ĸ×§":9642,"Ġ×Ķ×¨×ĳ×ł×Ļ×Ŀ":9643,"Ġ×Ĳ×ł×ķ×ķ×¢×ĸ":9644,"Ġ×¨×¢×§×Ĳ×ŀ":9645,"Ġ×ľ×ĳ×ł×ķ×Ł":9646,"Ġ×Ĵ×¢×©×¤×Ļ×¨×ĺ":9647,"Ġ×Ĳ×¨×Ĳ×ĳ×Ļ×¢":9648,"Ġ×¡×§×Ĳ×ł×ĵ×Ĳ×ľ":9649,"×Ķ×¢×ľ×¤×Ł":9650,"Ġ×¡×Ĳ×¦×Ļ×Ĳ×ľ×¢":9651,"Ġ×¡×Ĳ×ľ×ĵ×Ĳ×ĺ×Ł":9652,"Ġavailable":9653,".âĢĿ":9654,"Ö·Ö¾":9655,"×¡×Ļ×¨×Ł":9656,"×Ļ×Ĵ×¢×ł":9657,"Ġ×ª×¨":9658,"×ķ×ķ×Ļ×¦":9659,"Ġ×ŀ×¢×¨×Ľ×Ķ":9660,"ł×¦×Ł":9661,"×ł×¡×¢×¡":9662,"Ġ×Ĵ×¢×ĸ×ķ×ł":9663,"Ġ×§×¨×Ļ×ŀ×Ļ×ł":9664,"Ġ×ķ×ķ×Ĳ×¨×¢×ł×ķ×ł×Ĵ":9665,"Ġ×ľ×Ļ×Ļ×ĵ×ĺ":9666,"Ġ×Ķ×Ĳ×ľ×¥":9667,"ood":9668,"ĠNY":9669,"Ġ×ŀ×¨×Ľ×ĸ":9670,"Ġ×Ķ×ķ×ŀ×Ĳ×¨":9671,"ex":9672,"Ġ×©×ķ×¨×©":9673,"Ġ×Ĳ×¨×§":9674,"×¢×ĵ×Ļ×Ĵ×ĺ":9675,"×Ĳ×ĵ×ĸ×©":9676,"Ġ×ķ×ķ×Ļ×Ļ×ľ×¢×¨":9677,"×ķ×ķ×Ļ×¡×¢×¡":9678,"×Ĵ×¨×Ļ×¡×ķ×ł×Ĵ":9679,"Ġ×Ĳ×¨×ķ×Ļ×¡×Ĵ×¢×ĳ×¢×¨":9680,"asin":9681,"Ġ×¤×¢×Ļ×ĵ×ĸ×©":9682,"ersion":9683,"Ġ×ķ×ķ×Ļ×ĸ×ķ×Ļ":9684,"Ġ×Ĳ×ĺ×Ĳ×§×Ļ×¨×Ł":9685,"Ġ×¤×Ĳ×¨×Ĵ×Ĳ×ł×Ĵ×¢×ł×¢":9686,"Ġ×§×Ĳ×ŀ×ķ×ł×Ļ×¡×ĺ×Ļ×©×¢":9687,"×¢×¡×§×¢×Ŀ":9688,"Ġ×Ľ×Ļ×ĵ×ķ×¢":9689,"Ġvegan":9690,"Ġ×Ĳ×¤×Ļ×ł×Ļ×¢×Ł":9691,"rit":9692,"×¨×ķ×Ļ×¢×Ł":9693,"Ġ×ĵ×¢×Ĵ":9694,"Ġ×ŀ×¤×¨":9695,"Ġ×ķ×ķ×Ļ×¡×ĺ":9696,"×ĸ×¢×¦×ĺ":9697,"Ġ×¦×¢":9698,"Ġ×¢×ł×ľ":9699,"Ġ×ĺ×Ļ×Ļ×ŀ×¡":9700,"×Ļ×©×ĺ×¢×¨":9701,"×Ļ×ĵ×ĸ":9702,"×ķ×ĸ×Ĳ":9703,"Ġ×ł×Ļ×ĺ×ľ":9704,"Ġ×§×ľ×Ļ×Ļ×ł×¢×Ŀ":9705,"Ġ×¡×ĺ×Ļ×ŀ":9706,"×ł×©×ĺ×Ļ×Ļ×Ł":9707,"Ġ400":9708,"itive":9709,"Ġ×Ĺ×ª×ķ×ł×ķ×ª":9710,"Ġ×Ĳ×Ļ×Ļ×ł×¦×Ļ×Ĵ":9711,"Ġ×Ĺ×ĸ×Ļ×¨":9712,"×ķ×ķ×§×¢":9713,"Ġ×ª×Ļ×§×ķ×Ł":9714,"Ġ×¤×Ĳ×¨×ķ×ķ×Ĳ×ķ×ł×ĵ":9715,"×¤×ķ×¡":9716,"×¤×Ļ×©×Ĳ":9717,"Ġ×¢×ĸ×¨":9718,"×Ļ×ĺ×¢×¨×ĺ":9719,"Ġ×Ļ×ĺ":9720,"Ġ×¨×Ļ×ŀ":9721,"Ġ×ĵ×¢×¨×ķ×ķ":9722,"×ķ×Ļ×¡×ĺ":9723,"Ġ×Ĳ×ŀ×ĺ":9724,"Ġ×Ĵ×¢×Ĵ×ľ×ķ×Ļ×ĳ×ĺ":9725,"×¢×§×ĺ×Ļ×Ĳ":9726,"Ġ×Ĵ×¢×ĺ×¨×Ļ×Ļ":9727,"Ġ×ĺ×©×¢×¨":9728,"×ĺ×©×Ļ×ł×Ĵ":9729,"×Ĳ×ł×§×Ł":9730,"Ġ×Ĳ×Ķ×Ļ×Ļ×ŀ":9731,"Ġ×¦×ķ×Ĵ×¢×¤":9732,"Ġ×¤×Ĳ×¨×ľ×Ĳ×ŀ×¢×ł×ĺ":9733,"Ġ×Ķ×ª×Ĺ":9734,"Ġ×¡×ķ×¤×¨×Ļ×Ŀ":9735,"×Ļ×¢×§×ĳ":9736,"Ġ×Ĳ×Ļ×ŀ×Ļ×Ĵ×¨×Ĳ×¦×Ļ×¢":9737,"Ġ×ĺ×¢×Ļ×¤":9738,"ture":9739,"×¤×¨×Ļ×¢×¨×ĵ×Ļ×Ĵ×¢×ł":9740,"ĠQ":9741,"×ŀ×Ļ×Ļ×ł×ĺ":9742,"×§×Ĳ×ĺ":9743,"Ġ×ľ×¢×¡×Ĳ":9744,"×Ĳ×ľ×Ĳ":9745,"×Ļ×Ļ×¢×ĺ":9746,"Ġ×Ľ×ķ×ķ":9747,"Ġ×ł×Ĳ×ķ×ĺ":9748,"×¢×ĸ×¢":9749,"Ġ×¨×Ĳ×ķ×ĳ×Ł":9750,"×§×ĺ×Ļ×§":9751,"×Ļ×ł×§×Ĳ":9752,"Ġ×Ĳ×ķ×ŀ×©×ķ×ľ×ĵ":9753,"Ġ×ŀ×¡×¤×¨":9754,"Ġ×ŀ×ŀ×ª":9755,"Ġ::":9756,"Ġ×Ĳ×Ļ×ĳ×¢×¨×ĸ×¢×¦×ķ×ł×Ĵ×¢×Ł":9757,"Ġnam":9758,"ãĢĤ":9759,"Ġ×ł×ª×ł×Ļ×Ķ×ķ":9760,"'...":9761,"×¨×ķ×ĵ":9762,"×¢×¨×ĺ×¢×¨":9763,"×ľ×ĺ×Ĳ":9764,"×¡×¢×ĵ":9765,"Ġ×ĸ×Ļ×Ļ×ĵ×¢×¡":9766,"Ġ×Ķ×ķ×ŀ×Ĳ":9767,"×ł×Ļ×ª":9768,"×Ĵ×¨×Ļ×Ļ×ĵ":9769,"×Ļ×¡×ĳ×ķ×§":9770,"×¢×§×ķ×Ļ×¤×ĺ":9771,"Ġ×©×ĺ×Ļ×Ļ×¢×ł×ĵ×Ļ×§":9772,"Ġ×Ĳ×¤×¢×§×ĺ":9773,"×ķ×ķ×¢×¨×Ļ":9774,"×ŀ×¢×ĺ×¢×¨×¡":9775,"Ġapp":9776,"Ġ×Ĳ×§×ĺ×Ļ×ķ×ķ":9777,"Ġ×ŀ×ª×Ļ×¨":9778,"×¨×¨×Ļ×Ľ×ĺ×Ł":9779,"Ġ×¨×Ļ×§×ķ×ķ×Ļ×Ļ×¢×¨×ĸ":9780,"View":9781,"her":9782,"Ġ\\":9783,"×Ĳ×ķ×Ŀ":9784,"×ľ×Ľ×Ĳ":9785,"Ġ×Ĵ×ĵ×Ļ":9786,"Ġ×Ĵ×ķ×ĸ":9787,"×ł×Ĳ×Ľ×Ł":9788,"×ŀ×Ļ×Ļ×ĸ":9789,"×Ķ×Ľ":9790,"×¢×ľ×¤×Ł":9791,"Ġ×¤×Ĳ×¨×ĳ×Ł":9792,"Ġ×©×ĺ×Ĳ×ł×ĵ":9793,"×ķ×ł×¢×¨×ĸ":9794,"×¢×Ľ×¢×ł×ĺ":9795,"Ġ×ĺ×¨×Ĳ×§":9796,"Ġ×ĺ×¨×Ļ×¤":9797,"×±×ĺ":9798,"Ġ×ŀ×§×¨×Ļ×ĳ":9799,"Ġ×Ĳ×ł×ĺ×ķ×ķ×¢×¨":9800,"Ġ×Ļ×ķ×ĵ×¢":9801,"ays":9802,"Ġ×¦×ķ×ĺ×¨×ķ×Ļ":9803,"Ġ×¡×Ļ×ĵ×ķ×¨":9804,"Ġ×ĵ×¢×ĺ×Ĳ×ľ×Ł":9805,"Ġ×§×Ĳ×ł×§×ķ×¨":9806,"à¤":9807,"Ġ×¤×©":9808,"Ġ×ķ×ķ×Ļ×Ļ×ļ":9809,"×¡×¥":9810,"Ġ×ĳ×Ļ×ĺ×©":9811,"×Ĳ×¨×ķ×Ļ×¡":9812,"×ĵ×ł×©×Ĳ":9813,"Ġ×Ĵ×¢×¥":9814,"Ġ×Ĵ×¨×¢":9815,"Ġ×ĳ×ľ×Ļ×Ļ×ĳ":9816,"×Ĳ×ĵ×¢×ŀ":9817,"×Ļ×Ķ×¨×ĺ":9818,"×©×ľ×Ļ×¡":9819,"×ŀ×Ĳ×¨×ĵ":9820,"Ġ×¤×Ĳ×¨×¤×Ļ×¨×ĺ":9821,"ĠRay":9822,"Ġ×§×¢×Ļ×¨":9823,"Ġ×§×Ĳ×ĺ×¢×Ĵ×Ĳ×¨×Ļ×¢":9824,"ute":9825,"×ľ×Ĵ×¢×ŀ×Ļ×Ļ×ł×¢":9826,"Ġ×ĳ×¨×Ļ×Ļ×§":9827,"Ġ×ĺ×ķ×ł×§×ľ":9828,"ued":9829,"Ġ....":9830,"×ķ×ķ×ª":9831,"×ŀ×²":9832,"Ġ×Ĳ×ĸ×Ĳ×ł×¡":9833,"×ķ×¨×Ł":9834,"×ķ×ŀ×ĸ":9835,"×Ļ×ĳ×Ļ×Ĳ":9836,"Ġ×¦×ķ×ķ×¢×§":9837,"×ķ×Ľ×Ŀ":9838,"Ġ×¤×Ĳ×ľ×Ĵ×Ł":9839,"Ġ×§×ķ×ŀ×¢×ł×ĵ×Ļ×§":9840,"Ġ×©×ķ×ķ×¢×ĵ×Ł":9841,"×ł×¦×Ļ×¢×ľ":9842,"×ķ×ķ×Ĳ×¨×ĺ×Ł":9843,"Ġ×Ĳ×Ļ×©×ķ":9844,"Ġ×ķ×ķ×Ļ×ĵ×Ļ×Ĳ×ķ":9845,"Ġ×Ĳ×Ļ×ł×ĺ×¢×¨×¡×Ĳ×ł×ĺ×¢":9846,"Ġ×¡×Ļ×Ĵ×ł×Ĳ":9847,"Ġ×¡×Ĳ×ł×§×¦×Ļ×¢×¡":9848,"Ġ×ĵ×Ļ×Ļ×ķ×ķ":9849,"×©×Ļ×ł×¢×¨":9850,"×Ķ×Ĳ×ł×ĺ":9851,"Ġ×¤×Ĳ×¨×ķ×ķ×¢×¨×ĺ×¡":9852,"Ġ×Ĳ×ĸ×¢×ľ":9853,"âĢ«":9854,"Ġ×Ľ×ļ":9855,"Ġ×Ķ×Ĳ×©":9856,"×ķ×ĺ×Ļ×ł×Ĵ":9857,"×ł×Ĵ×§×©×Ĳ":9858,"Ġ×¤×ľ×Ļ×¤":9859,"×Ĳ×ĸ×Ĳ":9860,"Ġ×ĺ×©×¢":9861,"Ġ×¤×Ĳ×¨×©×ĺ×¢×ł×ĵ×ľ×Ļ×ļ":9862,"ant":9863,"Ġ×Ĳ×¨×Ļ×Ļ×ł×¤":9864,"Ġ×§×Ĳ×ŀ×Ĳ×ł×ĵ":9865,"Ġ×Ĳ×Ļ×ĳ×¢×¨×Ĵ×¢×ĳ":9866,"×ķ×ķ×¢×Ĵ×Ĳ":9867,"ĠTod":9868,"ase":9869,"ĠBI":9870,"Ġ×ĳ×Ĳ×Ķ×Ĳ×ł×ĵ":9871,"Ġ×Ĳ×Ĵ×¢×ł×ĵ×¢":9872,"Ġ×Ĳ×§×¦×Ļ×¢":9873,"Ġ×ĳ×Ĳ×Ĵ×Ĳ×ł×Ĵ×¢×Ł":9874,"Ġ×Ĳ×Ļ×ł×ĸ×©×¢×ł":9875,"Free":9876,"×Ĳ×ķ×ª":9877,"×ĺ×Ļ×¡×ĺ×Ļ×§":9878,"Ġ×ŀ×Ĳ×ł×Ĵ":9879,"Ġ×ķ×ķ×Ļ×¢×ĺ":9880,"Ġ×Ķ×Ľ×Ķ×Ł":9881,"×ķ×ķ×¢×ĺ×©":9882,"×Ļ×ł×Ļ×¨×ĺ":9883,"×ķ×¡×Ļ×ł×Ĵ":9884,"Ġ×Ĵ×¨×Ĳ×ĳ":9885,"×ł×Ĵ×ĵ":9886,"×¢×Ĳ×¨×ĳ×¢×ĺ":9887,"Ġ×Ķ×Ļ×Ļ×ł×ĺ×Ļ×Ĵ×Ł":9888,"Ġ×¢×§×¡×¢×¡":9889,"Ġ×ŀ×©×¤×Ļ×¢":9890,"Ġ×¤×Ĳ×¨×Ĵ×¢×¡":9891,"×¨×Ļ×ĵ×Ĳ":9892,"Ġ×ĸ×Ĳ×Ĵ×ł×ĵ×Ļ×Ĵ":9893,"Ġ×¨×¢×§×ľ":9894,"×ĳ×ĵ×Ļ×ľ":9895,"Ġ×¢×ľ×¢×§×ĺ×¨×Ļ×§":9896,"Ġ×ķ×ķ×ķ×Ļ×ł×Ĳ":9897,"Ġcomp":9898,"Ġ×¢×¨×ķ×ķ×Ĳ×¨×ĺ×¢×ĺ":9899,"Ġ×Ĳ×ķ×ŀ×Ĵ×ľ×Ļ×§":9900,"Ġ×¦×ķ×ķ×¢×ľ×£":9901,"Ġ×Ĳ×ł×ĸ":9902,"Ġ×ĵ×Ĳ×Ĵ":9903,"×¤×Ļ×Ł":9904,"Ġ×©×ķ×Ļ×ĵ×¢×¨":9905,"Ġ×ĺ×¢×¤":9906,"×Ļ×ľ×¤":9907,"×Ľ×Ļ×¨":9908,"×ķ×ľ×Ł":9909,"Ġ×Ĺ×§":9910,"ĠâĢ¦":9911,"Ġ×Ĵ×¢×Ķ×¨×Ĵ×¢×ĺ":9912,"Ġ×Ĳ×ķ×Ļ×¡×Ĵ×¢×ĵ×¨×Ļ×Ļ×ĺ":9913,"Ġ×ĳ×Ĳ×©×¨×Ļ×ĳ×Ł":9914,"Ġ×Ĵ×¢×ķ×ķ×Ĳ×ķ×Ļ×¨":9915,"Ġ×ĵ×Ļ×¡×¤":9916,"Ġ×Ĵ×¢×Ĳ×Ĵ×¨×Ĳ×¤":9917,"×¨×Ļ×ĳ×¢×ł×¢":9918,"Ġ×ĵ×¢×¨×§×ľ×¢×¨×ķ×ł×Ĵ":9919,"ud":9920,"×ĺ×©×ĺ":9921,"Ġ×¤×Ĳ×§":9922,"Ġ×ĸ×Ļ×Ļ×ł×¡":9923,"×Ĳ×ł×Ļ×§":9924,"Ġ×Ĳ×ķ×Ļ×¡×ľ×¢×¨×ł×¢×Ł":9925,"Ġ×Ĵ×¢×¨×Ĳ×ĺ×Ł":9926,"Ġ×Ĳ×ķ×Ļ×¡×Ĵ×¢×ĺ×¨":9927,"×ķ×Ĺ×ķ×ª":9928,"Ġ×Ķ×Ļ×Ļ×ľ×Ļ×Ĵ":9929,"Ġ×Ĳ×¤×Ĵ×¢×Ķ×Ĳ×ľ×ĺ×Ł":9930,"Ġ×ľ×©×ķ×ł×ķ×ª":9931,"Ġ×ŀ×ĳ×ĺ×ľ":9932,"Ġ×Ķ×¦×ĵ×Ļ×§":9933,"ĠRach":9934,"Ġ×Ĺ×ĸ×ķ×Ł":9935,"Ġ×Ĵ×¢×©×¤×¢×ĺ×Ļ×Ĵ×ĺ":9936,"Ġ×ľ×ĵ×¢×ª×Ļ":9937,"Ġ×Ĳ×ķ×Ļ×ĺ×Ĳ×¨×Ļ×ĺ×¢×ĺ×Ł":9938,"Ġ×Ļ×ł×ĵ×ĸ×©×¢×§×©×Ĳ":9939,"Ġ×¤×¨×Ĳ×ĵ×ķ×¦×Ļ×¨×ĺ":9940,"Ġ×Ĳ×ķ×Ļ×¡×Ĵ×¢×ł×ķ×¦×ĺ":9941,"ĠToday":9942,"ÃĨ":9943,"×ķ×ķ×ĵ×Ļ×§":9944,"×¤×¢×ľ×ĵ":9945,"×ł×Ļ×¦":9946,"×ŀ×Ĳ×©":9947,"Ġ×ľ×ķ×¡×ĺ":9948,"Ġ×¨×Ļ×ķ":9949,"..)":9950,"×Ļ×Ĳ×ł×¢×¨":9951,"×¨×ĺ×ł×¢×¨":9952,"Ġ×¨×¢×ĵ×ľ":9953,"Ġ×©×¨×Ļ×Ļ×ĳ×¢×¨×¡":9954,"Ġ×¢×§×¡×¤×¢×¨":9955,"Ġ×Ļ×ł×¡×ĺ×¨×Ĳ":9956,"Ġ×¨×¢×Ľ×¢×ł×ĺ":9957,"Ġï¬¯×ĵ×¢×¨":9958,"×ķ×ķ×Ļ×ł×Ĵ×¢×Ł":9959,"Ġ×¨×Ĳ×§×Ĳ×ĺ":9960,"Ġ×ŀ×Ĳ×ł×Ľ×¢":9961,"Ġ×Ĳ×ĺ×ľ×Ĳ×ł×ĺ":9962,"Ġ×ĵ×¢×ľ×Ļ×ķ×ķ×¢×¨×¢×Ł":9963,"bl":9964,"cc":9965,"ft":9966,"×¨×ŀ×¡":9967,"×ľ×Ļ×ĺ×Ĳ":9968,"Ġ×ķ×ķ×Ļ×ł×¡":9969,"×ĵ×ľ×Ļ":9970,"Ġ×¦×¨×Ķ":9971,"×Ĵ×Ļ×¨×Ł":9972,"Ġ×Ĺ×ĸ×Ł":9973,"Ġ×ª×ķ×©":9974,"Ġ×ķ×ķ×Ĳ×ķ×ł×ĵ":9975,"Ġ×ĺ×¨×ķ×§×Ł":9976,"Ġ×§×ľ×Ļ×Ļ×Ĳ":9977,"×¨×ĵ×ĸ×©×Ĳ":9978,"×ķ×ł×ĵ×¢×¡":9979,"Ġ×ĺ×©×Ļ×¤":9980,"Ġ×ĳ×¢×¡×ĺ×Ł":9981,"Ġ×ĵ×Ļ×¨×¢×§×ĺ×¢":9982,"Ġ×Ĳ×ķ×ł×Ļ×ķ×ķ×¢×¨×¡×Ļ×ĺ×¢×ĺ×Ł":9983,"Ġdji":9984,"Ġ×Ķ×¢×¨×©×Ĳ×¤×ĺ":9985,"Ġresc":9986,"Ġ×¡×¢×ł×ĺ×¨×Ĳ":9987,"Ġ×¨×Ĳ×¤×Ĳ×ĺ":9988,"ĠRachael":9989,"?...":9990,"×ĺ×Ļ×§×Ł":9991,"×ľ×Ļ×Ļ×¢":9992,"×¦×¢×ļ":9993,"×Ļ×Ĵ×¨×Ĳ":9994,"Ġ×ķ×ķ×Ĳ×ķ×§×¡":9995,"Ġ×Ĳ×ķ×Ļ×ĳ×ł×ĵ×¢×¨":9996,"Ġ×©×ŀ×ķ×¥":9997,"×Ļ×¢×¡×¢":9998,"Ġ×¦×ķ×Ĵ×¨×Ļ×Ļ×ĺ×Ł":9999,"Ġ×¦×ķ×ĸ×Ļ×Ļ×Ł":10000,"Ġ×Ķ×©×Ľ×ľ":10001,"Ġ×Ĳ×ŀ×ª×¢×¨":10002,"Ġ×Ķ×¨×Ĳ×©":10003,"Ġ×Ĳ×ķ×Ļ×ĳ×¢×¨×©×ĺ×¢":10004,"Ġ×Ķ×§×ĵ×ķ×©×Ķ":10005,"×ľ×Ĵ×¢×ŀ×Ļ×Ļ×Ł":10006,"Ġ×ĸï¬Ł×Ł":10007,"Ġnamed":10008,"AB":10009,"Ġ×ĸ×Ļ×Ļ×ĵ":10010,"Ġ×ľ×Ĳ×ĳ":10011,"Ġ×Ľ×ķ×Ľ":10012,"×Ĳ×¤×¢×ł×¢":10013,"Ġ×Ĳ×ķ×ŀ×ĵ×¢×¨":10014,"Ġ×Ĵ×¢×Ĵ×¢×ĳ×¢×Ł":10015,"Ġ×Ĵ×¢×ĵ×ķ×Ļ×¢×¨×ĺ":10016,"Ġ×ĺ×¢×§×¡×Ĳ×¡":10017,"×ķ×Ļ×¨×¢×ł×¢":10018,"Ġ×§×Ĳ×ŀ×¤×¢×ł×Ļ":10019,"×ķ×ĳ×ľ×Ļ×Ł":10020,"Ġ×Ĳ×¤×Ĵ×¢×Ķ":10021,"Ġ×¨×¢×§×ķ×ķ×Ļ×¨":10022,"×Ļ×ĵ×ĸ×©×Ĳ":10023,"×¨×¢×ĵ×Ĳ×Ĵ×Ļ×¨×ĺ":10024,"Ġ×ĸ×Ľ×¨×ķ×ł×ķ×ª":10025,"ookbook":10026,"Ġ×ľ×Ĳ×ĸ×¢×Ł":10027,"Ġ×ŀ×©×ª×ķ×§×§":10028,"Ġ×Ķ×ĺ×ĳ×¢":10029,"Ġ×ĸ×Ĳ×¨×Ĵ×Ł":10030,"Ġ×Ĳ×¨×Ĳ×¤×Ĵ×¢×ľ×Ļ×Ļ×Ĵ×ĺ":10031,"×ŀ×Ĳ×Ľ×¢×¨":10032,"×¤×Ĳ×¨×ĳ×Ĳ×ł×ĵ":10033,"Ġrescued":10034,"EN":10035,"ge":10036,"×¢×ĺ×Ļ×©×Ł":10037,"×ķ×ŀ×Ł":10038,"×Ļ×Ļ×ł×ľ×¢×ļ":10039,"×Ĺ×ĸ":10040,"×ĵ×¢×¨×¦×ķ":10041,"×ķ×§×¢×¨":10042,"Ġ×Ĳ×ķ×Ļ×¡×ĺ×¨×Ĳ":10043,"×Ļ×ĳ×Ļ×ľ×Ļ×ĺ×Ļ":10044,"×ł×¡×ĺ×Ĳ":10045,"Ġ×Ĳ×ł×Ĵ×¢×Ĵ":10046,"×¨×§×ķ×Ļ×¤×Ł":10047,"Ġ×ķ×ŀ×Ĵ×¢×ķ×ķ×Ļ×Ļ×ł×ĺ×ľ×¢×ļ":10048,"Ġ×Ĳ×Ļ×ł×¡×ĺ×Ļ×ĺ×ķ×¦×Ļ×¢×¡":10049,"×¨×¢×ŀ×Ļ×¢":10050,"63":10051,"Ġ×ŀ×¢×ł×ĺ":10052,"Ġ×Ĵ×ĳ×Ļ×¨":10053,"×¡×Ļ×Ļ×ĵ":10054,"×ŀ×Ĳ×ł":10055,"Ġ×¡×Ĳ×¤":10056,"×Ĳ×¡×ĺ×¨":10057,"×¢×ĺ×Ļ×ĺ":10058,"×¦×Ļ×ĺ×¢×ĺ":10059,"Ġ×Ĳ×ł×Ĵ×¢×ł":10060,"Ġ×¨×¢×ĵ×¢×¨":10061,"Ġ×ĳ×Ļ×ĸ×Ļ":10062,"Ġ×¤×Ļ×ľ×ŀ×¢×Ł":10063,"Ġ×ĳ×¢×ľ×Ļ×ĸ":10064,"Ġ×Ķ×ŀ×Ł":10065,"Ġ×Ķ×©×§×¤×Ķ":10066,"190":10067,"Ġ×Ĳ×Ļ×ł×ĺ×¢×¨×¢×¡×Ĳ":10068,"Ġ×§×¢×Ĵ×¢×Ł":10069,"Ġ×Ķ×©×¤×¢×Ķ":10070,"__":10071,"×ľ×Ļ×§×¢":10072,"×©×Ľ":10073,"×ĸ×¢×Ķ×Ł":10074,"×ŀ×Ĳ×ŀ×¢×ł×ĺ":10075,"Ġ×Ļ×ŀ×Ļ":10076,"Ġ×Ĵ×¢×ķ×ķ×Ĳ×ł×ĵ×Ł":10077,"Ġ×Ľ×ł":10078,"Ġ×Ĳ×ķ×Ļ×¡×ķ×ķ":10079,"Ġ×ĳ×¨×ļ":10080,"Ġ×Ĳ×ķ×Ļ×¤×©×ĺ×¢×ľ×Ł":10081,"×¨×ĺ×Ļ×Ļ×ĵ":10082,"Ġ×Ĵ×¢×Ķ×¢×¨×Ł":10083,"Ġ×Ĳ×ł×Ĵ×Ļ×Ļ×Ł":10084,"Ġ×Ĳ×ķ×ŀ×¤":10085,"Ġ×Ĵ×¢×Ĵ×Ĳ":10086,"Ġ×Ĳ×¨×Ĳ×¤×Ĵ×¢×ł×ķ×ŀ×¢×Ł":10087,"Ġ×ĵ×ķ×¨×Ľ×¤×Ĳ×ľ":10088,"????":10089,"Ġ×ĳ×Ĳ×ĳ×¢×Ł":10090,"Ġ×¡×ĺ×ķ×ĵ×Ļ×Ĳ":10091,"Ġ×¦×ķ×¦×Ļ×¢×Ł":10092,"Ġ×Ĳ×ķ×Ļ×ĺ×Ĳ×¨×Ļ×ĺ×¢×ĺ":10093,"Ġ×¨×¢×¡×ĺ×Ĳ×¨":10094,"×ľ×Ľ×Ĳ×ķ×¨×Ķ":10095,",âĢŁ":10096,"fession":10097,"×¨×Ļ×ķ×Ŀ":10098,"Ö¸:":10099,"Ġ×ĳ×Ļ×Ļ×ĺ":10100,"Ġ×¦×Ļ×¦":10101,"Ġ×¢×ŀ×¢×¨":10102,"×§×Ļ×ĺ":10103,"Ö¿Ö¾":10104,"×ķ×ŀ×ķ":10105,"×Ļ×ł×ķ×Ŀ":10106,"Ġ×©×ĺ×Ļ×ŀ×ķ×ł×Ĵ":10107,"×¢×ŀ×ķ×ł×Ĵ":10108,"×Ļ×Ĳ×ĺ":10109,"×Ĳ×Ĵ×Ļ×©×¢":10110,"×ķ×ĵ×Ļ×¢":10111,"Ġ×Ĵ×¢×Ĵ×¢×ł×ĺ×¢×¨":10112,"×¨×©×Ł":10113,"Ġ×ĺ×©×Ĳ×§":10114,"×ŀ×©×Ļ×Ĺ":10115,"Ġ×ľ×¢×¦×ĺ×¢×¨×¢":10116,"Ġ×ŀ×¤×Ĳ×¤×Ĳ":10117,"Ġ×ĸ×Ļ×ĳ×¢×¦":10118,"Ġ×Ĳ×¨×Ļ×Ļ×ł×ĳ×¨":10119,"53":10120,"93":10121,"lot":10122,"Ġ×¦×ĳ":10123,"×ł×Ļ×¤":10124,"Ġ×ľ×ł×ķ":10125,"Ġ×ľ×¢×ĳ×¢×¨":10126,"Ġ×¡×Ļ×Ļ×¢":10127,"×Ĳ×¡×Ĳ×ļ":10128,"×¤×¨×¢×¡":10129,"Ġ×§×Ĳ×ľ×ĺ×¢":10130,"Ġ×ĳ×Ĳ×ĵ×Ļ×ł×Ĵ":10131,"×ķ×ķ×¡×§":10132,"×ķ×ķ×Ļ×Ĳ×ĸ×ķ×Ļ":10133,"Ġ×¤×¡×ķ×§×Ļ×Ŀ":10134,"Ġ×ĸ×©×ķ×¨×ł×Ĳ×ľ×Ļ×¡×ĺ":10135,"×©×ŀ×ķ×¢×¡×Ł":10136,"Ġ×§×ķ×ķ×Ļ×ĺ×ľ":10137,"Ġ×Ĵ×¢×¢×¤×¢×ł×ĺ":10138,"Ñħ":10139,"×ĵ×Ļ×ŀ":10140,"×§×Ĳ×ł":10141,"Ġ×ĺ×Ĳ×ł×¥":10142,"×Ļ×¡×Ļ×Ĳ":10143,"Ġ×¤×¨×Ļ×ĸ":10144,"×©×ĺ×¢×Ł":10145,"×Ĳ×ĸ×Ļ×¢":10146,"Ġ×Ĵ×ľ×Ĺ":10147,"×Ĵ×¨×Ĳ×¤×Ļ×¢":10148,"Ġ×Ĳ×§×ĺ×Ļ×ķ×ķ×¢":10149,"Ġ×¤×Ĳ×¨×ĳ×¨×¢×ł×ĺ":10150,"Ġ×©×ĺ×ķ×ĵ×Ļ×¢":10151,"×¨×ĵ×¢×¨×¡":10152,"Ġ×¨×¢×¤×Ĳ×ĳ×ľ×Ļ×§×Ĳ×ł×¢×¨":10153,"'s":10154,"sp":10155,"ðŁ":10156,"×¨×Ĳ×ľ×ĵ":10157,"Ġ×Ķ×¢×ł×Ĵ":10158,"×¤×ķ":10159,"Ġ×©×Ļ×¡×ľ":10160,"×ł×ķ×Ŀ":10161,"×¦×¢×Ł":10162,"×ķ×§×Ļ×Ļ×©×Ĳ":10163,"×¢×©×Ĳ×Ł":10164,"Ġ×Ĳ×¨×ķ×Ļ×¡×Ķ×¢×ľ×¤×Ł":10165,"Ġ×Ĳ×ł×Ĵ×¢×Ķ×Ĳ×ľ×ĺ×Ł":10166,"Ġ×¤×Ĳ×ľ×©×¢":10167,"Ġ×©×ķ×ķ×¢×¨×Ł":10168,"×Ļ×¢×¨×¡":10169,"Ġ×¤×Ĳ×¨×ĳ×¢×¡×¢×¨×Ł":10170,"Ġ×Ĳ×Ļ×ł×ĺ×¢×¨×¢×¡×¢":10171,"Ġdo":10172,"Ġ×ĺ×¢×ķ×ª×Ļ×Ŀ":10173,"Ġ×ĵ×Ĳ×ł×Ĳ×ľ×ĵ":10174,"×Ķ×¢×ł×Ĵ×Ļ×§×Ļ×Ļ×ĺ":10175,"Ġ×¤×¢×¨×ĸ×Ĳ×Ł":10176,"×ĳ×Ĳ×ł×ķ×¦×¢×¨×¡":10177,"ave":10178,"Ġ×ķ×ĸ":10179,"Ġ×ķ×Ļ×Ĵ":10180,"Ġ×Ĵ×Ļ×ķ×¡":10181,"×ł×¢×Ĳ":10182,"Ġ×ľ×Ļ×¤×ĺ":10183,"Ġ×ľ×¢×§×¦×Ļ×¢":10184,"Ġ×¤×¨×Ļ×¢":10185,"×ł×ĺ×ĵ×¢×§×Ł":10186,"×©×ĺ×¨":10187,"Ġ×ĳ×ľ×Ĳ×ĸ×Ł":10188,"Ġ×§×¨×Ĳ×¡":10189,"Ġ×Ĳ×ķ×Ļ×¡×Ĵ×¢×¦":10190,"Ġ×ĳ×Ĳ×©×¢×¤×ĺ":10191,"Ġ×ŀ×Ĺ×ł×ļ":10192,"eri":10193,"×ķ×Ĺ×ł×Ļ×ķ×ª":10194,"×¢×¨×ĸ×Ļ":10195,"Ġ×§×ł×¢×Ľ×ĺ":10196,"ĠGre":10197,"Ġ×¤×¨×Ĳ×¦×¢×¡":10198,"ide":10199,"×¡×§×ķ×ķ×¢":10200,"Ġ×Ļ×ķ×¡×Ļ":10201,"Ġ×ª×ŀ×Ļ×ŀ×ķ×ª":10202,"Ġ×ľ×Ĺ×Ļ×Ļ×Ŀ":10203,"Ġ×Ĳ×¨×Ĵ×Ĳ×ł×Ļ×ĸ×Ĳ×¦×Ļ×¢×¡":10204,"×ł×Ļ×¡×¢":10205,"Ġ×ĳ×¨×Ļ×Ļ×Ĳ":10206,"×Ļ×¦×ķ×ª×ķ":10207,"Ġ×ĳ×ŀ×Ĺ×Ļ×¦×ķ×ª×ķ":10208,"Ġ×Ķ×©×ª×ĵ×ľ×ķ×ª":10209,"rotection":10210,"Ġ×¦×ķ×ĺ×Ĳ×Ĵ×¡":10211,"Ġ×ĳ×¨×ķ×Ĵ×ĸ":10212,"61":10213,"800":10214,"bal":10215,"Ġ×ŀ×¢×ª":10216,"Ġ×¨×ķ×§":10217,"Ġ×Ľ×Ĳ×ĳ":10218,"Ġ×¨×¢×ĵ×¡×ĺ":10219,"×ķ×Ķ×¨":10220,"Ġ×°×¢×ľ×Ł":10221,"×ĳ×ķ×¨×Ĵ×¢×¨":10222,"Ġ×Ķ×§×ĳ":10223,"×Ļ×Ļ×¦×¢×ļ":10224,"Ġ×Ļ×ĵ×ķ×¢":10225,"×ľ×¢×ł×ĵ×Ļ×©×¢":10226,"Ġ×ŀ×Ķ×¨×ĸ":10227,"Ġ×ľ×ĵ×¢×ª":10228,"rip":10229,"Ġ×©×Ĳ×¨×¤×¢":10230,"AL":10231,"me":10232,"Ġ×¦×ķ×ĳ×ľ":10233,"Ġ×¢×ł×¤":10234,"Ġ×ľ×Ĳ×Ľ×ĺ":10235,"Ġ×¨×¢×ł":10236,"Ġ×Ľ×¢×ľ×ĺ":10237,"Ġ×ķ×ķ×¢×ľ×ĺ×Ł":10238,"Ġ×Ĳ×ķ×Ļ×¡×¢×¨×Ł":10239,"×¨×ĺ×ľ×¢×ļ":10240,"Ġ×¡×ĺ×Ļ×Ŀ":10241,"Ġ×Ĳ×ķ×ŀ×ķ×ª":10242,"Ġ×©×ĺ×Ĳ×ĺ×Ļ×©×¢":10243,"Ġsu":10244,"Ġ×ĺ×¨×¢×¤×Ļ×§":10245,"Ġ×ŀ×¦×ĳ×Ķ":10246,"×©×ĺ×¢×ľ×ķ×ł×Ĵ":10247,"Ġ×Ļ×ł×¤×Ĳ":10248,"Ġ×Ķ×Ĳ×ĵ×ŀ×ķ":10249,"Ġ×¨×©×¢×Ļ×Ŀ":10250,"×©×¤×¨×Ĳ×ļ":10251,"Ġ×ķ×ķ×ķ×ł×ĵ×¢×¨×ľ×¢×ļ":10252,"Ġ×Ļ×ł×Ĵ×¨×Ļ×ĵ":10253,"Ġ×ĵ×ł×Ĳ":10254,"×Ļ×Ļ×ł×¤":10255,"Ġ×ŀ×Ĳ×§":10256,"Ġ×ĳ×Ļ×ł×Ķ":10257,"Ġ×§×¢×¨×Ĳ":10258,"×¤×Ĳ×ĺ":10259,"Ġ×©×¢×Ŀ":10260,"Ġ×¦×¢×ĳ×¨×Ĳ×Ľ×Ł":10261,"Ġ×ľ×¢×Ľ×ĺ":10262,"Ġ×¨×ŀ×ĸ":10263,"×¦×ĵ×Ļ×§":10264,"×¦×¢×ĵ×ķ×¨":10265,"Ġ×©×ĺ×¨×Ļ×Ļ×ŀ":10266,"×Ĺ×ĳ×¨":10267,"×ķ×ľ×Ļ×Ļ×Ĵ×Ł":10268,"×ķ×ĺ×Ļ":10269,"×Ļ×Ļ×ĵ×Ļ×©×¢":10270,"×§×ĺ×©×¢×¨":10271,"Ġ×ŀ×¡×ª×Ŀ":10272,"Ġ×©×¨×Ķ":10273,"Ġ×Ĳ×ĺ×¢×Ŀ":10274,"Ġ×ĺ×¢×Ĵ×ľ×Ļ×ļ":10275,"Ġ×§×Ĳ×ŀ×¤×Ĳ×ł×Ļ×¢":10276,"×ľ×Ļ×ĺ×Ļ×©":10277,"Ġme":10278,"Ġ×ĺ×ķ×ĳ×Ļ×Ŀ":10279,"Ġ×¤×¨×Ĳ×¦×¢×ĵ×ķ×¨":10280,"rop":10281,"Ġ×¦×Ļ×ķ×ł×ķ×ª":10282,"×ł×Ļ×ĸ×Ļ×¨×ĺ":10283,"Ġ×©×ķ×ŀ×¨×Ļ":10284,"ear":10285,"Ð¹":10286,"Ġ×ķ×Ĳ×Ļ×Ł":10287,"Ġ×ĸ×ķ×¤":10288,"Ġ×ĳ×¢×Ĵ":10289,"×©×Ļ×¥":10290,"Ġ×ł×Ĳ×¡":10291,"Ġ×©×Ĳ×¤×ĺ":10292,"Ġ×¢×Ļ×Ł":10293,"×ŀ×ķ×¨":10294,"×Ĵ×ķ×ª":10295,"×Ľ×ķ":10296,"×Ľ×¢×¡":10297,"×ª×Ķ":10298,"×ł×ĺ×Ķ×Ĳ":10299,"×ķ×¡×ĺ×¢":10300,"Ġ×¤×Ļ×ľ×Ļ×¤":10301,"Ġ×Ĳ×Ļ×ł×ĺ×¢×¨×¢×¡×ĺ":10302,"ï¬®×ľ":10303,"×Ļ×Ļ×ŀ×¢×¡":10304,"Ġ×ł×ķ×¦×Ļ×§":10305,"Ġ×Ķ×Ĳ×¨×ĵ":10306,"Ġ×Ļ×ł×ķ×ķ×¢×¡":10307,"Ġ×Ĵ×¢×©×ľ×Ĳ×Ĵ×Ł":10308,"Ġ×§×¢×Ļ×§":10309,"×Ļ×Ļ×ª×Ĳ":10310,"Ġpositive":10311,"Ġ×ķ×ķ×Ĳ×Ĵ":10312,"Ġ×ķ×ķ×¢×Ļ":10313,"Ġ×ķ×ķ×Ļ×ł×©":10314,"Ġ×Ĵ×ĳ":10315,"Ġ×©×Ļ×Ļ×ł×ĺ":10316,"Ġ×ĺ×Ļ×¨×Ł":10317,"×Ĵ×Ļ×¨":10318,"Ġ×¡×ķ×ķ×Ļ×ĺ":10319,"Ġ×¨×ķ×ĸ":10320,"Ġ×ŀ×Ļ×ĺ×ķ×ķ×Ĳ":10321,"×Ļ×Ĵ×ľ×ĺ":10322,"×¢×ŀ×¤×ľ":10323,"×Ļ×ķ×ķ×Ļ":10324,"Ġ×ĵ×¨×Ļ×ĺ×Ł":10325,"Ġ32":10326,"Ġ×Ĳ×¨×ĳ×Ļ×Ļ×ĺ×Ł":10327,"×§×ľ×Ĳ×¡":10328,"ĠFor":10329,"×ķ×ķ×Ļ×ł×¢":10330,"×Ļ×Ļ×¨×¢":10331,"Ġ×Ĳ×ł×Ĵ×¢×¤×Ļ×ľ×ĺ":10332,"Ġ×¡×ľ×Ĳ×ķ×ķ×Ĳ×§":10333,"Ġ×¢×§×Ĳ×ł×Ĳ×ŀ×Ļ×©×¢":10334,"Ġ×¦×ĵ×ĵ×Ļ×Ŀ":10335,"Ġ×ĵ×¢×ľ×¢×ķ×ķ×¢×¨":10336,"Ġ×Ķï¬¯×ĳ×Ł":10337,"irect":10338,"Ġ×§×¢×ľ×ķ×ĸ":10339,"Ġ×ŀ×ķ×Ķ×¨×Ĳ":10340,"Ġ×ĳ×Ļ×Ļ×ľ×Ĳ×Ĵ×¢×¡":10341,"Ġ×Ĵ×¢×ľ×ķ×ł×Ĵ×¢×ł×¢":10342,"Ġ×¢×ķ×ķ×ľ×Ķ":10343,"Ġ×§×Ļ×Ļ×¤×ľ":10344,"ER":10345,"fac":10346,"áĥ":10347,"Ġ×ĸ×Ĳ×¥":10348,"Ġ×ĳ×ĳ×ľ":10349,"Ġ×¢×©":10350,"×ł×Ļ×©×¢×¨":10351,"×ķ×ķ×¢×ĺ×Ł":10352,"Ġ×¤×¨×Ļ×©×ĺ":10353,"Ġ×§×Ĳ×ķ×¨×ĺ":10354,"×©×ĺ×Ĳ×Ŀ":10355,"×ķ×©×ĺ":10356,"×ł×¡×ĺ×¢×¨×¡":10357,"Ġ×ķ×ķ×Ļ×ľ×ł×¢":10358,"Ġ×ĳ×Ĳ×©×¨×Ļ×Ļ×ĳ×ĺ":10359,"Ġ×¢×§×Ļ×ĳ×Ĳ":10360,"Ġ×ŀ×Ĳ×ľ×Ł":10361,"Ġ×¦×ķ×Ĵ×¢×§×ķ×ŀ×¢×Ł":10362,"×ķ×ķ×Ļ×ĸ×¢×Ł":10363,"×Ļ×ł×¡×ĺ×Ł":10364,"Ġ×ĳ×Ĳ×©×ĺ×¢×ĺ×Ļ×Ĵ×Ł":10365,"Ġ×Ķ×Ĺ×¡×Ļ×ĵ":10366,"Ġ×Ĵ×ľ×Ļ×§×ľ×¢×ļ":10367,"ÐºÐ¸":10368,"×ľ×Ĳ×ĸ×¢":10369,"Ġ×ĳ×Ĳ×ķ×ķ×Ĳ×ķ×¡×ĺ×ĸ×Ļ×ł":10370,"Ġ×§×Ĳ×ł×¡×¤×Ļ×¨×Ĳ×¦×Ļ×¢×¡":10371,"Ġ×Ĳ×ĺ×ŀ×Ĳ×¡×¤×¢×¨×¢":10372,"94":10373,"Ġ×Ĳ×ĳ×Ł":10374,"×¤×Ļ×ľ×Ł":10375,"×ĳ×Ĳ×¨×ĵ":10376,"×ĸ×Ļ×¦×¢×¨":10377,"×ł×¢×§":10378,"×ŀ×ľ×¢×Ł":10379,"Ġ×ĺ×¢×ĳ":10380,"erve":10381,"Ġ×ĳ×Ĳ×¨×Ļ×ŀ":10382,"×Ļ×Ļ×ŀ×Ĳ":10383,"×ł×¦×Ļ×§":10384,"Ġ×ķ×ķ×¢×ĳ×¤":10385,"×ĵ×Ļ×©×§×Ļ×Ļ×ĺ":10386,"Ġ×ķ×ķ×Ļ×Ľ×ĺ×Ļ×§×¢":10387,"×¨×ŀ×¢×¡×ĺ":10388,"Ġ×¨×¢×¡×ĺ×Ĳ":10389,"Ġ×ĵ×¢×¨×Ĵ×Ļ×Ļ×Ł":10390,"Ġ×ŀ×Ĳ×ĺ×¨":10391,"×¨×ĳ×¨×¢×Ľ×¢×¨":10392,"Ġyi":10393,"Ġ×Ĳ×¤×¢×¨×Ĳ×¦×Ļ×¢":10394,"92":10395,"ĠÕ":10396,"Ġ×ķ×¢×ĵ":10397,"×©×¨×Ļ×Ļ×ĳ×ĺ":10398,"×¢×ł×ķ×ª":10399,"×Ĵ×¨×Ļ×£":10400,"Ġ×ĵ×¢×¨×Ķ×Ĳ×ľ×ĺ×Ł":10401,"×ķ×¡×¢":10402,"Ġ×Ĵ×¨×Ĳ×ŀ×¢×Ł":10403,"×¢×ł×ĵ×Ļ×¨×ĺ":10404,"Ġ×ĳ×ľ×ķ":10405,"×ķ×ł×ĵ×¡":10406,"Ġ×©×ŀ×Ĳ×ĺ×¢":10407,"ream":10408,"ĠÂ»":10409,"×Ĵ×¨×Ļ×Ł":10410,"Ġ×¨×¢×¤×¨×¢×ĸ×¢×ł×ĺ":10411,"Ġ×Ĳ×Ļ×ŀ×¢×Ļ×ľ×¡":10412,"×Ĵ×¢×ľ×Ĳ×ĸ×ĺ":10413,"Ġ×ĵ×Ĳ×ł×§×ĳ×Ĳ×¨":10414,"Ġ×ĳ×¢×ł×§×ľ":10415,"Ġ×©×ķ×ķ×Ļ×Ĵ×¢×¨":10416,"Ġ×Ļ×ł×Ĵ×¨×Ļ×ĵ×Ļ×Ĳ":10417,"'?":10418,"ne":10419,"Ġ×¤×ķ×Ļ×Ĵ×ľ":10420,"Ġ×Ķ×Ķ":10421,"×Ĵ×¢×ł×ĺ×ķ×¨":10422,"Ġ×¤×Ĳ×¨×Ĵ×¨×¢×¡":10423,"×Ļ×Ĳ×¨×Ł":10424,"×ķ×ľ×ķ×ª":10425,"Ġ×¤×¨×¢×¡×ĺ":10426,"×Ļ×Ľ×ķ":10427,"×ķ×ĺ×¨":10428,"Ġ×©×ł×Ļ×Ļ×ĵ×Ł":10429,"Ġ×Ĺ×¡×Ļ×ĵ×Ļ":10430,"Ġ×ŀ×Ĳ×¨×Ļ×ļ":10431,"Ġ×Ľ×Ķ×ł×Ļ×Ŀ":10432,"Ġ×Ĵ×¢×¢×ł×ĵ×Ļ×§×ĺ":10433,"Ġ×ĺ×¢×¡×ĺ×Ļ×ł×Ĵ":10434,"Ġ×¢×¨×§×ľ×¢×¨×ĺ":10435,"Ġ×ŀ×ĳ×¨×¨":10436,"Ġ×ª×¢×ł×Ļ×ª":10437,"Ġ×°×Ļ×§×Ļ×¤":10438,"ib":10439,"ĠïŃĬ":10440,"×¨×¢×¨×Ļ":10441,"×ľ×²×Ł":10442,"×Ĳ×¨×Ļ×Ļ×Ł":10443,"Ġ×ł×Ļ×©":10444,"×ł×ľ×Ĳ":10445,"Ö¼-":10446,"×Ķ×ķ":10447,"×Ļ×¡×Ļ×¤":10448,"Ġ×©×ĺ×Ĳ×ľ×¥":10449,"×ķ×ľ×¡":10450,"×ķ×ľ×Ļ×¨×ĺ":10451,"×¨×Ļ×Ļ×§":10452,"×Ļ×¡×ĺ×Ļ×§×¡":10453,"Ġ×Ĵ×¢×ĸ×Ļ×ł×Ĵ×¢×Ł":10454,"Ġ×Ĳ×¨×Ĳ×¤×§":10455,"×°×Ļ×§×Ļ":10456,"Ġ72":10457,"×Ľ×ª×ĳ":10458,"Ġ×Ļ×ķ×ĵ×¢×Ł":10459,"Ġ×ķ×ĳ×¤×¨×ĺ":10460,"Ġ×ĺ×¨×Ļ×ł×§×ĺ":10461,"Ġ×©×Ĺ×¨×Ļ×ª":10462,"Ġ×Ĳ×Ļ×ł×ĺ×¢×ľ×¢×§×ĺ":10463,"TS":10464,"Ġor":10465,"Ġ×Ĳ×Ĵ×¨×¢×¡":10466,"Ġ×ŀï¬®":10467,"Ġ×Ĵ×ķ×ĳ×¢×¨":10468,"Ġ×§×¢×ĸ":10469,"Ġ×ĺ×Ļ×Ļ×Ĵ":10470,"Ġ×Ļ×¨×ĵ":10471,"Ġ×Ļ×ķ×ĺ×Ĳ":10472,"×Ĵ×Ļ×©×¢":10473,"Ġ×ĵ×¢×¨×¤×Ĳ×ľ×Ĵ":10474,"Ġ×©×ĺ×¢×Ĵ":10475,"×¨×Ļ×Ļ×ł×Ĵ":10476,"×§×¡×Ļ×ŀ×ķ×Ŀ":10477,"×ķ×ĸ×Ļ":10478,"Ġ×§×ľ×ŀ×Ł":10479,"Ġ×¤×ľ×Ļ×Ĵ":10480,"Ġ×Ĳ×ķ×ŀ×Ĳ×¤":10481,"Ġ×Ĳ×ķ×ŀ×©×ĺ":10482,"Ġ×Ĵ×¢×§×Ĳ×¡×ĺ":10483,"×ŀ×¢×¨×§×ĺ":10484,"Ġ×¦×ķ×Ĵ×Ĳ×ĳ":10485,"orrow":10486,"Ġ×ĸ×¢×ľ×ĳ×©×ĺ×¢×ł×ĵ×Ļ×§":10487,"Ġ×Ĳ×ľ×Ĵ×¢×ŀ×Ļ×Ļ×Ł":10488,"×§×Ĳ×ľ×Ļ×¤×Ĳ×¨×ł×Ļ×¢":10489,"Ġ×§×ľ×Ļ×¤×¡":10490,"Ġ×Ĵ×¢×ķ×ķ×¢×ĸ×¢×ł×¢":10491,"×Ļ×ķ×ķ×§×Ļ×Ļ":10492,"Ġ×ª×¤×ľ×Ķ":10493,"\"\"":10494,"×ľ×¢×Ŀ":10495,"Ġ×ķ×Ļ×©":10496,"Ġ×Ķ×¢×ĺ":10497,"×ĵ×ķ×¦":10498,"Ġ×¢×ķ×¡×§":10499,"Ġ×ĺ×Ļ×Ĳ":10500,"Ġ×¡×ľ×Ļ×Ĺ":10501,"×ķ×§×¦×Ļ×¢":10502,"Ġ×Ĳ×ķ×ŀ×Ĵ×¢×¨":10503,"Ġ×ŀ×¢×Ļ×Ł":10504,"Ġ×ķ×ķ×Ļ×Ĳ×ŀ×Ļ×ł×Ĵ":10505,"Ġ×§×Ĳ×ł×Ĳ×ľ":10506,"Ġ×ĳ×Ĳ×Ĵ×¨×Ļ×£":10507,"Ġ×¡×ĺ×ķ×ĵ×¢×ł×ĺ":10508,"Ġ×ŀ×Ĳ×¡×Ļ×ķ×ķ×¢":10509,"Ġ×ł×ĳ×¨×Ĳ":10510,"Ġ×¢×ľ×¢×ŀ×¢×ł×ĺ":10511,"×ľ×Ĵ×ĳ×Ļ":10512,"Ġ×ĳ×¨×Ĳ×©×Ļ×ª":10513,"Ġ×Ĳ×ł×ķ×ķ×Ļ×Ļ×ĸ×ķ×ł×Ĵ×¢×Ł":10514,"Ġ×ł×ķ×§×ľ×¢×Ĳ×¨×¢":10515,"Ġ×Ķ×Ĵ×ĵ×¨×ª":10516,"Ġ×ĳ×Ĳ×ĵ×Ļ×ł×Ĵ×ķ×ł×Ĵ×¢×Ł":10517,"Ġ×§×¢×ľ×ķ×ĸ×©×Ł":10518,"Ġ×ĸ×Ĳ×ł×¢":10519,"Ġ×ĳ×ķ×Ļ×ļ":10520,"Ġ×§×ĵ×©":10521,"×Ļ×Ļ×ĺ×¡":10522,"Ġ×ª×ķ×¡×¤":10523,"Ġ×¤×ľ×Ĳ×¡":10524,"×ķ×Ľ×Ļ×ĳ×Ĳ":10525,"Ġ×Ĵ×¢×Ĵ×ľ×Ļ×Ļ×ĳ×ĺ":10526,"Ġ×ĵ×ĸ×©×Ļ×ĸ":10527,"Ġ×ĸ×Ļ×Ļ×ĺ×Ļ×Ĵ×¢":10528,"×ľ×ĵ×ĸ":10529,"Ġ×¡×¢×¨×ķ×ķ×¢×¨":10530,"Ġ×Ĳ×Ĺ×ª":10531,"Ġ×¢×ŀ×ķ×ĵ":10532,"Ġ×ĵ×¢×¨×¦×²":10533,"Ġ×ķ×ķ×Ļ×ĵ×ĸ×©":10534,"Ġ×¤×Ĳ×¡×Ļ×Ĵ":10535,"Ġ×ĳ×Ĳ×ľ×Ļ×ĳ":10536,"Ġ×ĳ×Ĳ×¤×¢×ľ":10537,"Ġ×©×¨×¢×§×ľ×¢×ļ":10538,"Ġ×Ĳ×Ļ×¡×ľ×Ĳ×ŀ":10539,"ĠVersion":10540,"Ġ×Ļ×¤×¢×§×¡":10541,"Ġ×ł×Ļ×Ļ×Ĵ×¢×¨×Ļ×Ĵ":10542,"Ġ×§×Ĳ×¨×Ĳ×ľ×Ļ×Ļ×ł×¢":10543,"Ġ×ĳ×ķ×Ļ×ŀ×ľ":10544,"!âĢİ":10545,"IC":10546,"ium":10547,"×ĺ×Ļ×¤":10548,"×¢×¨×ľ×Ļ×Ļ":10549,"Ġ×ĵï¬®":10550,"Ġ×ĳ×©×¨":10551,"Ġ×¡×ķ×¡×¤":10552,"Ġ×¢×¨×ķ×ķ":10553,"Ġ×©×ĺ×¨×Ļ×§":10554,"×Ĳ×ŀ×Ĳ×¡":10555,"Ġ×Ĵ×¨×Ļ×Ļ×ĺ×Ł":10556,"Ġ×ĳ×¨×¢×ł":10557,"×ĳ×¨×Ľ×Ķ":10558,"ĠCoun":10559,"ĠÂ¨":10560,"Ġ×ŀ×¦×Ļ×ĳ×Ķ":10561,"Ġ×Ķ×¢×¨×ľ×Ļ×ļ":10562,"Ġ×ķ×ķ×Ļ×Ļ×¡×ĺ×ķ":10563,"Ġ×Ĵ×¢×ĵ×¢×ł×§×Ł":10564,"Ġ×Ļ×ĵ×Ļ×¢×Ķ":10565,"Ġ×Ĳ×ķ×Ļ×ĺ×Ĳ×¡":10566,"Ġ×§×Ķ×ľ×Ķ":10567,"Ġ×Ĵ×¢×ķ×ķ×Ĳ×ľ×ĵ×Ļ×Ĵ":10568,"Ġ×Ĳ×¨×ķ×ŀ×Ļ×Ĵ×¢":10569,"Ġ×Ļ×¢×¨×Ļ×Ĵ×¢":10570,"Ġ×¤×Ĳ×ŀ×Ļ×ľ":10571,"×ĳ×ł×ķ×Ĵ×¢":10572,"Ġ×ĳ×Ĳ×ľ×Ļ×Ļ×ĵ×Ļ×Ĵ×ĺ":10573,"%.":10574,"ros":10575,"×¡×¢×¤":10576,"×Ļ×ĸ×Ĳ×¦×Ļ×¢":10577,"Ġ×Ĳ×ķ×Ļ×¡×ķ×ķ×Ĳ×ľ":10578,"×ķ×¤×¢×Ł":10579,"Ġ×¨×¢×ĵ×ł×¢×¨":10580,"Ġ×¢×¨×©×Ļ×ł×¢×Ł":10581,"Ġ×ĺ×©×Ļ×ĸ":10582,"ĠÂ©":10583,"×Ļ×Ļ×ł×ĵ×ĸ×©":10584,"Ġ×Ĳ×ł×Ķ×ķ×Ļ×ĳ":10585,"Ġ×Ķ×¢×ľ×¤×¢×Ł":10586,"Ġ×ł×¤×©×ķ×ª":10587,"Ġ×Ĳ×ł×ĺ×ķ×ķ×Ļ×§×ľ×ķ×ł×Ĵ":10588,"Ġ×ŀ×ķ×©×Ĵ":10589,"Ġ×ĵ×¨×Ļ×Ļ×ķ×ķ×Ļ×ł×Ĵ":10590,"Ġ×ŀ×¢×ĵ×Ļ×¦×Ļ×ł×Ļ×©×¢":10591,"Ġ×Ĳ×ķ×ŀ×Ĵ×¢×§×¢×¨×ĺ":10592,"Ġ×ŀ×ŀ×ª×§×Ļ×Ŀ":10593,"ÃŃ":10594,"Ġ×ĸ×Ļ×¦×ķ×ł×Ĵ":10595,"Ġ×Ķ×Ļ×Ļ×ļ":10596,"×Ķ×Ľ×ľ":10597,"×¦×ķ×ŀ":10598,"×Ļ×Ļ×ł×Ļ×©":10599,"×ł×ĵ×¨×Ĳ":10600,"Ġ×Ĺ×¨×ĵ×Ļ":10601,"Ġ×Ķ×Ĳ×ķ×¡×ĺ":10602,"Ġ×ª×ķ×¨×ķ×ª":10603,"Ġ×Ĳ×ķ×Ļ×¡×ĺ":10604,"Ġ×Ĳ×ķ×Ļ×¤×¤":10605,"×ŀ×¢×¡×Ļ×§":10606,"×Ļ×ł×§×¢×Ł":10607,"Ġ×©×ŀ×¢×§×ĺ":10608,"Ġ×§×Ļ×ł×ĵ×¢×¨×ľ×¢×ļ":10609,"Ġ×ĵ×ĸ×©×Ĳ×Ł":10610,"Ġ×¤×Ĳ×¨×ľ×Ļ×¨×ĺ":10611,"Ġ×Ĳ×ķ×ŀ×Ĵ×¢×¤×¢×¨":10612,"Ġ×Ķ×ĵ×¢×ª":10613,"Ġ×ĳ×Ķ×ŀ×ķ×ª":10614,"Ġ×ŀ×¤×¨×©":10615,"ife":10616,"Ġ×¢×©×¨×ª":10617,"so":10618,"ĠÖ¸âĢ¬":10619,"×¢×¨×Ļ×ł×Ĵ":10620,"Ġ×Ĵ×Ļ×¡×ĺ":10621,"Ġ×§×Ĳ×ĳ":10622,"×ł×¢×Ľ×ĺ×Ł":10623,"Ġ×ľ×¢×Ĳ":10624,"Ġ×¨×Ķ":10625,"×Ļ×Ĵ×¡":10626,"Ġ×Ĳ×¨×Ļ×ŀ":10627,"Ġ×Ĵ×¢×ķ×ķ×ķ×Ļ×ł×ĺ":10628,"×Ĺ×Ļ×Ļ×Ŀ":10629,"Ġ×Ĵ×¨×ķ×Ļ×ľ":10630,"Ġ×¨×ĳ×Ļ×Ķ":10631,"Ġ×§×¨×Ł":10632,"Ġ×Ĵ×¢×¦×ķ×ķ":10633,"Ġ×ł×¡×Ļ×Ŀ":10634,"Ð½Ð¸":10635,"Ġ×¨×ķ×ŀ×ĸ":10636,"Ġ×©×Ļ×ĵ×ķ×Ľ×Ļ×Ŀ":10637,"Ġ×ŀ×Ĳ×ĺ×¢×ŀ×Ĳ×ĺ×Ļ×§":10638,"Ġ×§×ķ×ĺ×©×ŀ×¢":10639,"×¨×ķ×Ĵ":10640,"×Ļ×Ļ×¦×ĺ":10641,"Ġ×ķ×Ĳ×Ľ":10642,"Ġ×Ķ×ł×ĳ":10643,"×ĵ×ľ×¢×¨":10644,"×ĳ×Ļ×Ļ×Ŀ":10645,"×Ĵ×ĸ":10646,"Ġ×ľ×¢×©":10647,"×ķ×¨×ķ":10648,"×Ĺ×Ĳ":10649,"Ġ×ĳ×ľ×ķ×ŀ":10650,"Ġ×§×ľ×²":10651,"Ġ×Ĵ×¢×ĳ×Ļ×Ļ×ĵ×¢×¡":10652,"×ķ×ł×ĺ×©":10653,"Ġ×§×Ĳ×ŀ×Ļ×ĺ×¢":10654,"Ġ×Ķ×Ĳ×¨×¦":10655,"Ġ×ĳ×Ĺ×Ļ×ł×Ŀ":10656,"ĠMem":10657,"Ġ×Ĳ×ķ×Ļ×¤×Ĵ×¢×§×ķ×ŀ×¢×Ł":10658,"Ġ×Ĳ×Ļ×ł×Ĵ×Ĳ×ł×¦×¢×Ł":10659,"Ġ×ŀ×Ĳ×¨×©":10660,"Ġdes":10661,"Ġ×Ķ×Ĺ×¨×ĵ":10662,"Ġ×ĳ×Ĳ×ĺ×¨×Ĳ×Ľ×ĺ×Ł":10663,"×ĵ×ĵ×ĵ×ĵ":10664,"Ġ×ĳ×Ĳ×©×ķ×ľ×ĵ×Ļ×Ĵ×ĺ":10665,"Ġ×¦×Ļ×ķ×ł×Ļ×¡×ĺ×Ļ×©×¢":10666,"Ġ×¨×¤×ķ×Ĳ×Ķ":10667,"Ġ×Ĳ×ķ×Ļ×¡×ĵ×¨×Ļ×§×Ł":10668,"Ġ<<":10669,"×ł×ĺ×ľ×ķ×Ļ×¤×Ł":10670,"ven":10671,"Ð³":10672,"×¨×Ļ×ĸ×Ĳ":10673,"Ġ×ĵ×Ĳ×Ľ":10674,"×ľ×¢×ŀ":10675,"Ġ×ŀ×Ĳ×¤×¢":10676,"Ġ×ĸ×Ļ×Ľ×ĺ":10677,"Ġ×§×Ļ×Ļ×¡×¢×¨":10678,"Ġ×©×§×ľ":10679,"Ġ×¢×ķ×ĵ":10680,"Ġ×Ľ×¢×ĸ":10681,"Ġ×Ļ×Ĳ×¨×ĵ":10682,"Ġ×§×ľ×ķ×Ļ×ĸ":10683,"×ĺ×¨×Ĳ×Ľ×ĺ":10684,"×Ļ×Ķ×Ĳ":10685,"Ġ×ĺ×Ļ×Ļ×ľ×ĺ":10686,"Ġ×ĳ×©×ķ×¨×Ķ":10687,"Ġ×ĳ×Ĺ×Ļ×ł×Ķ":10688,"ĠMan":10689,"ĠProtection":10690,"Ġ×ł×¤×§×Ĳ":10691,"Ġ×¡×Ļ×¨×Ļ×©×¢":10692,"Ġ×ŀ×¢×¡×¢×¨":10693,"âĢľ,":10694,"Ġ×ŀ×ķ×Ĺ×Ķ":10695,"Ġ×Ĳ×¤×Ļ×¦×Ļ×¨":10696,"Ġ×¨×Ĳ×¡×Ļ×¡×ĺ":10697,"×ķ×ķ×ķ×ķ×ķ×ķ×ķ×ķ×ķ×ķ×ķ×ķ×ķ×ķ×ķ×ķ×ķ×ķ×ķ×ķ×ķ×ķ×ķ×ķ×ķ×ķ×ķ×ķ×ķ×ķ×ķ×ķ×ķ×ķ×ķ×ķ×ķ×ķ×ķ×ķ×ķ×ķ×ķ×ķ×ķ×ķ×ķ×ķ×ķ×ķ×ķ×ķ×ķ×ķ×ķ×ķ×ķ×ķ×ķ×ķ×ķ×ķ×ķ×ķ":10698,"Ġ×Ĳ×ķ×Ļ×¡×Ĵ×¢×ľ×Ĳ×©×Ł":10699,"×ķ×ķ×Ļ×Ľ×ĺ×Ļ×Ĵ":10700,"Ġ×Ĵ×¢×©×¤×¨×¢×Ľ×Ł":10701,"Ġ×ª×Ĳ×ķ×ķ×ª":10702,"ĠBasic":10703,"ies":10704,"ĠðŁ":10705,"×¨ï¬¯":10706,"Ġ×ķ×ĺ":10707,"Ġ×Ķ×Ĳ×ŀ×Ļ×¨":10708,"×¢×ł×Ļ×Ĳ":10709,"Ġ×¡×Ĳ×ĵ":10710,"Ġ×¤×Ĳ×¨×Ĵ×¢×©×ĺ×¢×ľ×ĺ":10711,"×Ļ×Ļ×ł×Ļ×Ŀ":10712,"Ġ×¤×¨×Ļ×¢×ĵ":10713,"Ġ×©×¤×Ĳ×ł":10714,"×©×ĺ×Ļ×Ļ×Ĵ×¢×¨":10715,"Ġ×¨×ĳ×Ķ":10716,"×ĺ×©×ĺ×Ĳ":10717,"Ġ×¤×Ĳ×¨×§×Ĳ×Ľ×ĺ":10718,"×¢×Ļ×ľ×¡":10719,"×ľ×Ļ×ĺ×Ļ×§×¡":10720,"Ġ×¤×Ĳ×ľ×Ļ×ĺ×Ļ×§×¢×¨":10721,"Ġ×ª×©×ķ×ĳ×ķ×ª":10722,"Ġ×ŀ×¢×§×¡×Ļ×§×¢":10723,"Õ¡Õ":10724,"Ġ×ŀ×Ĳ×§×¡":10725,"Ġ×ŀ×Ļ×Ľ×ľ":10726,"Ġ×ķ×ķ×¢×Ľ×ł×ĺ":10727,"Ġ×§×ľ×¢×ł×¡":10728,"×§×ĺ×Ł":10729,"×¢×ĺ×ľ×¢×Ľ×¢":10730,"×ķ×¨×Ļ×Ļ×ª×Ĳ":10731,"×¢×Ĵ×¨×Ĳ":10732,"Ġ×¢×¡×§×Ł":10733,"×¢×ŀ×¢×ĵ":10734,"Ġ×ĳ×¨×¢×§×ľ×¢×ļ":10735,"Ġ×ŀ×¢×¨×Ļ×ĳ":10736,"Ġ×ŀ×Ļ×ł×¢×¡":10737,"Ġ×Ķ×¢×¨×¦":10738,"Ġ×¤×Ĳ×¨×ŀ×Ļ×Ļ×ĵ×Ł":10739,"Ġ×Ĳ×¨×ķ×Ļ×¡×Ĵ×¢×ł×ķ×ŀ×¢×Ł":10740,"Ġ×¨×¢×ĸ×¢×¨×ķ×ķ":10741,"Ġ×ĺ×¨×¢×¤×¢×Ł":10742,"Ġ×Ĳ×ł×Ķ×ķ×Ļ×ĳ×Ł":10743,"×Ĳ×ŀ×¢×¨×Ļ×§×Ĳ×ł×¢×¨":10744,"Ġ×©×ķ×ķ×Ĳ×¨×¦×¢×¨":10745,"×Ĳ×Ĺ×¨":10746,"Ġ×Ļ×Ĺ×Ļ×ĵ×Ķ":10747,"Ġ×¦×¢×¨×¢×ŀ":10748,"Ġ×ķ×¡×¢×¨×¡":10749,"Ġ×Ĳ×ķ×Ļ×¡×Ĵ×¢×ĵ×¨×Ļ×§×ĺ":10750,"asino":10751,"×¨×Ļ×©×Ł":10752,"Ġ×ŀ×ķ×¨×Ķ":10753,"Ġ×ŀ×Ĵ×ľ×Ķ":10754,"Ġ×ķ×ķ×Ļ×§×ĺ":10755,"×Ĳ×¨×Ľ":10756,"×¤×¨×Ļ×Ļ×ĸ":10757,"×¢×ł×ľ×Ļ×ļ":10758,"Ġ×Ĳ×¨×ĵ":10759,"×¨×Ĳ×Ł":10760,"Ġ×ķ×ķ×¢×ľ×ĵ×Ļ×ł×Ĵ":10761,"Ġ×§×ľ×ķ×Ĵ×¢":10762,"×¨×Ļ×§×Ĳ×ł×¢×¨":10763,"Ġ×§×¨×ķ×Ļ×Ł":10764,"×Ļ×Ľ×ĺ×¢×¡":10765,"Ġ×¢×¤×¢×ł×ĺ":10766,"ank":10767,"ans":10768,"×Ĵ×¢×¨×ķ×¤×Ł":10769,"×ķ×Ļ×¨×¢":10770,"Ġ[...]":10771,"Ġ×¤×Ĳ×¨×ĺ×Ĳ×ľ":10772,"Ġ×Ķ×¨×ĳ×Ļ×Ŀ":10773,"Ġ×Ĳ×ł×Ĳ×ł×¡":10774,"×¨×Ļ×Ļ×Ľ×¢":10775,"Ġ×Ĵ×¢×Ĳ×Ļ×Ļ×Ĵ":10776,"Ġ×Ĳ×ķ×Ļ×¡×¦×ķ×¤":10777,"×Ļ×Ļ×ķ×ķ×¢×ľ×ĺ":10778,"Ġ×¦×¢×ł×ĺ×¨×Ĳ×ľ×¢":10779,"Ġ×¤×Ĳ×¨×ķ×ķ×Ĳ×ł×ĵ×ľ×¢×Ł":10780,"Ġ×¦×Ļ×ķ×ķ×Ļ×ľ×¢":10781,"ĠAnimals":10782,"ĠUSA":10783,"Ġ×Ĳ×ķ×Ļ×¤×ķ×ķ×¢×§×¢×Ł":10784,"Ġ×¤×Ĳ×¨×Ĳ×Ĵ×¨×Ĳ×£":10785,"app":10786,"×ľ×Ľ":10787,"Ġ×ķ×ķ×Ĳ×ľ×ĵ":10788,"Ġ×Ķ×Ľ×ķ×ľ":10789,"×ĸ×Ļ×§×¢×¨":10790,"Ġ×Ļ×ķ×ĵ×Ĳ":10791,"Ġ×ł×Ĳ×¨×ķ×ķ×Ĳ×¡":10792,"×Ĳ×ĳ×¡":10793,"Ġ×ķ×ķ×¢×ľ×ĺ×ľ":10794,"Ġ×©×ŀ×Ļ×Ļ×Ľ":10795,"Ġ×°×Ĳ×¡":10796,"Ġ×ŀ×Ĺ×ľ×Ķ":10797,"×ķ×Ĺ×Ļ×Ŀ":10798,"Ġ×¤×¨×Ĳ×Ĵ×¨×¢×Ŀ":10799,"Ġ×¤×Ļ×ł×Ĳ×ł×¥":10800,"Ġ×Ķ×Ļ×¤×©":10801,"bsol":10802,"Ġ×ł×¢×¨×ķ×ķ×¢×ĸ":10803,"Ġ×¡×¢×¨×ķ×ķ×Ļ×¨×¢×¨":10804,"Ġ×¨×¢×§×ķ×ķ×Ļ×¨×¢×ŀ×¢×ł×¥":10805,"Ġ×ĳ×ķ×Ļ":10806,"Ġ×§×ķ×ĳ":10807,"×©×ł×¢×ľ":10808,"Ġ×¦×ķ×Ļ×ĳ×¢×¨":10809,"Ġ×Ĳ×¨×Ļ×Ķ":10810,"Ġ×©×¤×Ĳ×¨×Ł":10811,"Ġ×©×¤×Ļ×¨×Ĳ":10812,"Ġ×ĳ×Ĳ×ł×Ĵ":10813,"×¨×ĵ×Ļ×ł×Ĵ":10814,"×¦×Ļ×¢×ł×ĺ":10815,"×ķ×Ľ×¢×¨":10816,"×Ļ×ª×Ļ":10817,"×ķ×ł×§×Ĳ×ĺ×©":10818,"Ġ×¤×Ĳ×¨×Ĳ×ķ×¨":10819,"Ġ×¡×ĵ×¨×Ķ":10820,"Ġ×¢×§×¡×¤×¢×¨×ĺ":10821,"Ġ×ĵ×Ĳ×ł×§×¢×Ł":10822,"Ġ×Ļ×Ĺ×Ļ×ĵ×Ļ×Ŀ":10823,"×¨×Ļ×ĺ×¢×¡":10824,"Ġ×¤×Ĳ×¨×ĳ×Ļ×ł×ĵ×ķ×ł×Ĵ":10825,"Ġ×§×Ĳ×ŀ×¢×ł×ĺ×Ĳ×¨×Ł":10826,"×ķ×ł×ª×Ł":10827,"ĠFlight":10828,"ĠAnimal":10829,"Ġ×¢×¤×¢×§×ĺ×Ļ×ķ×ķ×§×Ļ×Ļ":10830,"Ġ×ĳ×¢×§×Ł":10831,"Ġ×©×Ļ×¡×Ł":10832,"×ŀ×Ŀ":10833,"×ŀ×¢×©":10834,"×Ļ×ľ×Ļ×Ŀ":10835,"Ġ×ª×ĳ":10836,"Ġ×ĳ×¨×Ļ×Ĳ×Ķ":10837,"Ġ×ĳ×¨×¡×ľ×ĳ":10838,"Ġ×Ļ×Ĳ×¨×§×¢×¨":10839,"Ġ×ŀ×§×¤×Ļ×ĵ":10840,"×´,":10841,"ĠKill":10842,"Ġ×ŀ×ĺ×ĳ×¢":10843,"Ġ×ķ×ķ×Ļ×ł×Ļ×ł×Ĵ":10844,"Ġ×ĳ×Ĳ×Ĵ×¢×Ĵ×ł×ĺ":10845,"Ġ×§×Ĳ×ł×¡×ĺ×Ļ×ĺ×ķ×¦×Ļ×¢":10846,"bsolute":10847,"Ġle":10848,"×¨×Ĳ×ĵ":10849,"×¢×¨×Ļ×¡":10850,"×ł×Ļ×Ĳ×ľ":10851,"×ŀ×¢×ł×¢×¨":10852,"Ġ×Ļ×ŀ×£":10853,"Ġ×ľ×Ĳ×ŀ":10854,"Ġ×ľ×Ļ×ł×Ĵ":10855,"Ġ×ľ×ķ×Ļ×¤":10856,"×Ĳ×¤×Ĳ×¨":10857,"×ķ×ĸ×Ķ":10858,"×¢×ł×ĵ×Ļ×§×¢×¨":10859,"Ġ×ĺ×Ĳ×ķ×Ł":10860,"Ġ×ĵ×Ļ×¨×¢×§×ĺ×Ĳ":10861,"×¤×ĺ×ķ×ķ×¢×¨":10862,"×Ļ×Ļ×§×¡":10863,"×ĵ×ĸ×©×Ļ×ĸ":10864,"Ġ×ŀ×ķ×¡×ķ×ľ":10865,"ication":10866,"Ġ×Ĳ×¤×Ĵ×¢×ĸ×Ĳ×Ĵ×ĺ":10867,"×¤×Ĳ×ľ×Ļ×ĺ":10868,"old":10869,"Ġ×Ķ×Ľ×ł×¡×ª":10870,"Ġ×ĳ×ķ×ĵ×§":10871,"Ġ×§×ķ×ŀ×¢×ł×ĵ×Ļ×Ĵ×Ł":10872,"Ġ×¤×Ĳ×¨×Ĵ×¢×©×ľ×Ĳ×Ĵ×Ł":10873,"Ġ×Ľ×Ĳ×¨×Ĳ×§×ĺ×¢×¨":10874,"ĠTomorrow":10875,"?,":10876,"ov":10877,"äº":10878,"×ľ×Ļ×¡×Ł":10879,"×ľ×ĵ×Ļ×§":10880,"Ġ×ķ×ķ×¤":10881,"Ġ×ĸï¬¯":10882,"Ġ×ĳ×ĺ×¢×ķ×ª":10883,"×ŀ×¢×ĺ×¢×¨":10884,"Ġ×Ļ×ķ×ĸ":10885,"Ġ×Ļ×ł×ĺ×Ĳ":10886,"×Ľ×Ĳ×¤":10887,"×¨×Ĳ×ķ×ĵ":10888,"Ġ×Ľ×Ļ×ĺ":10889,"×ł×Ĵ×¢×ł×ķ×ŀ×¢×Ł":10890,"×Ļ×¡×ĺ×Ļ×©×Ł":10891,"×ĵ×¨×Ļ×Ł":10892,"Ġ×Ĵ×¢×ķ×ķ×Ļ×ł×¡":10893,"Ġ×Ĳ×ķ×Ļ×¡×Ĵ×¢×¨×¢×Ľ×ł×ĺ":10894,"Ġ×¤×Ĳ×¨×©×ķ×ķ":10895,"×Ĵ×¢×¨×ķ×¤":10896,"Ġ×¢×ł×ĵ×Ļ×§×Ł":10897,"×¨×ķ×Ļ×¡×ķ×ķ×Ļ×Ļ":10898,"Ġ×¨×Ļ×Ľ×ĺ×Ļ×Ĵ×Ł":10899,"ĠAbsolute":10900,"Ġfun":10901,"Ġ×¡×¢×§×Ļ×ķ×¨":10902,"Ġ×Ĳ×ķ×ª×ķ":10903,"Ġ×Ļ×ł×¡×Ĳ":10904,"Ġ×ĵ×Ļ×ĸ×¢×¨×¥":10905,"Ġ×ŀ×Ļ×ĸ×¨×Ĺ":10906,"âĢª.":10907,"Ġ×ķ×ķ×¢×§×¡×ľ":10908,"Ġ×ĺ×Ļ×§×¢×ĺ×¡":10909,"Ġ×¤×Ļ×Ļ×Ĵ×ľ":10910,"Ġ×Ĵ×¢×ĸ×¢×¦×ľ×Ļ×Ľ×¢":10911,"Ġ×Ļ×ł×ĺ×¢×ľ×ľ×Ļ×Ĵ":10912,"ĠDeserve":10913,"ĠCounter":10914,"land":10915,"×Ļ×¡×§×Ĳ":10916,"×Ĳ×ł×¢×ľ":10917,"Ġ×Ĳ×Ļ×Ļ×ĳ×¢×¨":10918,"Ġ×Ĳ×ķ×Ļ×¡×¨×¢×Ľ×¢×ł×¢×Ł":10919,"×¢×Ľ×ľ":10920,"Ġ×¡×ĺ×Ĳ×ľ":10921,"Ġ×ĵ×ķ×¨×Ľ×Ĵ×¢×Ĵ×Ĳ×ł×Ĵ×¢×Ł":10922,"Ġ×Ĳ×Ļ×Ļ×ł×¨×¢×ĵ×Ł":10923,"Ġmore":10924,"ĠÐ¸":10925,"Ġyour":10926,"abl":10927,"Ġ×Ľ×Ļ×ł×ķ×¡":10928,"Ġ×ª×Ļ×¨×ķ×¦×Ļ×Ŀ":10929,"Ġ×ŀ×¢×ĵ×Ļ×¢×°×Ļ×§×Ļ":10930,"Ġ×ĵ×Ĳ×¤":10931,"Ġ×ĳ×¢×§×¢×¨":10932,"Ġ×§×ŀ":10933,"×¤×¢×ł×ĺ×¢":10934,"Ġ×ł×ķ×Ķ":10935,"×ł×Ĳ×ŀ×¢×Ł":10936,"×Ļ×ĺ×Ļ×¡":10937,"Ġ×ľ×Ĳ×Ĵ×¢×¨":10938,"×ķ×¨×ĺ×©":10939,"×Ĳ×¤×¢×¡":10940,"Ġ×ĳ×Ĳ×ķ×ķ×Ļ×ľ":10941,"Ġ×Ĳ×¤×Ļ×¦×Ļ×¢":10942,"×ł×Ĵ×Ļ×ł×Ĵ":10943,"Ġ×Ĳ×ł×Ĵ×¢×¨":10944,"Ġ×¤×Ĳ×ľ×©":10945,"×ĺ×©×Ļ":10946,"Ġ×ĵ×¢×Ļ×¡":10947,"ous":10948,"ĠWindows":10949,"Ġ×Ĳ×Ļ×Ļ×¨×Ĳ×¤×¢×Ļ×©×¢":10950,"Ġ×¨×¢×Ĳ×§×¦×Ļ×¢":10951,"×Ĳ×ĸ×©×Ļ×¨×Ł":10952,"Ġ×ĳ×Ĳ×ĸ×ķ×ł×ĵ×¢×¨×©":10953,"×ĳ×§×Ļ×¦×ķ×¨":10954,"Ġ×ĳ×Ĳ×Ķ×Ĳ×ľ×ĺ×¢×ł×¢":10955,"Ġ×¤×Ĳ×ľ×Ļ×¡×Ļ×¡":10956,"Ġ×¦×Ļ×¦×Ļ×ª":10957,"çļ":10958,"×ķ×¢×¨×ĸ":10959,"Ġ×Ĳ×¡×ĺ×¨":10960,"Ġ×Ĳ×Ļ×¢":10961,"Ġ×ĸ×ķ×ŀ":10962,"Ġ×Ķ×¡×¤":10963,"×Ĳ×¨×Ļ×§":10964,"×ĵ×¢×ł×ĺ":10965,"×ĸ×ŀ":10966,"Ġ×¦×¨":10967,"×§×Ĳ×Ŀ":10968,"Ġ×¨×ķ×©×Ŀ":10969,"×ķ×¨×¢×¡":10970,"Ġ×Ĳ×¤×Ĵ×¢×¨×¢×ĵ×ĺ":10971,"Ġ×Ĳ×¤×Ļ×§×ķ×¨×¡":10972,"×Ļ×ŀ×Ļ×Ŀ":10973,"Ġ×ķ×ķ×Ļ×¨×§×Ł":10974,"Ġ×ĺ×ķ×ĳ×ķ×ª":10975,"250":10976,"Ġ×§×Ĳ×¡×ĺ×ķ×ŀ×¢×¨×¡":10977,"Ġemail":10978,"Ġ×©×ĺ×ķ×ĵ×Ļ×¨×Ł":10979,"Ġ×©×ĺ×ķ×ĵ×Ļ×¨×ĺ":10980,"Ġ×§×Ĳ×ł×¤×¢×¨×¢×ł×¥":10981,"Ġ×¤×ķ×Ļ×ľ×Ļ×©×¢":10982,"Ġ×Ļ×©×Ļ×ĳ×ª":10983,"Ġ×ŀ×¢×Ķ×¨":10984,"Ġ×¦×ķ×ĳ×ľ×Ĳ×ĸ×ĺ":10985,"Ġch":10986,"×ĺ×¢×Ŀ":10987,"×ľ×ķ×ķ×¢":10988,"Ġ×Ĵ×ĺ":10989,"Ġ×ĸ×Ĳ×¨×Ĵ":10990,"×ĵ×Ĳ×¨×ĺ":10991,"Ġ×Ļ×Ĳ×¡":10992,"Ġ×Ļ×ł×ĺ×¨×Ĳ":10993,"×Ļ×§×¢×ľ":10994,"Ġ×¨×Ĳ×ĳ×¢×¨":10995,"ĠâĢŁ":10996,"Ġ×ĵ×¨×Ĳ×¡×ĺ":10997,"Ġ×ŀ×Ĺ×ĸ":10998,"Ġ×ĵ×ķ×¨×Ľ×¤×Ĳ":10999,"×ľ×ŀ×Ļ":11000,"Ġ×Ļ×¦×Ļ×Ĳ×ª":11001,"Ġ×Ĳ×¨×Ĵ×¢×ł×ĺ×Ļ×ł×¢":11002,"Ġ×Ĳ×Ļ×ĺ×Ĳ":11003,"Ġ×¤×¨×Ĳ×ł×¦×ķ×Ļ×ĸ×Ļ×©×¢":11004,"Ġ×§×Ĳ×ł×ĺ×¨×Ĳ×ľ×Ļ×¨×Ł":11005,"×ł×Ĵ×¢×¤×Ļ×ľ×ĺ×¢":11006,"Ġ×¤×Ĳ×¨×ĳ×Ļ×ł×ĵ×ĺ":11007,"Ġ×Ĵ×ľ×Ļ×Ļ×Ľ×¦×Ļ×Ļ×ĺ":11008,"Ġ×ķ×ķ×Ļ×Ļ×ł×":11009,"Ġ×Ĳ×¨×Ļ×Ļ×ł×¦×ķ×ľ×Ĳ×Ĵ×Ł":11010,"52":11011,"Ġus":11012,"×Ĳ×Ļ×¡":11013,"×Ĳ×Ļ×Ļ×ł×¢":11014,"×ľ×ķ×Ĳ":11015,"Ġ×Ķ×Ļ×¦":11016,"×Ĳ×¨×¢":11017,"×Ĳ×¨×Ļ×©×¢":11018,"×ł×Ĳ×¨×ŀ":11019,"×§×ķ×ª":11020,"×¢×ł×¢×ľ":11021,"Ġ×ĺ×¢×ł×ĵ":11022,"×¢×¡×Ļ×Ł":11023,"×¢×ŀ×¢×¡":11024,"×ķ×ľ×Ĳ×¦×Ļ×¢×¡":11025,"Ġ×Ľ×ł×¡×ª":11026,"×¡×ĺ×ł×¡":11027,"×¨×ĺ×Ķ":11028,"×ĳ×ľ×ķ×Ļ":11029,"Ġ×ŀ×Ļ×ł×Ĳ×¨":11030,"Ġ×¨×ķ×¡×Ł":11031,"Ġ×¡×§×Ļ×¤":11032,"×¢×ĳ×¨×Ĳ×Ľ×ĺ":11033,"Ġ×¢×ł×ĵ×ĸ×©":11034,"Ġ×©×ķ×ľ×ĵ×Ļ×§":11035,"Ġ×ĳ×Ĳ×¤×ķ×Ļ×ľ×Ł":11036,"Ġ×¤×Ĳ×¨×ĳ×¨×¢×ł×Ĵ×ĺ":11037,"×¨×Ļ×Ļ×Ľ×ĺ":11038,"Ġ×ŀ×¢×¡×ĺ×Ł":11039,"Ġ×¤×ķ×Ļ×ł×ĺ×¡":11040,"play":11041,"Ġ×¨×¢×¦×¢×¤":11042,"Ġ×ķ×ķ×Ļ×Ļ×ĵ×ľ×Ļ":11043,"Ġ×Ķ×¢×ĳ×¨×¢×Ĳ":11044,"Ġ×ķ×Ļ×ķ×Ĳ×ľ":11045,"OM":11046,"×ĺ×Ļ×ĵ":11047,"×ľ×Ļ×Ļ×¡":11048,"Ġ×ĸ×¨×Ķ":11049,"×©×ŀ×¢":11050,"×Ĳ×ĺ×Ļ×©×¢":11051,"×Ļ×Ļ×ĺ×©×ĺ":11052,"×Ļ×ł×¢×ł×ĺ":11053,"Ġ×Ĳ×Ļ×ĳ×¢×¨×ł×¢×ŀ×¢×Ł":11054,"Ġ×¡×¤×¢×©":11055,"Ġ×Ĳ×ł×Ĵ×¢×ľ":11056,"Ġ×¤×Ĳ×ľ×¡":11057,"Ġ×Ĳ×¡×Ļ×¤×Ķ":11058,"Ġ×©×ł×¢×ľ×¢":11059,"Ġ×ĳ×Ĳ×ł×¢×Ł":11060,"Ġ×Ĵ×¢×ĺ×¨×Ļ×Ļ×¢":11061,"Ġ×¤×Ĳ×¨×Ķ×Ĳ×ł×ĵ":11062,"Ġ×ľ×Ļ×¡×ĺ×¢×ĵ":11063,"Ġ×¤×Ĳ×ĳ×¨":11064,"Ġ×©×¤×Ļ×Ĳ×ł×Ĳ×ĸ×©":11065,"Ġ×Ľ×¢×ľ×ĺ×Ļ×¢×¨":11066,"Ġ×Ļ×ł×ĺ×¢×ľ×ľ×Ļ×Ĵ×¢×ł×¡×¢":11067,"62":11068,"91":11069,"×Ĳ×ķ×Ļ×¤×Ł":11070,"×ľ×¢×¤":11071,"Ġ×Ĵ×¢×¨×Ł":11072,"Ġ×ĸ×¢×¥":11073,"Ġ×Ķ×ķ":11074,"Ġ×Ķ×Ļ×ł×ĸ":11075,"×ŀ×Ļ×¡":11076,"×Ķ×Ĳ×¤×ĺ":11077,"Ġ×ľ×ª":11078,"Ġ×¨×¢×¤×ľ":11079,"Ġ×¤×Ĳ×¨×¡":11080,"Ġ×Ľ×¨":11081,"Ġ×Ľ×Ĳ×Ł":11082,"×Ļ×Ļ×ľ×ķ×ł×Ĵ":11083,"Ġ×Ĵ×¨×ķ×Ļ×ĸ":11084,"Ġ×Ĳ×ķ×Ļ×¡×¤×Ļ×¨×Ł":11085,"Ġ×ĵ×¨×Ļ×ĺ×ľ":11086,"Ġ×Ĳ×ķ×Ļ×¡×Ĵ×¢×¨×ķ×¤×Ł":11087,"Ġ×Ĳ×ĳ×Ļ×ķ":11088,"×ķ×¨×Ĳ×Ļ×Ŀ":11089,"Ġ800":11090,"Ġ×ŀ×Ĳ×¨×ĵ":11091,"×¨×Ļ×Ļ×ĳ×ĵ":11092,"×Ĳ×ŀ×¢×¨×Ļ×§×¢":11093,"Ġ×§×Ĳ×ł×ĺ×¨×Ĳ":11094,"tif":11095,"Ġ×Ĵ×¨×¢×ł×¢×¦×Ł":11096,"Ġ×Ļ×ĳ×¢×¨×Ĵ×¢×ĳ×Ł":11097,"ount":11098,"Ġ×Ĳ×¨×Ĳ×¤×§×Ĳ×¤×Ļ×¢":11099,"ĠÂ¨âĢł":11100,"Ġ×Ĵ×¢×¦×ķ×ķ×ķ×ł×Ĵ×¢×Ł":11101,"âĢª.âĢ¬âĢ¬":11102,"Ġ).":11103,"Ġ×Ĳ×ķ×ķ×¢×¨":11104,"×¢×¨×Ļ×Ĳ":11105,"Ġ×¤×ķ×ĵ":11106,"Ġ×ķ×ķ×Ļ×ĺ×Ĳ":11107,"Ġ×Ķ×ŀ×©×ļ":11108,"Ġ×ĳ×§×Ļ":11109,"×§×ĵ":11110,"Ġ×ľ×ķ×ĳ×ľ×Ļ×Ł":11111,"×Ĳ×ł×ĺ×Ĳ":11112,"Ġ×Ĵ×¢×ĸ×¢×Ĵ":11113,"×Ĳ×ĵ×¢×¨×ĺ":11114,"×ĺ×¨×Ļ×¡×¢":11115,"×¨×Ĵ×¢×§×ķ×ŀ×¢×Ł":11116,"Ġ×ŀ×Ļ×ł×Ĳ":11117,"Ġ×§×Ĳ×ŀ×¢×¨":11118,"×ŀ×Ļ×ĺ×Ł":11119,"Ġ×ĵ×¢×Ļ×ĺ":11120,"Ġ×¤×¡×§×Ļ×Ŀ":11121,"Ġ×Ĳ×¨×ĺ×Ļ×§×ľ×Ł":11122,"Ġ×Ĵ×¢×ĺ×¨×Ĳ×Ĵ×Ł":11123,"Ġ×Ļ×ĵ×¢×Ł":11124,"Ġ×ª×©×¡":11125,"Ġ×Ķ×ĵ×ĳ×¨×Ļ×Ŀ":11126,"Ġ×ľ×Ķ×ĳ×ĵ×Ļ×ľ":11127,"Ġ×Ķ×¢×¨×©×ľ":11128,"Ġ×ŀ×Ĳ×¡×§":11129,"×Ĵ×¢×Ķ×Ļ×ĺ":11130,"ĠURL":11131,"Ġ×ľ×¢×ĳ×¢×ĵ×Ļ×§×¢":11132,"Ġ×¤×¨×Ļ×Ļ×ľ×Ļ×ļ":11133,"Ġ×¤×¢×¨×ĺ×ľ":11134,"Ġ×¢×©×¨×Ķ":11135,"Ġ×ĸ×ŀ×ł×Ļ×Ŀ":11136,"Ġ×Ĵ×¢×ĸ×ķ×ł×ĺ×¢":11137,"Ġ×Ķ×Ĺ×¨×ĵ×Ļ×ª":11138,"game":11139,"×ľ×Ļ×ł":11140,"Ġ×ķ×ķ×Ļ×¥":11141,"Ġ×ĳ×Ļ×ĳ×¢×¨":11142,"Ġ×§×Ļ×©":11143,"×ĳ×Ĳ×ŀ×ª":11144,"×§×¢×¨×ĸ":11145,"Ġ×ĺ×ŀ×Ĳ":11146,"Ġ×ĺ×ķ×¡×Ĳ":11147,"Ġ×ľ×¢×ĸ×¢×¨":11148,"Ġ×¢×¨×ļ":11149,"×Ļ×ķ×ķ×ľ":11150,"Ġ×¤×¨×Ļ×ľ×Ļ×ł×Ĵ":11151,"Ġ×Ĺ×ĸ×¨":11152,"×Ĳ×ŀ×Ļ×¢":11153,"×ĵ×¢×¨×Ļ×ĳ×¢×¨":11154,"×ķ×ķ×Ĳ×Ļ":11155,"×ł×§×ķ×¨":11156,"×¨×Ĵ×ķ×Ŀ":11157,"Ġ×ľ×Ļ×Ļ×ĵ×Ļ×Ĵ×¢":11158,"Ġ×¢×ĵ×Ķ":11159,"Ġcan":11160,"Ġ×Ĳ×¨×ķ×ŀ×Ĵ×¢×ł×ķ×ŀ×¢×Ł":11161,"Ġ×ĵ×¢×¨×¦×Ļ×Ļ×ľ×ķ×ł×Ĵ":11162,"Ġ×Ĵ×¢×§×ľ×¢×¨×ĺ":11163,"Ġ×ŀ×¢×Ľ×ĺ×Ļ×Ĵ×¢":11164,"54":11165,"view":11166,"Ġ×ĵ×¢×ķ×ª":11167,"Ġ×¤×¢×§":11168,"Ġ×¤×Ļ×ķ":11169,"Ġ×ķ×ķï¬¯":11170,"×¡×Ļ×Ļ":11171,"×¡×Ĳ×ĺ×ŀ×Ĳ×¨":11172,"Ġ×ĸ×¢×¦×ĺ":11173,"Ġ×§×Ļ×¡":11174,"Ġ×ł×¢×¦":11175,"×ĸ×ķ×Ļ×ł×¢":11176,"×¢×ĵ×Ļ":11177,"×Ļ×ķ×ł×Ĵ×¢×Ł":11178,"×Ĺ×¡":11179,"Ġ×Ĳ×ľ×Ļ×Ĳ":11180,"Ġ×Ĳ×¤×ĺ×Ļ×Ļ×ľ":11181,"Ġ250":11182,"×ł×¡×ĺ×¢×¨":11183,"Ġ×¨×ĳ×Ļ×¦×Ļ×Ł":11184,"Ö´Ö¼":11185,"Ġ×¢×¤×Ł":11186,"Ġ×¡×Ĳ×ķ×ĵ×Ļ":11187,"Ġ×Ĵ×¢×ĳ×¨×Ĳ":11188,"×Ļ×Ľ×¢×¨×ķ×ł×Ĵ":11189,"Ġ×¤×Ĳ×ľ×Ĳ×¥":11190,"Ġ×ł×Ĳ×Ľ×Ĳ×ľ×¥":11191,"Ġ×¢×§×¡×ĺ×¨×Ĳ":11192,"×ĺ×ķ×¨×Ĳ":11193,"Ġ×ŀ×¡×ķ×ĵ×¨":11194,"Ġ×¦×ķ×Ĵ×Ĳ×ł×Ĵ":11195,"Ġ×©×¨×Ļ×Ļ×¢":11196,"Ġ×ª×Ĵ×ķ×ĳ×Ķ×¦×Ļ×Ļ×ĺ":11197,"Ġ×ª×Ĵ×ķ×ĳ×Ķ×¤×Ĳ×¨×ķ×Ŀ×§×¢×¤×ľ":11198,"Ġ×Ĳ×©×Ľ×ķ×ľ×§×¢×¤×ľ":11199,"Ġ×©×ķ×ľ×¢×¡":11200,"Ġ×ĳ×Ĳ×ĵ×¢×¨×ĺ":11201,"×¡×ĺ×¢×¨×¡":11202,"Ġ×ĳ×Ĳ×Ķ×Ĳ×ł×ĵ×ľ×¢×Ł":11203,"×¤×Ļ×ľ×¢":11204,"×ķ×ķ×¢×¨×ĺ×Ļ×§":11205,"Ġ×ĺ×©×Ļ×§×Ĳ×ķ×ķ×¢":11206,"Ġ×¦×¢×ł×ĵ×ľ×Ļ×§×¢×¨":11207,"Ġ×§×ľ×ķ×Ĵ×¢×¨":11208,"Ġ×ľ×¢×ķ×ķ×¢×ľ":11209,"Ġ×ŀ×ķ×ŀ×Ĺ×Ļ×Ŀ":11210,"Ġ×Ľ×¢×ŀ×Ļ×§":11211,"Ġ×ŀ×Ĳ×ĺ×¨×Ļ×Ĳ×ľ":11212,"×Ĳ×Ļ×Ļ×¢×¨":11213,"Ġ×§×¢×ł×¢×¨":11214,"×ĵ×ķ×Ļ×¢×¨×Ł":11215,"Ġ×©×Ĳ×Ļ×Ł":11216,"Ġ×¢×ķ×ĸ":11217,"×Ķ×¡":11218,"Ġ×Ļ×ķ×ľ":11219,"Ġ×¡×¡":11220,"Ġ×¡×¢×ł×ĺ×¢×¨":11221,"Ġ×¨×Ļ×¡×ĺ":11222,"×¢×ĺ×Ĳ×¨":11223,"×Ĳ×Ĵ×Ĳ":11224,"×ł×ĵ×ľ×ĺ":11225,"×Ĳ×ŀ×ľ×ĺ":11226,"Ġ×Ľ×Ĳ×ľ":11227,"Ġ×Ľ×Ļ×¤×ķ×¨":11228,"Ġ×ĳ×ľ×Ļ×ł×ĵ":11229,"Ġ×ĳ×ľ×ķ×ŀ×Ļ×ł×Ĵ":11230,"×Ļ×Ļ×ĵ×ĸ":11231,"×ľ×Ļ×Ľ×¢×Ł":11232,"Ġ×¨×¢×ĵ×¢×Ł":11233,"Ġ×Ĵ×¢×ŀ×Ļ×©":11234,"×ķ×Ļ×ł×ķ×ł×Ĵ":11235,"Ġ×Ĳ×¨×ķ×Ļ×¤×§×ķ×ŀ×¢×Ł":11236,"Ġ×Ĵ×Ĳ×ł×¦×¢×Ł":11237,"Ġ×Ĳ×ŀ×ª×Ł":11238,"Ġ×¡×Ļ×¡×ĺ×¢×ŀ×¡":11239,"Ġ×Ĳ×¨×ķ×Ļ×¡×Ĵ×¢×ķ×ķ×Ĳ×¨×¤×Ł":11240,"Ġ×Ĳ×ł×ķ×ł×Ĵ":11241,"Ġ×¡×¢×Ļ×ł×ĺ":11242,"Ġ×ĵ×Ļ×¤×Ĳ":11243,"Ġ×ĺ×¢×§×ł×Ĳ":11244,"×Ĳ×Ĺ×ĵ":11245,"Ġ×§×Ĳ×¡×ĺ×ķ×ŀ×¢×¨":11246,"×¨×ķ×ķ×ķ×ĺ":11247,"Ġall":11248,"Ġ×Ĳ×Ļ×Ļ×ł×¤×ľ×ķ×¡":11249,"×¦×ķ×ľ×Ļ×ĳ":11250,"Ġ×©×ķ×ķ×Ļ×ŀ×¢×Ł":11251,"Ġ×¢×ł×Ĵ×ľ×Ļ×©×¢×¨":11252,"Ġ×©×ĺ×Ļ×ľ×¢×¨×Ķ×Ļ×Ļ×ĺ":11253,"Ġ×Ĳ×ł×Ľ":11254,"Ġ×¤×¢×§×ľ":11255,"Ġ×ķ×Ļ":11256,"Ġ×ŀ×Ļ×©×ĺ":11257,"Ġ×Ĵ×¢×ł×ĺ×¤×¢×¨×ĺ":11258,"×¡×¢×ĳ×Ĳ":11259,"Ġ×ĳ×Ļ×©×¨×Ĳ×ľ":11260,"Ġ×§×ĺ×Ł":11261,"Ġ×§×ķ×Ĵ×ľ":11262,"Ġ×©×Ļ×¡":11263,"Ġ×©×ª":11264,"Ġ×¢×Ļ×ľ×Ĳ":11265,"×ŀ×Ļ×¨×ĺ":11266,"×Ķ×ķ×ķ×Ķ":11267,"Ġ×ĺ×Ļ×Ŀ":11268,"Ġ×ľ×Ļ×Ļ×¡":11269,"Ġ×¡×ķ×ŀ":11270,"Ġ×¨×Ļ×Ļ×¢×Ł":11271,"×Ľ×Ĳ×¤×Ł":11272,"×ķ×ł×ĺ×Ĳ":11273,"Ġ×ķ×ķ×¢×ľ×ĵ×¢×¨":11274,"×ĺ×¨×¢×ĺ×Ł":11275,"Ġ×Ĵ×¢×¤×Ĳ":11276,"Ġ×Ĳ×ł×Ĵ×¢×ĳ":11277,"Ġ×Ĵ×¢×ĵ×¨×Ļ×§×ĺ":11278,"×ł×©×ĺ":11279,"Ġ×Ĳ×ķ×ł×ĺ×¢×¨×Ĵ×¨×ķ×ł×ĺ":11280,"×¨×ķ×Ļ×¡×Ĵ×Ĳ":11281,"150":11282,"×Ĵ×¢×¤×Ļ×¨×ĺ":11283,"Ġ×Ķ×ĵ×Ļ×Ł":11284,"Ġ×Ķ×Ĺ×ľ×ĺ":11285,"ĠDe":11286,"Ġ×¤×¨×Ĳ×¤×Ĳ×Ĵ":11287,"Ġ×Ķ×¢×ĳ×¨×¢×Ļ×©":11288,"Ġ×¢×ł×ĵ×¢×¨×ķ×ł×Ĵ":11289,"×©×©×©×©":11290,"Ġ×ľ×Ļ×ķ×ĳ×Ĳ×ķ×ķ×Ļ×ĺ×©×¢×¨":11291,"Ġ×Ĵ×¢×Ĳ×Ĵ×¨×Ĳ×¤×Ļ×©":11292,"×ĺ×Ļ×§×Ĳ":11293,"×¨×ķ×ĺ":11294,"Ġ×¤×Ĳ×ŀ×¤":11295,"Ġ×ŀ×ķ×ª×¨":11296,"Ġ×ŀ×ł×Ļ×¢×ķ×ª":11297,"Ġ×¦×Ļ×§×ľ":11298,"×ł×Ļ×¨":11299,"×ŀ×Ļ×Ĳ":11300,"Ġ×ĺ×Ļ×¢":11301,"×Ĵ×¢×ĳ×¨×¢×ł×Ĵ×ĺ":11302,"Ġ×Ĳ×ĸ×Ĳ×ł×¢":11303,"Ġ×Ĳ×ķ×Ļ×¡×§×ķ×§×Ł":11304,"×¨×ĺ×ľ":11305,"Ġ×Ĵ×¢×Ķ×Ļ×Ļ×ŀ":11306,"×ķ×¦×Ĳ×Ķ":11307,"Ġ×Ĳ×ł×Ĵ×¢×©×ĺ":11308,"×Ĳ×Ķ×¨":11309,"×ł×©×Ķ":11310,"Ġ×ŀ×¦×Ķ":11311,"Ġ48":11312,"ens":11313,"Ġ×ĳ×¢×ķ×ŀ×¨":11314,"×¢×ł×©×Ļ×Ĳ":11315,"Ġ180":11316,"Ġ×Ļ×ĵ×¢×Ĳ":11317,"Ġ×§×¨×Ļ×Ĳ×ª":11318,"Ġ×Ķ×Ĳ×ł×ĵ×ľ×ĺ":11319,"×ķ×ķ×¢×¨×¡×§×Ļ":11320,"Ġ×¤×Ĳ×¨×¨×¢×Ľ×ĺ×Ł":11321,"Ð¿Ð¿Ð¿Ð¿":11322,"Ð¼Ð¼Ð¼Ð¼Ð¼Ð¼Ð¼Ð¼":11323,"Ġ×Ĳ×Ļ×ł×ĺ×©×¢×¡":11324,"Ġ×¢×ł×ľ×Ļ×ļ":11325,"Ġ×ĵ×Ļ×Ļ×ķ×ķ×¢×¨×¡":11326,"Ġ×Ĳ×ķ×ľ×Ļ":11327,"Ġ×ĸ×ķ×ŀ×¤":11328,"×ŀ×¢×ł×©":11329,"×¢×ł×¢×¨×Ł":11330,"Ġ×ľ×¢×ŀ×ĳ×¢×¨":11331,"Ġ×¡×ķ×ĵ×ķ×ª":11332,"×Ĳ×ľ×¡×ĺ":11333,"×Ļ×Ĵ×¢×ł×ĺ":11334,"×¨×Ĳ×Ļ×Ļ×ł×Ļ×§×ĺ×¢":11335,"×ª×Ł":11336,"Ġ×¤×¨×ķ×ŀ×¢×¨":11337,"×¢×¦×Ļ×¢×ľ×¢":11338,"×ķ×¤×ķ×ª":11339,"Ġ×ĳ×¨×Ĳ×ĵ":11340,"Ġ×Ĵ×¢×ľ×¢×Ĵ×Ł":11341,"Ġ×Ĳ×ķ×Ļ×¡×Ĵ×¢":11342,"×¤×Ĳ×¨×©×¢×¨":11343,"×ķ×Ļ×ĳ×¢×Ł":11344,"×Ĵ×¢×©×Ļ×§×ĺ":11345,"Ġ×Ķ×ŀ×ķ×Ł":11346,"âĢŁÖ¾":11347,"ary":11348,"×©×ĳ×Ķ":11349,"Ġ×ŀ×¢×¡×Ļ×ķ×ķ":11350,"Ġ×Ĳ×Ļ×Ļ×¨×Ĳ×¤×¢×Ļ×©×¢×¨":11351,"Ġ×Ķ×Ĳ×ł×ĵ×ľ×¢×Ł":11352,"Ġ×ľ×ĵ×ķ×Ĵ×ŀ×Ĳ":11353,"×Ĵ×¢×¦×ķ×Ļ×Ĵ×Ł":11354,"Ġ×ŀ×©×ķ×Ĵ×¢×Ļ×Ŀ":11355,"Ġ×ł×ķ×ĵ×ł×¢":11356,"Ġ×Ĳ×ĳ×Ļ×¡×¢×ľ×¢":11357,"Ġ×Ĳ×ķ×Ļ×¡×ĺ×¨×Ĳ×ľ×Ļ×¢":11358,"Ġ×¡×ķ×Ĺ×¨":11359,"Ġ×§×Ļ×ł×Ĵ×ĵ×Ĳ":11360,"çļĦ":11361,"duc":11362,"mes":11363,"×Ĳ×Ļ×ł×ĵ":11364,"×Ĳ×Ļ×Ļ×ķ×ķ×¢×ľ×ĺ":11365,"×ķ×ł×¡×ĺ":11366,"×¡×Ĳ×Ļ×ĸ":11367,"Ġ×ĸ×Ļ×Ľ×Ł":11368,"Ġ×§×¢×ĺ":11369,"Ġ×ł×¢×§×¡":11370,"×ĳ×ķ×©":11371,"×§×¢×Ĵ":11372,"×Ĵ×¢×¡×ĺ":11373,"×¢×¡×¡":11374,"×¢×§×©×Ĳ×Ł":11375,"Ġ×Ĵ×¢×©×¢×¤":11376,"×ĸ×©×¢":11377,"×Ļ×Ļ×ĵ×ľ":11378,"×ķ×Ĵ×¡":11379,"×Ĳ×Ľ×ĺ×¡":11380,"×¨×ĺ×ŀ×Ĳ":11381,"Ġ×¢×ĺ×¡":11382,"Ġ×Ĳ×ķ×Ļ×¡×Ĵ×¢×§×ķ×ŀ×¢×Ł":11383,"Ġ×©×ķ×ķ×¢×ľ":11384,"Ġ×Ĳ×¡×ª×¨":11385,"×ķ×ķ×Ļ×¡×¢":11386,"×ķ×ķ×¢×Ļ×ľ":11387,"Ġ×¦×ķ×ŀ×Ļ×©×ĺ":11388,"Ġ×¢×§×¡×ĺ×¨×¢×ŀ":11389,"Ġ×¡×ŀ×Ĳ×¨×ĺ×¤×Ĳ×ķ×Ł":11390,"Ġ×ĸ×Ļ×Ľ×¢×Ł":11391,"ÑģÑģÑģÑģÑģÑģÑģÑģÑģÑģÑģÑģÑģÑģÑģÑģ":11392,"ys":11393,"Ã¤":11394,"×ĺ×¢×ł×ĺ":11395,"Ġ×ķ×ķ×ľ":11396,"×¡×ķ×ĳ":11397,"Ġ×Ķ×ĺ×ķ×ĳ":11398,"Ġ×©×¢×ł×¢×¨":11399,"Ġ×¢×Ĳ":11400,"×ŀ×Ĺ×Ķ":11401,"Ġ×ľ×ŀ×¢×Ł":11402,"Ġ×¢×¨×ľ×Ļ×Ļ":11403,"×¢×ĵ×¨×ķ×§×ĺ":11404,"âĢ¢":11405,"×©×ĺ×Ĳ×ł×¢×Ł":11406,"×ł×Ĳ×Ļ":11407,"Ġ×¨×Ĳ×Ļ×ķ×ª":11408,"Ġ×¢×ľ×Ļ×ķ":11409,"Ġ×ĳ×Ĳ×¨×ĺ×Ł":11410,"Ġ×ľ×Ļ×ł×§×¢×Ł":11411,"Ġ×Ľ×ľ×ľ×Ļ×Ŀ":11412,"Ġ600":11413,"Ġ×Ĵ×¢×ĺ×¨×Ĳ×¤×¢×Ł":11414,"×ĳ×Ļ×ľ×ĵ":11415,"Ġ×¦×Ļ×ķ×ł×Ļ×Ŀ":11416,"tern":11417,"×Ļ×ķ×ķ×Ļ×ĺ×Ļ":11418,"Ġ×Ĺ×ķ×©×ļ":11419,"Ġ×¤×Ĳ×ł×¢×ľ":11420,"Ġ%":11421,"×¨×ł×¢":11422,"Ġ×¤×Ĳ×ł×Ĵ×ĺ":11423,"Ġ×Ĵ×Ĳ×ł×Ĵ":11424,"Ġ×Ķ×ķ×Ļ×¢×ļ":11425,"Ġ×¢×ł×Ľ×Ĳ":11426,"×§×Ĳ×¤":11427,"×§×ķ×ľ×ĺ×ķ×¨":11428,"Ġ×¨×¢×ķ×ķ×Ĳ":11429,"×¢×ĺ×Ļ×ķ×ķ":11430,"×¦×§×¢":11431,"×ª×ĳ":11432,"×ĵ×¢×¨×¤×Ĳ×¨":11433,"Ġ120":11434,"Ġ×ł×Ĳ×ķ":11435,"Ġ×Ĳ×ķ×Ļ×¤×ŀ×¢×¨×§":11436,"×¨×ĵ×ĸ×©":11437,"Ġ×¢×ľ×Ļ":11438,"Ġ×ł×Ĳ×Ľ×¤×Ĳ×ľ":11439,"ĠCl":11440,"Ġ×§×Ĳ×ŀ×¤×¢×ł×Ļ×¡":11441,"Ġ×ĵ×¢×ķ×ķ×Ļ×¡×¢×¡":11442,"Ġ×Ľ×Ĳ×ĺ×©×Ļ×Ĵ":11443,"×Ĳ×¦×Ļ×Ĳ×ł×Ĳ×ľ×¢×¨":11444,"×Ĵ×¢×§×ķ×§×ĺ":11445,"Ġ×§×¢×¡×Ļ×Ļ×ĵ×¢×¨×ĵ×Ļ×§":11446,"×Ĵ×¢×©×ĺ×Ĳ×ł×¢×Ł":11447,"Ġwho":11448,"Ġ×ĵ×Ĳ×ĺ×ķ×Ŀ":11449,"Ġ×ŀ×¢×ĺ×¨×Ĳ×¤×Ĳ×ľ×Ļ×¢":11450,"Ġ×ľ×¢×Ļ×§×ķ×ķ×Ĳ×ĵ":11451,"×ľ×ķ×ĺ":11452,"Ġ×Ĵ×Ļ×¡×Ł":11453,"Ġ×Ķ×ł×Ĺ":11454,"Ġ×ĳ×¢×Ĳ":11455,"Ġ×ĳ×ŀ×Ķ":11456,"Ġ×§×Ĳ×ļ":11457,"Ġ×ł×ķ×ľ":11458,"×ł×Ļ×¨×ĺ":11459,"Ġ×ĺ×¨×Ļ×Ļ×¡×ĺ":11460,"Ġ×¡×Ĳ×ĳ":11461,"Ġ×©×ĺ×²":11462,"Ġ×Ľ×ķ×ª":11463,"Ġ×ł×Ĳ×¢×ł×ĺ":11464,"Ġ×§×¨×¢×Ŀ":11465,"×ķ×ķ×¢×¨×ĺ×¢×¨":11466,"×ł×§×¨×Ļ×Ļ":11467,"ï¬¯×¨×Ł":11468,"×ķ×Ĳ×ķ×ª":11469,"Ġ×§×Ĳ×ŀ×¤×Ĳ×ł×Ļ×¡":11470,"×©×¤×¢×ĺ×¢×¨":11471,"ĠPos":11472,"Ġ×¤×Ļ×ł×¢×£":11473,"Ġ×ľ×Ļ×ĺ×ķ×ķ×Ĳ×§":11474,"phis":11475,"Ġ×¤×¨×Ĳ×ĺ×¢×¡×ĺ×Ł":11476,"Ġ×¤×ľ×ķ×¦×ľ×ķ×ł×Ĵ":11477,"Ġ×Ĳ×ķ×§×¨×Ĳ×Ļ×ł×¢":11478,"Ġ×Ĺ×¤×¥":11479,"Ġ×ĵ×ĸ×©×Ļ×ĸ×¢×¨×Ĳ":11480,"ĠMemphis":11481,"mart":11482,"Ġ×ĵ×ķ×§":11483,"×ľ×Ļ×Ĵ×¢":11484,"Ġ×ŀ×ĸ×Ķ":11485,"×ĵ×ķ×ĵ":11486,"×ĳ×ĵ×¨×ļ":11487,"Ġ×¢×ĳ×¨":11488,"×ŀ×Ĳ×¨×ĺ":11489,"Ġ×ĺ×ķ×ķ×¢×¨×¡×§×Ļ":11490,"×Ĵ×¢×ľ×Ļ×Ļ×Ĵ×ĺ":11491,"Ġ×¡×Ļ×¢":11492,"×¢×ľ×Ļ×¢":11493,"×¢×ľ×ľ×Ĳ":11494,"×Ļ×ķ×ķ×Ļ×ľ":11495,"Ġ×Ĺ×ķ×ĳ×ķ×ª":11496,"×ł×ĺ×Ļ×§×¢":11497,"Ġ1000":11498,"Ġ×Ĵ×¢×Ķ×Ĳ×ľ×ĺ×¢×Ł":11499,"Ġ×©×ľ×¢×¤×Ł":11500,"Ġ×§×Ĳ×ľ×Ļ×¨×Ł":11501,"×ĸ×¢×¦×¢×¨×Ļ×Ļ":11502,"×ķ×ķ×Ļ×¨×Ł":11503,"Ġ×¨×©×¢×ķ×ª":11504,"×§×¡×ł×ķ×ŀ×§×¡×ĵ":11505,"Ġ×ŀ×Ĳ×Ľ×ľ×Ļ×Ŀ":11506,"Ġ×ŀ×¢×ł×©×Ķ×Ļ×Ļ×ĺ":11507,"Ġ×©×ĺ×Ĺ×Ļ×Ŀ":11508,"×ķ×ķ×Ļ×Ļ×ĵ×Ļ×ł×Ĵ":11509,"ÑĥÑĥÑĥÑĥÑĥÑĥÑĥÑĥÑĥÑĥÑĥÑĥÑĥÑĥÑĥÑĥ":11510,"Ġ×©×Ĳ×ł×¡×Ł":11511,"Ġ×¤×Ĳ×ŀ×Ļ×ľ×Ļ×¢×¡":11512,"Ġ×Ľ×¢×ĸ×ĳ×Ĳ":11513,"Ġ×§×Ĳ×ł×ĺ×¨×Ĳ×ķ×ķ×¢×¨×¡":11514,"58":11515,"Ġ×ŀ×Ļ×Ļ×ł×¢×¨":11516,"×©×ĺ×¢×¨×Ł":11517,"×¤×Ļ×Ĳ":11518,"×ĸ×ķ×Ľ×ĺ":11519,"Ġ×©×ķ×¤":11520,"×ŀï¬®":11521,"Ġ×¡×Ķ×Ĳ×ĺ":11522,"Ġ×¨×Ļ×ľ×Ĳ":11523,"Ġ×¨×Ļ×Ļ×ł×¢×Ŀ":11524,"×ł×ĺ×Ļ×ĵ":11525,"Ġ×ª×©×¨×Ļ":11526,"Ġ×¤×Ĳ×ķ×ł×¡":11527,"×Ļ×Ļ×¢×¨×Ł":11528,"Ġ×ķ×ķ×Ļ×ľ×ł×¢×¨":11529,"Ġ×Ķ×Ĳ×ĳ×Ļ×ļ":11530,"Ġ×ŀ×©×ľ×Ļ×Ŀ":11531,"×§×Ļ×Ļ×ĺ×Ĳ":11532,"×ł×¢×¨×ĸ":11533,"Ġ×Ĳ×©×ª":11534,"Ġ×¡×Ĳ×ĺ×¢×ľ":11535,"Ġ×Ĳ×ķ×Ļ×Ĵ×¢×Ł":11536,"×¨×ľ×¢×¡":11537,"Ġ×Ķ×Ļ×ł×ĺ×¢×¨×Ĵ×¨×ķ×ł×ĺ":11538,"Ġ×ľ×Ļ×¤×Ĳ":11539,"Ġ×ª×¤×Ļ×ľ×ķ×ª":11540,"Ġ×¦×ķ×ķ×Ļ×ł×Ĵ×¢×Ł":11541,"Ġ×Ķ×Ļ×©×Ļ×ĳ×Ķ":11542,"!...":11543,"Ð±":11544,"×Ĳ×±":11545,"×¢×¨×Ļ×Ł":11546,"×Ļ×Ļ×ł×©":11547,"×§×Ĳ×¨×ĺ":11548,"×§×ķ×ķ×Ĳ×¨×ĺ":11549,"×ķ×ķ×¢×ľ×Ľ×¢":11550,"Ġ×¤×Ĳ×¨×Ĵ×ľ×Ļ×Ļ×ļ":11551,"Ġ×¢×¨×¦":11552,"Ġ×©×¤×¢×§":11553,"×Ļ×ĳ×¢×ł×¢":11554,"×Ļ×¤×ľ×Ĳ":11555,"Ġ×§×ľ×Ļ×Ļ×ł×Ļ×§":11556,"ï¬µ":11557,"×ĺ×¨×Ķ":11558,"Ġ×Ĵ×¢×¤×¨×ķ×ķ×ķ×ĺ":11559,"Ġ×ĵ×ĸ×©×Ļ×Ĳ":11560,"Ġ×¨×¢×Ĵ×Ļ×Ĳ":11561,"Ġ×Ļ×ķ×ł×Ĵ×ľ":11562,"Ġ×¡×¢×§×ķ×ł×ĵ×¢×¡":11563,"Ġ×¢×¨×Ĵ×¡×ĺ×¢":11564,"Ġ×ĳ×Ļ×Ļ×©×ĺ×Ļ×Ļ×¢×¨":11565,"Ġ×ĸ×©×ķ×¨×ł×Ĳ×ľ×Ļ×¡×ĺ×Ł":11566,"ÐºÐ°":11567,"Ġ×ĸ×ķ×ł×ĺ×Ļ×§":11568,"Ġ×Ķ×ķ×¨×ķ×ķ×Ļ×¥":11569,"Ð°Ð°Ð°Ð°Ð°Ð°Ð°Ð°":11570,"×Ķ×Ļ×¡×ĺ×Ĳ×¨×Ļ×¢":11571,"press":11572,"×¢×¢×¡":11573,"Ġ×Ĳ×ĳ×Ĳ":11574,"Ġ×ĵ×ĸ":11575,"×ľ×Ľ×Ķ":11576,"×ľ×Ľ×ª":11577,"Ġ×ŀ×Ĳ×ł×ĵ":11578,"Ġ×ķ×ķ×Ĳ×ł×ĵ":11579,"Ġ×Ĵ×¨×Ļ×Ļ×ĸ":11580,"Ġ×ĳ×Ļ×§":11581,"×ķ×ķ×¢×¨×Ł":11582,"Ġ×¨×Ļ×Ļ×ł×¢×¨":11583,"×¢×ĺ×Ļ×Ł":11584,"Ġ×¤×¨×Ĳ×ĸ×¢":11585,"Ġ×ĵ×¨×Ĳ×¤":11586,"Ġ×¡×ĺ×Ļ×§×¢×¨":11587,"×ķ×Ĺ×Ł":11588,"×ķ×Ļ×ľ×¢":11589,"ale":11590,"Ġ×ŀ×©×¤×Ĺ×ª":11591,"×ķ×Ļ×ĵ×¢×Ŀ":11592,"Ġ×Ĳ×Ļ×Ļ×ĸ×¢×¨":11593,"Ġ×ľ×¢×ĳ×¢×ĵ×Ļ×Ĵ×¢":11594,"Ġ×ĺ×¢×ł×¢×¡×Ļ":11595,"×ł×Ĵ×¢×©×Ļ×§×ĺ":11596,"ãĢģ":11597,"ellow":11598,"Ġ×¤×Ĳ×¨×ĸ×Ļ×Ľ×¢×¨×Ł":11599,"Ġ×¦×Ĳ×ł×ĸ×¢×¨":11600,"Ġ×ĳ×Ĳ×Ĵ×¨×¢×ł×¢×¦×ĺ":11601,"Ġ×Ĳ×ķ×ŀ×ľ×¢×Ĵ×Ĳ×ľ×¢":11602,"OW":11603,"×ĺ×¢×ł×¢":11604,"×ľ×ķ×ķ":11605,"×¡×¢×Ĳ":11606,"×¤×¢×§×ĺ×Ļ×ķ×ķ":11607,"Ġ×Ĳ×¨×ŀ":11608,"Ġ×Ĵ×¢×ķ×ķ×¢×ľ×ĺ":11609,"Ġ×Ĳ×¤×¨×Ļ×Ŀ":11610,"Ġ×Ĵ×¨×¢×¤":11611,"Ġ×Ĳ×Ļ×ĳ×¢×¨×¨×Ĳ×©":11612,"Ġ×¨×ĳ×ķ×ł×ķ":11613,"Ġ×Ĳ×ķ×Ļ×¤×Ĵ×¢×¨":11614,"Ġ×ŀ×©×ķ×Ŀ":11615,"Ġ×ŀ×Ĺ×ķ×ľ×§":11616,"×ĳ×ľ×ķ×Ļ×ĸ":11617,"Ġ×ŀ×Ļ×ł×¢":11618,"Ġ×ĳ×Ĳ×ł×ķ×¥":11619,"Ġ×¢×§×¡×¢×ľ":11620,"Ġ//":11621,"Ġ×Ĳ×ķ×ķ×¢×§×ł×¢×ŀ×¢×Ł":11622,"Ġ666":11623,"Ġbr":11624,"Ġ×ŀ×Ľ×Ĺ":11625,"×¦×Ļ×Ĳ×ķ×ª":11626,"×ķ×ĳ×¨×¢×ł×Ĵ×Ł":11627,"Ġ×ķ×ķ×Ļ×ĸ×ł×Ļ×¥":11628,"Ġ×Ķ×Ļ×ĵ×¨×Ĳ":11629,"×¨×¢×ł×ĵ×Ļ×§×Ł":11630,"Ġ×¡×Ĵ×ķ×ľ×Ķ":11631,"Ġ×¢×§×¡×¤×¢×¨×ĺ×Ł":11632,"51":11633,"×¨×Ļ×¡×Ĳ":11634,"Ġ×ĵ×¢×ĵ×Ĳ":11635,"Ġ×ŀ×¨×ŀ×ĸ":11636,"×ĳ×ľ×¢×ļ":11637,"Ġ×©×Ļ×Ļ×ĺ":11638,"×ł×Ļ×ķ×ķ×¢×¡":11639,"×Ļ×ĺ×Ļ×ķ×ķ×¢":11640,"Ġ×Ļ×¦×Ĳ":11641,"Ġ×¡×ķ×Ļ":11642,"×Ļ×ł×Ļ×¨×Ł":11643,"Ġ×©×ĺ×Ĳ×ľ":11644,"×¢×ł×ĺ×¡":11645,"Ġ×Ĺ×ķ×ª":11646,"Ġ×Ľ×Ļ×¨":11647,"×§×Ĳ×ķ×ķ×¢":11648,"×¨×ĵ×Ļ×Ĳ":11649,"Ġ×ŀ×Ĺ×Ļ":11650,"ance":11651,"Ġ×ŀ×¢×Ĵ×Ĳ":11652,"×§×¨×Ļ×Ĵ":11653,"×¤×ľ×Ļ×¢":11654,"Ġph":11655,
[...]
