#version: 0.2 - Trained by `huggingface/tokenizers`
Ġ ×
× Ļ
×Ļ ×
× ¢
× ķ
×¢ ×
× Ĳ
Ġ× Ĳ
× ĺ
× ¨
× Ł
×Ĳ ×
×¢× ¨
Ö ·
Ġ× ĵ
×Ļ ×Ļ×
×ķ ×
Ġ× ¤
× ľ
ł ×
Ġ×Ĳ ×Ļ×
Ġ× ķ
Ġ× ŀ
Ġ×ķ ×ķ
×ķ ×Ł
Ġ× Ĵ
Ö ¸
× ¡
×ķ ×Ļ×
Ġ× ĸ
×¢× Ł
Ġ× Ķ
Ġ× ĳ
×Ĳ ×¨
Ġ× §
× ©
× ¤
Ġ×ĵ ×Ļ
× ĵ
Ġ× ł
× ĳ
× ĸ
Ġ× ©
Ġ× ¦
Ġ× ¢
× ł
× ŀ
× §
Ġ×Ĳ ×ķ×Ł
×ķ ×ķ
Ö ¼
×Ļ× ©
×¢× ł
×Ļ× ĺ
ł× Ĵ
× Ķ
×Ļ ×Ļ
Ġ×¤ ×ķ×Ł
Ġ× ĺ
×Ļ×Ļ× Ł
Ġ× Ļ
Ġ×Ĳ×Ļ× ĸ
× Ĵ
Ġ×Ĵ ×¢×
Ġ× ľ
Ġ×Ĳ ×ķ×Ļ×
Ġ× ¡
×Ĳ ×ĺ
Ġ×Ĳ×Ļ× Ł
×Ĳ× ľ
×Ĳ× ¡
ł× ĵ
×¢× ľ
×Ļ× §
Ġ× ¨
Ġ×¦ ×ķ
×Ļ× ¨
×Ļ× ľ
Ġ×ĵ ×¢×¨
×¢× ĺ
Ö ¿
×¢× ¡
Ġ×¤ ×Ĳ×¨
×Ļ× ¢
×¢× Ŀ
×Ļ×Ļ× ĺ
Ġ×Ĳ ×ĸ
Ġ×Ķ ×Ĳ×ĺ
×ķ ×¨
× Ľ
ĳ ×Ł
×Ļ×© ×ĺ
×Ļ× ļ
× ¦
Ġ×ŀ ×Ļ×ĺ
×ĺ ×¢×¨
Ġ×ł ×Ļ×©×ĺ
×Ļ× ¡
×ķ× ŀ
×Ļ×Ļ× ł
× ł×
Ġ×ķ×ķ ×Ĳ×¡
×Ļ× Ĵ
Ġ×¢ ×¨
×¢ ×ķ×ķ
×¢× Ĵ
Ġ×Ĳ ×¨
. .
×¢× §
×¨ ×Ĳ
Ġ×¢ ×¡
×Ļ× Ŀ
Ġ×ĸ ×Ļ×ļ
×ķ× ª
×Ļ×Ļ× ¢
×Ļ× ĵ
× ª
×¢×ł ×¢×Ł
Ġ×Ĵ ×¢×ķ×ķ
×Ļ× ł
×Ĳ× Ľ
Ġ×© ×ĺ
×¢× ŀ
×¢×ł ×ĺ
×¢× ĵ
×Ļ× Ĳ
Ġ×ĵ ×¢×Ŀ
×Ĳ× Ĵ
×Ļ× ķ
Ġ×Ĳ×ķ×Ļ× £
×Ĳ× ļ
× ł×ĵ
Ġ×ķ×ķ ×Ļ
× Ĺ
â Ģ
×ķ× ľ
Ġ×¤ ×¨
×Ĳ× ł
×Ļ× Ľ
×ķ× ł×Ĵ
× Ŀ
×ĺ ×Ł
Ġ×Ĳ ×ľ
Ġ× Ĺ
×Ĳ× ŀ
Ġ× Ľ
×Ĳ× ¤
×Ļ× ł×Ĵ
×Ļ× ĸ
× ļ
×ķ× ł
Ġ×Ĳ×Ļ× ļ
Ġ×§ ×Ĳ
Ġ×Ĳ×Ļ× ¨
ĳ ×¢×¨
×ľ ×Ĳ
×ĺ ×¢
Ġ×Ķ ×Ĳ×
×Ļ× Ł
Ġ×ĸ ×Ļ×Ļ×Ł
Ġ×ĵ ×Ĳ
×ĵ ×¢×¨
×¢× ¤
×ł ×ĺ
Ġ×ĸ ×Ļ×Ļ
×Ļ×Ļ× ľ
Ġ×Ķ ×Ĳ
×ĳ ×¢×¨
×ķ× ĵ
Ġ× ª
Ġ×ĳ ×Ĳ
Ġ×ķ×ķ ×Ĳ
Ġ×ŀ ×¢×Ł
×ľ ×¢×
×Ĳ× §
×ķ×Ļ× ¡
×ķ× ĳ
Ġ (
×¡ ×ĺ
Ġ×ķ×ķ ×¢×ľ
×ķ× ¡
×ķ× §
× ²
Ġ×¤ ×Ĳ
×¨ ×Ļ×Ļ×
×ķ ×Ļ
Ġ×ŀ ×Ĳ
Ġ×© ×¤
×ķ× Ŀ
ł× §
×Ļ×Ļ×¢ ×¨
Ġ×Ĳ ×Ļ×Ļ×
Ġ×ĸ ×¢×ł×¢×Ł
ł× ¡
Ġ×Ĳ ×¤
Ġ×ĵ ×Ĳ×¡
Ġ×Ĵ ×¨
×ķ ×ĺ
Ġ×Ĳ×ķ×Ļ× ¡
Ġ×Ĵ×¢× ©
×Ļ× ¦
×Ļ× ĳ
Ġ×ŀ ×Ļ×¨
Ġ×Ĵ×¢×ķ×ķ ×¢×Ł
Ġ×ķ×ķ ×¢×¨
×ĺ ×Ĳ
×ķ×ŀ ×¢×Ł
× ł×Ĵ
Ġ 2
×ķ ×ķ×Ļ×
Ġ×Ķ×Ĳ× ĳ×Ł
×© ×ĺ
×Ļ× ŀ
× ¥
×¢× ¦
×Ļ×© ×¢
Ġ×ķ×ķ ×¢×ĺ
.. .
×ŀ ×Ĳ
×Ļ× ¤
Ġ×§ ×Ļ×Ļ×Ł
×ķ× ¤
×¢× Ľ
Ġ×ĳ ×¨
× £
Ġ "
Ġ -
×¢× Ķ
Ġ 1
×§ ×¡
×Ĳ×Ľ ×Ł
Ġ âĢ
Ġ×Ĵ ×Ĳ
×ł ×Ĳ
Ġ×Ļ ×Ĳ×¨
Ġ×Ĳ×ķ×Ļ× ļ
×Ļ×¡ ×ĺ
×ĵ ×Ļ
×¢× ©
Ġ×Ĳ ×Ł
Ġ×ĵ ×ķ×¨
×ķ× ĸ
×ĸ ×©
Ġ×Ĳ ×ĳ×¢×¨
×¢×¨ ×¢
×¢× ł×ĵ
Ġ×ł ×Ĳ
Ġ×ł ×Ĳ×ļ
Ġ â
Ġ×Ĳ ×ķ×
×¢× ĳ
Ġ×ĳ ×Ĳ×
Ġ×ŀ ×¢×¨
×¨ ×Ļ×
×© ×¨
ł× ¦
Ġ×Ĳ×Ļ× ĳ×¢×¨
Ĺ ı
Ġâ Ĺı
Ġ×ł ×Ļ×ĺ
×ķ× ©
Ġ×ķ×ķ ×¢×Ł
Ġ×ĸ ×Ļ×Ļ×¢×¨
Ġ×§ ×¢×Ł
Ġ×Ĳ×ľ ×¢
Ġ×ĺ ×Ĳ
Ġ×ł ×Ĳ×¨
Ġ×ĺ ×¨
Ġ×ĳ ×ľ
×¢×¨ ×ĺ
Ġ×ĳ ×Ļ×Ļ
×ĳ ×Ł
×ķ×Ļ× ¤
×Ļ× ł×ĵ
×Ĳ×¨ ×ĺ
×ł× ¡
×Ļ×¨ ×Ł
×¢×Ĵ ×Ł
×ķ×ķ ×Ĳ
×Ļ×Ļ× ĵ
×ķ× Ĵ
Ġ×§ ×¢×ł×¢×Ł
×Ļ×ķ ×ķ
Ġ×Ĳ×Ļ× ł
×Ĳ×ľ ×ĺ
×¨ ×ĳ
Ġ×Ĵ×¢× ĸ
×Ĳ× ł×ĵ
×Ļ×Ļ×ł ×ĺ
×ķ×Ļ× ĺ
Ġ×§ ×ľ
×Ļ×Ļ× ¡
0 0
×ķ×Ļ× Ł
×Ļ×¨ ×ĺ
×ľ×¢× ļ
×¢× ĸ
×Ĳ×¨ ×Ł
×ľ ×¢
×¨ ×Ļ×§
×Ĳ× ĵ
Ġ×¨ ×ĳ
Ġ×ĸ ×Ĳ×ľ
Ġ×¡ ×¤
×¢×ł×ĺ ×©
×Ļ×Ļ× ĸ
ï ¬
×Ĳ× ł×Ĵ
×ĵ ×¨
×Ĳ×Ľ ×ĺ
Ġ×Ĳ×ķ×Ļ× ¤
×Ĳ× ĳ
×¨ ×ĺ
ł× ĸ
Ġ×Ĳ×ķ×Ļ× ĳ
Ġ×© ×ķ×Ļ×Ł
×§ ×Ĳ
Ġ×Ĳ ×ŀ
Ġ×ĵ×ķ×¨ ×ļ
Ø §
×Ļ×Ļ× Ĵ
Ö ¾
Ġ×Ĳ ×ł×ĵ
×Ļ×Ĵ ×¢
×¢× ĳ×Ł
Ġ×Ĳ×ĸ ×ķ×Ļ
Ġ×Ĵ×¢× Ķ
×ĳ ×¨
Ġ×¦ ×ķ×ķ
Ġ×ŀ ×¢×ł×ĺ×©
Ġ×ĵ ×Ļ×Ļ×Ł
Ö ¶
Ġ×¤ ×ľ
×Ļ×Ļ×ł ×¢
Ġ×© ×¨×Ļ×Ļ×
Ġ×§ ×¨
Ġ×Ļ ×Ĳ
×Ĳ× ĸ
×Ļ×Ļ×ł ×¢×¨
×ľ ×Ļ×Ľ
Ġ×ķ×ķ ×Ļ×ľ
×ĺ ×¨
Ġ×Ĵ×¢× ¤
×Ĳ ×Ł
Ġ×ĵ ×¨
×ķ× ¦
×¢×§ ×¡
×¢×¨ ×Ł
Ġ×Ĳ×Ļ× ĵ
Ġ×Ļ ×¢×ĵ
×¢×¨ ×¡
Ġ×ľ ×Ĳ
×Ĳ ×Ļ×Ļ×Ł
×¢× ł×Ĵ
×¢×ł ×¢
Ġ×Ĳ×Ļ× Ŀ
×Ĳ× ¦
×¨×Ļ× ĳ×Ł
Ġ ,
Ġ×ķ×ķ×¢×ľ ×ĺ
×Ĳ×Ĵ ×ĺ
×ķ×Ļ× ĸ
Ġ×Ķ×Ĳ× ĳ
×Ĳ×ł ×ĺ
×ľ ×ĺ
Ġ×Ĵ×¢× ľ
Ġ×Ĵ×¢×ķ×ķ ×Ĳ×¨×Ł
Ġ×ŀ ×©
×Ĳ× ł×¦
×¢×ŀ ×¢×Ł
×ł× Ķ
Ġ×ĵ ×ķ
Ö ´
Ġ×Ĳ ×ĵ×¢×¨
×Ļ×Ļ× Ŀ
×¢× ł×¡
Ġ×Ĳ ×Ļ×Ļ×Ł
×© ×Ĳ
Ġ×Ĵ×¢×© ×¨×Ļ×ĳ×Ł
×Ļ×Ľ ×ĺ
×¢×¡ ×ĺ
Ġ×ķ×ķ ×Ļ×Ļ×ľ
Ġ |
Ġ×¢ ×¤
×Ļ×§ ×¢
×¨ ×ĵ
×¦ ×Ļ×¢
×Ĳ ×Ļ×ĸ
×¢×ľ ×ĺ
Ġ×¨ ×Ĳ
×ľ×¢× Ľ
Ġ×Ĳ×ł×ĵ ×¢×¨×¢
×ķ× ł×ĵ
Ġ×Ĵ ×¢
Ġ×Ĳ×ķ× ł×ĸ
Ġ×© ×ľ
×Ľ ×¢
Ġ×Ĵ×¨ ×ķ×Ļ×¡
×ķ× Ľ
Ġ×¡ ×ĺ
Ġ×Ĳ×¨ ×ķ×Ļ×¡
Ġ×§ ×Ļ×ł×ĵ
Ġ×Ĳ ×ł×Ĵ
Ġ×ľ ×ķ×Ļ×ĺ
Ġ×ĵ ×Ĳ×¨
Ġ×¢ ×ľ
Ġ×Ĵ ×ľ
×§ ×ĺ
×Ļ×Ļ× ĳ
Ġ×Ĳ ×ķ×ł
×ĳ ×Ĳ
×ķ×¨ ×Ķ
Ġ×¡ ×Ĳ
×ŀ ×¢×¡
Ġ×¨ ×¢×ĵ
ł× Ķ
Ġ×Ĵ×¢× ĳ
×§ ×Ļ×Ļ×ĺ
×¢× Ĳ
×ł ×¢×Ł
×ķ×ķ ×¢×¨
×ł× §
×ľ×Ļ×Ľ ×¢
×Ļ× ł×§
Ġ×ĳ ×Ļ×ĸ
Ġ×ķ×ķ ×¢×Ĵ×Ł
Ù Ħ
Ġ×¤ ×Ļ×ľ
×Ĳ×Ĵ ×Ł
Ġ×© ×ŀ
Ġ Ø
×¢×ľ ×Ł
Ġ×ķ×ķ ×Ĳ×Ľ×Ł
×ķ× Ķ
Ġ×ĸ ×Ļ
Ġ×ĺ ×Ĳ×Ĵ
Ġ×Ĳ ×Ļ×Ļ×ł×¢×¨
Ġ×ĸ ×Ĳ
Ġ×Ĳ ×ķ×ŀ
×Ĳ×ŀ ×¤
ł× ©
×ķ×Ļ× £
×Ļ×¢ ×¡
×Ļ×© ×Ł
×¨ ×§
×Ĳ ×ķ×Ł
×Ļ×© ×¢×¨
Ġ× °
Ġ×¢ ×ĺ
×Ļ×Ľ ×¢×¨
Ġ×Ĳ×Ļ×ł ×ĺ×¢×¨
Ġ×ĳ ×Ļ×ľ
ł× ¤
Ġ×¦×ķ×ķ ×Ļ×Ļ
×ķ×Ļ× ©
Ø ±
×ł ×ľ
Ġ×Ĵ×¢× Ĵ
Ġ×ķ×ķ×¢×¨ ×Ł
Ġ×Ĵ ×¢×ł
×¢×§ ×ĺ
×¨ ×©
×Ĵ ×ķ×ĳ
×ĸ ×ķ×Ļ
Ġ×¦ ×Ļ×Ļ×ĺ
×ķ×ł×Ĵ ×¢×Ł
Ġ×Ĵ×¢× ĺ
Ġ×ŀ ×Ļ×Ļ×Ł
×Ļ× ª
Ġ×¢×¨ ×©
×¢×¦ ×ĺ
×ķ×ł ×¢×Ŀ
ł×ĵ ×ĸ
Ġ×¨×ĳ ×Ļ
×ķ×ł ×ĺ
Ġ×Ĵ×¢× ŀ
Ġ×ĺ ×©
Ġ×Ļ ×Ļ
×ľ ×Ļ
Ġ×Ĳ×ķ× ł×ĵ×ĸ
r e
Ġ×¤ ×Ĳ×ľ
Ġ '
×Ĳ× ©
Ġ×ŀ×¢×ł×ĺ×© ×Ł
Ġ×ķ×ķ×¢×¨ ×ĺ
Ġ×Ĵ ×Ĳ×¨
×¨ ×Ĵ
Ġ×Ĵ ×¢×¨
Ġ×ķ×ķ×¢×ľ ×Ľ×¢
×¨ ×Ł
Ġ×Ĳ×ķ×Ļ×¡ ×Ĵ
×ŀ ×©
Ġ×Ļ ×©×¨
Ġ×ĳ×Ĳ× ©
×Ĳ×¤ ×ĺ
Ġ2 0
×¢×ĺ ×¢×¨
- -
×Ĳ ×Ļ×ļ
Ġ×¦ ×ķ×Ŀ
Ġ×ª ×Ĵ×ķ×ĳ
×¤ ×Ł
Ġ×ĳ ×Ĳ×§
Ġ2 00
Ġ×Ļ×©×¨ ×Ĳ×ľ
×¤ ×Ĳ×¨
×Ļ×ľ ×ķ
ï¬ ®
×¨ ×Ļ×Ļ
Ġ×ķ×ķ ×Ļ×Ļ×¡
Ġ×Ĵ×¢× §
Ġ×ĸ ×²
×Ļ×Ļ×¢ ×Ł
×Ļ×§ ×¢×¨
×Ļ×¦ ×Ł
Ġ×ŀ ×ķ×ĸ
×Ļ× Ķ
×ľ ×¢×¨
×Ļ×Ļ× Ľ
Ġ×Ĵ×¢× ĵ
×ł ×¢
Ġ×Ĳ×¨ ×Ĳ×¤
Ġ×Ĳ ×ĳ
×ł ×ķ×ŀ
Ġ×¦×ķ ×¨×Ļ×§
Ġ×Ļ ×Ļ×ĵ
×¢×ĺ ×Ł
ł× ¥
×ķ×Ļ× ¢
×Ļ×ł ×ĺ
×ł ×¢×¨
×Ľ ×Ł
×Ľ ×ľ
×ĵ ×Ĳ
Ġ×ł ×Ļ×Ļ×¢
×ľ ×Ļ×ļ
i n
×Ļ×§ ×Ł
Ġ×ĸ ×¢×ľ
×ĸ ×Ĳ
×Ļ×§ ×Ĳ
Ġ×ľ ×¢×ĳ×Ł
o n
Ġ×ł ×Ĳ×Ľ
×¤ ×¨
×Ļ×Ļ ×Ļ×Ļ
Ġ×ķ×ķ ×¢×Ĵ
×Ĳ×ľ ×ĺ×Ł
×Ļ×Ļ×ł ×¢×Ł
Ġ×§×Ļ×ł×ĵ ×¢×¨
×ŀ ×Ķ
Ġ C
Ġ Â
×Ĳ× Ķ
Ġ×§ ×ķ×ŀ
×Ĳ ×Ļ×Ł
×ł×ķ×ŀ ×§×¡
×¤ ×Ĳ
Ġ×Ĵ ×Ļ×Ļ×ĺ
×Ļ×§ ×ľ
×ł×ľ ×Ļ×Ļ×Ł
× ³
×Ļ×¡ ×Ł
×Ļ×ł ×¢×Ł
Ġ×ĵ ×ĸ×©
×ł× ©
Ġ×ķ×ķ×¢×ľ ×Ł
Ġ×Ĵ ×ķ×ĺ
×ķ×ķ ×Ĳ×¡
×Ļ×Ļ× ©
Ġ×ĳ ×Ļ×Ł
Ġ×ĵ×Ĳ×¨ ×£
×ķ×Ļ× ł
×Ĳ×¡ ×ĺ
ï¬ ¯
Ġ×Ĳ×¨ ×Ļ×Ļ×Ł
×¦ ×ķ
Ġ×ŀ ×Ĺ
×ŀ ×¢
Ġ×ĺ ×¢×§×¡
×Ļ× ĳ×¢×¨
×Ĵ ×ľ
o m
Ġ×ĳ ×¢×¡
×Ļ×ĵ ×¢×¨
×ĺ ×©
×§ ×¢
Ġ×¤ ×ķ×ł×¢×Ŀ
×ķ×ķ ×Ļ×Ļ
ï Ń
×Ļ×¡ ×ľ
Ġ×¤×Ĳ×¨ ×©×ĺ
Ġ×ĸ ×Ļ×Ľ×¢×¨
×Ĳ×ŀ ×¢×Ł
Ġ×Ĳ×Ļ×Ļ× ĵ
e r
×Ļ×ĺ ×¢
×¢×¤ ×ľ
×Ĳ×ľ ×ĵ
× ±
Ù Ĩ
×ŀ ×¤
×Ĳ×¤ ×Ł
×Ĳ×¦ ×Ļ×¢
×ł ×ķ×ª
Ġ×© ×ķ×ķ
×Ĳ× ł×§
Ġ×Ĳ×¨ ×ķ×Ļ×¤
Ġ×©×ĺ ×Ĳ
×Ļ×Ĵ ×Ł
×ķ×Ļ×© ×Ł
×Ļ×ĺ ×¢×ĺ
×ł ×Ļ×Ŀ
Ġ20 1
Ġ×ł ×¢×ŀ
Ġ×ŀ ×Ĳ×Ľ×Ł
Ġ×ĵ ×Ĳ×¨×ĺ
Ġ×Ķ ×Ļ×Ļ×ł×ĺ
Ġ×ĵ ×Ļ×¨
Ġ 3
×ķ× Ĺ
Ġ×ŀ ×¦
×ĳ ×¢
Ġ×ŀ ×Ļ×ľ
Ġ×Ļ×¢×ĵ ×¢×¨
×Ĳ×§ ×¢
×Ļ×Ļ×ĺ ×Ł
Ġ×§ ×¡
×¤ ×ĺ
Ġ×ĳ ×Ĳ×¨
×Ķ ×Ĳ
Ġ×¢ ×§
×ķ×Ļ× ĳ
×ķ ×Ĳ
×ĳ ×ľ
×ľ×¢×Ľ ×¢
×¢× ł×§
×¢× ª
Ġ×ŀ ×Ĳ×ľ
×¢×Ľ ×ĺ
×¢×ł ×¢×¨
Ġ×§ ×ķ×§
Ġ×Ĵ ×Ĳ×ł×¦
Ġ×ĺ ×¢×¨
Ġ×Ķ ×¢×ľ
Ù Ĭ
×ķ× ļ
Ġ×Ĳ×ķ×ł ×ĺ×¢×¨
Ġ×Ĳ ×¡
Ġ×ŀ ×Ļ×ł
Ġ×ŀ ×ľ
×ł× ĸ
×ķ× £
×ŀ ×¢×¨
×ĺ ×ķ×¨
Ġ×Ĵ×¢×Ķ ×Ĳ×ĺ
Ġ×ĺ×¢×§×¡ ×Ĳ
a t
ĠâĢ ŀ
ł× ŀ
Ø± Ø
Ø§ ÙĦ
Ġ×Ĳ ×Ķ
×Ļ×Ļ× §
×Ļ×Ļ× ļ
×Ļ×Ļ×Ĵ ×Ł
Ġ×Ĳ×ŀ ×¢×¨
×ł×ĵ ×Ļ×Ĵ
a n
ĠÂ ·
×ķ× ł×§
Ġ×ĺ ×Ļ×Ļ×ľ
×ł ×Ļ×©×ĺ
×¢×ľ ×¢
Ġ×ŀ ×¡
×Ļ×Ļ×ĺ ×¢×¨
×Ļ×ķ ×ª
Ġ×Ĳ×¨ ×ĳ
×§ ×ľ
Ġ1 9
Ġ×ł ×Ļ×ķ
) .
Ġ×ŀ ×§
×Ļ× ¥
Ġ×¤×Ĳ×¨ ×©
×Ļ×Ĵ ×¢×¨
×¢×Ķ ×Ł
Ġ×ķ×ķ ×Ļ×Ļ
Ġ×¨ ×¢×Ĵ
×¨ ×¢
Ġ×§×ķ×ŀ ×ĺ
×Ļ×§ ×ĺ
Ġ×© ×ĳ
×Ĳ× ł×¡
×ŀ ×¢×Ł
×Ľ ×ĺ
Ġ×©×¨×Ļ×Ļ× ĳ×¢×¨
×Ĵ ×¢×©
Ġ×Ĵ ×Ļ×Ļ×Ł
×Ļ×Ĵ ×ĺ
Ġ×§×¡ ×ł×ķ×ŀ×§×¡
×Ļ×Ļ× ŀ
Ġ×ĵ ×¢×ŀ
×Ĳ×ľ ×Ł
Ġ×Ĳ×ķ×ł×ĵ×ĸ ×¢×¨
Ġ×Ĳ×ĸ ×Ĳ
âĢ ł
×Ĵ ×Ł
Ġ×¦ ×ķ×Ĵ
×¢×¨ ×©
Ġ×¤ ×Ļ×¨
×Ļ×ľ ×Ł
Ġ×Ĳ×¨ ×Ļ×Ļ×
×Ĵ ×¢×¨
Ø§ Ø±Ø
×Ļ×ĺ ×¢×¨
Ġ×Ĵ×¢×ĸ ×Ĳ×Ĵ×ĺ
Ġ×Ĺ ×¡
Ġ×ĳ ×Ļ×Ļ×Ŀ
Ġ×ľ ×Ĳ×ł×Ĵ
Ġ×ľ ×Ļ×ł×§
×¦ ×Ļ×Ļ×ĺ
Ġ×Ļ ×©
×ĵ ×¢×Ŀ
×¢×ł×Ĵ ×ĺ
×Ĳ×ľ ×¢
Ġ×Ľ ×Ĳ
×Ĵ ×Ĳ
Ġ×ĸ ×Ĳ×Ĵ×ĺ
Ġ×ł ×¢×ŀ×¢×Ł
×Ļ×ł ×Ĳ
Ġ×©×¨×Ļ×Ļ× ĳ
Ġ×ĺ ×¨×Ĳ
Ġ×Ĳ×¤ ×Ļ×ľ×ķ
×Ļ×¨ ×ķ×ł×Ĵ
×ķ ×ķ×Ļ×¡
×ķ×ľ ×Ŀ
×ľ ×Ł
Ġ×© ×¨
×Ĳ×ł ×¢×¨
×ķ×Ļ× ľ
×Ĳ×¨ ×§
Ö· ,
×ķ×ķ ×Ļ×Ļ×ĸ
Ġ×Ĳ×¤ ×©×¨
Ġ×Ĳ×Ļ×Ļ×ĵ ×¢×¨
×ķ×Ļ× ĳ×Ł
Ġ×Ĳ×Ļ×ł ×¢×Ŀ
×Ĳ×ĺ ×Ł
Ġ×¦×ķ ×ķ×Ļ×©×Ł
Ġ×Ĳ ×ĵ
Ġ×ł ×ķ×¦
Ġ×Ĳ ×Ļ×Ļ×¢×¨
Ġ×Ĳ×ķ×Ļ×¤ ×Ł
Ġ×ĳ×ľ ×ķ×Ļ×ĸ
×ķ×ķ ×¢
Ġ×ĸ ×Ļ×Ļ×ĺ
×ĵ ×Ļ×§
Ġ×ŀ×Ļ×ĺ ×Ł
×¨ ×Ļ×Ŀ
Ġ×ĸ ×Ĳ×Ĵ×Ł
Ġ×ĸ ×Ļ×Ļ×ł×¢
×§ ×ķ×ŀ×¢×Ł
) ,
ł×¡ ×ĺ
Ġ×ŀ ×Ĳ×ł
×ķ×¡ ×ĺ
×ķ×ķ ×¢×§
Ġ×¢×¤ ×¢×¡
Ġ×©×¨×Ļ×Ļ× ĳ×Ł
Ġ×Ĳ×ķ×ł×ĸ ×¢×¨
×ĵ×¨ ×Ļ×Ļ
×ĵ ×ĸ×©
×Ļ×Ļ×© ×Ĳ
Ġ×ĳ ×Ļ×ĺ×¢
Ġ×ª×Ĵ×ķ×ĳ ×Ķ
Ġ×ĳ ×¢×ľ
×Ļ× ł×
Ġ×© ×ł
×¡ ×Ĳ
×¤ ×ķ×Ł
´ Ø§Ø±Ø
´Ø§Ø±Ø ¹
×¦ ×ķ×ķ×Ļ×Ļ
×ł× ¦
Ġ×¤×Ĳ×¨ ×ľ
Ġ×ķ×ķ ×¢×ĳ
Ġ×Ĳ×¡ ×Ĳ×ļ
×ķ×Ļ× ¨
×¨×Ļ×Ļ× ĳ×Ł
×Ļ×ĳ ×Ķ
Ġ×ª ×§
Ġ×Ķ ×ŀ
×¢×ŀ ×ĳ×¢×¨
Ġ Ø§ÙĦ
Ġ×ľ ×¢×¨
×¢ ×ķ×ª
Ġ×ª ×ķ×¨×Ķ
Ġ×ŀ ×Ĳ×Ľ×ĺ
Ġ×ķ×ķ ×Ĳ×ľ×ĺ
×¢×¤ ×ĺ
Ġ×ŀ ×¢×Ĵ
×Ĳ×§ ×ĺ
Ġ×Ļ ×¢×¦×ĺ
Ġ×Ĵ×¢×ľ ×ĺ
Ġ×ĵ ×Ĳ×ļ
Ġ×ŀ ×ĵ
×Ĵ ×¨
Ġ×ķ×ķ×Ĳ ×ķ
Ġ× ł×
Ġ×¦ ×Ļ
×Ĺ ×Ķ
×ķ×Ļ× ļ
×Ĳ×ľ ×ĳ
Ġ×Ĳ ×©
Ġ×¦ ×ķ×ĸ
×ķ×¤ ×Ł
Ġ×ĺ ×Ĳ×§×¢
Ġ×¤×Ĳ×¨ ×§
×ľ ×¡
Ġ×Ĳ×¨ ×ĺ
Ġ×¨ ×ķ×¡
Ġ×ĳ ×©
Ġ×ĳ ×¢×¨
o r
×ľ ×¢×Ł
×¨ ×¤
×ĸ ×¨
×¢×§ ×ķ×ŀ×¢×Ł
Ġ×ĸ ×Ļ×Ļ×ł×¢×Ł
Ġ 4
Ġ×Ĳ×ľ ×¡
Ġ×Ĺ×¡ ×Ļ×ĵ
Ġ t
Ġ×Ĵ ×ķ
×¢×¨ ×ĸ
×Ļ×Ļ×¡ ×ĺ
×¢× ļ
Ġ×ĺ×¨ ×Ĳ×ŀ×¤
×ĵ ×¢
Ġ×¦ ×ķ×©
×¢× ¥
¦ ×ĺ
×ĺ ×Ļ×Ļ×ľ
×Ĳ×ļ ×¦×ķ×ķ×Ļ×Ļ
Ġ×ķ×ķ×Ĳ×Ľ×Ł ×Ĳ×Ļ×Ļ×Ł
×ľ ×ĸ
Ġ×Ľ ×ľ
Ġ×Ĳ ×ł×ĺ
Ġ×ł×¢×ŀ ×ĺ
Ġ×¢ ×ł
×ķ× ł×Ķ
×Ļ× Ĺ
Ġ×Ĵ×¢×ŀ ×Ĳ×Ľ×ĺ
×ķ×Ļ×¤ ×Ł
×Ĳ×ł×Ĵ ×¢×Ł
×¢×Ĵ ×ĺ
Ġ×ª ×ł×Ĳ
âĢ Ł
×ķ×Ļ×¤ ×ĺ
×Ľ ×ķ×ľ
Ġ 5
×ĸ ×Ł
Ġ×§ ×Ĳ×ŀ
×ŀ ×ķ
×ĺ ×¢×ľ×ĺ
Ġ×ĳ ×Ĳ×ł
×Ķ ×Ĳ×ĺ
Ġ×Ĳ ×ĺ
Ġ×¡ ×§
Ġ×§ ×Ĳ×¨
ĠØ ´Ø§Ø±Ø¹
Ġ×ª×ł×Ĳ ×Ļ×Ŀ
Ĵ ×Ł
×ĺ×¢×¨ ×Ł
×Ĳ×ĳ ×ľ
×Ĳ× Ŀ
Ġ×ĳ×Ļ×ľ ×ĵ
×Ļ×Ļ×Ĵ ×ĺ
i s
e s
Ġ×Ĵ×¢× ĳ×Ł
Ġ×Ĳ×Ļ×ĵ ×Ł
×ĵ ×©
ïŃ İ
×ŀ ×¡
×¢×ĳ ×¨
Ġ×Ķ ×©
× °
×¡ ×ĺ×¢
Ġ×© ×Ĳ
×ĵ ×ķ×§
Ġ×Ĵ×Ĳ×ł×¦ ×¢
e n
Ġ×¢ ×ł×ĵ
×¢×© ×Ķ
×Ļ×Ļ×¢ ×ł×ĵ×Ļ×Ĵ
×Ļ×Ļ× ĳ×Ł
×ł× ¥
Ġ×Ļ×¢×ĵ ×¢
Ġ×§ ×ķ×ŀ×¢×Ł
×¢× ł×¥
×ľ ×Ĳ×ł×ĵ
Ġ×¤×Ĳ×¨ ×ķ×ķ×Ĳ×¡
Ġ×ĳ ×ł
×© ×ķ×ĺ
Ġ×Ĵ×¢×ķ×ķ ×Ĳ
Ġ×©×ĺ ×¢×ľ
Ġ×Ĵ×¨×ķ×Ļ×¡ ×¢
Ġ [
×¨ ×Ļ
Ġ×Ĳ×ŀ ×Ĳ×ľ
Ġ×¤×Ĳ×¨ ×Ł
×ŀ ×Ļ×ĺ
×Ļ×¦ ×ĺ
×ķ×ĵ ×©
Ġ ...
×ķ× ¥
Ġ×ĺ ×¢×Ĵ
×Ĳ× ĳ×¢×¨
×¢×ł×Ĵ ×¢×Ł
Ġ×§ ×¢×Ĵ×Ł
Ġ×Ĳ×¨×ķ×Ļ×¤ ×Ĵ
Ġ×¤×Ĳ×¨ ×ĺ
Ġ×Ĳ×Ļ× ¦×ĺ
Ġ×ł×ķ×¦ ×Ł
Ġ×ķ×ķ ×Ļ×¡×Ł
×ł× ¤
Ġ×Ĳ×Ļ×Ļ× ļ
×¨ ×¢×¡
Ġ×¢×ĺ ×ľ×¢×Ľ×¢
Ġ×¢×¨×© ×ĺ×¢
Ġ×¦ ×ķ×ľ
Ġ×ĵ×ķ×¨ ×Ľ
Ġ Ù
×ł ×¢×ĺ
Ġ×Ļ×Ĳ×¨ ×Ĳ×Ļ×Ļ×Ł
×Ļ×¢ ×ľ
Ġ×Ĳ ×Ļ×Ļ×ł
×¨ ×Ķ
Ġ×Ķ ×Ĳ×¨
×ķ×ł×§ ×ĺ
Ġ×ĸ ×©
Ġ×¢ ×§×¡
×ĸ ×Ļ×Ļ
×ķ×¨ ×Ĳ
" ,
Ġ×ĸ ×Ĳ×ļ
× ´
×ķ×ķ ×ķ×ķ
Ġ×©×¨×Ļ×Ļ×ĳ×¢×¨ ×¦×Ļ×Ļ×ĺ
Ġ×ĸ ×¢×ĺ
×¢×¡ ×Ł
Ġ×Ĺ ×ľ
×Ļ×¢ ×¨
Ġ×ĺ ×ķ×ĺ
×ĵ ×Ł
a l
×ĺ ×ľ
Ġ×Ĳ×© ×Ľ×ķ×ľ
×§ ×¢×¨
Ġ×Ķ ×¢×¨
Ġ×Ĳ×Ļ× ł×ĵ
Ġ×Ķ ×Ĳ×ľ×ĺ
Ġ×ľ ×Ļ×ĳ
×Ļ×ķ×ķ ×¢×¨×¡
Ġ×¨ ×ķ×ĳ
Ġ×§ ×Ĳ×ŀ×¤
Ġ×ķ ×Ľ
Ġ×Ĵ×¨ ×¢×¡
×Ļ×Ļ×ĵ ×¢
Ġ×Ĳ×ŀ ×ª
Ġ×¢ ×ķ×ľ×Ŀ
Ġ×¢×ĺ ×ľ×Ļ×Ľ×¢
' ,
Ġ×ŀ ×¢
×ķ×ķ×Ļ× ĺ
×Ļ×ľ ×Ĳ
×Ķ ×Ĳ×ľ×ĳ
×¢×§ ×¡×ĺ
Ġ×Ĺ ×©
×ĳ ×ķ×¨
âĢ ĭ
×§ ×¢×¤×ľ
Ġ×§ ×Ĳ×ľ
×Ĳ×ł ×¢×Ł
Ġ×ŀ×Ĳ×ł ×Ĳ×ĺ
×ĵ ×Ļ×©
Ġ×Ķ ×ķ×ĵ
Ġ×ķ×ķ ×Ļ×Ĳ
Ġ×ª×§ ×ł×ķ×ª
ĠâĢ ĭ
×Ļ×ĵ ×¢×ł×ĺ
×Ļ×§ ×¡
×§ ×¨
ĠâĢĭ âĢĭ
×Ļ×Ļ×Ļ×Ļ ×Ļ×Ļ×Ļ×Ļ
Ġ×©×ĳ ×ª
i t
Ġ×Ĳ×ĳ ×Ļ×¡×ľ
Ġ×ĵ ×¢
ĠâĢ Ķ
Ġ×Ĳ×Ļ×ĳ×¢×¨ ×Ĵ
Ġ×ĳ×Ĳ× ĸ
Ġ×©×ŀ ×ķ
×¤ ×ľ
×ł×ĵ ×Ļ×§
Ġ×ķ×ķ×¢×¨ ×ĺ×¢×¨
Ġ×© ×ķ×ķ×¢×¨
Ġ×ĸ×¢×ľ ×ĳ×¢
×¢×ł ×Ļ×©
×Ļ×ĺ ×Ł
Ġ×¡ ×Ļ×Ļ
Ġ×©×ĺ ×Ĳ×ĺ
×Ĳ×¡ ×Ł
ĠâĢ ĵ
Ġ×¨ ×¢×¤
Ġ×Ĳ×Ļ× ł×¤
Ġ×ĸ ×ķ×Ľ
×Ļ×ĵ ×¢×ł×¢
Ġ×Ķ ×¨×ĳ
Ġ×Ĳ×Ļ× ŀ
×ľ ×ĵ
Ġ×¨×¢×ĵ ×Ł
Ġ×Ĳ×¨×ķ×Ļ×¤×Ĵ ×Ļ×Ļ×¢×ł×ĵ×Ļ×Ĵ
×¨ ×©×ĺ
×ķ×ķ ×Ĳ×ļ×¦×ķ×ķ×Ļ×Ļ
Ġ×ķ×ķ×Ĳ×Ľ×Ł ×Ķ×Ĳ×ľ×ĳ
Ġ×ĺ×Ĳ×Ĵ ×ķ×ķ×Ĳ×ļ×¦×ķ×ķ×Ļ×Ļ
Ġ×ŀ×Ĳ×ł×Ĳ×ĺ ×ĵ×¨×Ļ×Ļ
Ġ×Ĳ×¨×ķ×Ļ×¤×Ĵ×Ļ×Ļ×¢×ł×ĵ×Ļ×Ĵ ×Ĳ×ķ×Ł
Ġ×ŀ ×Ĳ×ŀ
×¡×ĺ ×ķ
v e
Ġ×ľ ×¢×¦
×¢×Ķ ×ķ×Ļ×ĳ×Ł
×ķ×ŀ ×¢×¨
Ġ×ķ×ķ ×Ļ×Ļ×ĸ
Ġ×ĸ×Ļ×Ļ×¢×¨ ×¢
×ŀ ×¢×ĺ
ł×ŀ ×Ĳ×ľ
×ľ ×Ļ×Ŀ
×ŀ ×¢×ł×ĺ
ĠØ§ÙĦ Ø
×¨×ĳ ×¢×ĺ
Ġ×ĳ ×Ĺ
Ġ×ķ×ķ ×Ĳ×¨
-- --
Ġ×Ĳ×ķ×ŀ ×Ĵ
Ġ×ª×Ĵ×ķ×ĳ ×ķ×ª
×Ļ×Ļ×ľ ×ĺ
×¡ ×Ł
Ġ×Ĳ×ķ×ł ×Ļ×ķ×ķ×¢×¨×¡
Ġ×ĸ ×Ĳ×Ľ×Ł
Ġ×§ ×ł
Ġ×§ ×ķ×ľ
Ġ×ķ×ķ×Ļ×Ļ×¡ ×ĺ
Ġ×ŀ ×Ļ×Ļ×ł×ĺ
i l
Ġ×¤×Ĳ×¨ ×ŀ
×¢×¨ ×Ĳ
Ġ×ŀ ×ķ×¡
×ľ ×ŀ
Ġ×ľ ×Ĳ×ł×ĵ
×Ļ×ľ ×Ķ
×¨ ×ŀ×Ĳ
×Ĳ× ¥
Ġ×ł ×Ļ×Ļ
Ġ×Ķ ×Ļ×Ļ×ľ
×¨ ×ķ×Ļ×¡
×ķ×ĵ ×Ŀ
×Ļ×ĺ ×Ĳ
Ġ×ŀ ×Ķ
Ġ F
×ķ×Ļ×¢ ×Ł
c om
Ġ×Ĳ×¨×Ļ×Ļ× ł×Ĵ
Ġ×©×ĺ ×Ĳ×¨×§
Ġ×Ĳ ×±
×Ĳ×ĺ ×©
×ķ×§ ×ĺ
×ķ×ķ×Ļ× §
×¢×ł×ĵ ×Ļ×§
Ġ×ł ×Ĳ×ŀ×¢×Ł
Ġ×Ļ ×ķ
Ġ×ķ×ķ×Ļ×ľ ×Ł
×Ľ×ľ ×ľ
Ġ S
Ġ×Ļ ×ķ×ł×Ĵ
Ġ×Ķ ×¢×Ľ
Ġ×Ļ×Ĳ×¨ ×Ł
×Ļ× ĳ×Ł
Ġ×§ ×Ļ×Ļ×
' .
ÙĬ Ø
Ġ×§ ×ķ×¨
×ŀ ×Ļ×¨
Ġ×ķ×ķ ×Ĳ×¨×ĺ
Ġ×Ķ ×Ļ×ľ
Ġ×Ĳ×ľ ×¢×¡
Ġ×ķ×ķ×Ļ×Ĳ ×ĸ×ķ×Ļ
Ġ×Ĳ×ķ×ł×Ļ×ķ×ķ×¢×¨×¡ ×Ļ×ĺ×¢×ĺ
Ġ×ķ×ķ ×Ļ×Ľ×ĺ
×¢×ĸ ×Ļ×ĵ×¢×ł×ĺ
Ġ×¡ ×Ļ×¡×ĺ
×Ĵ ×¢
Ġ×¦ ×ķ×¤
Ġ×§ ×¨×Ĳ
×© ×¢
Ġ×¤×Ĳ×¨ ×Ĳ×Ł
Ġ×¡ ×ĺ×Ĳ
Ġ×¢×¨×© ×ĺ×¢×¨
×¤ ×¢×¨
×ĺ ×Ļ×Ŀ
×© ×¤
âĢ Ŀ
Ġ×¤×Ļ×ľ ×¢
×¢×ł×ĵ ×¢×¨
Ġ×¢ ×Ŀ
Ġ×Ĳ×ľ ×¥
×ķ×ķ×Ļ× ĸ
" .
×Ļ×ł ×¢
×ĺ ×¨×Ĳ
Ġ×ľ×¢×¨ ×ł×¢×Ł
×ķ×Ļ× Ŀ
Ġ ï¬®
Ġ×¤ ×¡
×¢×ł ×ķ×ŀ×¢×Ł
Ġ×¤×¨ ×Ĳ×ĳ×ľ
Ġ×ĳ ×Ĳ×ŀ
×ķ×Ļ×ł ×ĺ
Ġ×§ ×ľ×Ĳ
Ġ×ĳ×Ĳ×§ ×ķ×ŀ×¢×Ł
Ġ×Ĺ ×ª
Ġ×ķ×ķ ×ķ
×Ļ×¡ ×ĺ×Ł
×Ļ×§ ×Ĳ×ł×¢×¨
Ġ×ĵ×¨ ×Ļ×Ļ
×¢×ĵ ×ĺ
Ġ×¢ ×ł×Ĵ
×ľ ×ķ×ł×Ĵ
×Ļ×ĺ ×Ļ
×Ĳ×ĺ ×¢
×ł ×Ĳ×ļ
Ġ×§ ×ķ×ĵ×Ŀ
Ġ×ĳ×Ĳ×© ×ĺ
Ġ×Ĳ×¨×ķ×Ļ×¡ ×Ĵ
Ġ×¦ ×Ļ×Ļ
×¢×ľ ×Ĳ
×ķ×ķ ×¢×Ł
Ġ×Ĳ×Ļ×Ļ× Ĵ
×ł ×Ļ×©
Ġ×Ĳ×¨ ×ķ×Ŀ
×Ľ ×Ķ
Ġ×ŀ ×Ĳ×ĵ
Ġ×Ĳ ×ł
Ġ×¡ ×¢×¨
Ġ×¡ ×ĺ×¨
Ġ×ĳ ×¨×Ĳ
Ġ×ŀ×© ×¤
Ġ×ł×Ļ×Ļ×¢ ×¡
Ġ×¤ ×©×ķ×ĺ
Ġ×Ĵ×¢ ×ķ×ķ×Ļ×¡
Ġ×ĸ×Ĳ×ľ ×Ł
Ġ×ĳ ×ľ×Ĳ
Ġ×Ĳ×ł×Ĵ ×¢×Ķ×ķ×Ļ×ĳ×Ł
Ġ×Ĳ×¨×ĺ ×Ļ×§×ľ
h e
×ķ×ł×ĵ ×¢×¨
×§ ×Ļ
Ġ M
Ġ×Ĳ×¨ ×ķ×Ļ×£
Ġ×ľ ×Ļ×Ļ×§
Ġ×¤×Ĳ×¨ ×Ĵ
Ġ×Ĳ×Ļ×Ļ× ł×Ĵ
×ĵ ×Ĳ×¡
Ġ×©×ĺ ×Ļ×Ļ×ĺ
! !
×¨ ×ķ×ĳ
Ġ×Ĳ×ķ×Ļ×¤ ×Ĵ
Ġ×ĺ ×ķ×Ļ×ĸ
Ġ×Ĳ×¨×ĳ ×¢×ĺ
.. ..
Ġ×¨ ×Ļ×Ľ×ĺ
×Ĵ ×ĺ
×© ×ľ
×¢×¨ ×Ļ×Ļ
Ġ s
Ġ×Ĺ ×ĵ×©
Ġ /
×ŀ×© ×ľ
×¨ ×Ļ×ĵ
Ġ×ľ ×Ļ×Ļ×¢
×ł ×ĺ×¢×¨
×Ļ×ķ×ķ ×Ĳ
Ġ×Ķ ×Ļ×Ļ×ĳ
Ġ×Ĳ×Ļ×ĵ ×Ļ×©×¢
Ġ×§ ×Ĳ×¤
Ġ×Ļ×¢×ĵ ×Ł
e d
.. :
Ġ×ª×Ĵ×ķ×ĳ×Ķ ×§×¢×¤×ľ
Ġ×ª×Ĵ×ķ×ĳ×ķ×ª ×Ĳ×Ļ×Ļ×Ł
×ķ×¨ ×Ļ×Ŀ
Ġ×© ×¢×Ķ
Ġ×Ĵ×¢×ĸ ×ķ×ł×ĺ
×Ĳ× ł×¥
Ġ×Ĳ×Ļ×Ļ× ł×©
Ġ×ķ×ķ ×Ļ×Ļ×ĺ×¢×¨
Ġ×ĺ ×©×Ĳ
Ġ .
Ġ×ĸ ×¢×Ł
Ġ×Ĵ×¢×§ ×ķ×ŀ×¢×Ł
×Ļ×ł ×ķ
Ġ×ŀ×Ļ×ł ×ķ×ĺ
Ġ×ĳ ×Ļ×Ļ×ĵ×¢
Ġ a
Ġ×Ĵ×¢×Ķ ×¢×¨×ĺ
×ł ×¢×¡
Ġ×ĳ ×Ľ×ľ×ľ
×¢×Ķ ×ĺ
Ġ×Ĳ ×ķ×ķ×¢×§
×ĸ×¨ ×Ĺ
×¢×ľ ×ĵ
×¢×ł ×¢×Ŀ
ķ ×ķ
Ġ×©×ĺ ×¢×ĺ
Ġ×Ĳ×Ļ× Ķ
Ġ×ĳ×¢×¡ ×¢×¨
Ù Ī
×¢×§ ×Ł
Ġ×Ĳ×ŀ×¢×¨ ×Ļ×§×¢
Ġ×¤×Ĳ×¨ ×Ĳ
Ġ×¨ ×¢×ĸ
×Ĳ×Ĵ ×¨
at i
Ġ×ľ×¢×¦ ×ĺ×¢
×ķ×ł×ĵ ×¢×¨×ĺ
1 9
Ġ×¤×¨ ×¢×ĸ×Ļ×ĵ×¢×ł×ĺ
×ķ×ķ ×Ļ
Ġ×©×¤ ×¨
Ġ×ŀ×© ×Ķ
Ġ×ŀ×Ļ×ĺ ×ľ
Ġ×©×ľ ×ķ×Ŀ
Ġ×ķ×ķ ×Ĳ×ļ
×¨ ×¡
×¢ ×Ļ×ľ
Ġ 6
Ġ P
×ķ×ĵ ×Ķ
Ġ×ķ×ķ ×Ļ×Ļ×ł
Ġ×¡×Ļ×¡×ĺ ×¢×Ŀ
×¢×ŀ ×¢
Ġ×ĳ ×²
Ġ×¦×ķ×ľ ×Ļ×ĳ
Ġ1 0
×Ļ×Ĳ ×ł
Ġ×§ ×Ĳ×ł
Ġ×Ĺ×ĵ×© ×Ļ×Ŀ
Ġ×¤×¨ ×ĺ×Ļ×Ŀ
×Ļ×ľ ×ĺ
Ġ×Ĵ ×Ļ×ĺ
Ġ ïŃİ
Ġ×° ×Ĳ
Ġ×ĵ ×Ļ×¡
Ġ×ŀ ×Ļ×ļ
Ġ×Ĳ×ķ×Ļ× ĳ×Ł
×ŀ ×Ĳ×¨
×¢×ł ×ĺ×¢×¨
âĢ Ļ
×Ļ×ł×Ĵ ×¢×Ł
Ġ×Ĳ ×²
×ķ×ĳ ×ľ
Ġ×Ĺ ×ķ×ĵ×©
Ġ×Ķ ×Ļ×Ļ×¡×ĺ
×Ļ×ł ×¢×¨
Ġ×Ľ ×ĵ×Ļ
×¨×Ļ×Ļ× ĸ
Ġ A
×ķ×¤ ×ĺ
Ġ×ĺ×¨ ×¢×¤
o s
Ġ×Ķ ×Ĳ×¡×ĺ
Ġ×Ĵ×¢×ķ×ķ ×Ĳ×ľ×ĺ
×Ĳ×ĸ ×ĺ
âĢ ¬
Ġ×ĳ ×Ļ×ª
on s
×Ļ×Ļ× ¥
Ġ×¢ ×¦
Ġ×¡ ×ļ
Ġ×Ķ ×Ļ×Ļ×ŀ
×ķ×ķ×Ļ× ľ
Ġ×Ķ ×ķ×Ļ×ĸ
×ķ×© ×Ĳ
Ġ×ł ×ķ
×Ļ×¨ ×Ķ
i c
×Ĳ ×ķ×Ļ×ĳ
Ġ×Ĵ×¢× ¦
Ġ×ĳ ×¢
Ġ×¤ ×ķ×ł×§×ĺ
×Ļ×ŀ ×Ĳ
×ŀ×Ĳ ×Ł
×¦ ×Ĳ
Ġ×Ķ ×§
×¨ ×²
Ġ×ľ ×¢×ĳ
×¨ ×Ļ×Ļ×ĺ
Ġ×Ķ ×ľ
Ġ×Ĳ ×Ĺ
Ġ×Ĵ×¨ ×ķ×¤
×ķ×ķ ×Ĳ×¨
Ġ×¨ ×¢×Ľ×ĺ
Ġ×¨×¢×ĵ ×ĺ
Ġ×Ķ×¢×ľ ×¤×Ł
Ġ×¢ ×ŀ
×§ ×¢×Ł
' '
Ġ×© ×ķ×ľ
Ġ×ĵ×¢×¨ ×¦
×Ķ ×Ĳ×ĳ
×ł ×Ļ×¢
×ľ ×ĺ×Ł
Ġ 7
o u
Ġ×ĵ ×Ļ×Ļ×ĺ
Ġ×ŀ ×Ļ×ĵ
×Ļ×ł× ª
Ġ×¨ ×Ļ×ĸ
×ľ ×Ļ×©
Ġ×Ļ ×¨
Ġ×ķ×ķ×¢×ĳ ×ĸ×Ļ×Ļ
Ġ×ľ×ķ×Ļ×ĺ ×Ł
×ł×ĺ ×Ĳ
Ġ×ľ ×Ļ×Ļ×ĵ
×ĳ×ķ×¨ ×Ĵ
×¢× ł×©
Ġ×Ĵ×ķ ×ĺ×¢
Ġ×ľ ×¢×¦×ĺ
×Ļ×Ļ× ¤
Ġ×¤ ×¢×¨
Ġ×§×ľ ×Ĳ×¨
Ġ 9
Ġ×¡ ×Ļ×Ļ×ĺ
Ġ×ĸ ×Ĳ×Ĵ
Ġ×ķ×ķ ×Ļ×ĵ
×ķ×Ķ ×Ł
Ġ×ľ ×ŀ×©×ľ
Ġ×Ĳ×¤ ×Ĵ
×ĳ ×Ļ
×¨ ×ķ×Ļ×£
Ġ×Ĺ ×ĳ×¨
×¢×ľ ×¢×¨
Ġ×Ĳ×Ļ×ł×ĺ×¢×¨ ×ł×¢×ĺ
Ġ×ľ ×Ľ
l e
Ġ×ĳ×Ĳ× ĵ
Ġ×§ ×Ĳ×ł×ĵ
Ġ×ľ ×©
Ġ×§ ×ķ×ķ
×¡ ×ĺ×¢×¨
Ġ×Ĳ ×ķ
Ġ×Ļ×Ļ×ĵ ×Ļ×©
Ġ×¡ ×ķ×£
Ġ×¨ ×¢×§
×Ļ×¢ ×Ł
×ł ×Ļ
×ķ×ľ ×Ļ
Ġ×Ĳ×Ļ×ĵ ×Ļ×©
Ġ×Ķ ×ª
×Ĳ×ĸ ×Ł
Ġ×ĵ×Ĳ ×Ł
Ġ×ĳ×© ×¢×ª
Ġ×ŀ ×Ļ×Ļ×ł
Ġ×Ĵ×Ĳ×¨ ×ł×Ļ×©×ĺ
×ł ×Ļ×§
Ġ×ĵ×¢×¨ ×ŀ
×ķ×ķ ×¢×Ĵ
×ľ ×¢×Ĵ
×¨ ×¥
×ĸ ×Ĳ×ľ
×ķ×Ļ×¨ ×Ł
Ġ T
Ġ×¡ ×Ļ×ŀ
Ġ p
Ġ×¡×¤ ×¢×¦
Ġ×Ķ ×Ĳ×ľ×ĺ×Ł
Ġ×©×¨×Ļ×Ļ×ĳ ×ĺ
Ġ×ĺ ×¢×Ľ
Ġ×ŀ ×¢×©×Ķ
Ġ×Ķ ×Ĵ
Ġ×ł×Ĳ×Ľ ×ĵ×¢×Ŀ
×¢ ×Ļ
Ġ×ķ×ķ ×Ļ×ł×§
Ġ×¤ ×Ĳ×¡
Ġ×¤×Ĳ×¨ ×ĳ
Ġ×Ĳ×Ļ×ł×ĺ×¢×¨ ×¢×¡
×ĺ×Ĳ ×Ł
Ġ w
×¦×Ļ×¢ ×¡
Ġ×Ķ×ķ×ĵ ×¢×ķ×ª
Ġ×Ĵ ×Ļ×ĳ
Ø§ ÙĨ
Ġ×Ĳ×Ļ×Ļ× ł×¦
×ĺ ×¢×Ĵ
×Ļ×¦ ×¢×¨
×Ļ× ł×¡
Ġ×ľ ×Ļ×¦
×Ļ×¡×ĺ ×Ĳ×¨
×Ļ×Ļ× ł×¡
Ġ×Ĵ×¢×§ ×¢×ł×ĺ
2 0
Ġ×Ĵ×¨ ×Ļ×ł×Ĵ
Ġ×ĳ×Ĳ× ¦
Ġ×ĵ ×¨×Ļ×§
Ġ b
Ġ×ŀ ×ŀ
Ġ×ŀ ×ĸ×¨×Ĺ
Ġ×ŀ ×ŀ×©
Ġ×ĸ×¢×ľ ×ĳ
Ġ×ķ×ķ ×Ļ×¡
×§ ×Ļ×Ļ
×Ļ×Ĳ ×ľ
Ġ×Ķ×Ļ×ľ ×£
Ġ×§×Ļ×Ļ× ł×ŀ×Ĳ×ľ
Ġ×¨ ×Ĳ×©
Ġ×Ĳ×Ļ×Ļ× ¨
Ġ×Ĳ×¨ ×Ļ×ĳ×¢×¨
×© ×¢×¨
×Ļ×© ×Ĳ
×¨ ×Ĳ×ľ
×ķ×§ ×Ł
a r
Ġ×Ķ ×Ĳ×ľ
×ķ×¨ ×ĺ
×ĺ ×ķ
Ġ×ķ×ķ ×Ļ×¤
×Ļ×ĵ ×ĸ×©
×ľ ×Ļ×Ļ
×Ĺ ×ŀ×Ķ
a s
×Ļ× ł×Ķ
Ġ×¢ ×ĵ
Ġ×¢ ×ł×ĺ
Ġ×¤ ×ľ×Ĳ
×Ĵ×ľ ×Ļ×Ļ×ļ
×Ļ×¢ ×ľ×¢
×¡ ×ĺ×Ł
Ġ×¡ ×Ĳ×¨×ĺ
×Ĵ ×¢×ŀ
Ġ×ŀ ×¢×ĵ
00 0
Ġ×ĺ ×¢×ľ
o o
×Ļ×Ļ× ¦
×Ļ×ķ ×Ŀ
Ġ×¨×¢×Ĵ ×Ļ×¨×ķ×ł×Ĵ
×ķ×ķ×Ļ× ł
Ġ×Ĵ×¢×ł ×ķ×ŀ×¢×Ł
Ġ×Ĵ×¢×© ×ĺ
Ġ×ľ ×¢×ł×ĵ×¢×¨
Ġ×Ĵ ×¨×Ĳ
×ĸ ×¢×¦
Ġ E
×ķ× ²
Ġ× ł×¤
Ġ×Ĳ×ľ ×Ļ×Ļ×Ł
×ķ×ķ ×Ļ×Ļ×ľ
Ġ f
Ġ×ĳ×¢×¡ ×ĺ×¢×¨
×¢×ĺ ×©
×ľ ×Ļ×ĺ
Ġ×Ĳ ×§×ĺ
Ġ×ķ×ķ ×Ļ×Ļ×ĺ
Ġ×Ĳ×Ļ×Ķ ×Ŀ
×¢×ľ ×Ľ×¢
×¢×ĳ×¨ ×¢×ł×Ĵ×ĺ
Ġ×Ĳ ×ł×©
Ġ×Ĳ×¨ ×¥
×ĺ ×¢×§×¡×ĺ
Ġ×¡ ×Ĳ×ĺ
Ġ×Ĳ×Ļ× ł×Ĵ
Ġ×ĺ ×ķ
×¡×ĺ ×Ĳ
Ġ×¤ ×Ļ×Ł
ĠC om
ĠC re
Ġ B
×Ļ× ł×¡×ĺ
Ġ×ŀ ×²
Ġ×Ĵ×¢×ĺ ×¨
Ġ×© ×Ļ×Ļ×ł×¢
Ġ×¤×¨ ×Ļ×Ļ×ł×ĺ
×ķ×Ļ× ĵ
×ĺ ×¢×ľ×Ł
×Ķ ×Ļ×Ļ×ĺ
Ġ×ŀ×Ļ×ľ ×Ļ×ĺ×¢×¨
Ġ 8
×¡ ×¤
×¢× ł×Ķ
Ġ×ŀ ×Ĳ×ļ
×Ĳ×ł ×ĺ×¢
×¡ ×¢
Ġ×Ĵ×¢×ł ×ķ×Ĵ
Ġ×ĳ×Ĳ×ł ×Ļ×¦×Ł
Ġ m
ati ve
Ġ×Ĵ×¢×Ĵ ×¢×ĳ×Ł
Ġ200 8
×Ļ×ŀ ×ĺ
Ö¸ ,
Ġ×Ĵ ×Ĳ×ł×¥
Ġ×ľ×Ļ×¦ ×¢×ł×¥
×ķ×ľ ×ĵ
×Ļ×ŀ ×¢×Ł
×Ļ×ł ×ĺ×¢×¨
×Ľ ×ķ×ª
×¢×ĵ ×ĸ×©
×Ľ ×¢×¨
Ġ×ŀ ×ª
×ĵ×ķ×§ ×ĺ×Ł
Ġ×Ļ ×Ļ×ł×Ĵ
ĠCom m
Ñ ģ
Ġ×¦×ķ×© ×¨×Ļ×Ļ×ĳ×Ł
Ġ &
Ġ×¡×¤ ×¨
×ĳ ×Ļ×ľ
×ķ×¡ ×ĺ×¨
×¨ ×ŀ
×Ļ×ł×ĵ ×Ł
in g
Ġ×Ļ ×ł×ĵ
Ġ×ĳ ×Ļ×¡×ľ
ĠâĢ ¢
ĠCre ative
×Ļ×Ļ× ł×ĵ
×¢×ł×ĵ ×Ļ×Ĵ
×Ļ×Ļ×Ĵ ×¢×¨
×Ĳ×¨ ×ŀ
Ġ×ķ×ķ ×Ļ×ĵ×¢×¨
×¤ ×Ĳ×ľ
Ġ×ŀ×ĵ ×Ļ×ł×ª
ĠComm ons
×ª ×Ŀ
× Ĥ
Ġ×ŀ×¢×¨ ×¡×ĺ
Ġ×Ķ ×ķ×Ļ×ļ
Ġ×ŀ ×Ĳ×¨
×ł ×Ĳ×ľ
Ġ×ĵ×¢×ŀ ×Ĳ
×Ļ×ķ ×ĺ×¢×¨
Ġ×¦×ķ×ķ ×Ļ×Ļ×ĺ
Ġ×¤ ×ķ×ľ
×Ļ×Ľ ×ĺ×Ł
Ġ×Ĵ×¢×ķ×ķ×Ļ×¡ ×¢
×Ĳ×ŀ ×Ĳ×ľ
Ġ×§×ķ×§ ×Ł
×§ ×Ł
Ġ×ĳ×Ĳ× Ķ
Ġ×Ĵ ×ŀ
×ķ×ł ×Ļ
Ġ×ķ×ķ ×Ļ×¨
×© ×Ł
Ġ×Ķ ×Ļ×¡×ĺ×Ĳ×¨
Ġ×Ĵ×¢×ĵ ×¢×ł×§
an d
Ġ×ĺ ×ķ×ĳ
Ġ×¡×¤ ×¨×Ļ×Ŀ
Ġ×ĸ×ķ×Ľ ×Ł
×ķ×Ĵ ×¢
Ġ×¤×¨×Ĳ×ĳ×ľ ×¢×Ŀ
×ľ ×Ķ
×ķ×ł ×¢×Ł
Ġ×Ĳ ×ł×§
Ġ×ĳ ×Ĳ×ľ
×ķ×ķ×Ļ× ¨
×Ļ×ĳ ×ķ×¨
×Ļ×Ĳ ×Ł
Ġ×¤ ×Ļ×Ļ×¢×¨
×Ļ× £
Ġ×ĸ ×ķ×Ł
×Ĳ×¨ ×£
Ġ1 8
Ġ×Ĺ×ľ ×§
Ö· .
×¢×© ×Ĳ
×Ļ×Ļ×ł ×¢×Ŀ
? ?
Ġ×Ķ ×ł
Ġ×Ĵ×¢×ĸ ×¢×Ł
×Ļ×¡ ×Ĳ
×ŀ ×ĳ
Ġ×©×ĺ ×¢×ľ×Ł
×¢×Ĵ ×¢×ĳ×Ł
Ġ×ķ×Ľ ×ķ
Ġ×©×ĺ ×¨
×© ×ĳ
Ġ×Ļ ×Ŀ
Ġ×ĳ×Ļ×ĸ ×ł×¢×¡
Ġ×ĳ×Ļ×ľ ×ĵ×¢×¨
Ġ W
×ķ×ķ ×¢×ĺ
×¢×ķ×ķ ×¢×Ł
Ġ×Ļ ×¢×ł×¢
Ġ×© ×Ļ×Ļ×Ł
Ġ× ł×©
Ġ×Ĳ×¤ ×Ĳ×¨
×Ļ×¡×ĺ ×¨
Ġ×Ļ ×ĵ
Ġ×ĳ ×¢×ĺ
Ġ×ĳ ×Ĳ×ĺ
Ġ×Ķ ×ķ×Ļ×¤×ĺ
×Ĳ×Ľ ×ĺ×Ł
Ġ×¦ ×ķ×§
Ġ×ĵ×¨ ×ķ×Ŀ
×Ļ×Ļ×ł ×Ļ×§
×ĵ ×Ļ×©×¢
Ġ×ł ×¢×ĳ×Ł
Ġ×¤×ľ ×Ĳ×¥
Ġ×©×¤×¨ ×Ĳ×ļ
Ġ×Ĳ×ŀ×¢×¨ ×Ļ×§×Ĳ×ł×¢×¨
Ġ×ĸ ×¢
Ġ×ŀ×Ĳ×ŀ ×¢×ł×ĺ
Ġ×© ×Ļ×§×Ł
Ġ×ľ ×ŀ
Ġ d
1 8
Ġ G
×ł× ĳ
×Ľ ×¨
×ķ×ĵ ×Ĳ
Ġ×ķ×ķ×Ļ×Ļ×ĸ ×ĺ
Ġ×Ĺ ×Ľ
Ġ×Ķ ×¢×¨×Ł
Ġ×¤ ×¨×Ĳ
Ġ Ð
ïŃ Ħ
×¡ ×¢×¨
Ġ×Ļ ×Ĳ×¤
Ġ×¤×Ĳ×ľ ×Ļ×ĺ
×Ĳ×¤ ×¢
Ġ×ł ×ķ×ŀ×¢×¨
Ġ×ķ×ķ ×¢×¡×ĺ
Ġ×ĺ×Ļ×Ļ×ľ ×Ł
×Ĵ ×Ļ×¢
Ġ×Ĳ×ķ×ł×ĸ ×¢×¨×¢
Ġ×ķ×ķ ×Ĳ×§
Ġ N
Ġ×Ĳ ×Ļ×Ļ×ł×¢
×¨ ×¢×ĵ
Ġ×Ĵ×¢×Ĵ ×Ĳ×ł×Ĵ×¢×Ł
Ġ×¤ ×Ĳ×ĺ
×ĺ ×Ļ×Ĳ
×ķ×Ļ× Ľ
×ĵ ×Ļ×Ĵ×¢
Ġ×§ ×ķ×ķ×Ĳ
Ġ×§×ł ×¢×¤×ľ
×Ļ×ķ×ķ ×¢
Ġ×Ļ×© ×Ļ×ĳ×Ķ
Ġ×Ļ ×ķ×Ŀ
Ġ201 0
×¢×Ľ ×ł×ĺ
Ġ×ĳ×Ĳ×§ ×Ĳ×ł×ĺ
×¦ ×Ł
×¢×ł×ĺ ×Ł
Ġ×©×¨×Ļ×Ļ×ĳ ×¡×ĺ
Ġ×ľ×Ļ×ł×§ ×¢
Ġ×Ĳ ×ł×Ķ
×¨ ×Ļ×ķ×ķ×Ĳ
Ġ×Ĳ×ķ×Ļ× ĺ
×Ĵ ×¨×Ĳ
Ġ×¦×ķ×ĸ ×Ĳ×ŀ×¢×Ł
Ġ×Ĳ×Ļ×Ļ×ł×© ×¨×Ļ×Ļ×ĳ×Ł
Ġ×ŀ×ľ ×Ĺ×ŀ×Ķ
Ġ×§ ×Ķ
×¨×© ×Ļ×ĵ×¢×ł×¢
Ð °
Ġ×ĺ×¢×ľ ×¢×¤
Ġ×¡ ×ķ×¤
Ġ×Ķ ×¡
×ĳ ×ķ×ĵ
×¡ ×Ļ×ł×Ĳ
Ġ×¤×¨ ×Ĳ×¦
o w
Ġ×ĺ×¨×¢×¤ ×Ł
Ġ×ĳ ×Ĳ×¤
Ġ×Ĳ ×Ĵ
Ġ×ª ×©
×¨×Ļ×Ļ× ¡
Ġ×Ĳ×ł×ĵ ×¢×¨×©
×Ļ×§ ×¨
Ġ×ĸ ×¢×Ķ×Ł
×ľ×¢×Ĵ ×¢
×ľ ×¥
Ġ×©×ĺ ×¢×ł×ĵ×Ļ×§
Ġ×ķ ×Ļ×¡
Ġ×Ĺ×ª ×ķ×ł×Ķ
×ł ×Ļ×ĺ
×ķ×ķ×ķ×ķ ×ķ×ķ×ķ×ķ
×Ļ×ķ ×Ł
Ġ×¢×¡ ×Ł
Ġ×ĳ×Ļ×ľ×ĵ ×ķ×ł×Ĵ
1 5
Ġ×¨ ×©
×Ĵ ×¢×¤
Ġ×Ĵ×¢×ĸ ×¢×ľ
Ġ×¡×ĺ ×¨×Ĳ
Ġ×ł ×Ļ×¦×Ł
×ķ×ĺ ×Ĳ
×Ļ×Ļ× ¨
Ġ×ĺ ×Ļ×¤
Ġ×¢×ľ ×ĺ×¢×¨×Ł
×¤ ×Ļ×ľ
Ġ×ĵ ×ĳ×¨
×¨ ×ĺ×Ĳ
Ġ×© ×ľ×Ĳ
×© ×Ĳ×¤×ĺ
Ġ H
Ġ×ĸ ×¦
×Ļ×¡ ×ĺ×Ĳ
Ġ×Ĳ×ł×ĵ ×¢×¨
Ġ×Ļ ×ł×§
Ġ×Ĵ×¢×¨ ×¢×ĵ×ĺ
Ġ×ĵ×¢×¨ ×¤×ķ×Ł
×ķ×§ ×Ĳ
Ġ×§×ľ ×Ļ×Ļ×Ł
×ĸ ×¢
Ġ×¡×Ĳ×ĺ ×ŀ×Ĳ×¨
×ķ×Ľ ×Ķ
×Ļ×ĺ ×©
Ġ×ķ×ķ ×Ĳ×ľ
Ġ×Ļ ×¢×§
×ĸ ×Ļ×¡×ĺ
Ġ×Ĺ ×Ļ×Ļ×Ŀ
1 0
Ġ×ĸ ×¢×ł×ĺ
×ĸ ×Ķ
×ł× Ĺ
Ġ×Ĵ×¨×¢×¡ ×ĺ×¢
×ķ×ķ ×¢×¨×ĺ
×ĺ ×¢×ľ
×§×¡ ×ł×ķ×ŀ×§×¡
×Ļ×Ļ× ł×Ĵ
Ġ×ŀ ×¢×ĺ
Ø ¦
×Ĵ×¢×© ×ĺ×¢×ľ×ĺ
Ġ×© ×ķ×Ŀ
×ł×ĺ ×ķ×ķ×Ļ×§
Ġ×ĵ×Ĳ×¨ ×¤×Ł
×ľ ×Ļ×ĳ×Ł
Ġ×Ļ×¨ ×ķ×©
Ġ×©×¤ ×¢×ĺ×¢×¨
×Ļ×Ļ×Ļ×Ļ×Ļ×Ļ×Ļ×Ļ ×Ļ×Ļ×Ļ×Ļ×Ļ×Ļ×Ļ×Ļ
Ġ×ŀ×Ļ×Ļ×ł ×ķ×ł×Ĵ
×ł ×¢×ŀ×¢×Ł
×ł× ł
×Ļ×© ×¢×ł×¡
×Ļ×Ľ ×ĺ×¢
Ġ×ĳ ×Ł
Ġ×Ĳ×¨×ķ×Ļ×¤ ×¦
Ġ×ľ ×Ļ×Ļ×¢×Ł
Ġ×¢×ľ ×ĺ×¢×¨
×¨ ×ĺ×¢×¨
Ġ×¤×Ĳ×¨ ×ĳ×¨
Ġ×ł×¢×ŀ ×¡×ĺ
Ġ×¡ ×Ļ×ĳ×Ķ
Ġ×ĵ×ĸ×© ×Ĳ
Ġ×ĵ×¢×¨ ×¦×ķ
Ġ200 9
×Ĳ ×ķ×Ļ×¡
c h
×¦ ×¢
×¢×¨×ĸ ×¢×ł
Ġ×¡ ×ĵ×¨
Ġ×ŀ ×Ĵ
Ġ×¡ ×¢×ľ
×§×Ļ×Ļ×ĺ ×Ł
Ġ×§ ×Ļ×Ļ×ł×¢×¨
Ġ×ŀ×ķ×ĸ ×Ļ×§
Ġ×ķ ×ŀ
Ġ×Ļ ×¦
×Ļ×ĸ ×Ĳ
×Ĳ ×ķ
Ġ×ł ×ķ×©×Ĳ
Ġ×ĳ×¢×¨ ×ļ
Ġ×©×ĺ ×Ĳ×¨
Ġ×ĺ ×ķ×Ļ×ĺ
Ġ×§ ×¢×¨
âĢ ¦
Ġ×ķ ×ķ×²
Ġ×Ķ×Ļ×Ļ×ĳ ×¡×ĺ
×¢×Ľ ×ĺ×Ł
×ķ×§ ×¡
Ġ×Ļ×Ļ×ł×Ĵ ×ľ×¢×ļ
×Ľ ×ª
×© ×ķ
Ġ×¨ ×¢×¡
Ġ×ĺ×¢×¨ ×ŀ×¡
×ľ ×Ļ×Ļ×Ĵ×Ł
Ġ×Ĳ×Ļ× ©
×ľ×¢× Ĳ
Ġ×¡×ĺ ×Ĳ×ł×¦
×ĵ ×ł×¢
×¢×ĵ ×Ļ×ĺ
Ġ×§×Ĳ×ł×ĵ ×Ļ×©×¢×ł×¡
Ġ×¨×ķ×¡ ×ľ×Ĳ
Ġ×Ļ ×ķ×ĵ
ĠØ ¨
Ġ×Ļ×¢×§ ×ĳ
i d
Ġ×©×ľ ×Ļ×ĺ
Ġ×§ ×ķ×Ļ×¤×Ł
1 2
Ġ1 5
Ġ×ŀ×ķ×ĸ ×¡×ĺ×ķ
×Ļ×ĳ ×ľ
Ġ×ľ ×Ĳ×Ĵ×Ł
Ġ×Ĵ×¢×Ĵ ×ł×ĺ
Ġ×©×ķ×ķ ×¢×¨×¢
×¢×ĵ ×Ļ×¢
Ġ×Ķ ×²
Ġ×¡ ×¢
×Ĳ ×Ļ×¨
Ġ2 4
Ġ×§×ķ×ľ ×ĺ×ķ×¨
×Ļ×Ļ×ĺ ×Ļ×ł×Ĵ
×¡ ×§
Ġ×Ĳ ×§
×ľ×ŀ ×Ļ×ĵ
×ĳ ×Ļ×¨
×Ļ×¡ ×¢×¨×Ļ×Ļ
×ł ×ķ
Ġ×¢×¤ ×¢×ł×¢×Ł
×ķ×ľ ×ĺ
×¢×© ×ĺ×¢×ľ×ĺ
Ġ×Ļ×Ļ×ĵ ×Ļ×©×¢
Ġ×ķ×ķ×Ļ×¤ ×Ļ×ľ
Ġ×Ĳ×Ļ×Ļ×Ĵ ×¢×ł×¢
×¨ ×Ļ×¡
Ġ×¦ ×¤×ķ×Ł
Ġ×¤×Ĳ×¨ ×ĵ
×ĵ×¨ ×©
Ġ×Ķ ×ĵ
Ġ×Ĳ×¨ ×Ĵ
Ġ×Ĵ×¢ ×ķ×ķ×Ļ×ł
×Ļ×¢ ×¨×ĵ
×¡ ×Ļ×¨×ķ×ł×Ĵ
Ġ×¤ ×Ĳ×§×ĺ
Ġ×ĳ×¨ ×¢×ł×Ĵ×ĺ
ĠâĢ «
Ġ×Ķ×Ĳ×ĳ ×¢×Ł
o t
Ġ×ŀ ×ł×Ķ
Ġ×Ĳ ×ª
Ġ×¤×¨ ×ķ×ĳ
×Ļ×ĸ ×Ŀ
Ġ×ŀ ×ĳ
×ĵ ×Ĳ×¨×£
Ġ×Ĵ×¢× °
Ġ×Ĵ×¢×ĳ ×¨
Ġ×¨×ĳ ×ł×Ļ×Ŀ
×Ĳ×¨ ×ĵ
Ġ×Ĳ×ķ×Ļ× Ĵ
Ñ ĥ
×¨×Ļ×Ļ× ĵ
×ĵ ×ķ
1 6
Ġ×© ×Ĳ×ľ
ĳ×¢×¨ ×©
×ł×ĺ ×¨×Ĳ
Ġ×ĳ ×ª
Ġ×ĳ×¨ ×¢×ł×Ĵ×¢×Ł
Ġ×¤×Ĳ×¨×© ×Ļ×ĵ×¢×ł×¢
×¢×ŀ ×¤
Ġ×¤×¨ ×Ļ×Ļ
×ľ ×ļ
Ġ×ĵ×¢×¨ ×ł×Ĳ×ļ
×Ļ×ł× £
Ġ×Ļ ×Ķ
Ġ×ľ ×Ļ×Ľ×ĺ
×¢×¡ ×¥
×¢×¤ ×¢×¨
Ġ×Ĵ ×Ļ×Ļ×¢×Ł
×¨ ×¢×Ĵ×ĺ
Ġ×¤ ×Ļ×¨×Ł
Ġ×Ĳ×ĸ ×¢×ľ×Ľ×¢
×¨ ×Ļ×ľ
×Ĳ×ŀ ×Ļ×¨
ĠâĢ ľ
Ġ×Ķ ×ķ×ł×ĵ×¢×¨×ĺ
×Ķ ×Ŀ
Ġ×ĳ ×Ļ×¡×ĺ
×¨×Ļ×Ļ× Ľ
Ġ×Ĳ ×ĳ×¨
×ķ×Ļ× Ĵ×Ł
Ġ×ŀ×ķ×ĸ ×Ł
Ġ×ĵ×¢×¨ ×Ļ×ĳ×¢×¨
1 4
×¨ ×£
Ġ×ĵ ×Ĳ×ľ
Ġ×Ĵ×¨ ×Ļ×Ļ×ĺ
×ŀ ×Ļ×Ŀ
1 3
Ġ×ŀ ×Ľ
Ġ×Ķ ×ķ×Ļ×¤
×Ļ×ĳ ×ķ×ª
Ġ×Ļ ×Ĺ
Ġ×§ ×¢×ł
×Ļ×ŀ ×¢×¨
×ł×© ×Ĳ
Ġ×ŀ ×ķ×¨×Ĳ
Ġ200 6
Ġ×ĸ ×Ļ×ł×ĺ
×ľ×¢× ¦
Ġ×Ĵ×¢×ķ×ķ ×Ĳ×ľ×ĵ
Ġ×ĸ×© ×ķ×¨
Ġ×¨ ×Ļ×¤
×ķ×ŀ ×ĺ
×¢×ł ×Ļ×©×Ł
Ġ×¢×§×¡ ×¤
Ġ c
Ġ×¡×ĺ×Ĳ×ł×¦ ×Ļ×¢
Ġ×¤×¨ ×Ļ×Ļ×ĸ
Ġ×ŀ×Ĳ ×Ļ
Ġ×Ĵ×¢×© ×¢×¤×ĺ
×Ļ×ľ ×¢×¨
×¢×ľ ×Ļ×Ļ×Ĵ×ĺ
×ķ×ķ×Ļ×ĸ ×Ł
Ġ×ĳ×Ĳ×ŀ ×ª
Ġ I
Ġ×Ĳ×Ļ×ł×¤ ×Ĳ×¨×ŀ
1 7
×Ĳ×ł×Ĵ ×ĺ
×ķ×Ļ× ł×Ĵ
Ġ×ķ×ķ×Ĳ×¡ ×¢×¨
×Ĳ×ĵ ×¢
Ġ×ĳ×Ĳ×©×ĺ ×¢×ĺ
Ġ×Ĵ×¢×¨ ×ľ×ĸ
Ġ×ľ×Ļ×ĳ ×¢
×Ļ×Ļ×ĵ ×¢×¨
Ġ×Ķ×ł ×Ĳ×Ķ
Ġ×¤×Ĳ×¨ ×Ķ
Ġ×Ĳ×Ļ×¨ ×¢
Ġ×ľ ×Ļ×Ļ×Ĵ×Ł
×Ļ× ł×¦
×Ĳ×ł ×Ļ×¢
Ð µ
Ġ×ŀ ×Ļ×Ļ×ĵ
2 5
Ġ×¦ ×ĵ×Ļ×§
×Ļ×ł ×Ļ×Ŀ
Ġ×Ķ ×¦
×¦ ×ķ×Ĵ
Ġ×Ĵ×ľ ×Ĳ×ĳ
Ġ×¤×Ĳ×¨ ×¤
×¦ ×Ļ×Ĳ
Ġ×ķ×ķ×¢×ľ ×Ľ×¢×¨
×ľ ×Ļ×ĺ×¢×ĺ
a d
×Ľ ×Ļ
Ġ×Ĵ×¢× Ĳ
Ġ×Ĳ×¨×ķ×Ļ×¤×¦ ×Ļ×¨
Ġ×¤×¨ ×ķ×Ļ
Ġ×Ļ×Ļ×ĵ ×Ł
Ġ×ĳ ×Ĳ×Ĵ
×Ļ×Ļ×ĳ ×ĺ
Ġ×Ĵ×¢×¤ ×Ļ×ł×¢×Ł
Ġ×¤×Ļ×¨ ×ŀ×¢
×ĸ ×¢×¨
×¢×ł×ĵ ×Ļ×Ĵ×¢
Ġ×Ķ ×Ĺ
Ġ×Ķ×¢×Ľ ×¢×¨
×¨ ×ķ×Ŀ
a m
Ġ×ĳ ×Ļ×Ľ×¢×¨
Ġ×§×ľ ×Ļ×Ļ×ł×¢
×¨ ×Ĳ×ĺ
Ġ×ł ×Ĳ×Ľ×Ł
Ġ×Ĳ×©×Ľ×ķ×ľ ×ķ×ª
Ġ×ľ ×ĳ
Ġ×Ļ×Ĳ×¨ ×§
×ķ×ŀ ×¢
Ġ R
Ġ×¤ ×¢
Ġ×Ĵ×¢×ľ ×¢×¨
Ġ×¡ ×Ļ×¨
×ķ×ł ×ķ×ª
×Ļ×¦ ×Ļ×¢
×¨×ĵ ×Ĳ
Ġ×¢×ł×Ĵ ×ľ×Ļ×©
e l
×¨ ×Ļ×¢
Ġ×ŀ ×Ļ×Ļ×ł×¢
Ġ×§ ×¢×ł×¡
×ŀ ×ĵ
×¨×Ļ×Ļ× ĳ
×¢×ł ×Ĳ
×Ļ×¤ ×ĺ
Ġ×¤×ľ ×Ļ×Ļ×¦
Ġ×©×ł ×¢×ľ
×ķ×ľ ×Ĳ
Ġ×ľ×© ×ķ×Ł
Ġ×Ĳ×ľ ×ĺ×¢
Ġ×¦×ķ×ķ×Ļ×Ļ×ĺ ×¢
×Ĳ ×ķ×Ļ×£
Ġ×ķ×ķ×¢×¨ ×¡
Ġt he
Ġ D
×ľ×¢×Ľ ×ĺ
Ġ×Ĳ×Ļ×Ļ× ł×¡
×ľ×¢× ł×ĵ
Ġ×Ĺ×© ×ĳ
×ĵ ×ķ×ª
Ġ×Ļ ×¢×ł×¢×¨
×Ļ×Ļ×ĵ ×Ł
Ġ×Ĳ ×Ļ
×ķ×ł ×Ļ×Ŀ
Ġ×Ļ ×ķ×ł×Ļ
×Ĳ×ŀ ×Ĳ×ĺ
Ġ×Ĳ×ķ×ŀ×Ĵ ×¢×ĳ×¨×¢×ł×Ĵ×ĺ
Ġ×¤×Ĳ×¨×©×ĺ ×Ļ×Ļ×Ł
×ķ×ł ×Ĳ
×¢×ľ ×§×¢×¨
Ġ×¤×¨×Ĳ×¦ ×¢×ł×ĺ
Ġ×¡ ×¢×§
Ġ×Ļ ×§×¡
Ġ×Ĵ×ľ×Ĳ×ĳ ×Ĳ×ľ×¢
×¢×¡ ×ĺ×¢×¨
Ġ×ĸ ×¢×Ķ×ĺ
×¨×Ĵ ×Ĳ
×ŀ ×Ł
Ġ×ŀ ×¢×ľ
Ġ×¡ ×ŀ
×ľ ×§
Ġ1 2
×Ļ×Ļ× ł×§
×Ĳ×Ĵ ×Ļ×¢
Ġ×ĵ×¢×¨×ŀ ×Ĳ×ł×ĺ
Ġ×Ĳ×Ļ×Ļ× ĳ
Ġ×ľ ×Ļ×Ĵ×ĺ
---- ----
Ġ×ĺ ×Ĳ×ĺ×¢
Ġ×ķ×ķ×Ļ×ł×§ ×ľ
Ġ×¤ ×Ļ×ł×£
Ġ×© ×Ļ×¢
Ġ×ľ ×¢×Ĵ
Ġ×ł ×Ļ×Ĵ
Ġ×¦ ×Ļ×ĳ×ķ×¨
Ġ×©×ĺ ×Ļ×§×ľ
×¢×ł×ĵ ×ľ
×ķ×ĳ ×¨
Ġ×Ĵ×¢×Ķ ×Ĳ×ľ×ĺ×Ł
Ġ×ŀ ×ĸ
Ġ×Ĵ ×ĵ
×Ļ×ł×Ĵ ×¢×¨
×ķ×Ľ ×ĺ
Ø ©
×Ĳ×ł ×Ĳ×ŀ
Ġ×¤×¨ ×ķ×Ļ×¢×Ł
Ġ×Ĳ×ķ×Ļ× Ĵ×Ł
Ġ h
Ġ×ĳ ×Ļ×¨
Ġ×Ĵ×¢×ľ ×¢×Ĵ
Ġ×¢×¨ ×ĵ
Ġ×ĳ ×¤
×ŀ ×Ļ×ł
×ķ ×ĺ×¢×¨
Ġ×¤×Ĳ×¨ ×ł
×¢×¨ ×Ļ
Ġ×Ĺ×¡×Ļ×ĵ ×Ļ×Ŀ
Ġ×¡×ĺ×¨ ×Ļ×ĺ
Ġ×Ĳ×Ļ×ł×¤×Ĳ×¨×ŀ ×Ĳ×¦×Ļ×¢
Ġ×ĵ ×Ļ×¤
Ġ×§×ľ ×Ļ×Ļ
Ġ×Ĳ×ľ ×Ļ×Ļ×ł×¡
Ġ×ŀ×¢×¨ ×ĳ
×¢×ł ×ķ×ł×Ĵ
Ġ×ŀ×¦ ×ĳ
Ġ×ľ×Ļ×Ļ×¢ ×ł×¢×Ł
Ġ×Ĳ×Ļ×Ļ×ł ×¢×Ŀ
×¨×Ļ×Ļ× ļ
Ġ×ĵ×¢×¨ ×¤×Ĳ×¨
Ġ×©×ĺ ×ķ×ĳ
×¢×¤ ×ĺ×Ł
Ġ×§×¨ ×Ļ×Ĵ
Ġ×¦×ķ×¤ ×¨×Ļ×ĵ
Ġ×Ĵ×ľ ×Ļ×Ļ×ļ
Ġ×Ĳ×Ļ× ł×ĸ
×ķ×ķ ×¢×ŀ×ĳ×¢×¨
×¨×ĳ ×Ļ
×§ ×¨×Ļ×Ļ×ĸ
Ġ×Ĳ×¨×ĳ ×¢×ĺ×Ł
2 4
Ġ×Ķ×Ļ×¡×ĺ×Ĳ×¨ ×Ļ×¢
×ł ×Ļ×Ĳ
×Ĳ×¨ ×ĳ
Ġ×ķ ×Ķ
Ġ×ĵ ×¢×¦
Ġ×§×ķ×§ ×ĺ
Ġ×¤×Ĳ×¨×©×ĺ ×Ļ×Ļ×ĺ
×Ļ×ĵ ×ķ×©
Ġ×Ĳ×± ×£
Ġ×ŀ ×¢×©
Ġ×Ĳ×Ļ×ŀ ×¢×Ļ×ľ
Ġ×Ĳ ×ķ×ª
Ġ g
Ġ×ĺ ×ķ×Ł
×ķ×¨ ×ķ×ª
ã ģ
Ġ×ł× Ĺ
Ġ×ŀ×ŀ ×Ļ×ľ×Ĳ
×Ľ ×ĺ×Ł
Ġ×ķ×ķ ×¢
Ġ×ł ×Ļ×¦
Ġ×ŀ ×Ĳ×Ľ
Ġ×Ľ ×ŀ×¢×ĺ
Ġ×ľ ×Ļ×ĵ×¢×¨
a y
×Ĳ×§ ×¡
×¨×ĵ ×¢×ł×¡
Ġ×Ĵ×¢×ķ×ķ ×¢×Ķ×Ł
Ġ×¤ ×¢×ĺ×¢×¨
×ķ×ķ×Ļ× ©
Ġ×¦ ×Ļ×ľ
×Ĳ×ŀ ×¢×¨
Ġ×ĳ×Ĳ×¨ ×Ļ×Ľ×ĺ×Ł
×ķ×Ļ×¢ ×¨
Ġ×Ļ ×ķ×¡
Ġ×ĵ×¢×¨ ×§×ľ
Ġ×Ľ ×Ĳ×ĺ×©
×Ĵ ×¢×ĸ
×ľ ×Ļ×Ļ×Ł
×¢× ł×¦
×¢×¦ ×Ļ×¢×ľ
×¨×©×ĺ ×¢×ľ×Ł
Ġ×Ļ×¨×ķ×© ×ľ×Ļ×Ŀ
×ĺ ×Ļ×§
Ö· )
×ľ ×Ļ×ł×Ĵ
Ġ×ĺ ×Ļ×Ļ×¢×¨
Ð ¾
Ġ×ĵ ×ķ×ĵ
×ŀ ×ķ×ª
Ġ×§ ×Ĳ×ł×ĺ
Ġ×¡×ĺ ×Ļ×Ļ×©×Ĳ
Ġ×ĳ×Ļ×ľ×ĵ×ķ×ł×Ĵ ×§×¨×Ļ×Ļ×ĸ
Ġ×ĺ×¢×¨ ×Ĳ×¨
×¨×Ļ× ª
Ġ ÙĨ
×Ĳ×ŀ ×Ĳ
Ġ×Ļ ×ł×¡
×Ļ×Ļ×¡ ×Ł
e w
×ķ×Ļ×¡ ×Ļ×Ĳ
ÙĪ ÙĦ
×© ×Ļ×ł×Ĵ
Ġ×§ ×ķ×
Ġ×ŀ×Ļ×ĺ ×Ĵ×ľ
Ġ×ĵ×¢×¨×¦ ×Ļ×Ļ×ľ×ĺ
Ġ×Ĵ×¢×© ×Ļ×Ľ×ĺ×¢
Ġ×¦×ķ×ķ ×Ļ×Ļ×ĺ×Ł
×ľ ×ķ×Ļ×ĳ
×¦ ×Ļ×Ĵ
Ġ×ĳ×¨ ×Ļ×Ļ×ĺ
×ķ×¦ ×ĺ
Ġ ..
×©×ĺ ×¢×ľ
ĠÙ ħ
Ġ :
Ġ and
×ĳ ×Ĳ×¨
×Ļ×Ļ×ľ ×Ł
×ľ×¢×¨ ×Ļ×ł×Ĵ
×¢×ĺ ×¨
Ġ×Ĵ×¨×ķ×Ļ×¡ ×¢×¨
Ġ×¨ ×Ĺ
Ġ×Ĳ×ł×Ĵ ×¢×¤
×ľ ×ľ
Ġ×ĵ×¢×¦ ×¢×ŀ×ĳ×¢×¨
Ġ×ĳ×Ĳ× ĳ
×Ļ×Ļ× Ĳ
×ķ×Ľ ×Ł
×¡×ĺ ×¨
×Ļ×¨ ×ĺ×¢
Ġ×Ĳ×ľ ×ĺ
×¢×ŀ ×Ĳ
×¨×§ ×¢×ĺ
Ġ×Ĵ ×Ļ×Ļ
Ġ×¤×¨ ×Ļ×¢×¨
Ġ×ķ×ķ×Ļ×Ļ×ĸ ×Ł
Ġ×¡ ×ª×Ŀ
Ġ×Ļ ×¡
Ġ×ĸ ×¢×Ķ
Ġ×ł ×Ĳ×Ľ×ĺ
Ġ×¡×¤ ×ķ×¨×ĺ
Ġ×ĵ ×¢×¤
×ĺ ×ķ×ĸ
×¢ ×ķ
×Ĵ ×Ļ×Ļ×ĺ
Ġ×ĺ ×ķ×¨
Ġ×ĳ×¨ ×Ļ×ķ×ķ
×Ļ×Ļ×ł ×Ļ×Ĵ
Ġ×ĵ ×Ļ×ł×¡×ĺ
Ġ×¤ ×Ļ×Ļ×¥
×Ĺ ×§
Ġ×¢×ł ×Ļ×Ł
×Ļ×¦ ×Ļ×Ļ
Ġ×¦ ×Ĳ
Ġ×ľ ×Ķ
Ġ×¨ ×¢×ľ
Ġ×¨ ×¢×ĺ
Ġ L
Ø ¨
×ŀ ×ª
Ġ×ķ×ķ×¢×Ĵ ×Ĳ
Ġ×Ľ×ľ ×ľ
Ġ×ĵ×¢×ŀ ×Ĳ×ľ×ĺ
Ġ×Ĳ×Ļ×ł×ĵ ×ķ×¡×ĺ×¨
m a
×Ļ×§ ×Ļ×Ļ×ĺ
×ķ×ķ×Ļ×ĺ ×©
Ġ×ŀ ×¢×¡
Ġ×Ĺ ×Ļ×ľ
×¢×§ ×ľ
Ġ×¢ ×ĳ
Ġ×ŀ ×¨
×Ĳ× £
Ġ×ŀ×© ×Ļ×Ĺ
Ġ×¢×§ ×ĸ×Ļ×¡×ĺ
×Ĺ ×ķ×ª
Ġ×¤×¨ ×Ĳ×¤
Ġ×Ĵ×¢×ľ×¢×Ĵ ×ł×Ķ
×¢× £
Ġ×ĸ ×Ļ×Ļ×ĺ×Ł
×ķ×Ĵ ×ľ
Ġ×¨ ×¢×Ľ
Ġ×Ĺ ×ĸ
Ġ×ľ ×Ļ×ĵ
×ĵ ×Ļ×©×¢×¨
Ġ×Ĵ×¢×ķ×ķ×Ļ×ł ×¢×Ł
Ġ×Ļ ×ķ×ľ×Ļ
Ġ×ķ×ķ×Ļ×Ļ×¡ ×Ł
×¨ ×ķ
Ġ×ĳ×Ĺ ×ķ×¨
Ġ×¡ ×¢×¤×ĺ
Ġ×Ĵ×¢×Ķ ×¢×¨
Ġ×©×ł ×Ļ×Ļ
Ġ×Ĳ×ľ ×Ĵ×¢×ŀ
Ġ×ª ×ľ×ŀ×Ļ×ĵ
×ĵ ×ķ×©
×ķ×ľ ×Ķ
r o
×ķ×ĳ ×Ķ
×Ĳ×ł×¦ ×Ł
×ķ×Ļ×ľ ×Ł
Ġ×¤×¨ ×Ĳ×Ĵ×¨
×¢×¦ ×Ł
×ķ×Ļ× Ĵ
Ġ×ĵ×¨ ×ļ
×¨ ×Ļ×Ĳ
Ġ×ĳ ×ķ×ļ
2 6
Ġ×© ×ĺ×¢×¨×Ł
Ġ×Ĳ×Ļ×ĳ×¢×¨ ×ĸ×¢×¦
Ġ×Ķ×Ĳ×¨ ×¥
Ġ×ŀ ×Ļ×¡
×Ĳ×¨ ×¤×ĺ
Ġ×¢×¨ ×©×ĺ
u s
Ġ×Ĵ×¢×ĳ ×ķ×Ļ×¨×Ł
Ġ×¤ ×ķ×¡
Ġ×ķ×ķ ×Ļ×ĳ
Ġ×¡ ×ĺ×¢
Ġ×Ĵ×¢×ľ×¢×¨ ×ł×ĺ
Ġ×¡×¢×¤×ĺ ×¢×ŀ×ĳ×¢×¨
×© ×Ķ
Ġ×Ĳ×ł×§ ×ķ×ŀ×¢×Ł
Ġ×¡ ×ľ×Ĳ
Ġ $
Ġ×ľ ×¢
5 0
×ĺ×¢×¨ ×Ļ×Ĳ
×ľ×¢×¦ ×¢×¨
Ġ n
×¨×Ļ×§ ×ĺ
Ġ×ŀ×¦ ×ķ×Ķ
e t
Ù ħ
Ġ× ł×¡
Ġ×ĺ ×ķ×Ļ×©×Ł
×ķ×ľ ×ľ
Ġ×Ĵ×¢×Ķ ×Ĳ
×ķ×ķ×Ļ× ł×ĵ
2 3
×¨×Ļ× ¥
Ġ×¤×ľ ×¢×Ĵ×ĺ
Ġ×©×ĺ ×¢×ľ×ĺ
×ł×ĵ ×¢×¨
Ñģ Ñģ
2 7
Ġ×ł ×Ļ×§
Ġ×ĺ×Ĳ ×Ł
Ġ×Ķ×Ļ×Ļ×ŀ ×Ļ×©×¢
Ġ×¤×¨ ×Ĳ×ĵ
Ġ×ĵ ×£
×Ĳ×ł×¢×¨ ×©×ĺ
×Ľ ×Ļ×Ŀ
Ġ×¦ ×Ļ×ķ
×ŀ ×Ĳ×ľ
2 8
Ġ×¤×¨ ×¢×Ĵ×Ł
×Ļ×Ļ×ł ×Ĳ
Ġ×§ ×Ĳ×ł×¡
×ĺ ×Ļ
×¡ ×¢×¡
Ġ×ŀ×©×¤ ×Ĺ×Ķ
Ġ×© ×ķ×ķ×Ĳ
×ŀ ×Ļ
×¨ ×ľ
Ġ×ĵ ×Ĳ×ł×¢×¨×©×ĺ
×ľ ×Ļ×¡×ĺ
×¨×ĳ ×Ļ×ł×ĵ×Ł
×ķ×§ ×¨
Ñĥ Ñĥ
×¤ ×¢×¨×ĺ
Ġ×ĳ×¨ ×ķ×Ļ×ļ
Ġ×ł×Ĳ ×ķ×ķ×¢×ŀ×ĳ×¢×¨
Ġ×§ ×¢×ł×ĺ
×ķ×Ļ×ł ×¢×Ł
Ġ×¤×¨ ×Ļ×¢×¨×ĵ
×ľ ×ĳ
×ĳ ×Ļ×Ļ
Ġ×Ķ ×¢×ł×ĺ
×ķ×ĵ ×¢×¨
×ĳ ×ª
Ġ×¢ ×ľ×Ļ×Ľ
×§×ĺ ×Ļ×©
×Ĵ ×¢×ľ
âĢ ľ
Ġ×Ķ ×¨×Ķ
Ġ×Ĳ×ľ ×ķ×Ł
Ġ×©×ķ×ķ ×Ĳ×¨
Ġ×Ĳ ×ł×¦
×ĸ ×¢×§×¡
Ġ×©×ŀ×ķ ×¢×¡×Ł
×¨ ×ľ×¢×Ĳ
Ġ×Ĺ×©×ĳ ×ķ×Ł
×Ĳ× ª
×Ĳ×ł ×¢
Ġ×§×¨ ×¢×ĵ×Ļ×ĺ
Ġ×Ĵ×¢×ĵ ×Ĳ×¨×¤×ĺ
Ġ×¢×ľ×Ļ×Ľ ×Ŀ
×Ļ×ŀ ×Ķ
Ġ×ŀ×Ĺ ×ĳ×¨
×ķ×ķ ×Ĳ×§
Ġ×ĵ×¢×¨ ×Ĵ
×ķ ×Ĳ×¨
Ġ×Ĳ×ĳ×¨ ×Ķ×Ŀ
×ĵ ×Ļ×Ĵ
Ġ×ĵ×Ļ×Ļ×ĺ ×©
Ġ×Ĵ×¢×ł ×Ļ×¦×ĺ
×ķ×ĵ×Ĳ ×Ļ
Ġ×ľ ×Ļ×ĺ×¢×¨
2 9
Ġ×ŀ×© ×ł×Ķ
Ġ×ĳ×ľ ×¢×ĺ×¢×¨
×ĸ×© ×Ĳ
Ġ×¡×¤×¢×¦ ×Ļ×¢×ľ×¢
Ġ×ŀ ×¢×ł×©
Ġ×ĺ ×¢×§
×¢×ľ ×¡
Ġ×Ĳ×Ļ×Ļ× Ĵ×Ł
Ġ×¢×¨×© ×ĺ×Ł
×ĺ ×Ķ
Ġ×ĵ ×Ĳ×ł×§
Ġ×ķ×ķ×Ļ×Ľ×ĺ ×Ļ×§
Ġ×Ļ ×ł
Ġ×Ĳ×Ķ ×Ł
Ġ×ŀ ×Ļ×Ł
Ġ1 00
×ľ ×Ļ×¤
Ġ ?
×¨ ×ķ×ª
Ġ×ŀ ×Ļ×Ļ
Ġ×Ĳ×Ļ×Ļ×¨ ×Ĳ×¤×¢
Ġ× ´
×ł×ĵ ×Ĳ
Ġ3 0
Ġ×Ĵ×Ĳ×ł×¦ ×Ł
Ġ×© ×Ļ×Ļ×ł×§
Ġ×¢×§ ×Ĳ×ł×Ĳ×ŀ
Ġ×ĺ ×Ļ×©
×¢×ľ ×¢×ļ
×¢×ķ×ķ ×Ĳ
Ġ×§×¢×ł ×Ļ×Ĵ
Ġ×ĺ×¢×¨ ×ŀ
Ġ×Ļ×ķ ×Ĳ×ľ
Ġ×§×Ĳ×ł ×ĺ×¨
Ġ×¤ ×ľ×¢×¦×¢×¨
×Ļ×Ļ×ĸ ×¢×¨
Ġ×¦×ķ×© ×ĺ×¢×ľ×Ł
×Ļ×Ļ× ķ
Ġ×Ĵ×¢× ¡
×¢×ł×ĵ ×¢
×¢×§ ×¢×¨
Ġ×¨ ×Ļ×§
×ľ ×Ļ×ĳ
Ġ×ŀ×Ļ×ĵ ×Ļ×Ĳ
Ġ×Ĳ ×ķ×¨
Ġ×ĵ ×Ļ×ĸ
ï¬ Ł
Ġ×Ķ ×ķ×Ļ×Ľ
t i
Ġ×¢×¨ ×Ĵ
×ł ×Ļ×¨×Ł
×¤ ×Ĳ×¨×ĺ
Ġ×Ĵ×ŀ ×¨×Ĳ
Ġ×ĳ×Ĳ×©×ĺ×¢×ĺ ×Ļ×Ĵ×ĺ
Ġ J
Ġ×ĺ ×Ĳ×¨
Ġ×ĺ×ķ×Ļ×ĸ ×ł×ĺ×¢×¨
Ġ×Ļ ×Ĵ
×ŀ ×Ļ×Ļ×Ł
Ġ×Ķ×¢×ľ ×¤
Ġ×ĵ×¢×ŀ ×Ĳ×§
×¨×ĺ ×Ļ×§×ľ
×ł ×Ļ×ŀ×Ĳ
Ġ×¦×ķ×¤×¨×Ļ×ĵ ×Ł
×ķ×ľ ×ĺ×ķ×¨
Ġ×¦×ķ×ķ ×Ļ×Ļ×ĺ×¢×¨
Ġ×ŀ ×ķ×Ĺ
×¢×ĺ ×Ĳ
Ġ×©×ĺ ×Ļ×Ļ×Ł
×ķ×ķ ×Ĳ×¨×ĺ
×ĺ ×Ĳ×ĺ
×¤ ×ķ×ľ
Ġ×Ĳ×¨×ĺ×Ļ×§×ľ ×¢×Ł
Ġ×§ ×¢×Ĵ
Ġ×¦ ×ĵ
Ġ×Ķ ×ĳ
×ķ×Ļ×© ×ĺ
×Ĳ×¦ ×Ļ×¢×¡
×ķ×ł ×ĺ×¢×¨
Ġ×° ×Ļ
Ġ×¤ ×Ļ×©
Ġ×ŀ ×Ĳ×ł×¡
Ġ×ĳ ×ķ×Ļ×¢×Ł
ï¬¯ ×¡
Ġ×¤ ×Ĳ×¤
Ġ×ķ×ķ×Ļ×ĵ ×¢×Ĳ
Ġ×Ķ ×Ļ×Ļ
×¤ ×Ļ
×¨ ×ķ×ŀ
×Ĳ ×Ļ×ĳ×¢×¨
×¨ ×ĺ×Ł
×¢×ĵ ×¢×¨
is h
×ĳ ×¨×Ĳ
×¨×ĳ ×Ĳ
Ġ×ľ×Ļ×ł×§ ×¡
Ġ×¦×ķ×ķ ×Ĳ×ł×¦
Ġ×ĵ ×¢×¡
Ġ×ĵ ×¨×Ļ×Ļ×
×ł ×ķ×¡
Ġ×Ĵ×¢×© ×ŀ
Ġ×©×ŀ×ķ ×¢×¡
×Ľ ×Ĳ
Ġ×¤ ×Ļ×ł
Ġ×ĳ ×Ļ×Ļ×ł×¢×¨
Ġ×ķ×ķ×Ļ×ĳ ×Ĳ×ľ×ĵ
×Ĳ×ľ ×Ļ×¢
Ġ×Ľ ×Ĺ
Ġ×ĺ ×¢×Ĳ
Ġ×ĺ ×¢×ŀ×¢
Ġ×¨×ķ×¡ ×ľ×Ĳ×ł×ĵ
Ġ×©×ĺ×Ĳ×¨ ×§×¢
o l
Ġ×§×ķ× ł×¡×ĺ
Ġ×© ×Ľ
Ġ×Ĳ×¤ ×¨×Ļ×ľ
Ġ×ł× ª
Ġ×ĵ ×Ļ×ļ
Ġ×ŀ×ĵ ×Ļ×ł×Ķ
Ġ×©×Ļ×¢ ×ķ×¨
Ġ×ľ ×¢×ł×Ĵ
×ķ×Ļ× ŀ
Ġ×Ľ ×Ķ
×¨ ×§×Ĳ
Ġ×ĳ ×ĸ
ÙĬ ÙĨ
×ľ ×§×¡
Ġ×Ĳ×Ļ×ĵ×Ļ×© ×§×Ļ×Ļ×ĺ
ĠØ ¹
Ġ×ķ×ķ×¢×ĺ ×¢×¨
Ġ×ĳ×ľ ×Ļ×Ļ×ĳ×Ł
×² ×Ł
×ľ ×Ĺ
Ġ×ĳ ×Ķ
×ł×ĵ ×¢×¨×¢
×Ĵ ×¢×Ĵ
×©×ĺ ×¢×ľ×Ł
×© ×ŀ
Ġ×Ļ ×Ł
er s
Ġ×Ĳ ×Ļ×Ļ
×¢×¤ ×ł×ĺ
Ġ1 4
Ġ×¤×¢×ĺ×¢×¨ ×ĳ×ķ×¨×Ĵ
Ġ×©×Ļ×Ļ×ł×§ ×Ļ×Ļ×ĺ
w w
Ġ×Ķ ×¨
Ġ×Ĵ×¢×© ×ľ
Ġ×Ĵ×¢×ĸ ×¢×¥
Ġ×Ĺ ×ķ×¥
Ġ1 7
en t
Ġ2 5
Ġ×ĺ×© ×Ļ×§×Ĳ
Ġ×ĺ×ķ ×¢×Ł
×§ ×¢×¡
×Ĳ×ĺ ×ķ×¨
Ġ×¤×Ĳ×¨ ×ĸ
×Ļ×ł ×Ļ
Ġ×©×ĺ ×Ļ×¦×Ł
Ġ×ł ×ķ×£
Ġ×Ĵ ×Ĳ×¡
Ġ×Ķ ×Ļ×Ļ×Ŀ
Ñ Ģ
×¨ ×¢×Ŀ
×ķ×ł×ĵ ×Ł
Ġ×ķ×ķ×Ļ×ľ ×ĺ
Ġ×Ĳ×§×ĺ ×Ĳ×ĳ×¢×¨
×§ ×¨×Ĳ
Ġ×Ĳ×Ļ×Ļ× ĸ
Ġ×¨×¢×§ ×Ĳ
Ġ×Ķ ×Ļ×ŀ
Ġ×¤×Ĳ×¨ ×¦
×Ĳ× Ĺ
Ġ×Ĳ×Ļ× ł×¡×ĺ
Ġ×¦×ķ×ĸ ×Ĳ×ŀ
Ġ×Ļ×¦ ×Ĺ×§
³ ÙĬ
Ġ×Ĳ×ķ×Ļ×¡ ×¦
×ķ×ķ×¢×Ĵ ×¡
Ġ×¤×Ĳ×ľ ×§
Ġ×Ĵ×¢×¤ ×ķ×ł×¢×Ł
Ġ×ĺ ×ķ×Ķ×Ł
Ġ× ł×§
Ġ×Ĵ×¢×¤ ×¨×¢×Ĵ×ĺ
×Ĳ×¦ ×Ļ×Ĳ×ł
Ð ¸
Ġ×©×ĺ ×Ĳ×ĺ×Ł
ÙĬØ ³ÙĬ
Ġ×ĺ ×ķ×ķ×Ļ×ĺ
Ġ×§×Ĳ ×ķ×ķ×¢
Ġ1 3
×¨×ķ×ĳ ×Ļ×¨×Ł
×Ļ×¡×ĺ ×¨×Ĳ
Ġ×Ĵ×¢×ĵ ×Ĳ×ł×§
Ġ o
Ġ1 6
Ġ×¤ ×ķ
Ġ×ľ ×Ļ×Ļ×ł×¢×Ł
Ġ×ĳ ×§
×¢×ŀ ×ĺ
Ġ×Ĵ×¢×ĸ ×¢×Ķ×Ł
Ġ×Ļ×ķ×¡ ×£
×ķ×ķ×Ļ× ķ
Ġ×§×ķ×¨ ×¡
Ġ×ľ×ŀ ×¢×©×Ķ
Ġ×¨ ×Ĳ×ĺ
×ķ×ĵ ×ĸ
×¤ ×¢
Ġ×©×ĺ ×Ļ×§
×Ĳ×ł ×ĺ×Ł
Ö °
Ġ×¡ ×Ļ×ĺ×Ļ
Ġ×¦×Ļ×Ļ×ĺ ×Ł
Ġ×Ĳ×ĺ ×Ĳ×§×¢
Ġ×ķ×ķ×Ļ×Ļ×ł ×Ļ×Ĵ×¢×¨
Ġ×ł×Ļ×©×ĺ ×Ĳ
Ġ×¤×¨ ×Ĳ×Ĵ
×Ĳ×ĵ ×¢×¨
×¨ ×¢×ĺ
×ľ ×ķ
Ġ×ĳ ×Ļ×Ķ
×ł×Ĵ ×¢×¨
×Ĳ×ł×¦ ×ķ×Ļ×ĸ
Ġ×ŀ ×Ĳ×ĺ
Ġ×ĳ×ľ ×ķ×ĺ
×¨×Ļ× ł×ĵ
Ġ×ĵ ×¢×Ł
Ġ×© ×Ŀ
Ġ×ŀ×Ķ ×¨
×© ×Ļ×Ł
×¤ ×Ļ×¨×Ł
×§ ×©×Ĳ
Ġ×ŀ×Ĳ×ł×¡ ×Ļ
×ĺ ×ķ×ĳ
×Ļ×¨ ×Ĳ
Ġ×ŀ×¢×Ĵ ×ľ×Ļ×ļ
×Ļ×Ļ×Ľ ×ľ
×¨×ĺ ×Ļ×§
×Ĵ ×Ķ
Ġ1 1
×ķ×¨ ×ļ
×¢×ŀ ×¡
×ķ× ł×¡
Ġ×Ĵ ×ķ×¨
Ġ×¦ ×¢×ł×ĺ×¢×¨
×Ļ×ł ×ķ×ļ
Ġ×¦×ķ×ķ×Ĳ×ł×¦ ×Ļ×Ĵ
×Ĳ×¨ ×Ĳ×¤
×§ ×ĺ×¢×¨
Ġ×§ ×¢
×© ×Ļ×Ĳ
×ĵ×ĸ×© ×Ĳ
Ġ×¡ ×Ľ
ĠïŃİ ×ķ×Ł
×©×Ļ×ł×Ĵ ×ĺ×Ĳ
Ġ×Ļ ×¢×ł×¢×Ŀ
×ĵ×¨ ×¢×¡
×Ĵ ×¢×ĳ
×ķ×ŀ ×Ķ
Ġ×¦ ×²
×ķ×ķ ×¢×ľ
Ġ×© ×Ļ×¡×¢×¨×Ļ×Ļ
×ķ×ŀ ×Ĳ
Ġ×¡×ĺ×¢ ×Ļ×ĺ
×ł×ĵ ×Ļ×§×¢
Ġ×Ĺ ×¨×ķ×ĳ
Ġ×ĸ ×¢×§×¡
Ġ×ĳ ×ŀ
Ġ×ĵ ×¢×ķ×ķ
Ġ×ķ ×ĵ
×§ ×Ļ×Ŀ
Ġ×¢×¦ ×Ķ
Ġ×Ĳ×Ļ× ľ
Ġ×¦ ×¢×ĺ
Ġ×¨×¢×Ĵ ×Ļ×¡×ĺ×¨
×ķ×ĳ×ľ ×Ļ×§
Ġ×¤×¨ ×¢×ŀ
×ŀ×¢×¨ ×§
×ŀ ×¢×Ĵ
Ġ×ľ ×ķ×¤×ĺ
Ġ×ľ ×Ļ×Ļ×Ĵ×ĺ
Ġ×ĳ×ľ ×ķ×Ŀ
Ġ×¢×¨ ×ĳ
×¢×ĺ×© ×ŀ×¢
Ġ×Ĳ×¨ ×ķ×ŀ
×Ĳ×ŀ ×¢
Ġ×ŀ×Ĳ ×Ł
Ġ×©×¨ ×¢×§
Ġ×ĳ×¨ ×Ļ×ĺ
Ġ×ŀ×Ļ×ľ ×Ļ×Ĳ×Ł
Ġ×Ĳ ×ķ×Ŀ
×ľ ×Ļ×Ł
Ġ×ĵ ×¨×Ĳ
×Ļ×¨ ×¢×¨
Ġ×Ĳ×ķ×ŀ×Ĵ ×¢×§×ķ×ŀ×¢×Ł
/ /
Ġ×Ĵ×¢×© ×¤
Ġ×¤ ×Ļ×¡
Ġ×Ĳ×Ļ× ¡
Ġ×ł×Ĳ×Ľ ×ł×Ļ×©×ĺ
Ġ×¢×¡ ×ĺ
Ġ×ĺ×© ×¢×§
Ġ×Ĵ ×Ĳ×ľ×ĵ
Ġ×Ķ ×¢×¨×©
×ĵ ×Ļ×§×¢
×¢×Ľ ×Ł
Ġ×Ĵ×¢×¨ ×ķ×¤×Ł
Ġ×ľ ×Ĳ×ŀ×Ļ×¨
Ġ×Ĺ×Ļ×ľ ×ķ×§
Ġ×ĳ ×Ľ
×¢×ķ×ķ ×¢×ĺ
Ġ×ł× ²
Ġ×¦ ×Ĳ×ľ
ma il
Ġ×ĵ×¢×¨ ×ķ×Ļ×£
Ġ×Ĵ×¨×ķ×Ļ×¡ ×Ł
×¨ ×¦
Ġ×ķ×ķ ×Ļ×ĸ
×Ĳ×ĸ ×ķ×Ļ
Ġ×Ĳ×Ļ×Ļ×¢×¨ ×¢
Ġ l
Ġ×ĳ×Ĳ×ŀ ×¢×¨
Ġ×ĸ ×Ļ×¦×Ł
×Ķ ×¢×¨
Ġ×©×ķ×ķ ×Ĳ×Ľ
×ľ ×§×Ĳ
×Ĳ×ł×ĵ ×ľ×ĺ
Ġ×ŀ ×¤
e b
Ġ×Ĺ ×ĳ
×§ ×ĺ×Ĳ
×Ļ×ł×Ĵ ×ĺ
Ġ×Ĵ ×Ļ×¨
Ġ×¡×ĺ ×ķ×ĵ
Ġ×Ĺ×© ×ķ×ĳ
Ġ×Ķ ×ĸ
Ġ×ĳ×ľ ×Ĳ×ĺ
Ġ×Ĵ×ľ ×Ļ×Ļ
Ġ×ŀ×¢×Ĵ ×ľ×Ļ×Ľ
Ġ×¤×Ĳ×ľ×Ļ×ĺ ×Ļ×§
×ķ× ĳ×¢×¨
×© ×Ļ×¨
×ķ×ĺ ×©
×Ĵ ×Ļ×§
Ġ×Ĵ×¢×¤ ×Ļ×¨×ĺ
×¨ ×ľ×Ĳ
Ġ×ĺ ×Ļ×Ļ
×ķ×ĵ ×ķ×ª
Ġ×Ĵ ×ķ×Ļ
Ġ×Ĵ×¢×© ×¢
Ġ×Ĵ×¢×¤ ×¢×¨
Ġ×©×¨ ×²
×ķ×ľ ×¢×¨
Ġ×ŀ ×Ļ×Ļ×ľ
Ġ×Ĵ×¢×ĳ ×ľ×Ļ×ĳ×Ł
Ġ×¦×Ļ×Ļ×ĺ ×ķ×ł×Ĵ
×ķ ×¢
Ġ×ŀ×¢×ĵ ×Ļ×¦
Ġ×Ĳ×Ļ× ĺ
×Ļ×Ļ×ĺ ×Ļ×§
×ł×¡ ×ĺ
Ġ×Ĵ×¢×ķ×ķ ×Ĳ×¨
×¢×ĳ ×ĺ
×ķ× ł×¤
Ġ×ŀ ×ł
Ġ×ĺ ×¢×ł×Ķ
×Ļ×ķ ×¨
Ġ×ķ×ķ×¢×¨×¡ ×Ļ×¢
×ľ ×Ļ×Ĺ
Ġ×¤×¨×Ĳ×ĳ×ľ ×¢×ŀ×¢×Ł
Ġ×¦ ×ķ×ł
×ľ ×¢×¡
Ġ×ŀ ×Ĳ×¡
×Ļ×Ļ×Ľ ×ķ×ª
Ġ in
×ł×¡ ×Ĳ
Ġ×ĳ×Ĺ ×ķ×¨×Ļ×Ŀ
×ł×© ×Ĳ×¤×ĺ
×ķ×ķ ×¢×Ĵ×Ł
Ġ×¡ ×Ļ×Ļ×ł×ĺ
Ġ×ľ×Ļ×Ļ×¢ ×ł×¢×¨
Ġ×© ×ķ×¨×Ķ
×Ļ×Ĵ ×Ļ×¢
Ġ×ķ×ķ×Ļ×ľ ×Ļ×Ĳ
Ġ×¨×Ļ×Ľ×ĺ ×Ļ×Ĵ×¢
Ġ×¤×Ĳ×ĺ ×¢×¨
×¢×§ ×Ĳ
Ġ×Ĵ×¨ ×¢×ł
Ġ×©×Ĳ×ľ ×Ķ
×ĳ ×Ļ×Ł
×Ĵ ×¢×ķ×ķ
Ġ×Ĳ×Ļ×ł×ĵ ×¢×¨
i m
×¢×§×ĺ ×Ļ×ķ×ķ
×ł×ł ×¢×ŀ×¢×Ł
Ġ×ľ×Ľ ×Ĳ
Ġ×ĳ×¢×¡ ×ĺ×¢
Ġ×¦ ×¢×Ł
Ġ×ł ×Ĳ×ŀ
Ġ×¦ ×ķ×¦
Ġ×¨ ×ķ×¤×ĺ
a c
Ġ×ľ ×ķ×Ļ×¤×Ł
Ġ×ľ ×Ĳ×ĸ×Ł
×Ĵ ×¢×Ķ
Ġ×©×ĺ ×Ļ×ŀ×¢×Ł
Ġ×ŀ×Ļ×ĺ×Ĵ×ľ ×Ļ×ĵ×¢×¨
×¢×§ ×ĺ×Ł
Ġ×ľ×Ľ×Ĳ ×ķ×¨×Ķ
Ġ×ŀ×¢×Ĵ ×ľ×¢×ļ
Ġ×¡ ×Ļ×ĺ
×ł×ĵ ×¢×¨×©
Ġ×Ĵ×¢×ľ×¢×Ĵ×ł×Ķ ×Ļ×Ļ×ĺ
Ġ×ĵ×¢×¨ ×ķ×ķ×Ļ×Ļ×ľ
×¦ ×¢×¨
×¢×¡×ĺ ×Ļ×ł×¢×¨
Ġ U
×¨ ×Ļ×ĳ
Ġ×ĳ ×Ļ×Ľ
Ġ×Ĺ ×ķ×¨
×¨×Ļ×ł×ĵ ×¢×ĺ
Ġ×ŀ×Ļ×Ļ×ĵ ×ľ
×Ļ×ł×ĵ ×¢×¨
×¨×Ĵ ×Ł
Ġ×Ĳ×ķ×Ļ×Ĵ ×ķ×¡×ĺ
×¨×§×¢×ĺ ×Ļ×ł×Ĵ
Ġ×¤ ×¢×¨×ĸ×¢×ł
Ġ×ķ×ķ ×Ĳ×ļ×¦×ķ×ķ×Ļ×Ļ
×ķ×Ļ× Ĳ
×ŀ ×Ļ×©
Ġ×ľ×Ĳ×ł×Ĵ ×¢
Ġ×Ĺ×ķ×ĵ×© ×ĵ×¨×Ļ×Ļ
p os
Ġ×Ĳ×ķ×Ļ×¡ ×¢×¨
Ġ×ĳ×ł ×Ļ
Ġ×ŀ ×ł×Ĺ
Ġ×ľ ×Ļ×ĺ
×ķ ×ķ×¡
Ġ×¤×¨ ×Ĳ×ĳ
Ġ×¡×Ĳ×¨×ĺ ×Ļ×¨
Ġ×Ĵ×¢×ĺ×¨ ×Ĳ×¤×Ł
Ġ×ĺ×¢×ľ×¢×¤ ×Ĳ
×¨×Ļ× ł×§
Ġ×¤×¨ ×Ļ×©×¢
Ġ×ł×© ×ŀ×Ķ
×ĺ ×Ļ×ł×Ĵ
×ķ×ķ ×¢×ł×ĺ
Ġt o
Ġ×Ĳ×Ļ×Ļ×ł×Ĵ ×¢×©
Ġ×©×ĺ ×Ļ×ĳ×ľ
Ġ×¤×¨ ×Ļ×ķ×ķ
Ġ×Ĳ×ł×Ĵ ×¢×§×ķ×ŀ×¢×Ł
Ġ×ł×¤ ×©
×ķ×ķ ×¢×ł×¢×Ł
×ª ×Ĺ
Ġ×ķ×ķ×Ļ×Ľ×ĺ ×Ļ×Ĵ
×ľ×¢×Ľ ×¢×¨
Ġ×ĳ×Ĳ×© ×ľ
Ġ×© ×Ļ×Ļ×Ľ×ķ×ª
Ġ×Ĳ ×ł×¤
×ŀ ×ľ
×ķ×ľ×ĺ×ķ×¨ ×Ĳ
×¨ ×ķ×¡
Ġ×ł×Ĳ×Ľ ×Ĳ×ŀ×Ĳ×ľ
Ġ×ĵ ×Ļ×¡×ĺ
Ġ×Ķ ×Ĳ×ł×ĺ
Ġ×Ĳ×ĸ ×ķ×Ļ×¤
×¡ ×ĵ×¨
×¨×ĵ ×Ľ×Ļ
Ġ×ķ×ķ ×Ļ×§
×Ļ×¢ ×ĸ×¨
Ġ×ŀ×Ĳ ×Ļ×¨
Ġ×§ ×Ĳ×¡×ĺ
Ġ×ĵ×¢×¨ ×©
Ġ K
Ġ×ĳ ×ķ×©
Ġ×ł ×ķ×ŀ
Ġ×Ķ×¢×ľ ×¤×ĺ
Ġ×ľ×Ļ×Ļ×ĵ ×¢×¨
Ġ×Ĳ×ķ×Ļ× ĳ×¢×¨×©
e c
Ġ×©×ľ ×ŀ×Ķ
Ġ×Ĺ ×Ļ×ł×ķ×ļ
Ġ×§×Ĳ×ŀ×¤ ×Ļ×ķ×ĺ×¢×¨
Ġ×ł×Ļ×Ĵ ×ķ×Ł
Ġ×¨ ×ķ×Ļ×ĺ
Ġ×Ķ×Ļ×Ļ×ĳ ×ĺ
Ġ×¤×¨×Ļ×¢×¨×ĵ ×Ļ×Ĵ×¢
Ġ×ŀ ×Ļ×ĸ
×¢× ł×
×Ķ ×Ļ×Ļ
×¨×¢×¡ ×¡
ĉ Ċ
×Ĳ×ĵ ×Ĳ
Ġ×¦×ķ×ĸ ×Ĳ
Ġ×ĵ ×¢×ľ
Ġ×ĺ ×Ļ×¨
×¨×© ×ľ×Ĳ
×Ĳ×§×ĺ ×Ĳ×¨
Ġ×ĵ×¢×¨×§×ľ ×¢×¨×ĺ
×§ ×Ļ×ł×Ĵ
Ġ×ĵ ×Ĳ×§
Ġ×Ĳ×Ļ×Ļ× ł×ŀ×Ĳ×ľ
×Ļ×Ļ×ł ×Ļ×ł×Ĵ
Ġ×¤×Ĳ×¨×ĺ ×Ļ×Ļ
Ġ×ĵ×Ĳ×ł×¢×¨×©×ĺ ×Ĳ×Ĵ
Ġ×ĸ×¢×ľ×ĳ ×¡×ĺ
×¨×ĺ×Ļ×§ ×ķ×ľ×ĺ×ķ×¨×Ĳ
×§ ×Ķ
Ġ×§×¨ ×¢×ĺ×©×ŀ×¢
Ġ×ĳ×ł ×Ļ×ŀ
t t
Ġ×Ĵ×¢×© ×Ļ×§×ĺ
Ġ×ĺ×¨ ×Ĳ×Ĵ
Ġ×ĵ ×Ļ×Ļ×ł×¢
Ġ×ĺ×¨ ×Ĳ×Ľ×ĺ×Ł
3 0
Ġ×ĳ×Ĳ×¨ ×Ļ×Ľ×ĺ
Ġ×¦×ķ ×ĺ×¨
Ġ×ŀ ×ĵ×¨
Ġ×Ĵ×¢×ĳ ×¢×ĺ×Ł
×¢×ĸ ×Ļ×¢
Ġ×ŀ×¡ ×ĳ×Ļ×¨
i g
Ġ×Ĳ×ķ×ª ×Ļ×ķ×ª
Ġ×Ķ ×Ľ
Ġ×Ķ×ª ×ķ×¨×Ķ
Ö¸ .
Ġ×ĵ×¢×¨ ×ŀ×Ļ×ĺ
Ġ ï¬¯
Ġ×ķ×ķ ×Ļ×Ļ×ĳ
Ġ×¤×Ĳ×¨ ×ķ×Ŀ
Ġ×Ĵ×¢×ŀ ×Ļ×Ļ×ł×ĺ
Ġ×ĺ ×¢×§×¡×ĺ
×¢×ľ×§×¢×¨ ×ķ×ł×Ĵ
Ġ×¤×ľ ×Ļ×¢
Ġ×Ĵ×¢×ĺ ×Ĳ×Ł
×ľ ×©
Ġ×¨ ×¢
Ġ×ŀ×Ĺ ×©×ĳ
×ĵ×ķ×§ ×¦×Ļ×¢
×ĳ ×¨×Ļ×§
Ġ×ĵ×¢×¨×Ĵ ×¨×Ļ×Ļ×Ľ
Ġ×Ĳ×¤ ×Ļ×¦
Ġ×ŀ×§ ×ķ×¨
Ġ×¤×Ĳ×¨×ŀ ×Ĳ×Ĵ×ĺ
Ġ×ĺ ×¢×Ŀ
Ġ×ľ ×Ļ×Ļ×ĳ
Ġ×° ×²
Ġ×Ĵ ×Ĳ×ĺ
Ġ×¤ ×Ļ×Ļ
Ġ×¨ ×¢×Ĳ
Ġ×¤ ×Ļ
Ġ×Ļ ×ŀ×¤
×ł×Ķ ×Ļ×Ļ×ĳ
×Ļ×Ļ×Ľ ×Ł
×¢×ľ×¢ ×ķ×ķ×Ļ×ĸ
Ġ×ĺ×¢×Ľ ×ł×Ĳ×ľ
×ľ×¢× ĳ
Ġ×Ķ×ŀ ×ĵ×¨×©
Ġ×¤×Ļ×¨ ×¢×¨
Ġ×©×ĺ ×Ĺ
Ġ×Ĵ×¢×ĵ ×Ĳ
×ł×ĵ ×¢
×ľ×Ļ×Ľ ×Ł
Ġ19 9
Ġ×ľ×¢×ĳ ×¢×ĵ
Ġ O
Ġ×§×ķ×ķ ×¢×¡×¥
Ġ×Ĳ×ĸ×ķ×Ļ×¤ ×Ļ×ľ
Ġ×Ļ ×ĳ×¢×¨
×¨ ×Ļ×©
Ġ×ĸ×Ĳ×ľ ×¡×ĺ
×¦ ×ĺ
Ġ×ķ×ķ×Ļ×ĵ ×Ļ×Ĳ
×ł ×Ļ×¦×¢×¨
×ķ×ŀ ×¨
Ġ×Ĵ×¢×ĸ ×Ĳ
Ġ×Ļ×ķ×ł×Ĵ ×¢×¨
âĢŁ ,
Ġ×ŀ ×¨×ĵ×Ľ×Ļ
×Ļ×Ĳ ×ķ×ª
×ĵ×¢×¨ ×Ł
Ġ×ľ×¢×¦×ĺ ×ł×¡
Ġ×ĳ ×Ĳ×ľ×ĵ
Ġ×Ķ ×¢×¨×ĺ
Ġ×ľ ×Ļ×ŀ
×Ļ×ł ×Ļ×¢
Ġ×ª ×ŀ
Ġ×ŀ ×Ĳ×¨×§
Ġ×ĸ ×Ľ×¨
Ġ×ĵ×¢×¨ ×§
×Ļ×¢ ×ĺ
×ľ ×Ļ×¡
Ġ×ĳ×Ļ×Ļ×ł×¢×¨ ×Ļ
×Ĳ×Ľ ×ĺ×¢×¨
×Ļ×ł×Ĵ ×ĺ×Ĳ×Ł
Ġ×Ĵ ×ķ×£
×ł ×Ĳ×¨
×Ļ×ĺ ×ľ
Ġ×ĺ×¨ ×Ļ×Ļ×ľ
×Ļ×Ĵ ×¢×Ł
Ġ×Ĵ×¨ ×ķ×ł×ĺ
Ġ×ĳ ×¢×ĺ×Ł
Ġ×ĳ×¨ ×ķ×ĵ×¢×¨
Ġ×¤×Ļ×ľ ×Ł
Ġ×ķ×ķ×Ļ×ľ ×¡×ĺ
Ġ×©×ŀ ×Ļ×Ļ×Ľ×ľ
Ġ×Ĵ×¢×Ĵ ×¨×Ļ×ł×ĵ×¢×ĺ
×¦ ×Ļ×Ļ
×¢×ł×Ĵ ×Ł
×Ļ×ĳ ×Ļ
×¨ ×ķ×ł×Ĵ
Ġ×ĳ ×ĵ
×ľ ×Ļ×Ļ×ĺ
Ġ×ŀ×Ļ×ľ×Ļ×ĺ×¢×¨ ×Ļ×©
Ġ×ķ ×ĳ
Ġ×¢×ł×ĺ ×¤
Ġ re
Ġ×Ĳ×Ļ× ł×ŀ
×ŀ ×Ļ×Ļ
Ġ×¡ ×¢×ł
Ġ×ŀ×¡ ×ª
Ġ×¦×ķ×ľ ×Ļ×Ļ×Ĵ×Ł
Ġ×ĺ ×¢×ľ×¢×ķ×ķ×Ļ×ĸ
Ġ×ĺ ×Ĳ×ľ
×Ļ×ľ ×ķ×ª
×¢×¤ ×Ĳ×¨
×ķ×ķ×Ļ× Ĳ
Ġ×§×Ĳ×ŀ ×£
Ġ×§ ×¤
×Ļ×ķ×ķ ×¢×¨
×ķ×ķ ×¢×ł
u n
Ġ×ĵ ×Ļ×ł×¢×Ł
Ġ×Ĵ×¨ ×Ļ×Ł
×Ĵ ×Ļ×Ļ×Ł
Ġ×Ĵ×¢×ĸ×¢×ľ ×©×Ĳ×¤×ĺ
Ġ×Ķ×Ĳ×ľ ×ĳ×¢
Ġ×ķ ×¤
Ġ×ĳ×ł ×Ļ×Ł
u r
×¡ ×Ļ
Ġ×ł ×Ļ×Ļ×Ł
Ġ×¢ ×Ļ×§×¨
×Ļ×¡×ĺ ×Ļ×©×¢
×¢×ĸ ×Ļ×©
Ġ×Ĵ×¢×¨ ×¢×Ľ×ĺ
Ġ×Ĳ×ł×© ×ĺ×Ĳ×ĺ
Ġ×Ĳ×¤ ×ĺ
×Ļ×¤ ×Ł
×ĵ ×Ļ×Ĳ
Ġ×ŀ×Ļ×ľ ×Ļ×Ĳ
Ġ×¡×¢×¨ ×ķ×ķ×Ļ×¡
×ķ×¦ ×Ĳ
Ġ×Ĺ×¡×Ļ×ĵ ×Ļ×©×¢
Ġ×Ĵ×¢×ĸ×¢×ľ ×©×Ĳ
Ġ×ł ×Ļ×ĵ×¢×¨
×Ļ×¢ ×§
×ķ ×¢×¨
×Ĳ× ł×©
×ĵ ×§×Ĳ
×¢×ŀ ×¢×¨
Ġ×Ľ ×ķ×Ĺ
×Ļ×ĺ ×Ļ×ł×Ĵ
Ġ5 0
×ĸ ×ĺ
Ġ×ĵ×¨ ×Ļ×Ļ×¢×Ł
Ġ×Ĳ×ĵ ×ŀ×ķ
×Ļ×¡ ×ĺ×¢×¨
×Ļ×Ļ×Ľ ×ĺ
Ġ×ķ×ķ ×Ĳ×ľ×ĺ×Ł
Ġ×Ĵ×¢×ķ×ķ ×¢×ł
Ġ×ķ×ķ×Ļ×¡ ×ł×©×Ĳ×¤×ĺ
g le
Ö¼ ,
Ġ×Ķ×ľ ×Ľ×Ķ
×Ļ×Ĳ ×¨
Ġ e
×¢×¡ ×¢×¨×Ł
Ġ×© ×ĺ×¢×¨
Ġ×§×¨ ×Ļ×ĺ
×¡ ×¡
Ġ×ĺ ×Ļ×Ļ×ĺ
Ġ×Ĵ×¢×© ×ĺ×¢×ľ×ĺ
Ġ×Ĳ×Ļ×ĳ×¢×¨ ×¦
×Ļ×¢ ×Ķ
Ġ×ĳ×¢×¨ ×Ĵ
×ĺ ×¢×¡
Ġ×ł ×¢×Ľ×ĺ×Ł
Ġ×Ĳ×Ļ×ĳ×¢×¨ ×Ł
×¨×ĵ ×¡
id d
Ġ×ĳ×¨ ×Ļ×¨×Ķ
Ġ×ŀ×Ĳ×ĵ ×¢×ľ
×Ĵ ×¢×ł×ķ×ŀ×¢×Ł
Ġ×Ĳ×ľ×Ĵ×¢×ŀ ×Ļ×Ļ×ł×¢
Ġ×Ĳ ×ķ×¤×Ł
Ð ¼
Ġ×Ļ×Ļ×ĵ ×Ļ×©×¢×¨
Ġ×¤×Ĳ×¨×Ĳ ×Ļ×Ļ×ł×Ļ×Ĵ
×ķ× ł×
Ġ×Ķ ×ķ×ł×ĵ×¢×¨
oo gle
×ľ×ķ×Ļ×ĳ ×ĺ
×¨ ×ķ×§×ĺ
×§ ×§
Ġ×¢×¨×Ĵ ×¢×¥
×¨ ×Ļ×¢×¡
×ķ×ķ×Ļ× ĵ
Ġ×¤×Ĳ×¨×©×ĺ ×Ļ×Ļ
Ġ201 2
Ġ×ŀ×ł×Ķ ×Ĵ
Ġ×ĺ ×¢×ķ×ª
Ġ×ĳ×Ĳ×© ×¢×¤×¢×¨
Ġ×Ĵ×¢×ĳ×¨ ×¢×ł×Ĵ×ĺ
Ñ Ĥ
Ġ×ŀ ×¢×§×¡
Ġ×ĺ×¨ ×Ĳ×Ľ×ĺ
×ĵ×Ĳ ×Ļ
Ġ×Ķ×ķ×ĵ ×¢×Ķ×ĺ
Ġ×Ķ×ķ×ĵ×¢×ķ×ª ×Ĳ×Ļ×Ļ×Ł
Ġ×Ķ×ķ×ĵ×¢×Ķ×ĺ ×¢×ŀ×¢
Ġ×¡ ×Ļ
Ġ×Ĵ×¢×° ×¢×Ł
Ġ×Ľ ×Ĳ×¤×Ł
×ķ×¤ ×Ķ
Ġ×ĺ×¢×ľ×¢×ķ×ķ×Ļ×ĸ ×Ļ×¢
Ġ×¡ ×Ĳ×Ļ×ĸ
Ġ×§ ×Ĳ×¡
×ķ×ķ×ķ×ķ×ķ×ķ×ķ×ķ ×ķ×ķ×ķ×ķ×ķ×ķ×ķ×ķ
×¨ ×Ļ×Ľ×ĺ
Ġ×¦ ×¢×©
Ġ×ĵ×¨ ×ķ×§
Ġ×¨×¢×ĸ ×ķ×ľ×ĺ
Ġ×Ĺ×ķ×¨ ×ĳ×Ł
×¢×¨ ×ķ×¤×Ł
Ġ×¦ ×¢×ł×ĵ×ľ
Ġ×¤×¨ ×Ĳ×ł×¦×ķ×Ļ×ĸ
Ġ×ĳ×ľ ×Ļ×¥
: //
? !
Ġ×¤ ×ł×Ļ×Ŀ
Ġ×ĳ ×Ļ×Ļ×©
×ľ×¢×Ľ ×Ł
×Ļ×Ļ×ł×Ļ×§ ×ĺ×¢
×¢×Ľ ×¢×¨
×Ĳ×© ×Ļ×ł×Ĵ×ĺ×Ĳ×Ł
×Ļ×© ×¨×Ĳ×ľ
×¡ ×Ļ×Ľ
×¨ ×ķ×Ł
×Ļ×Ļ× ķ×ķ
Ġ×ĳ×Ļ×¨ ×Ĵ×¢×¨
×Ĳ ×ķ×Ļ×ļ
×ľ×¢×Ľ ×§×Ļ×Ļ×ĺ
Ġ×Ĵ×¨×ķ×¤ ×¢
×¤ ×Ķ
×¨×ĳ ×¨
×ķ×ķ ×Ĳ×ľ
Ġ×Ķ ×Ļ×Ļ×ĸ×¢×¨
Ġ×¤ ×ķ×ĵ×ĸ
×ĵ ×Ļ×Ŀ
×ľ×Ļ×Ľ ×¢×¨
Ġ×ł× ĳ
Ġ×¤×ľ ×Ļ×Ļ×©
×ĵ×¨ ×ļ
Ġ×¤ ×¢×ľ×ĵ
×ĺ×¢×¨ ×¡
Ġ×¨×¢×ĺ ×¢×ł×Ļ×©
Ġ×Ķ ×Ľ×ľ
Ġ×ľ ×Ļ×ĳ×¢×¨
âĢ ª
Ġ×ĵ×Ļ×Ļ×ĺ×© ×ľ×Ĳ×ł×ĵ
Ġ×¢×ľ ×¢×§
Ġ×ĺ ×Ļ×Ļ×ļ
×ĺ ×Ļ×©×¢
Ġ×ĳ×Ĳ×ĺ ×¨
Ġ×¤×¡ ×Ĺ
Ġ×ŀ ×Ĳ×©
×ł ×¢×ľ
Ġ×ĵ×Ĳ ×ķ×ķ×¢×ł×¢×Ł
Ġ×ĺ ×¢×ŀ
×Ĳ×ĸ ×©
Ġ×Ķ ×¤
×¢×ł×ĺ ×¤×¢×¨×ĺ
×ĵ ×ľ
Ġ×ľ ×Ļ×Ĵ×Ł
Ġ×Ľ ×ķ×ľ×ľ
Ġ×Ĵ×ľ ×Ļ×§
Ġ×ķ×ķ×Ļ×ľ×Ļ×Ĳ ×ŀ×¡
×¢× ĳ×¢×¨
×Ļ×ľ ×Ļ×¢
Ġ×ĺ×¢×¨×Ĳ×¨ ×Ļ×¡×ĺ×Ł
Ġ×¤ ×Ļ×¨×ĺ
Ġ×¡×¢×¨ ×Ļ×¢
×ł ×ĺ×Ł
×¢×ĺ ×¢
Ġ×Ĳ×¤ ×Ļ
Ġ×ĳ×Ĳ× ł×§
Ġ×Ĳ×Ķ ×¢×¨
Ġ×Ĳ×Ķ ×¨×Ł
×Ļ×ĺ ×Ķ
×ĵ ×Ļ×©×Ł
Ġ×ł×Ļ×Ļ×¢ ×Ŀ
×Ĳ×§ ×¡×Ł
idd ish
Ġ×Ķ×Ļ×ŀ ×ľ
Ġ×§×¢×ł×¡ ×ĺ
Ġ×¡ ×Ĳ×ļ
Ġ×§×Ĳ ×Ł
re e
Ġ×¨×© ×Ļ×ŀ×Ķ
Ġ×Ĵ×¢×ĺ ×Ĳ
×ľ ×Ļ×¢
Ġ×Ĵ×¢× Ľ
×² ×ĺ
l y
Ġ×ľ ×Ĳ×§
Ġ×Ĳ×ł×Ĵ ×¢×ł×ķ×ŀ×¢×Ł
×§×ĺ ×Ļ×ķ×ķ
×Ļ×Ļ×Ļ×Ļ×Ļ×Ļ×Ļ×Ļ×Ļ×Ļ×Ļ×Ļ×Ļ×Ļ×Ļ×Ļ ×Ļ×Ļ×Ļ×Ļ×Ļ×Ļ×Ļ×Ļ×Ļ×Ļ×Ļ×Ļ×Ļ×Ļ×Ļ×Ļ
Ġ×Ĳ×Ļ×ł×ĵ×ķ×¡×ĺ×¨ ×Ļ×¢
Ġo f
Ġ×§ ×¨×Ļ×§
×ł×Ĵ ×¢×Ł
Ġ×§ ×¢×©
Ġ×Ľ ×©×¨
Ġ×Ĵ×¢×ķ×ķ×Ĳ ×ķ×¡×ĺ
Ġ×¦×ķ×§ ×ķ×ł×¤
Ġ×ĺ×¢×Ľ×ł×Ĳ×ľ ×Ĳ×Ĵ×Ļ×¢
Ġ×Ĳ×Ļ×ł×ĺ×¢×¨ ×ł
×Ļ×ķ ×¡
Ġ y
×Ļ×ŀ ×¢
×ĺ×Ļ×Ļ×ľ ×ķ×ł×Ĵ
Ġ *
Ġ×¦ ×¢×ŀ
×Ļ×¦ ×¢
Ġ×§ ×Ĳ×ł×Ĵ
Ġ×¨×¢×ľ ×Ļ×Ĵ×Ļ×¢
Ġ×Ĵ×¢×ĳ ×ķ×Ļ×ĺ
Ġ×ķ×ķ×Ĳ ×ķ×ł×ĵ×¢×¨
Ġ×ĳ×Ļ×Ķ ×ŀ
Ġ×ŀ ×ĺ
Ġ×ĳ×ľ ×Ļ×Ļ×ĳ×ĺ
. )
Ġ×Ķ ×¢
Ġ×©×ŀ×ķ ×Ĳ×ľ
l o
×¢×ľ ×Ļ×¡×ĺ
Ġ×Ĺ ×Ļ×ĵ×ķ×©
×ķ×ķ×Ļ× ł×Ĵ
Ġ×Ĵ×ĵ ×ķ×ľ
Ġ×Ĳ×Ļ×ł×ŀ ×Ļ×ĺ×Ł
Ġ×ĳ×ł ×ķ×Ĵ×¢
Ġ×Ķ ï¬¯
×ķ×ĵ ×Ļ×§
Ġ×¤×¡ ×ķ×§
×¦ ×ķ×©
×Ĳ×ł ×Ļ×ĸ
Ð ½
Ġ×ĵ×Ļ×¡×ĺ ×¨×Ļ×§×ĺ
Ġ×¦ ×Ķ
×ķ×ķ ×Ļ×Ļ×¡
×¦ ×Ļ
×ķ×¡ ×ĺ×Ł
t o
Ġ×¨ ×Ļ×¡
Ġ×ĸ×Ĳ×Ĵ ×¢×Ł
Ġ×ĸ×©×ķ×¨ ×ł×Ĳ×ľ
Ġ×Ļ×Ĺ ×Ļ×ĵ
Ġ×ł ×Ļ×¦×ĺ
Ġ×ĸ ×¢×Ľ
Ġ #
Ġ×§ ×Ĳ×¨×ĺ
×ķ×ķ ×¢×¡×ĺ
Ġ×ĵ×¢×¨ ×¤×Ĳ
Ġ×Ĵ×¢×¤ ×Ļ×ł×ĺ
Ġ×¨ ×ķ×¤×Ł
Ġ×© ×ľ×¢×Ľ×ĺ
Ġ×¤×¨ ×¢×¡
×ľ ×Ļ×Ĳ
×¤ ×Ļ×¨
Ġ×ŀ×Ĳ×ŀ ×¢
Ġ×Ĳ×¨×Ļ×Ļ× ł×¦
Ġ×ľ ×Ļ×Ļ×Ĵ
×Ĵ ×¢×§
Ġ×¨ ×Ĳ×ĵ
×Ļ×Ļ×ł ×ķ
Ġ×ŀ ×Ļ×Ļ×ł×¢×Ł
Ġ×ĵ×Ļ×¡ ×§
Ġ×ĺ ×¢×ł
×ł×Ķ ×Ļ×Ļ×ĳ×Ł
Ġ×¢×§×Ĳ×ł×Ĳ×ŀ ×Ļ×¢
Ġ×Ķ ×Ĳ×ľ×ĳ
×¢×ķ×ķ ×¢×¨
Ġ×©×ĺ×¢×ĺ ×ľ
Ġ V
Ġ×ł ×ķ×¡
Ġ×¦ ×ķ×ŀ
Ġ×¨×Ļ×ĸ ×Ļ×§
×¢×ĵ ×¨×Ļ×Ļ×ĺ
×Ļ×ł×ĵ ×Ĳ
×¨×© ×Ļ×Ļ×ĵ
Ġ201 8
×ľ ×Ļ×¨×Ł
×ł× ŀ
×ĳ×Ļ×ľ ×ĵ×¢×¨
tt p
Ø ¹
Ġ×§×¨ ×Ļ×Ĳ
Ġ×§×Ķ ×Ļ×ľ×Ķ
o in
Ġ×Ľ ×Ļ×ł×¢
×ķ×Ļ×ł ×¢×¨
×ł ×¢×Ŀ
Ġ×¤×Ĳ×ľ ×Ļ×¦×Ļ×Ļ
e m
Ġ×ľ ×Ĳ×ĸ×ĺ
×¨×ĳ ×¢×ĺ×Ł
âĢŁ .
Ġ×ª×© ×ķ×ĳ×Ķ
ĠH T
×Ļ×Ľ ×ĺ×¢×¨
Ġ19 4
Ù ĩ
Ġ×ĵ×¢×¨ ×¤
×Ļ×Ľ ×Ł
s t
Ġ×¢×¦ ×ķ×ª
Ġ×ķ×ķ ×¢×ŀ×¢×Ł
Ġ×ĸ ×Ļ×¡
Ġ×ĸ ×ķ×ŀ×¢×¨
Ġ×Ķ×ķ×ł×ĵ×¢×¨ ×ĺ×¢×¨
×ĵ ×¡
Ġ×ĵ×¢×¨ ×ŀ×Ĳ
×ĳ×ľ ×Ļ×ł×Ĵ
×¨ ×Ļ×ĸ
Ġ×Ĵ×¢×Ķ ×Ļ×Ļ×¡×Ł
×Ĳ×¤ ×¢×Ł
Ġ×ĳ ×Ĳ×Ĵ×¨
Ġ×¢ ×ł×§
×ķ×ķ ×¢×¡
Ġ×Ķ×Ĳ× ł×ĵ
×ķ×ķ×¢×¨ ×Ļ×ĸ
×ĺ ×Ļ×ķ×ķ
Ġ×§ ×Ĳ×ĺ
×ĳ ×Ļ×Ŀ
×ŀ ×£
Ġ×¡ ×²
Ġ×ķ×ķ×Ĳ×§ ×Ĳ×¦×Ļ×¢
Ġ×Ĳ×Ļ× ĳ
×¢×ĳ ×¨×¢
Ġ×© ×Ļ×Ļ×ļ
×§×Ĳ ×ķ×ł×ĺ
Ġ×Ĵ ×ķ×Ĵ×ľ
×Ĺ ×ª
Ġ×ĺ×¢×¨×ŀ ×Ļ×ł×¢×Ł
Ġ×¤ ×©×ĺ
Ġ×ĳ ×¢×ª
×¢× ł×ĸ
Ġ×ĺ ×Ĳ×Ľ×ĺ×¢×¨
M L
×ĸ ×Ļ×Ļ×ĺ
×¢×¡ ×Ĳ
×ĵ ×Ļ×ł
×ł× ª
Ġ×ķ×ķ×Ļ×ł×§ ×¡
×ĺ ×Ĳ×Ĵ
×Ļ×ł ×Ļ×©
Ġ×ĳ×ľ ×Ļ×¦×Ł
×ľ×Ļ ×Ļ×Ļ×ł×Ĵ
Ġ×¢×ł×ĺ ×¤×¢×¨
Ġ×Ĳ×Ļ×Ļ×ĳ ×Ļ×Ĵ
×ĺ×¢×Ĵ ×Ļ×¢×¡
Ġ×Ļ ×¢×¨
Ġ×¤×Ĳ×¨×© ×¤×¨
×ľ×Ļ×¤ ×Ĳ
×ķ×ķ ×¢×ľ×ĺ
×ķ×Ļ× ª
×¨×© ×¤
Ġ×¤ ×¢×ł×¡
×¢×ĺ ×ľ×Ļ×Ľ×¢
Ġ×ŀ ×Ĳ×ł×ĺ
Ġ×§×Ĳ×ł×ĺ×¨ ×Ĳ×ľ
×ľ×¢× ĸ
Ġ×©×ĺ ×Ļ×ľ
×ķ×ĳ ×Ĳ
ł×ŀ ×Ĳ
×Ķ ×Ĳ×ľ×ĺ×Ł
Ġ×©×ŀ ×Ĺ×Ķ
×Ļ×Ļ×Ľ ×ł×ĺ
ĠHT ML
Ġ×¤×Ĳ×¨×Ĳ×Ļ×Ļ×ł×Ļ×Ĵ ×ĺ×¢
Ġ×¤×¨×ķ×ĳ ×Ļ×¨×ĺ
a b
i f
×¨×Ļ× ĳ×¢×¨
Ġ×ŀ×¦ ×ľ×Ļ×Ĺ
Ġ×¦ ×Ļ×ŀ×¢×¨
×¨×Ļ×¡ ×¢×ľ×Ļ×¡×ĺ
Ġ×Ķ ×Ļ×Ļ×¡
Ġ2 3
u m
Ġ×¦ ×¢×ł×ĺ
Ġ×ľ ×Ĺ
it e
Ġ×ŀ ×¢×ľ×ĵ
Ġ×ľ ×ĵ
Ġ×¨×¢×Ĵ ×Ļ×¡×ĺ×¨×Ĳ
Ø ³
×Ļ×¢ ×ķ×ª
Ġ×Ļ×ł×§ ×ķ×ķ×¢×¨×Ļ×ĸ
×ķ ×¢×ľ
×ĺ ×ĸ
Ġ×§ ×Ļ×Ļ×ĺ
Ġ×Ĳ×Ļ×ł×ĺ×¢×¨ ×ķ×ķ×Ļ×ķ
. "
×ľ ×ķ×Ļ×ĺ
Ġ×ķ×ķ ×¢×§×¢×¨
Ġ×ł ×¢×ĳ
×Ļ×Ľ ×ľ×¢×ļ
1 1
Ġ×§×¨ ×¢×¤×ĺ×Ł
Ġ×Ĳ ×ķ×¤
Ġ×ĳ×ľ ×Ļ×§
Ġ×§ ×©×Ļ×Ĳ
Ġ×Ĳ×ķ×Ļ×¡×Ĵ ×¢×©
Ġ×ĳ×¢×ľ ×Ļ
×ķ×ľ ×ĺ×Ĳ
Ġ×ĳ ×¢×ł×§
×¨ ×ª
Ġ×Ļ ×ķ×¨×Ĳ
Ġ×Ķ×Ļ×Ļ×ľ ×Ļ×§×¢×¨
×©×ĺ ×Ļ×Ļ×Ł
×ķ×ĸ ×Ļ×¢
Ġ×ĺ×ķ×ķ×Ļ×ĺ ×¢×¨
Ġ×Ķ ×Ļ×¡×ĺ×Ĳ
Ġ×¦×ķ×Ĵ ×¢×©×ĺ×¢×ľ×ĺ
Ġ×ĳ ×Ļ
Ġ×ĺ ×¨×Ļ×ł×§
×ķ×Ļ×¢ ×ĺ
×ł ×ĺ×¢
Ġ×¨ ×ķ×Ĺ
Ġ×¤×¨ ×Ĳ×ł×§
×¨×© ×¢×¨
Ġ×ŀ×Ĳ×ĵ ×¢×ľ×Ł
×Ļ×Ļ×ł×Ļ×§ ×ķ×ł×Ĵ
×ŀ×© ×ļ
Ġ×Ĳ×ķ×Ļ×ĺ ×Ĳ
Ġ×ŀ×ķ×¡ ×ĵ×ķ×ª
×ł ×Ļ×ķ×ª
Ġ×Ļ ×Ĳ×Ķ
×ķ×ķ×Ĳ ×ķ×¡×ĺ
Ġ×¤ ×¢×ľ
Ġ×¤×Ĳ×¨×ľ ×Ĳ×ł×Ĵ×ĺ
Ġ×Ĳ×Ļ× ł×¡
Ġ×§ ×¨×Ļ×ª
×Ĵ ×¢×ĳ×Ł
Ġ×§×ķ×§ ×Ļ×ł×Ĵ
×ĵ×ķ×§ ×ĺ
×Ĳ×Ĵ ×¢×¨
Ġ×ĳ×Ĳ×¤ ×¢×ľ×§×¢×¨×ķ×ł×Ĵ
×¨ ×Ļ×Ĵ
t ed
×¨ ×ķ×Ļ×ĵ
Ġ×ĳ ×Ļ×ĺ
Ġ×¦ ×¤
×¢×ĵ ×Ĳ
Ġ×Ĵ×¢×© ×Ĳ×¡×Ł
Ġ×ŀ×¢×¨ ×¥
×Ļ×¦ ×Ļ×Ĳ
Ġ×Ĳ ×§×Ĳ×ķ×ł×ĺ
Ġ×ĳ ×Ļ×Ļ×ĳ
×ĸ ×¢×Ł
Ġ×Ĳ×Ļ×© ×Ļ×ª
Ġ×Ķ ×¢×ŀ
g mail
×ķ× ł×ĸ
Ġ×¤×ľ×Ļ×¢ ×ł×ĵ×Ļ×§
Ġ×Ľ ×ĵ×Ĳ×Ļ
×Ĳ×§ ×¦×Ļ×¢
×¡×ĺ ×¨×Ĳ
Ġ×ĳ×¢ ×Ļ×ĳ×Ļ
Ġ ïŃĦ
×ł×ľ ×Ļ×Ļ×Ĵ×Ł
Ġ×¤×ľ×Ĳ ×Ł
×ĳ ×ķ×ľ
Ġ×ĵ×Ļ×¨ ×¢×§×ĺ
Ġ×ĵ ×Ķ
Ġ×¨ ×Ļ×¨
ĠÙ Ī
Ġ×Ĳ×ľ ×ĺ×¢×¨
Ġ×Ĵ×¢×¡ ×ĺ
×ķ×ķ ×¢×¨×¡
Ġ×¤×¨ ×¢×Ĵ×ĺ
Ġ×©×ĺ ×ķ×ĵ
×Ĳ×§ ×Ł
Ġ×ķ×ķ×Ļ×ľ ×Ĳ×ł×Ĵ
Ġ×ŀ×¢×¨ ×¡×ĺ×¢
×ķ×¦ ×Ļ×¢
Ġ×Ĵ×¢ ×¢×¤×ł×ĺ
×ł ×ķ×ķ×Ĳ
×Ĳ×¤ ×Ļ×¢
Ġ×Ĳ ×ķ×ł×Ĵ
Ġ×ĳ ×¡
×ŀ ×Ĺ
Ġ×Ľ ×Ļ×ł
Ġ×ŀ×¢×ł×ĺ×© ×ľ×Ļ×Ľ×¢
Ġ×¨×Ļ×Ľ×ĺ ×Ļ×Ĵ
Ġ×¢ ×Ľ
×ķ×ķ ×¢×Ŀ
Ġ×¤×Ĳ×¨×ľ ×ķ×¡×ĺ×Ł
Ġf or
Ġ×ĳ ×ķ×ĵ
×Ļ×ĳ ×Ĳ
Ġ×ĵ×¨ ×ķ×§×Ł
Ġ×ķ×ķ×¢×¡×ĺ ×ķ
Ġ×Ĵ×Ļ×¨ ×ľ×¡
Ġ×¦×ķ×ĺ×¨ ×Ļ×ĺ
Ġ×¡ ×Ļ×ĳ×ķ×ª
×¨×©×ĺ ×Ļ×Ļ×Ł
×ĺ ×Ļ×ĸ
×Ľ ×ĵ×Ļ
Ġ×Ļ×ķ×ł×Ĵ ×¢
Ġ×§ ×¢×ŀ
Ġ×Ĳ×ł×ĵ ×¢×¨×Ł
ĠØ ª
×¢×ĵ ×Ļ×©×¢
Ġ×ŀ ×Ļ×Ļ×§
Ġ×ĸ×¢×ľ ×ĳ×Ł
Ġ×ŀ×¡ ×Ľ×Ļ×Ŀ
×§ ×Ĳ×ľ
Ġ×Ĳ×ĳ ×Ĳ×ŀ×Ĳ
×¢×¨ ×ķ×ķ
×ľ ×Ĺ×Ķ
×Ķ ×Ļ×Ļ×ł×ĺ
Ġ×ķ×ķ×Ĳ×¨ ×ĺ×Ł
Ġ×Ľ ×ĳ×ķ×ĵ
×§ ×¢×ĺ
Ġ×ľ ×Ĵ
Ġ×Ķ×ŀ ×ľ×Ĺ
×ľ×Ļ×¡×ĺ ×Ļ×§
Ġ×ķ×ķ×Ļ×Ļ×ľ ×¢
Ġ×ķ×ķ×Ļ×Ļ×¡ ×¢
×ĺ×¢×Ĵ ×Ĳ
Ġ×ķ ×¢
×Ļ×¨ ×ķ×ª
×ķ×ķ×Ĳ×¨ ×Ĵ
Ġ×Ĳ×Ļ×ł×ĺ×¢×¨×¢×¡ ×Ĳ×ł×ĺ
×Ĳ× ł×¤
ĠG oogle
Ġ×ŀ ×¢×ł
×Ļ×ĵ ×Ł
Ġ×ĺ×© ×Ļ×Ļ×ł×Ĳ
Ġ×¢×ł ×Ļ×ł×Ļ×Ŀ
Ġ×ĸ×ķ×Ľ ×ĺ
×¢×¨ ×ĵ
Ġ×Ľ ×ª
t er
Ġ×¨ ×Ļ×Ļ×ł×Ļ×§×ķ×ł×Ĵ
Ġ×¤×Ĳ×¨×Ķ ×Ĳ×Ł
×Ļ×ĵ ×Ĳ
i r
Ġ×¦ ×ķ×ĳ
×Ĳ×ľ ×¡
Ġ×Ĳ×Ļ×ł×Ĵ ×Ĳ×ł×¦×Ł
×ľ ×ĺ×¢
Ð º
Ġ×¦ ×Ļ×Ļ×Ł
i on
Ġ×ĳ ×¢×¤×Ĳ×¨
×ł×ĵ ×Ļ×¨
ÙĦ Ø
Ġ×ľ×Ļ×ĺ×¢×¨ ×Ĳ
Ġ×ķ×ķ×Ļ×ľ×Ļ×Ĳ×ŀ×¡ ×ĳ×ķ×¨×Ĵ
Ġ×Ķ ×Ļ×ł×ĺ×¢×¨
Ø ¬
Ġ×ķ×Ľ ×ĵ
×¡ ×Ļ×§
×Ĳ× ĳ×Ł
Ġ×§×¨ ×Ļ×¡×ĺ
Ġ 0
Ġ×© ×Ľ×ľ
Ġ×¤×Ĳ×¨×ĳ×¨ ×¢×ł×Ĵ×¢×Ł
×Ķ ×¢×¨×Ł
×ĺ ×Ļ×©
Ġ×Ĵ×¢×ķ×ķ ×Ļ×Ļ×ł×ĺ
Ġ×ĵ×Ĳ×¨ ×¤
ĠïŃİ ï¬®
Ġ×ł×ķ×¡ ×Ĺ
Ġ×¢ ×ĸ×Ķ
Ġ×Ĵ×¢×Ľ ×Ĳ×¤×ĺ
×§ ×ķ×Ļ×Ŀ
×Ļ×ķ ×ķ×Ł
ĠØ Ń
ĠÙ ĥ
Ġ×Ļ×Ĵ ×Ĳ×ľ
×¤×Ĳ×ľ ×¢×¡×ĺ×Ļ×ł×¢×¨
Ġ×ł×ķ×©×Ĳ ×Ļ×Ŀ
Ġ×¨×Ļ×§ ×¦×ķ×Ĵ
×© ×ĺ×Ĳ
on e
×ķ×Ļ×ł ×¢
r i
Ġ×Ķ×Ļ×Ļ×ł×ĺ ×Ļ×Ĵ×¢
Ġ×ĺ×ķ×Ļ×ĸ ×ł×ĺ
×Ĳ×ł ×ĺ×¢×¨
6 0
Ġ- -
ÙĪ ÙĨ
Ġ×¤×Ĳ×¡ ×Ļ×¨×ĺ
Ġ×ĳ×ł×Ļ×ŀ ×¦×Ĳ
a g
×Ĳ×ł ×Ļ
Ġ×Ļ×¢×ĵ ×¢×¡
Ġ×Ļ×§×¡ ×¤
Ġ×Ĳ×Ļ×ł×¡×ĺ ×Ļ×ĺ
Ġ×¡×¢×ł ×Ĳ×ĺ
×ķ×¡ ×ĺ×Ĳ
×© ×¢×Ł
×Ķ ×Ĳ×ľ×ĺ
Ġ×Ĵ×¢×ĺ ×ķ×Ł
Ġ×Ĳ×ł×Ĵ×¢×¤ ×Ĳ×ł×Ĵ×¢×Ł
Ġ×¦ ×°
Ġ×Ĳ×ķ× ¦
Ġ×Ĵ×ľ ×Ļ×Ļ×ĳ×Ł
) :
Ġ×©×¤ ×Ļ×ľ
×¨×© ×ĺ×Ĳ
×ķ×¨ ×Ļ
Ø§ Ø¨
Ġ×Ĳ×¨×Ĵ ×Ĳ×ł×Ļ×ĸ
Ġ×ĵ×¢×ŀ×Ĳ×§ ×¨×Ĳ×ĺ
Ġ×Ĳ ×Ľ×ĺ
ĠÙĨ Ø
Ġ×¤ ×Ļ×Ļ×ľ
Ġ×ķ×ķ ×¢×ł×ĵ
×Ķ ×Ļ×Ļ×Ŀ
Ġ×ĳ×¨ ×ķ×ļ
Ġ×ŀ×ľ ×ļ
Ġ×ĺ ×¢×¡×¥
×ĳ ×Ļ×©
×Ļ×Ļ×ĺ ×Ļ×ĵ
Ġ×¤ ×Ĳ×ŀ
Ġ×¦ ×Ļ×ŀ
Ġ×Ĵ×¢ ×ķ×ķ×Ļ×ĸ×Ł
Ġ×ķ×ķ ×Ļ×Ļ×Ľ
×Ļ×Ĵ ×¨
Ġ×¨ ×Ļ×ĺ
×©×ĺ ×Ļ×Ļ×ĺ
Ġ×Ĵ×¢×¤ ×Ļ×ľ
ĠØ§ÙĦØ ¬
ÙĬØ ª
Ġ×¤ ×¢×¡×ĺ
Ġ2 2
×ł ×Ł
×ŀ ×ĳ×ľ×Ļ×ł×Ĵ
Ġ×Ľ ×¡×ĵ×¨
×ĸ ×Ļ×Ļ×Ł
Ġ×¤×ľ×Ļ×Ļ×¦ ×ķ×ł×Ĵ
Ġ×ľ ×Ļ×§
Ġ×§×Ĳ×ŀ ×Ĳ×ĵ×Ĳ
Ġ×ŀ×Ķ ×ľ×ļ
Ġ×¤×ľ×Ļ×Ļ×¦ ×ķ×ł×Ĵ×¢×Ł
Ġ×ĺ×¨×Ĳ×Ĵ ×¢×ĵ×Ļ×©×¢
Ġ ÙĬØ
Ġ×¤ ×¢×ĵ×¢×¨
Ġ×ł ×Ļ×Ĳ
×¡×Ļ×Ľ ×ķ×Ŀ
×¨ ×ł×Ļ×¢
Ġ×ķ×ķ ×ĺ×¢×¨
Ġ×ĸ×¢×Ľ ×¦×Ļ×Ĵ
×¨ ×¤×Ł
Ġ×¨ ×Ļ×Ļ×Ľ
ĠÙħ Ø¹
×¨×Ļ×§ ×¡
Ġ×Ĳ×ł×Ĵ ×¢×¨×ķ×¤×Ł
Ġ×¡ ×Ļ×ĵ
Ġ×¨×ķ×¡ ×Ļ×©
Ø³ Ø§
âĢ Ķ
Ø¬ Ùĩ
×¤ ×Ļ×¡
Ġ×Ĳ×Ļ×Ļ× ĳ×¢×¨×©
Ġ201 7
Ġ×ŀ×¡ ×Ľ×ª
ÙĬØ µ
Ġ×ĳ×¢ ×Ļ×§×¨
×Ļ×Ĵ ×¡×ĺ×¢
Ġ×©×¨ ×Ļ×ĺ
Ġ×¨×¢×ĸ ×ķ×ľ×ĺ×Ĳ
Ġ×ĵ×¢×ķ×ķ ×¢×ľ×Ĳ
® ÙĬØµ
¸ Ø±
×ĺ ×Ļ×¨
×¨ ×ĳ×¢×¨
×§ ×ķ×ŀ×ĺ
×ķ×ŀ ×¢×ł×ĺ
Ġ×Ĵ×¨ ×Ļ×Ľ
ÙĦ Ø§ÙĨ
Ġ×ĵ×¨×Ļ×Ļ× ķ×ķ
Ġ×§×¤ ×ľ×Ł
¬ Ø¦
×ķ×¨ ×¡
ĠØ§ÙĦ ÙĪÙĨ
Ġ×Ķ×¡ ×Ļ×ķ×¨
Ġ×ł×Ļ×¦ ×Ķ
ĠÙĨ ÙĬØª
ÙĪÙĦ Ø©
Ġ×ĳ×ĸ ×ķ×Ļ×ª
ĠÙĪ Ø¬Ùĩ
ĠØª ÙĦØ
ĠØŃ ÙĪÙĦ
ĠÙĥ Ø§Ø¨
ĠÙĨØ ¸Ø±
ĠØ§ÙĦØ¬ ÙĪÙĦØ©
ĠÙĬØ ¬Ø¦
ĠÙĨÙĬØª Ø³Ø§
ĠÙĪØ¬Ùĩ Ø©
ĠØªÙĦØ ®ÙĬØµ
ĠÙĥØ§Ø¨ ÙĦØ§ÙĨ
ĠÙĬØ¬Ø¦ Ø§ÙĦ
×§ ×Ļ×Ļ×©×Ĳ
×¨ ×¢×ŀ
Ġ×ŀ ×Ł
×ŀ ×¢×ĵ×Ļ×¢
8 0
Ġ×¤ ×Ĳ×ĸ
×ľ ×¦×Ļ×Ļ
Ġ×ĵ×¢×¨ ×ķ×ķ×Ĳ
Ġ×Ķ×¦ ×ľ×Ĺ×Ķ
Ġ×¤×Ĳ×¨×§ ×¢×¨×ĺ
Ġ×¤×¨×Ĳ×¤ ×¢×¡
×ķ×¦ ×Ļ×¨×Ł
!! !
Ġ×¤ ×Ĳ×¡×ĺ
Ġ×¡ ×§×Ĳ
×Ĳ×ĳ ×¢
Ġ×Ĵ×Ĳ×ł×¦ ×¢×¨
Ġ×ľ×¢×¨ ×ł×ĺ
Ġ×ķ×ķ ×Ĳ×ł×ĺ
×¨×Ļ× Ĺ
Ġ×Ĳ×Ļ×ł ×Ĳ
Ġ×ĵ×Ĳ×¨ ×ĺ×Ł
p h
Ġ×Ĵ ×ľ×Ĳ
Ġ×ĳ ×¢×©×Ĳ
Ġb y
Ġ×Ĳ×Ļ×ľ ×ķ×ĸ×Ļ×¢
×¨ ×Ļ×ĺ
Ġ×§×ľ ×Ļ×ł×Ĵ×¢×Ł
Ġ×¤×Ļ×ľ ×Ŀ
Ġ×ĳ×Ĳ×ĸ ×Ļ×¨×ĺ
×ł ×Ļ×§×Ĳ
Ġ×ĸ ×Ļ×Ļ×Ĵ×¢×¨
Ġ×ł ×Ļ×Ļ×¢×¨
Ġ×ĳ×Ĳ×© ×Ĳ×¤×Ł
Ġ +
Ġ×ĵ ×Ĳ×ĸ
×ĳ ×Ķ
Ġ×¨ ×Ļ×Ļ
Ġ×Ĳ×Ļ×ł ×ĺ×¨
Ġ×¤ ×©×ķ
×Ľ ×ŀ×Ĳ
Ġ×Ĵ×¢×ł ×ķ×¦×ĺ
Ġ×¦ ×Ļ×ĺ
×¦ ×¢×¡
Ġ×Ĵ×¢×ĺ ×ķ×Ļ×©×ĺ
Ġ×ĸ ×Ĳ×ľ×ĺ
Ġ×ĵ×Ļ×Ļ×ĺ ×Ļ×ł×Ĵ
Ġ×ŀ×Ĺ×©×ĳ ×Ķ
×ĵ ×¢×¡
Ġ×ĵ×ķ ×ķ×§×Ĳ
Ġ×¤×Ĳ×¨×©×ĺ ×Ĳ×ł×¢×Ł
Ġ×ľ ×Ļ×Ĵ
il y
Ġ×ŀ ×Ļ
Ġ×Ĵ ×Ŀ
Ġ×ĺ ×¨×Ļ×Ļ×ĵ
×Ļ×§ ×¢×Ł
Ġ×¤×ľ ×Ļ
oo k
Ġ×ĵ ×Ļ×Ĳ
×ķ×¨ ×ª
Ġ×Ĺ×ĳ×¨ ×Ķ
Ġ×ŀ×¦ ×Ļ×Ĳ×ķ×ª
Ġ×§×Ĳ×ł×Ĵ ×¨×¢×¡
Ġ×ķ×ķ ×Ļ×¨×ĺ
×ķ×Ļ× ķ
×ķ×ł×Ĵ ×¡
Ġ×¨×¢×ĵ ×Ĳ×§×¦×Ļ×¢
Ġ×¢ ×ł×¢×¨
Ġ×¤×Ĳ×¨×Ĵ ×¢×¡×Ł
Ġ×Ĺ ×Ļ×¤
Ġ×ĺ×¢×Ľ ×ł×Ĳ
Ġ×¢×¡ ×§
Ġ×ķ×ķ ×¢×§×¡
×Ļ×Ĵ ×ľ
Ġ×Ĳ×¨ ×Ļ×Ļ×ł
×ľ ×¢×ŀ×¢×Ł
Ġ×¤×Ĳ×ľ ×Ĵ
Ġ×Ĳ×ķ×Ļ×¡×Ĵ ×¢×§
Ġ×¡×ŀ ×¢×©×Ĳ
Ġ×¦×¢×ŀ ×Ļ×©
ĠT he
Ġ×Ļ ×¤
Ġ×¨ ×Ļ×¡×Ĳ
Ġ×Ĵ×Ĳ×¨ ×ł×Ļ×ĺ
×ķ×ķ×Ļ×Ļ×ĸ ×Ł
×Ļ×Ļ×ĸ ×ĵ
Ġ×¤ ×ķ×¤
9 0
Ġ×ŀ ×ķ×ĺ×¢×¨
Ġ×ľ ×Ļ×Ļ×ĺ
×Ļ×¡ ×ľ×¢×ļ
×¨×Ĵ ×¢×¡×Ł
Ġ×ķ×ķ×¢×¨ ×§
×§×¡ ×Ł
Ġ×Ĳ×ķ×Ļ×¡×Ĵ ×¢×¤
×ľ ×Ļ×§
×Ļ×ŀ ×¢×ł×ĺ
×¡ ×Ļ×Ĳ
Ġ×¡ ×¢×ŀ
×¢×Ķ ×Ĳ×ľ×ĺ×Ł
Ġ×ŀ×Ļ×ľ ×ļ
W S
Ġ×§×Ĳ×ł×ĵ ×Ļ×ĵ
Ġ×¤×¨×ķ×ĳ ×Ļ×¨×Ł
Ġ×©×ķ×ķ×Ĳ×¨ ×¦×¢
Ġ×Ĳ×ł×© ×Ļ
Ġ×ĵ×Ĳ×ľ ×¢×¨
Ġ×©×ĺ ×Ļ×Ļ×Ĵ×¢×¨
Ġ×Ĳ×¤ ×©×ĺ×¢×ľ
Ġ×Ĵ×¨×Ļ×ł×Ĵ ×¢×¨
×ł×ĺ×ķ×ķ×Ļ×§ ×ľ×ķ×ł×Ĵ
Ġ×ľ×¢×Ĵ ×Ĳ
×¨ ×Ļ×Ļ×ĺ×Ł
×Ļ×ľ ×ĵ
×ł×Ĵ ×¢×©
Ġ×¤×Ĳ×¨ ×¨
×ķ×ķ×Ļ× ¤
×ľ×Ļ×ĳ ×ĺ
×Ĳ×¦×Ļ×Ĳ×ł ×Ĳ×ľ×¢
Ġ×¤ ×ķ×ł×§
Ġ×§ ×Ļ×Ľ×ľ×¢×ļ
Ġ×ĺ×© ×¢×ĺ
×ĺ ×ĺ
Ġ×Ĵ×¢×© ×ķ×ķ×Ļ×ł×ĵ
Ġ×¤×Ĳ×¨×ľ ×ķ×Ļ×¨×Ł
Ġ×Ĵ×¢×ķ×ķ×¢×ł ×ľ×Ļ×ļ
Ġ×¨ ×Ĳ×¡
Ġ×¤×Ĳ×¨ ×ķ×ķ
Ġ×¤×¨ ×Ļ
×Ĳ×ł ×Ļ×©
Ġ×ŀ×¢×ł×ĺ×© ×¢×Ł
×ł×ĺ×ķ×ķ×Ļ×§ ×ľ×ĺ
Ö ¹
Ġ×Ĵ ×Ĳ×¡×Ł
×¨×Ĵ ×¨×¢×¡
×¢×ŀ ×Ĳ×ľ
Ġ×ĵ×ķ×¨ ×ķ×ª
Ġ×ª ×Ļ×¨
Ġ×ŀ×¦ ×¨×Ļ×Ŀ
Ġ×Ķ ×Ļ×¤
Ġ×Ĵ×ľ ×Ļ×Ļ×ĳ
Ġ×ĳ×Ĳ×§ ×ķ×ŀ×ĺ
Ġ×ŀ×§ ×ķ×Ŀ
6 6
Ġ×¦ ×¢×¨
in e
or d
×Ļ×¢ ×¦×ĺ
Ġ×ĳ×Ļ×Ļ×ĳ ×Ļ×¡
Ġ×ĵ ×²
Ġ×Ĺ ×ĵ×¨
Ġ×¡×ĺ×ķ×ĵ ×¢×ł×ĺ×Ł
×ķ×ŀ ×ķ×ª
Ġ×Ĳ×ŀ ×ķ×ł×Ķ
Ġ×Ĳ×Ļ×ł×ĺ×¢×¨ ×¡
Ġt at
Ġ×Ĳ×ĺ ×Ĳ×§
×ĸ ×Ļ
Ġ×ª×§ ×ķ×¤×Ķ
Ġ×©×ŀ ×¢
×© ×Ļ×¡×¢×¨×Ļ×Ļ
2 2
×©×ĺ ×Ĳ×ĺ
? )
Ġ×Ļ ×ł×¤
Ġ×Ĳ×¨ ×Ĳ×ĳ
Ġ2 1
Ġ×¤×Ĳ×¨×§ ×ķ×Ļ×¤×ĺ
×Ļ×Ļ× ł×ĸ
Ġ×Ĺ ×¨×ĵ
Ġ×Ĵ×¢×ĵ×¢×ł×§ ×¢×Ł
×¨×Ĵ×¨×¢×¡ ×¢×¨×Ł
Ġ×ŀ ×¢×ł×¢×¨
Ġ×Ļ ×¢×Ļ×ľ
ĠâĢ ł
×ł×¢×ĺ ×§×Ļ
Ġ×Ĳ×Ļ×ĳ×¢×¨×ĸ×¢×¦ ×ķ×ł×Ĵ
Ġ×ľ ×Ĳ×ĺ
×¢×ľ ×Ļ×Ļ×ĺ
Ġ×¤×Ĳ ×ķ×Ł
u t
Ġ×¡×¤×¢×¦ ×Ļ×¢×ľ
Ġ×¤ ×Ļ×ł×Ĵ×¢×¨
×Ĳ×¨ ×Ļ×¢
Ġ×Ĳ×Ļ×Ļ× ķ×ķ
Ġ×Ĵ ×Ļ×Ļ×¡×ĺ
Ġ×Ļ ×ł×ĺ×¢×¨
o is
×¨ ×Ļ×Ł
Ġ×Ĵ×¨×¢×¡ ×¢×¨
Ġ×ĵ ×Ļ×Ĵ
Ġ×ķ×ķ ×Ĳ×ľ×Ł
Ġ×ĳ×Ļ×Ļ×ĳ×Ļ×¡ ×Ļ×ĺ×Ļ×ł×Ĵ
Ġ×Ĵ ×Ĳ×ľ
×¢×Ľ ×ĺ×¢×¨
Ġ×ķ×ķ ï¬¯×¡
×© ×ķ×ľ×ĵ
×¢×ķ ×ķ×ĵ×Ļ×§
×¨×ĳ×¢×¨ ×©×Ĳ
Ġ×ķ×ķ×Ĳ ×ķ×Ļ×ł×¢×Ł
7 0
×ł ×Ļ×¡
×ľ ×Ĳ×ĸ
×ŀ ×ĸ
Ġ×ł×Ĳ×¨ ×ŀ
ï¬¯ ×¨
Ġ×ľ×Ĳ×ł×ĵ ×Ĳ×Ł
×ĳ ×ĵ
Ġ×§×ľ ×Ļ×ł
Ġ×Ĳ×ŀ×¢×¨ ×Ļ×§×Ĳ
×ķ×ĳ×ľ ×Ļ×§×Ĳ×ł×¢×¨
Ġ×ŀ×ĵ×¨ ×Ĵ×Ķ
Ġ×Ļ ×Ĳ×ł
×ķ×© ×¢
o re
Ġ×¤×¨×¢×¡ ×¢
Ġ×Ĺ ×ł
Ġ×ł×Ļ×ĺ ×Ĳ
Ġ×Ĳ×ł×Ķ ×Ļ×Ļ×ĳ×Ł
Ġ×Ĳ×Ļ×Ļ×ķ×ķ ×¢×ľ×ĺ
Ġ×ĸ ×Ļ×ĳ×Ł
Ġ×ķ×ķ×Ļ×Ļ×ł ×Ļ×§×¢×¨
Ġ×© ×Ĳ×¤×Ł
Ġ×¢×§×ĸ×Ļ×¡×ĺ ×¢×ł×¥
Ġ×¦×¢×ŀ×Ļ×© ×¢×ł×ĵ×Ļ×Ĵ×¢
Ġ×ŀ ×ķ
Ġ2 6
×¨×© ×ķ×ł×Ĵ
Ġ×Ĵ×¨×¢×¡ ×¢×¨×¢
Ġ×Ĵ×¢×©×ŀ ×Ĳ×§
×Ļ×ĺ ×Ĳ×ľ
Ġ×§ ×Ļ×Ļ×ł×¢×Ŀ
×ķ×ķ ×Ļ×Ļ×ĺ
Ġ×ĳ×Ĳ×ł ×ķ×¦
Ġ×Ĳ ×©×¨
Ġ×ĳ×Ĳ×ĸ ×ķ×ł×ĵ
×¨ ×ķ×ķ×Ļ×Ļ
Ù Ĥ
Ġ×¤ ×¢×ľ×ĺ
Ġ×© ×ķ×ķ×Ļ×
Ġ×ķ×Ľ×ĵ ×ķ×ŀ×Ķ
Ġ×¤ ×ķ×Ļ×ł×ĺ
Ġ×ķ×ķ ×Ļ×ł×ĺ
Ġ×Ĳ×Ļ×ł×Ĳ ×Ļ×Ļ×ł×¢×Ŀ
Ġ×¤ ×ķ×ĺ
ÑĥÑĥ ÑĥÑĥ
×ĳ ×Ĳ×ľ
Ù ģ
×ł×¦ ×Ł
Ġ×Ķ×Ĳ×¡×ĺ ×ķ
Ġ×Ļ×Ķ ×ķ×ĵ×Ķ
Ġ×¨×Ĺ ×ŀ
×¨ ×ł
Ġ×ł ×¢
×ŀ ×Ļ×ł×Ĵ
Ġ×¡ ×¢×ł×¡
Ġ×§×ľ ×Ļ×¤
Ġ×¦×ķ×© ×ĺ
Ġ×§×Ĳ×ŀ×¤ ×Ļ×Ļ×Ł
×ł ×Ļ×¥
Ġ×ĸ×Ļ×Ļ×ĺ ×ľ×¢×ļ
Ġ×Ķ ×Ļ
Ġ×ł ×¢×Ĵ
Ġ×Ĳ×Ļ×Ļ×ł ×ķ×ķ×Ĳ
Ġ×ĵ ×Ļ×Ł
Ġ×ķ×ķ ×Ĳ×©×Ļ×ł×Ĵ×ĺ×Ĳ×Ł
Ġ×ĳ ×¢×§
Ġ×¦×ĵ×Ļ×§ ×Ļ×Ŀ
Ġ×ĳ×Ĳ×ŀ×¢×¨ ×§×ĺ
9 9
Ġ×¤×Ĳ ×¢×ĸ×Ļ×¢
×ŀ×¢×¨ ×Ļ×§×¢
Ð¾ Ð
×ĵ ×Ļ×Ļ×Ł
Ġ×ľ ×Ļ×¤
Ġ×¨ ×Ļ×Ļ×Ł
×Ļ×Ĵ ×§×Ļ×Ļ×ĺ
Ġ×¤×Ĳ×¨×§ ×ķ×Ļ×¤×Ł
ÑģÑģ ÑģÑģ
Ġ×ĵ ×¢×ĳ
×Ĳ×Ľ ×¢×Ł
i re
×¡ ×Ļ×ĺ
×¢×ĺ ×¡
Ġ×¤×¨ ×Ļ×©
Ġ×Ĵ×ķ ×ĺ×Ł
Ġ×ķ×Ľ ×ĵ×ķ
×¨ ×Ŀ
×¢×¨ ×¢×Ľ×ł×ĺ
Ġ×ĸ ×Ķ
×¨×ĵ ×¤
Ġ×© ×Ĳ×ĵ
Ġ×¤×¨ ×¢×Ĵ
Ġ×Ĺ×Ľ ×ŀ×Ķ
Ġ×© ×¢×ĵ
Ġ×ĺ ×Ķ
Ġ×Ĳ×¤ ×Ĵ×¢×©
Ġ×ĳ×Ļ×ĸ ×Ł
Ġ×¤×Ĳ×¨×Ĵ ×¢×§×ķ×ŀ×¢×Ł
Ġ×¤×¨ ×Ĳ×ĺ
a v
×Ļ×¡ ×Ļ
ÙĦ Ø§
×ŀ×Ļ×ł ×Ļ×¡×ĺ×¨
×§ ×¢×ĺ×Ł
×Ļ×© ×¤
Ġ×ľ×Ľ ×ª×Ĺ
Ġ×§×Ĳ×ł×ĺ ×¢×§×ĺ×Ł
âĢ ĵ
×Ļ×Ļ×ĸ ×Ļ×ł×Ĵ
Ġ×Ķ×Ļ×Ļ×ľ ×Ļ×Ĵ×¢
Ġ×ł×¢×ĳ ×¢×ļ
×¨ ×ķ×ķ×Ĳ
×© ×ķ×ľ
Ġ×§×ķ×ŀ ×¢×ł×ĵ×Ļ×Ĵ×¢
×° ×Ĳ
×Ļ×¡ ×Ļ×Ł
Ġ4 0
Ġg ily
oin ois
Ġgily oinois
p p
×Ĳ×¨ ×ĳ×Ł
×Ĳ×ľ ×¤×Ł
Ġ×Ĵ×¢×ķ×ķ ×¢×ĸ
×ł×¡ ×Ķ
Ġ×Ĳ×Ļ×Ļ×ł ×Ļ×§
Ġ×Ĵ×¢×ķ×ķ×Ĳ×¨ ×¢×Ł
Ġ×ĳ ×Ĳ×¡
×ķ×¨ ×ĵ
×Ļ×ķ ×ķ×Ļ×ĺ
×ł×Ĵ ×¢×¤
×¨ ×Ĳ×ĺ×Ł
Ġ×¨×ĳ ×Ļ×ł×ķ
Ġ×Ĳ×¨×ĳ ×Ļ×Ļ×ĺ
Ġ×ĸ×©×ķ×¨ ×ł×Ĳ
×Ļ× ł×ĸ
×ľ ×ķ×§
×Ļ×Ĳ ×¨×§
Ġh ttp
Ġ×ŀ×¢×Ĵ×ľ×Ļ×Ľ ×§×Ļ×Ļ×ĺ×Ł
Ġ×ĵ×¢×¨ ×ľ
×¢×§ ×¦×Ļ×¢
Ġ×§×ľ ×Ļ×Ļ×ĵ×¢×¨
Ġ×ķ×ķ ×¢×Ŀ
×Ĳ×¨ ×Ĵ
×ł×§ ×Ļ×Ļ
×ĺ×¢×Ĵ ×Ļ×¢
×¨ ×ķ×ķ
Ġ×ĵ ×ķ×§×Ĳ
×ķ ×ķ×Ķ
Ġ×ĳ×Ĳ×Ķ ×Ĳ×ł×ĵ×ľ×ĺ
Ġ×Ĵ×¢×ĵ×¢×ł×§ ×ĺ
×Ĵ×ķ×ĳ ×ķ×ª
Ġ×¤×¨×Ĳ×Ĵ×¨ ×Ĳ×Ŀ
Ġ×ķ×ķ×Ļ×Ļ×Ľ ×ķ×ķ×Ĳ×¨×Ĵ
×¢×ł×ĺ ×¢
×ł×¢×¨ ×§
×Ĳ× ł×ĸ
×ľ ×Ļ×©×¢
×¨×ĳ ×¢×¡×¢×¨×Ł
Ġ×¤×ķ×ł×§×ĺ ×ľ×Ļ×ļ
×¨ ×ĸ
Ġ×¨ ×Ĵ×¢
ĠÂ £
Ġ×Ĺ×¡×Ļ×ĵ ×ķ×ª
Ġ×Ĵ×¢×©×ĺ ×Ĳ×ł×¢×Ł
ĠN ew
Ġ×¤×¨×Ĳ×Ĵ ×¢
Ġ×Ĵ×¢×ľ ×Ļ×Ļ×Ĵ×ĺ
×ķ ×ķ×Ł
×Ĳ×ŀ ×ĺ
×ŀ ×ķ×ł
Ġ×¡ ×Ļ×Ĵ
×ł× Ľ
... )
×ĸ×¢×¦ ×Ł
Ġ×ĳ×¤ ×¨×ĺ
Ġ×¨ ×ķ×ŀ
Ġ×¦ ×ĳ×Ļ
Ġ×¡ ×ķ×Ľ×Ķ
Ġ×Ĵ×¨ ×Ĳ×ŀ×Ĳ×ĺ
×¨×ĺ×Ļ×§×ľ ×¢×Ł
Ġ×Ĵ×¢×©×¢ ×¢×ł×Ļ×©×Ł
Ġ×ĺ ×¢×ŀ×¤
×ķ×Ļ×¢ ×¨×Ł
×Ĵ×¢×¨ ×Ļ×¡×Ł
×ª ×Ĳ
Ġ×Ĳ×Ļ×¨ ×Ĳ×Ł
×¢×© ×ĺ
×Ļ×Ķ ×ķ
Ġ×ķ×ķ×Ļ×¨ ×§
Ġ×Ĳ×ł×Ķ ×Ļ×Ļ×ĳ
Ġ×§ ×¢×¡×ĺ
×Ļ×Ĵ ×Ķ
Ġ×¤×¨ ×Ļ×Ļ×ľ
Ġ×§×ľ ×ķ×Ĵ
Ġ×¨×¢×¤ ×ķ×ĳ×ľ×Ļ×§×Ĳ×ł×¢×¨
Ġ× ł×ĵ
×¨ ×Ĳ×¡
×¨ ×Ĺ
Ġ×ĺ ×Ļ×Ļ×¤
×¢×ľ ×ķ×ł×Ĵ
Ġ×Ĳ×Ķ ×Ļ×Ł
×Ĵ×¨ ×¢×¡
Ġ×Ĵ×¢×ķ×ķ×Ĳ ×ķ×Ļ×ł×ĺ
Ġ×Ĳ×± ×¡
4 0
×¤×ĺ ×ľ×¢×ļ
Ġ×© ×¢×ł×§
×Ĳ×Ĵ ×ĳ
Ġ×Ĳ×ķ ×ķ×ĵ×Ĳ×Ļ
Ġ×ŀ ×ĵ×¨×©
×© ×ķ×ª
Ġ×ľ ×¤
Ġ×Ķ×ķ×Ļ×Ľ ×¢
Ġ×ľ ×Ļ×¡
×Ļ×ł×Ĵ ×ĸ
×¨×ĳ ×Ķ
×¦×ķ ×ķ×ª
8 8
×ķ×ĵ ×Ļ
Ġ×ĳ×Ĳ ×Ł
×Ļ×Ļ×¡ ×ĺ×¢×¨
r a
×Ļ×¢ ×§×ĺ
×Ļ×Ļ×ŀ ×¢×¨
Ġ×¡×Ļ×¨ ×¢×ł×¡
Ġ×ĺ×Ļ×Ļ×¢×¨ ×¢
Ġ×Ķ ×ķ×Ļ×ĺ
Ġ×© ×ķ
×Ļ×ŀ ×ķ×ª
Ġ×¤×Ĳ×¨×ĳ ×Ļ×ł×ĵ
Ġ×Ľ×ķ×Ĺ ×ķ×ª
Ġ×§ ×ķ×ł×Ķ
Ġ×¢×¨ ×ĺ×¢×¨
Ġ×ŀ×¢×§×¡ ×Ļ×§×Ĳ
Ġ×Ķ×© ×Ŀ
×Ĺ ×Ļ×Ŀ
ĠØ ±
×¦ ×ľ
Ġ×¢×¨ ×Ĵ×¢×¨
ÙĦØ§ Ùħ
Ġ )
Ġ×§ ×ĵ×ķ×©
ĠØ ¬
Ġ×Ĳ×ĵ ×ŀ×Ļ×ł×Ļ×¡×ĺ×¨
Ġ×ĵ×¢×ŀ×Ĳ×ľ×ĺ ×¡
Ġ×© ×Ļ×¤
×ł ×Ļ×ķ
Ġ×¤×¨×Ĳ×ł×§ ×¨×Ļ×Ļ×ļ
Ù ī
Ġ Y
Ġ×¡ ×Ĺ
×¨ ×¢×¤
×ŀ ×ķ×ĸ
×¢×ľ ×Ĳ×ĸ×ĺ
Ġ2 7
×¢×¦ ×¢×¨
Ġ×Ĵ×¢ ×¢×ł×ĵ
Ġ×ĳ ×¢×ł
Ġ×© ×ľ×¢×Ľ
Ġ×Ĵ×¢×ľ ×Ļ×Ļ×ł×ĺ
ou r
×Ĳ×¨×ĳ ×¢×ĺ×¢×¨
Ġ×ł×Ĳ×¨×ŀ ×Ĳ×ľ×¢
×¡ ×Ļ×ĵ
×ª ×Ĵ×ķ×ĳ×ķ×ª
Ġ×Ĳ×ľ ×¢×ŀ×Ĳ×ľ
... !
Ġ×ĸ×ķ×Ľ ×Ķ
ĠW eb
Ġ×¨×¢×ĸ×ķ×ľ×ĺ ×Ĳ×ĺ×Ł
Ġ×ł×Ĳ×¨ ×ŀ×Ĳ×ľ
Ġ×¢×ľ ×¢×§×ĺ
Ġ×Ĳ×ķ×Ļ× ĳ×¢×¨
Ø¨ Ø±
Ġ×ł ×ķ×Ļ×ĺ
×ŀ ×¢×ł×ĵ
Ġ×Ĳ×ĵ ×ķ×Ŀ
Ġ×¤×Ĳ×¨×Ĵ ×Ĳ×ł×Ĵ
Ġ×Ĳ×Ĺ ×¨
×Ĵ×¢×ĸ ×¢×Ķ×Ł
Ġ×ĺ ×Ĳ×ĺ
Ġ×Ĳ×Ĵ ×ĳ
Ġ×Ĳ×ķ×Ļ×ĳ×¢×¨×© ×ĺ×¢×¨
¨ ÙĬ
Ġ×ĳ×Ĳ×¦ ×Ĳ×ľ×Ł
Ġ×ĺ×¢×§ ×¢
Ġ×ľ×Ľ×ª×Ĺ ×Ļ×ľ×Ķ
Ġ×ŀ ×ķ×Ļ×ľ
Ġ×Ķ ×Ļ×ĳ
Ġ×§ ×Ĳ×ł×¤
Ø§Ø±Ø ³
×Ĳ×¨ ×Ļ
Ġ×Ĵ×¢×¨ ×Ļ×Ľ×ĺ
Ġ×Ĳ ×Ľ
×Ĳ×§ ×ĺ×Ł
Ġ×ĳ×Ĳ×§ ×Ĳ×ł×ĺ×¢
×ł×¦ ×¢
q u
Ġ×ĳ ×Ĵ
Ġ×ĳ ×Ļ×Ĳ
Ġ×¦ ×Ĳ×ľ×Ł
×Ķ ×ķ×ł×ĵ×¢×¨×ĺ
×Ļ×ł×Ĵ ×¡
Ġ×§ ×¢×¡
Ġ×ĺ×¨ ×Ļ×ĺ
Ø± ÙĬÙĨ
Ġ×Ļ×Ĳ×ł ×ķ×Ĳ×¨
Ġ×¢ ×Ļ×¨
×¨×Ļ×§ ×Ĳ
Ġ×Ĳ×Ļ×Ļ×ĵ ×¢×Ŀ
Ġ×Ĳ×Ķ ×ķ×ĵ
ĠÙ Ĥ
Ġ×¡×ĺ ×Ļ×Ļ×ľ
×ł×ĸ ×Ĳ
Ġ×Ķ×Ļ×Ļ×ŀ ×Ļ×©×¢×¨
Ġ×ĵ×¢×¨×ŀ ×Ĳ×ł×¢×Ł
×¢×¨ ×ŀ×Ĳ
Ġ×Ķ ×¢×ĳ×¨×¢
×Ļ×ķ ×ĺ
Ġ×¤×¨ ×Ļ×Ļ×ĺ
Ġ×§×¨ ×ķ×ĳ
Ġ×Ĳ×¨×ķ×Ļ×¡ ×¦
Ġ×Ĺ×Ľ ×ŀ×Ļ×Ŀ
Ġ×ķ×¢ ×ķ×ĵ
×° ×¢×ĺ
Ġ×ĵ×¢×¨×Ĵ×¨×Ļ×Ļ×Ľ ×Ł
×ľ ×ķ×¡
×ŀ ×ŀ×©
Ġ×ľ ×²
Ġ×Ĵ×¢×ľ ×Ĳ×ĸ×ĺ
×Ĳ×ł×© ×Ļ×Ŀ
Ġ×Ĵ×¨ ×Ĳ×ĵ×¢
×¨ ×ĳ×Ł
Ġ×Ļ ×§
Ġ×Ļ ×ĳ×ķ×¨
×¢×ĳ ×ľ
Ġ×§ ×¤×¨
×ĳ ×ĺ
×ł ×Ļ×ĸ
×Ķ ×Ķ
Ġ×ľ ×Ļ×Ļ×ĸ
×Ļ×¦ ×ķ×¨
×¨×©×Ļ×Ļ×ĵ ×ł×§×Ļ×Ļ
Ġ×Ĵ×¨×Ĳ×ŀ×Ĳ×ĺ ×Ļ×§
Ġ×§×¤×¨ ×Ļ×¡×Ļ×Ł
×¤ ×¡
Ġ×ĵ×ĸ×© ×Ĳ×ĳ
Ġ×ķ×ķ ×Ļ×ł×ĵ×Ĳ
Ġ×ĸ ×ķ×Ķ×Ł
Ġ×© ×Ĺ
Ġ×Ļ ×ł×ĺ
×¢×ĸ ×¢×¨
Ø «
Ġ×¢ ×Ĵ
Ġ×§×ķ×¨ ×¥
Ġ×¢×ł×¢×¨ ×Ĵ×Ļ×¢
×¡ ×Ļ×ł×Ĵ
×ĳ ×Ĺ
×¢×§×¡ ×ĺ×¢
Ġ×Ĳ ×ķ×Ļ
Ġ×ĵ ×Ļ×¢
×¢×ĸ ×¢×Ł
ĠØ§ÙĦØ ³
Ġ on
Ġ×© ×§
Ġ×ĺ ×²
×Ĳ×ŀ ×¢×ł×ĺ
ĠØ¨ ÙĨ
ĠØ§ÙĦØ ¯
Ġ×¤ ×¢×ľ×Ł
Ġ×ŀ ×¢×§
×ŀ ×Ļ×ľ
Ġ×ľ ×Ļ×Ļ×Ł
Ġ×ĺ×¢×ľ×¢×¤ ×Ĳ×Ł
Ġ×©×Ĳ×ľ ×ķ×ª
Ġ×Ĵ×¢×Ĳ ×¨×ĳ×¢×ĺ
Ġ×Ĳ×Ļ× ł×Ķ
×ķ×ľ ×ª
Ġ×ŀ×ķ×¡ ×ĺ×¢×¨
Ġ×¤×¨ ×§
ÙĦ Ø§ÙĦ
Ġ×©×¨ ×Ļ×Ļ×¢×Ł
ĠÙ ¡
ĠØ§ÙĦØ µ
ĠØ¨ ÙĪ
i z
Ġ×ĵ ×¢×ª
Ġ×¤ ×ķ×Ļ×ľ×Ł
Ġ×ķ×ķ×¢×ľ ×Ľ×Ł
ĠØ§ÙĦØ ¨ÙĬ
Ø¦ Ø±
Ġ×Ķ×ŀ×ĵ×¨×© ×Ļ×Ŀ
×¨×Ļ×Ĺ ×Ķ
ĠØ§ÙĦØ³ ÙĦØ§Ùħ
ĠØ§ÙĦØ¯ ÙĬÙĨ
Ù ¤
×¨ ×¢×ĵ×ĺ
×ľ ×¢×§×¡
Ġ×ĳ×ľ ×ķ×ŀ×¢×Ł
Ø± ÙĤ
ĠØ§ÙĦ Ø±Ø
Ġ×Ĺ×ĳ×¨ ×Ļ×Ŀ
Ø§ÙĨ Ø§
ĠØ¹ Ùģ
Ġ×§×ķ×¨ ×¦×¢
ĠØ¨ Ø¦Ø±
Ùħ Ø§ÙĨ
Ġ×Ķ×ĸ ×¨×Ļ×Ĺ×Ķ
ĠØ± Ø¦
ĠØ¬ ÙĦØ§ÙĦ
¦ ÙĬØ³ÙĬ
×¤ ×Ļ×Ŀ
×ŀ×¢×¨ ×Ļ×§×Ĳ
ĠØ§ÙĦØ ´Ø§Ø±Ø¹
ĠÙħ Ø§Ø±Ø³
ĠØ¹ Ø«
Ġ×Ĺ×Ļ×¤ ×©×ķ
ĠÙĤ Ø§ÙĨØ§
ĠÙ¡ Ù¤
ĠØ§ÙĦØµ Ø¨Ø±
ĠØ¨ÙĪ Ø±ÙĬÙĨ
ĠØ§ÙĦØ¨ÙĬ Ø±ÙĤ
ĠØ§ÙĦØ±Ø ¦ÙĬØ³ÙĬ
ĠØ¹Ùģ Ø§ÙĨ
ĠØ±Ø¦ ÙĬØ³ÙĬ
ĠÙħØ§Ø±Ø³ ÙĨ
ĠØ¹Ø« ÙħØ§ÙĨ
ĠØ§ÙĦØ¨ÙĬØ±ÙĤ Ùī
Ġ×©×¤ ×¢×ĺ
Ġ×Ĳ×ķ×Ļ×¤ ×¦
Ġ×Ķ×© ×Ļ
Ġ×ķ×ķ×Ļ×Ļ×ł ×Ļ×Ĵ
×¨ ×±
×Ĵ ×¢×ĵ
Ġ×¨ ×Ļ×Ļ×ĵ
Ġ×ĵ×ķ×¨×Ľ ×Ĵ×¢×¤
Ġ×©×ĺ×¨ ×¢×ł×Ĵ
×ĺ ×¢×§
Ġ×¨ ×¢×ķ×ķ
Ġ×ķ×ĵ ×¢×ª
Ġ×ĺ ×Ĳ×ŀ×¢×¨
×Ļ×¦ ×¢×Ł
Ġ2 9
Ġ×¤×Ĳ×¨×Ĳ ×ķ×Ļ×¡
Ġ×Ĵ×ķ×¨ ×ľ
Ġ×§ ×Ļ×¨
Ġ×ľ ×Ļ×Ļ×Ľ×ĺ
Ġ×¨ ×Ļ×Ļ×ĸ
×Ļ×ľ ×ĸ
Ġ×Ķ×Ĳ×ĺ ×¢×ľ
×ł×¡ ×¤
Ġ×ĳ×Ĳ×¨ ×Ĵ
Ġ×¤×¡ ×§
Ġ×ľ ×¢×ķ×ķ
×ĺ×¢×¨ ×¢
×ķ×© ×¨
Ġ×ĸ×¢×ľ×ĳ ×Ļ×§×¢×¨
×Ĵ ×¢×¦
Ġ×ª×Ĵ×ķ×ĳ×Ķ ×ª×Ĵ×ķ×ĳ×ķ×ª
×§×¢×¤×ľ ×Ĵ×¢×ĸ×¢×Ķ×Ł
Ġ×Ĳ×©×Ľ×ķ×ľ×ķ×ª ×Ĳ×Ļ×Ļ×Ł
Ġ×ª×Ĵ×ķ×ĳ×Ķ×ª×Ĵ×ķ×ĳ×ķ×ª ×§×¢×¤×ľ×Ĵ×¢×ĸ×¢×Ķ×Ł
Ġ×ŀ ×ķ×ŀ
×ĳ ×ľ×¢
Ġ×Ĵ×¢×© ×Ĳ×¤×Ł
Ġ×Ĺ ×ķ×©
Ġ×Ĳ ×ķ×ķ
Ġ×Ĳ×Ļ×Ļ×¨ ×Ĳ
Ġ×ŀ×Ĳ×Ľ ×¢×Ł
Ð¼ Ð¼
Ġ×¨×¢×Ĵ×Ļ×¡×ĺ×¨ ×Ļ×¨×Ł
3 3
×ķ ×ķ×ľ
×ĳ ×Ļ×ĸ
Ġ×Ĵ×¢×ĸ ×¢×¦×Ł
Ġ×ĵ×Ķ ×Ļ×Ļ×ł×ķ
Ġ×© ×¢×¤
is t
×ĳ×¨ ×¢×ł×Ĵ×¢×Ł
Ġ×ŀ×¢×ĵ×Ļ×¦ ×Ļ×Ł
Ġ×Ĵ×¢×© ×¢×¤×ĺ×Ł
Ġ×Ĵ×ľ ×ķ×Ļ×ĳ×Ł
Ġ201 1
Ġ×ł ×Ĳ×ł×ĺ
×¢×ł×¦ ×ĺ×¢×¨
×ķ×Ļ× Ķ
Ġ×ĸ ×Ļ×Ļ×ĵ×¢
Ġ×ľ×¢×ĳ ×ł×¡
Ġ×ł×ķ×ŀ ×¢×¨×Ł
Ġ×Ĳ×¤ ×¦
×ĵ×Ļ×ł ×ķ×ł×Ĵ×¢×Ł
×ķ ×ķ×ł×ĺ
×Ĳ×ľ ×¥
Ġ×¦×Ļ×ŀ ×¢×¡
Ġ×© ×Ĳ×¨
×Ĳ×ľ×ĵ ×Ł
×ŀ×¢×¨ ×ĸ
Ġ×ĸ ×©×Ĳ
Ġ×ĸ ×Ļ×ł×Ĵ×ĺ
×ĸ ×Ļ×Ļ×¢×¨
Ġ×Ĳ×ķ×Ļ×¡ ×ĵ×¨
Ġ×ķ×ķ×Ļ×¨ ×Ĳ
×Ĳ×¨ ×¡
×ĵ ×Ļ×ł×Ĵ
Ġ×¤ ×¢×ĳ×¨
×ĸ ×ķ×Ľ×Ł
×ķ×ŀ ×Ĵ
Ġ×Ĳ×Ļ×Ļ×ł×ķ×ķ×Ĳ ×ķ×Ļ×ł×¢×¨
Ġ×Ķ ×Ļ×ĺ
o d
×Ĳ×ŀ ×ª
Ġ×Ĳ×ŀ×¢×¨ ×Ļ×§
i ew
Ġ×¨ ×ŀ×ĳ
×ł×Ĵ ×¢
×ķ×ķ×¢×§ ×ľ×Ļ×Ļ×Ĵ×Ł
×ķ×ª ×ĵ×Ļ×§
Ġ×Ĳ×¤ ×ŀ
×¨×Ļ×§ ×¢
×¢×ĸ ×Ĳ×Ĵ×ĺ
Ġ×ŀ×¢×ĺ ×Ĳ
Â Ń
×© ×ª
×ķ×ķ ×Ļ×Ļ×ĵ
Ġ×Ļ ×ŀ
×ķ×ķ×Ļ× ¥
Ġ×§×Ļ×Ļ× ł×ŀ×Ĳ
×¢×ł ×¢×¡
Ġ×Ĵ×¨×¢×¡ ×ĺ×¢×¨
×Ļ×Ľ ×ľ
Ġ×Ľ ×Ĳ×¤×ĺ
×Ļ×ŀ ×ķ×Ŀ
×Ĵ×ľ ×Ļ×Ļ×ĺ×Ł
Ġ×Ĳ×ł×ĺ ×ķ×ķ×Ļ×§
Ġ×Ĺ×ľ ×ķ×Ŀ
×Ļ×Ļ× Ķ
Ġ×Ĵ×¢×ĵ ×¨×ķ×§×ĺ
Ġ×Ĳ×Ļ×ł×ĸ ×ľ
Ġ×ķ ×ł×ĺ×¢×¨
Ġ×¤ ×Ĳ×ľ×ĺ
Ġ×ľ ×Ĳ×ĸ
×Ĳ×ľ ×¢×¨
Ġ×Ĳ×Ļ×ŀ ×Ļ×Ĵ×¨
Ġb e
Ð° Ð°
×© ×ľ×Ĳ
Ġ201 3
Ġ×Ĵ×¢×ĺ ×ķ×Ķ×Ł
Ġ×ŀ×Ĳ×ĵ ×¢×¨
×Ļ×Ĵ ×Ĳ
×ķ×ľ ×¢×ĺ
Ġ×Ĵ×¢×© ×¢×Ł
6 5
×¨ ×¢×Ĵ
×ĸ ×¢×ĺ
Ġ×ŀ×Ļ×ł ×Ļ×¡×ĺ×¢×¨
Ġ×Ļ×ł×ĵ ×ķ×¡×ĺ×¨
Ġ×Ļ×ł×¡ ×ĺ×Ĳ
Ġ al
Ġ×Ķ ×Ĳ×¤
Ġ×© ×Ĳ×ł×§
Ġt h
×ķ× ĳ×Ł
×Ĳ×ł ×Ļ×©×¢
Ġ×Ĵ×¨ ×Ĳ×¡
×ł×Ĵ ×Ĳ
×Ĳ×ł×§ ×¢×Ł
Ġ×ŀ×¢×ľ×ĵ ×ķ×ł×Ĵ
Ġ v
Ġ×¤ ×Ļ×Ļ×Ł
×Ļ×ĺ ×¢×ĺ×Ł
Ġ×Ķ×§ ×ĵ×ķ×©
4 5
×¢×¨ ×¤
×¡ ×¡×Ĳ
Ġ×Ĺ ×Ļ×ķ×ª
Ġ×ŀ×© ×ķ×Ĵ×¢
Ġ×¡×§ ×Ĳ×ł×ĵ
c e
u l
Ġ×ķ×ķ ×Ļ×ł×ĺ×¢×¨
×¢×ĵ ×Ł
×ķ×ĸ ×ĺ
Ġ×¤×¨×Ĳ×ł×¦×ķ×Ļ×ĸ ×Ļ×©
Ġ×ĺ×¢×ł ×ķ×ª
2 00
Ġ×Ĵ ×Ł
Ġ×ĳ ×Ļ×Ļ×ĸ
×¢×Ľ ×¢
Ġ×ĳ×¨ ×Ľ×Ķ
Ġ×ĳ ×ķ×¨
Ġ×ĳ ×¢×ĸ
Ġ×ĺ×© ×¢×Ľ
Ġ×Ĵ ×ĸ
×ķ×ł×Ĵ ×¢×¨
Ġ×Ĵ×¢×© ×ŀ×Ĳ
Ġ×ĺ×¨ ×Ļ×Ļ×ł×Ļ×ł×Ĵ
×Ļ×Ļ×ĺ ×Ĳ
×ķ×ŀ ×¡
Ġ×¤×ľ ×Ļ×¡
7 7
Ġ×ŀ×Ļ×ł ×Ļ
Ġ×§×Ĳ×ŀ ×ķ×ł
Ġ is
Ġ×¢×¡ ×§×Ĳ
Ġ×ĺ×Ĳ×Ĵ ×Ĳ×Ļ×Ļ×Ł
Ġ×Ĺ×ĵ×©×Ļ×Ŀ ×Ĳ×Ļ×Ļ×Ł
Ġ×Ĺ×ĵ×©×Ļ×Ŀ ×ĸ×¢×§×¡
×ķ×ķ×¢×Ĵ×¡ ×Ĳ×¨×Ĳ×¤
×ķ×ķ×¢×Ĵ×¡×Ĳ×¨×Ĳ×¤ ×ķ×ķ×¢×Ĵ×¡
S ite
Ġ×ķ×ķ×Ļ×Ľ×ĺ ×Ļ×Ĵ×¢
Ġ×¤×¨ ×ķ×ŀ×¢
ã Ĥ
Ġ×ŀ ×Ĳ×Ĵ
Ġ×ł ×Ļ×Ļ×ĺ×Ļ×§
×ĳ ×Ļ×¢
Ġ×¨ ×ķ×Ĳ
Ġ×Ĵ×¢×ķ×ķ ×Ĳ×§×¡×Ł
×¢×¨×ĸ×¢×ł ×ľ×¢×ļ
Ġ×Ĵ×¢×Ķ×¢×¨ ×Ļ×Ĵ
3 5
y p
×¨ ×Ļ×ł×Ĵ
×¡ ×ľ
Ġ×§ ×Ļ×ĵ×ķ×©
Ġ×ľ ×ķ×§×¡
Ġ×ĳ×Ĳ×¨ ×Ĳ
Ġ×Ĳ×Ļ×Ļ×ł ×Ļ×§×ľ
×Ĳ ×Ļ×ł×ĺ×¢×¨
Ġ×© ×ķ×ł×Ĳ
Ġ×Ĵ×¢×¤ ×ľ
ĠWeb Site
×ĺ ×Ļ×Ļ×Ł
Ġ×§ ×¢×ľ
×ķ×ł ×ľ×Ĳ
Ġ×¤×ľ ×Ĳ×ĺ
Ġ×ŀ×§ ×ķ×Ķ
! '
Ġ×ķ×ķ ×Ļ×Ľ
Ġ×Ķ ×Ļ×ķ×ª
×Ķ ×Ļ×ľ
×Ĵ ×¡
Ġ×ľ ×Ļ×ķ
Ġ×ľ×¢×ĳ ×ĺ
×Ĳ ×Ļ×Ļ×ł×¢×¨
Ġ×¤ ×ľ×¢
×Ķ ×©
Ġ×Ĳ×Ļ×ĺ ×Ĳ×ľ×Ļ×¢
Ġ×ľ×Ĵ ×ĳ×Ļ
×ĸ ×Ļ×ł
Ġ×¡ ×¢×ĺ
×Ļ×ł ×¢×ľ
Ġ×©×ķ×ľ ×¢
Ġ×ł ×Ĳ×ĺ
Ġ×© ×ķ×ĺ
Ġ×ľ ×ķ×¤
Ġ×ĵ×ĳ×¨ ×Ļ
Ġ×ª×ľ×ŀ×Ļ×ĵ ×Ļ×Ŀ
Ġ×ĵ ×¢×§
Ġ×© ×Ļ×ľ
×Ļ×Ļ×¢ ×ł×ĺ
3 9
×ľ×Ļ×Ľ ×ĺ
×ķ×ķ×Ļ× ł×¡
Ġ×ĳ×¨ ×Ļ×ĵ×¢×¨
re s
×ķ×ķ×Ĳ×§ ×Ĳ×ĺ
Ġ×Ĵ×ķ ×ķ×ŀ×Ĵ
Ġ×Ĵ ×ł×ĳ
Ġ×ł ×Ĳ×ĺ×ķ×¨
×§ ×ķ×Ŀ
×Ĵ ×¢×¡
×Ļ×ľ ×¢×¨×Ļ×Ļ
×ķ×ł ×¢×ŀ×¢×Ł
Ġ×§×¢×ł×¡ ×ĺ×ķ
Ġ×ĳ×¨ ×¢×Ĵ
×ĳ×ľ ×¢×Ŀ
Ġ×Ĳ×¨×ķ×Ļ×¡×Ĵ ×¢×Ĵ×¢×ĳ×Ł
Ġ×Ĳ×ĵ×ŀ×Ļ×ł×Ļ×¡×ĺ×¨ ×Ĳ×¦×Ļ×¢
×¢× °
Ġ×ŀ ×Ļ×Ĳ
×¢×ķ×ķ ×Ĳ×¨
Ġ×¤×¨×Ļ×ķ×ķ ×Ĳ×ĺ
×¢×ł×ĺ ×ķ×¨
×¢×ł×Ĵ ×ľ×Ļ×©
Ġ×¤×¨×Ļ×Ļ×ĸ ×Ł
Ġ×Ľ×Ķ ×Ł
f f
Ġ×ĺ ×Ļ×§
Ġ×¢×ľ×¢×§ ×ĺ×¨
×Ļ×¨ ×Ļ×¢
×¢×Ĵ ×¢×¨
×Ĵ ×¢×ĺ
Ġ×¢×¨ ×ł×¡×ĺ
×Ļ×ł ×ķ×ª
×© ×ķ×Ł
Ġ×© ×Ļ×§×ĺ
Ġ×ŀ×Ĺ ×ŀ×ª
×ķ×ķ×¢×¨×ĺ ×¡
Ġ×ŀ×¢×© ×Ļ×ķ×ª
Ġ =
×¤×Ĳ×¨ ×ķ×ķ×Ĳ×¡
×ľ ×ĺ×¢×¨
×ĳ ×Ļ×ª
×ķ×ķ×Ļ× Ł
Ġ Ã
Ġ×¡×Ĳ ×ķ
×Ĵ ×¢×ł
Ġ×¨ ×Ĳ×§
Ġ×ĵ×¢×¨ ×Ļ×Ł
×¢×§ ×ĺ×Ĳ
Ġ×Ľ ×ľ×Ļ
Ġ×Ĵ×¢×¤ ×Ĳ×¨×Ł
Ġ×ŀ×ľ ×ķ×Ľ×Ķ
Ġ×ŀ ×Ĳ×
Ġ×ĳ ×Ļ×Ļ×ł
Ġ×ĸ ×Ļ×¦×ĺ
×Ļ×Ľ ×§×Ļ×Ļ
Ġ×§×¨ ×Ĳ×ł×§
×ľ×Ļ×Ľ ×§×Ļ×Ļ×ĺ
×Ĳ×© ×Ł
×ķ×Ļ×¨ ×Ļ×Ŀ
Ġ×Ķï¬¯ ×ĺ
Ġ×ĸ ×Ļ×ł×Ĵ×¢×Ł
×©×Ļ×¨ ×Ļ×Ŀ
×ĸ ×ķ×ł×ĵ×¢×¨
Ġ×ŀ×ł×Ĺ ×Ŀ
×ĳ ×Ĳ×§
Ġ×Ļ×Ĳ×¨ ×Ķ×ķ×ł×ĵ×¢×¨×ĺ
Ġ×ł×¤ ×ĺ×¨
×Ļ×ł×¦ ×Ļ×§
3 8
×¨ ×¢×Ľ×ĺ
Ġ×Ļ ×ĸ
Ġ×¨ ×¢×ł×ĺ
×¢×ķ×ķ ×¢
Ġ×Ľ×ľ ×Ļ×Ŀ
×¢ ×¢
×¨ ×¢×¡×ĺ
Ġ×ĳ ï¬®
Ġ×§ ×²×Ł
×ŀ ×ĳ×Ĳ
Ġ×§×¨ ×¢×ł×§
×ĺ×Ļ×Ļ×ľ ×Ł
Ġï¬® ×ĸ
Ġ×ķ ×ª
×ĳ×¨ ×Ļ×Ŀ
-------- --------
Ġ×¡×Ĺ ×ķ×¨×Ķ
Ġ×¤ ×ķ×Ļ×ľ
×§ ×ķ×ķ×Ĳ
Ġ×ľ×¢×¨ ×¢×¨
Ġ×¨×ķ×¡ ×Ļ×©×¢
Ġ×Ļ×Ĳ×Ķ ×¨
×¨ ×Ļ×ŀ
Ġ×Ĳ×¤ ×©
×ł×§ ×Ļ×Ļ×ĺ
Ġ×§×ľ×Ļ×ł ×ĺ×Ĳ×Ł
Ġ×¨×Ĳ ×ķ×ĵ
Ġ×ĵ×¢×¨×¦ ×Ļ×Ļ×ľ×Ł
×Ĳ ×ķ×ł×ĵ
×ľ ×Ļ×¦×Ļ×Ļ
×ŀ ×ĺ
×ķ×ª ×Ļ
Ġ×Ĵ×¨ ×Ĳ×ĵ
Ġ×ĳ ×ŀ×©×ļ
Ġ×§ ×¢×ŀ×¤
Ġ×Ķ×Ļ×Ļ×ł×ĺ ×Ļ×§×¢
Ġ×Ĺ×ľ ×Ļ×ľ×Ķ
Ġ×Ķ×¢×Ľ ×¡×ĺ
×ĺ ×§×Ļ×Ļ×ĺ
Ġ×Ķ×¢×ŀ ×§
Ġ2 8
Ġ200 1
×Ĳ×ł×¡ ×Ĳ×Ł
×ķ×ķ×Ļ×© ×Ł
×ł ×Ļ×Ļ
Ġ×¨ ×¦
×¢×Ķ ×¢×¨×ĺ
Ġ×¤×Ĳ×¨×©×ĺ ×Ĳ×ł×ĵ
Ġ×Ĳ×ĵ ×ķ×¨×ļ
Ġ×Ĳ×ł×ĺ ×ľ
Ġ×ŀ×ķ×¡ ×¨
Ġ×¨ ×ķ
Ġ×Ĳ×¤ ×Ļ×¡
Ġ- ----------------
Ġ×Ĵ×ľ ×Ļ×Ļ×Ľ
?? ?
Ġ×§×Ķ ×Ļ×ľ×ķ×ª
Ġ×ĸ ×ŀ×Ł
Ġ×Ĵ×¢×ĳ ×ķ×¨×ĺ
Ġ×ŀ×§ ×Ļ×Ļ×Ŀ
it h
Ö µ
Ġ×Ķ×¢×¨ ×ľ×Ļ×Ľ×¢
Ġ×Ĺ×Ľ ×Ŀ
Ġ×ĳ×Ĳ×©×ľ ×Ĳ×¡×Ł
Ġ×§ ×Ļ×ľ
×¢×ł ×Ļ×¢
×ĺ×¢×¨ ×ĸ
Ġ×Ĵ×¢×ľ ×¢×ĳ×ĺ
Ð »
×Ĳ ×ķ×ł×ĸ
×Ķ ×ľ
Ġ×Ļ ×ķ×Ĵ
Ġ×ĺ×¨ ×Ĳ×¥
Ġ×Ĳ×Ļ×ŀ ×¤×¢×¨
Ġ----------------- -
×Ļ×© ×¨
×ķ×ĸ ×©×Ĳ
×¨×ĳ ×ł×ķ×ª
Ġ×Ĵ×¢×Ķ ×Ĳ×ľ×¤×Ł
Ġ×©×ľ ×Ļ×¡×ľ
Ġ×Ĳ×Ļ×ł×ĺ×¨ ×¢×¡
Ġ×ª×Ļ×¨ ×ķ×¥
Ġ×¢×¡ ×ł×ķ×ķ×Ĳ
Ġ×Ĳ×Ĺ ×Ļ×¢×ĸ×¨
Ġ×ľ×Ľ ×ĳ×ķ×ĵ
Ġ×¤×Ĳ×¨×¦ ×Ļ×Ļ×ľ×ĺ
Ġ×Ĳ×ķ×¦ ×¨
Ġ×ĳ ×ķ×Ļ×Ŀ
Ġ×¢×¨ ×ł×¡
Ġ×ĵ×ķ×¨ ×Ľ×Ł
Ġ×ĵ ×Ļ×ľ
Ġ×ķ ×Ĺ
ati on
Ġ×Ķ×Ĵ ×Ķ
Ġ×ķ×ķ ×¢×ł×ĺ
×ĵ ×¢×ľ
Ġ×¦×Ļ×Ļ×ĺ ×ķ×ł×Ĵ×¢×Ł
Ġ×©×ķ×ķ ×¢×¡×ĺ×¢×¨
Ġ×¤ ×ķ×ł×ĺ
Ġ×ķ×ķ ×Ļ×Ļ×
Ġ×ŀ×Ļ×ĺ ×Ĳ×¨×ĳ×¢×ĺ×¢×¨
Ġ×Ĵ×¢×ŀ ×ķ×ĸ×ĺ
×ķ×Ļ×ĳ ×ĺ
Ġ×ł×ķ×¦ ×ĺ
Ġ×¨×¢×§ ×Ĳ×¨×ĵ
Ġ×§×¢×¡ ×Ļ×Ļ×ĵ×¢×¨
Ġ×© ×Ļ×ĵ
Ġ×¤×ľ ×ķ×¦
Ġ×Ĳ ×ĵ×¨×¢×¡
Ġ×Ĳ×¤ ×¢×¨
Ġ×ĳ×Ļ×Ļ×© ×¤×Ļ×ľ
Ġ×Ĳ×Ļ×ł×¡×ĺ×Ļ×ĺ ×ķ×ĺ
Ġ× ³
Ġ×Ĵ×¢×ŀ ×Ĳ×ľ×ĵ×Ł
p l
×¢ ×Ļ×¡
Ġ×© ×ķ×¨×ķ×ª
×ł×ĺ×ķ×ķ×Ļ×§ ×ľ×¢×Ł
Ġ×©×ŀ×¢ ×ķ×Ł
×ĳ ×ķ×ª
Ġ×© ×Ļ×£
Ġ×ĸ×¢×ľ ×ĳ×¢×¨
Ġ×ł×Ļ×ķ ×ĸ
ĠA n
Ġ×Ķ×§ ×ķ×ĵ×©
×ŀ×ŀ×© ×ķ×ª×ĵ×Ļ×§
Ġ×ł ×¢×ĺ
Ġ×ķ×ķ×¢×ĳ ×ĸ×Ļ×Ļ×ĺ
il l
Ġ×¨×¢×¡ ×¤
Ġ×ĵ×Ĳ×ľ ×Ĳ×¨
Ġ×ĳ×Ļ×Ľ ×ķ×ľ×ª
×Ļ× ł×¤
Ġ×¡ ×ķ×ŀ×¢
Ġ×ĵ×Ļ×¨ ×Ķ
Ġ×ĳ×Ĳ×ĺ×¨ ×Ĳ×Ľ×ĺ
×Ļ×Ķ ×ľ
×ľ ×Ļ×Ļ×ĺ×¢×¨
3 4
Ġ×§ ×¢×¤
×©×ĺ ×¢×ĺ
Ġ×¢×§ ×¡×ĺ
Ġ×§ ×ķ×Ļ×Ŀ
×¢×ł ×Ļ
Ġ×Ļ ×ĳ
×ª ×¨
Ġ×Ļ×ł×ĵ ×Ļ×Ĳ
Ġ×¡ ×¢×Ĳ
Ġ×Ĳ×ķ×ł×ĺ×¢×¨ ×Ł
Ġ×ĸ ×Ļ×ł×Ĵ×¢×¨
Ġ×¢×ľ ×¢×Ĵ
es t
Ġ×ľ ×ķ×Ļ×¤×ĺ
Ġ×Ķ ×ł×Ķ
Ġ×ĳ ×ĵ×¨×ļ
Ġ×¡×Ĳ ×ķ×ĺ
7 5
×ľ×Ļ×ĺ ×Ļ×§
V E
Ġ×¦ ×ķ×ĳ×¨
Ġ×Ĵ×¢ ×¢×ł×ĺ×¤×¢×¨×ĺ
Ġ×ĳ×Ĳ×ĵ ×Ļ×Ļ×ĺ
Ġ×Ĳ×Ļ×ł×Ĵ ×¢×¨
Ġ @
×ľ ×Ļ×¦
ł× ĳ
Ġ×§ ×¨×Ļ×Ļ×ĸ
×ł ×Ļ×ĺ×Ĳ
Ġ×©×¤ ×Ļ×ľ×Ł
Ġ×¦×ķ×§ ×¢×¨
×ķ×ķ×¢×ł ×Ļ×ķ
6 4
Ġ×¤ ×Ļ×ł×§
×ľ ×ķ×Ĵ
Ġ×Ķ ×ķ×Ĳ
âĢ ŀ
Ġ×ĵ ×ĵ×ĸ×©
×© ×Ļ×Ŀ
Ġ×¤×¨ ×ł×¡×Ķ
×¨×§ ×¢×¨
Ġ×Ĵ×¢×ĳ ×Ļ×ĺ×Ł
×ĵ ×Ļ×§×¢×¨
×¢×ł×ĵ ×Ļ×ł×Ĵ
Ġ201 4
×ķ×Ļ× ĳ×¢×¨
Ö¼ .
Ġ×ĵ×¨ ×²
Ġ×ķ ×Ļ×Ķ
Ġ×ł ×¢×¥
×ķ×ķ ×Ĳ×ľ×ĺ
×ķ×¨ ×¨
Ġ201 6
Ġ×Ĵ×¢×©×ĺ ×Ĳ×¨×ĳ×Ł
×¨×ķ×¡ ×Ļ×©
Ġ×ŀ×Ĳ×¨×§ ×¢×ĺ
Ġ×ĺ ×Ļ×£
âĢ ı
Ġ×¤×ľ ×Ļ×¢×Ł
Ġ×Ĳ×Ļ×Ķ ×¨
Ġ×ķ×ķ×Ĳ×§ ×¡
Ġ×ľ×Ļ×¡ ×ĺ×¢
×ĸ ×±
×¢×ł×ĺ ×Ĳ
×Ĳ×¤ ×¢×¨
×ķ×ķ×¢×¨×ĺ ×Ļ×Ļ×ĸ
Ġ×¢×¡×§ ×ł×Ļ×Ŀ
* *
Ġ×© ×¢×¨
×ª ×ķ
Ġ×Ĳ×ķ×Ļ×¤ ×Ĵ×¢×©×ĺ×¢×ľ×ĺ
Ġ×§×¨×Ļ×ĺ ×Ļ×§
h t
×ĵ ×ķ×ķ×Ĳ
×ĳ ×ķ×ļ
×§ ×ĵ×©
×ķ×ķ ×ķ
Ġ×Ľ ×¢×ŀ
Ġ200 4
Ġ×ŀ×Ĺ ×ľ×ķ×§
Ġ×ľ×Ļ×ŀ ×ķ×ĵ
×ł ×Ļ×ł×Ĵ
×¨×¢×ĵ ×Ł
Ġ×¤×¨×Ĳ×ĳ ×Ļ×¨×ĺ
Ð ¿
Ġ×ľ ×ķ×Ĺ
×ķ×ľ ×¢
Ġ×Ĳ×ľ ×Ļ×¢×ĸ×¨
×¢×¡ ×ĺ×¨
×Ĳ×ĳ ×Ļ×ľ
Ġ×ĺ×Ĳ×Ĵ ×Ĳ
Ġ' '
Ġ×ł ×¢×¨
×ł ×¢×ŀ
×ŀ ×¨
Ġ×¤×Ĳ×¨ ×ĳ×ľ
×©×¨ ×Ļ×Ļ
Ġ×¢×ł×ĵ ×¢×¨
Ġ×Ĵ×¢×ĵ×Ĳ×ł×§ ×¢×Ł
A A
×ĺ×¢×¨ ×ĺ
Ġ×ĳ×ľ ×Ļ×Ļ
×¤×Ĳ×¨ ×©
Ġ×¤ ×ķ×ł
Ġ×ŀ ×ķ×ĵ
Ġ×Ķ ×Ļ×¨
Ġ×¦ ×Ļ×¨
Ġ×¡×§ ×ķ×ľ
×¨ ×ł×Ļ×©×ĺ
×ľ ×Ĳ×ĸ×Ł
Ġ×ķ×ķ×Ļ×ľ ×ĵ×¢
×ķ×ķ×¢×Ĵ ×ķ×ł×Ĵ
×¨×Ļ×ĳ ×¢×Ł
×ĺ ×¢×ķ×ķ×¢×Ł
Ġ×ĺ ×¡×ĺ
Ġ×ľ ×Ļ×ł×Ļ×¢
i ve
×ľ ×Ĳ×Ĵ
×ľ ×Ĳ×Ĵ×Ł
Ġ×§ ×ĳ×ľ
âĢĿ ,
Ġ×¢×ŀ ×¢×¦×¢×¨
Ġ×Ķ ×Ļ×¥
Ġ×¢×¨ ×ľ×Ļ×Ľ×¢
Ġ×Ĳ×± ×ļ
Ġ×Ĳ×Ļ×Ļ×ł×¦ ×Ļ×Ĵ×¡×ĺ×¢
Ġ×ĵ ×Ĳ×§×ĺ×Ĳ×¨
×ľ ×¤
×Ľ ×ĵ×¢×Ŀ
×¨×©×ĺ ×¢×ľ×ķ×ł×Ĵ
pos ted
Ġ×¨×Ļ×¨ ×¢×ķ×ķ×ĵ×Ļ×§
Ġ×¤ ×ķ×ĳ×ľ×Ļ×§
×ĸ ×Ĳ×Ĵ×ĺ
Ġ×ĺ ×¢
Ġ×Ĳ×Ļ×ł×ĺ×¢×¨ ×ł×Ĳ
Ġ×Ĳ×ł×ĺ ×Ļ
×¢×ł×© ×Ĳ
Ġ×¦ ×¨×ķ×ª
Ġ×ľ ×Ļ×¡×ĺ
×¢×¡ ×ĺ×Ĳ
Ġ×ĳ×¨ ×ķ×§
v er
Ġ×ł ×¢×Ŀ
Ġ×ĺ ×¢×ĺ
Ġ×ĺ×© ×¢×§×¡
×¢×ł×Ķ ×Ļ×Ļ×ĺ
×Ļ×¢ ×ĵ×¢×¨
Ġ×ĺ×ķ×Ļ×ĸ ×¢×ł×ĺ
Ġ×¤×Ĳ×ŀ ×Ļ×ľ×Ļ×¢
8 5
Ġ×¦ ×Ļ×¢×Ł
Ġ×Ĳ×ķ×ł×ĺ×¢×¨ ×©
×ķ ×¢×ķ×ª
×¨ ×¢×Ľ
×¦ ×¢×ł×ĺ
Ġ×Ķ×Ļ×Ļ×ľ ×Ļ×Ĵ×¢×¨
×¢×¤ ×Ł
Ġ×Ĺ×ĵ×©×Ļ×Ŀ ×Ĳ
i k
×ľ ×Ļ×Ļ×¢×¨
Ġ×Ĳ×ķ×Ļ× Ľ
×Ļ×¤ ×ĺ×Ł
Ġ×Ĵ×¢×§ ×ķ×Ļ×¤×ĺ
Ġ×¢×ł×Ĵ ×ľ×Ĳ×ł×ĵ
Ġ×Ĳ×¨×ķ×Ļ×£ ×Ĳ×¨×Ĳ×¤
ti on
×Ĵ×¢×¨ ×¢×ĵ×ĺ
Ġ×ŀ×ķ×¡ ×§×ľ
Ġ×ŀ×©×¤ ×Ĺ×ķ×ª
Ġ×¦×ķ×ĳ ×Ļ×¡×ľ×¢×ļ
×ĵ ×¨×Ĳ
×ł×ĵ ×ľ×ķ×ł×Ĵ
Ġ×Ĳ×Ļ×ł ×ķ×ķ×¢×¡×ĺ
Ġ×Ķ×Ĵ ×Ŀ
Ġ×ĸ×¢×ľ×ĳ ×¡
Ġ×¤×Ĳ×ľ×Ļ×ĺ ×Ļ×©×¢
Ġ×§×¢×¨ ×¤×¢×¨
8 4
Ġ× ł×Ĵ
Ġ×©×ĺ ×Ļ×ŀ×ĺ
Ġ×ĺ×ķ×Ļ×ĸ ×¢×ł×ĺ×¢×¨
Ġ×¨×¢×Ĵ×Ļ×¡×ĺ×¨ ×Ļ×¨×ĺ
Ġ×ĺ×¢×ŀ ×¢×¡
×ł×¡ ×ŀ
Ġ×ŀ×¢×ľ ×ķ×ª
×ĺ ×©×Ĳ
Ġ×©×ĺ ×¢×§×Ł
Ġ×Ĳ×Ļ×ł ×¢×¨
Ġ×¢×ľ×ĺ×¢×¨ ×¢
Ġ×ľ ×Ļ×Ļ×ł×¢×¨
Ġ×©×ĺ ×Ļ×Ļ×¢×¨
Ġ×¤×¨ ×Ļ×Ļ×ĵ
Ġ×Ĳ×ľ ×¢×ŀ×¢×Ł
×¢×ł×ĵ ×Ĳ×¨
Ġ×ķ×ķ×Ļ×§ ×Ļ×¤
Ġ×ĳ ×Ļ×ŀ
×Ļ×¡×ĺ ×Ļ×§
Ġ×§×¨ ×Ļ×¡×ĺ×Ł
Ġ×Ĳ×ķ×ł ×ĺ×Ł
×¢×ĳ×¨ ×Ĳ×Ľ×Ł
Ġ×¦×ķ×¤ ×Ļ×ľ
7 9
×ķ×ķ ×Ĳ×ĵ
Ġ×Ĳ×ķ×Ļ× ¢
×Ĺ ×ķ×¥
Ġ×¤×Ĳ×¨×Ĳ ×Ļ×Ļ×ł×Ļ×§×ĺ×¢
Ġ×ĵ ×Ĳ×§×ĺ
×ľ ×Ļ×Ļ×Ĵ
Ġ×§ ×ł×Ĳ
Ġ×§ ×©×¨
Ġ×¦ ×Ļ×¤
×ľ×¢× ĳ×Ł
or t
×Ļ× °
×ĵ ×ķ×¨
×ŀ ×¢×ł×ĺ×©
×Ĳ×¦ ×ĺ
Ġ×° ×¢×Ł
Ġ×ŀ×ĸ ×ľ
Ġ×ĳ×Ĳ×ĳ ×¢
×ł×Ĵ×¢×¨ ×¢×Ľ×ł×ĺ
Ġ×Ĳ ×ł×¢×¨×§
Ġ×§ ×ķ×ĵ×©
Ġ×Ĵ×¢×ł ×ķ×Ļ
Ġ×¢×§ ×ĸ
, "
Ġ×¤ ×Ļ×ĸ
×Ķ ×¨
Ġ×Ķ×Ĳ× ĵ
×Ļ×¤ ×Ķ
×Ļ×Ļ× £
Ġ×ĳ×¨ ×Ļ×§
Ġ×ĺ ×¢×¡×ĺ
×Ļ×¨ ×Ļ×Ĳ
Ġ×¤×©×ķ ×ĺ×¢
Ġ×Ĺ×©×ķ×ĳ ×¢
Ġ×¤×¢×¨×ĸ×¢×ł ×ľ×Ļ×ļ
2 1
L I
Ġ×ĸ ×ķ×ł×ĺ
Ġ×Ļ ×Ļ×ł×¦×Ļ×§
×Ĵ ×¢×§×ķ×ŀ×¢×Ł
Ġ×ľ ×¢×¤
Ġ×Ĳ×¨×ķ×Ļ×¡×Ĵ ×¢×§×ķ×ŀ×¢×Ł
Ġ×ĺ×ķ×ĳ ×Ķ
u p
×ľ ×ľ×Ļ×Ŀ
Ġ×ľ ×Ĳ×Ĵ
Ġ×Ĳ×ľ ×Ĳ
×¨×ĳ×¨ ×¢×ł×Ĵ×¢×Ł
Ġ×ĵ×Ļ×Ĵ ×Ļ×ĺ×Ĳ
Ġ×Ĵ ×ķ×ľ
Ġ×¨ ×ķ×£
Ġ×ĵ×Ļ×ĸ ×Ļ×Ļ×ł×ĵ
Ġ×ĳ×Ĳ×©×ĺ ×Ļ×ŀ×ĺ
Ġ×Ĵ×Ļ×ĳ ×ĺ
Ġ×ª ×ľ
×©×ĺ ×¢×ł×ĵ×Ļ×§
Ġ×Ĳ×ł ×Ĳ×ľ
×Ĳ ×Ļ×Ļ
×ĺ ×ķ×Ļ×¨
×© ×ł×Ļ×ĺ
×ł ×ķ×Ĳ
×Ļ×ľ ×Ļ
Ġ×ľ×Ļ×Ļ×§ ×¡
Ġ×¢ ×Ľ×ĺ
×ķ×ķ ×Ĳ×ļ
×Ļ×ľ ×¡
×Ļ×ĵ ×¢
Ġ×¤×Ĳ×¨×ł ×ķ×ŀ×¢×Ł
×¨ ×¢×ĸ
×Ļ×Ļ× ł×¡×ĺ
Ġ×¢×ł ×ľ×¢×ļ
Ġ×ĸ ×Ļ×ĳ
×ĳ ×Ļ×Ļ×Ł
×¤ ×ľ×Ĳ
Ġ×ł ×Ĳ×¦
Ġ×ŀ×ľ ×ŀ×ĵ
Ġ×©×¤×¨ ×Ĳ×Ľ×Ł
Ġ×Ļ×ł×ĵ ×Ĳ
×ĺ ×ķ×ķ×Ļ×ĺ
×© ×©
×ĵ ×ĵ
Ġ×¡ ×ķ×Ĵ
Ġ×¢×¨ ×ľ
Ġ×©×¤ ×Ļ×¨×Ł
×¢×ł×ĵ ×ľ×Ļ×ļ
Ġ×¡×Ļ×ŀ ×¤
Ġ×ĵ×¢×¨×§×ľ ×¢×¨×Ł
Ġ×Ķ ×ķ×¨
×Ľ ×Ĳ×ĺ×©
Ġ×Ĵ×¢×ĵ ×Ļ×ł×ĺ
Ðµ Ðµ
Ġ×ł×Ļ×¦ ×¢×¨×¡
Ġ×¤ ×ķ×¨×Ļ×Ŀ
×Ĳ×¨ ×ĺ×Ł
×¢×ĸ ×¢×¦×ĺ
ĠF ree
Ġ6 0
Ġ×ł×Ļ×Ĵ ×ķ×ł×Ļ×Ŀ
×¢ ×Ļ×Ł
Ġ×§ ×ĺ
×© ×Ĳ×Ł
Ġ×¡×¢×ľ ×¢×§×ĺ
Ġ×Ļ×¡ ×ķ×ĵ×ķ×ª
3 6
×ĺ ×¢×¡×ĺ
Ġ×¤ ×ĺ
Ġ×ŀ ×Ļ×ķ
Ġ×¢ ×§×Ĳ
Ġ×¢×¨ ×Ļ×§
×¢×§ ×©×Ĳ
×ł×ĵ ×¨×ķ×Ļ×ĵ
Ġ×¢×§ ×¡×ĺ×¨
Ġ×¢×ł×ĺ×¤ ×¢×¨×Ł
Ġ×¤ ×Ĳ×ĵ
×ľ ×²
Ġ×Ļ ×ª
×Ļ×¨ ×ķ×©
Ġ×§×ł ×¢×¤
Ġ×Ĳ×¤ ×ĺ×Ļ×Ļ×ľ×ķ×ł×Ĵ
Ġ×Ĵ×¢×° ×Ĳ
Ġ×Ĳ×Ļ×Ļ×ł×Ļ×§ ×ľ×¢×ļ
×ĺ ×¢×ĵ
×¡ ×§×Ĳ
×ł ×Ļ×©×¢
×§ ×ķ×ľ
Ġ×Ĵ×¢×¤ ×Ĳ×ľ×Ł
Ġ×©×ķ×ķ×Ĳ×Ľ ×¢×¨
Ġ×ĵ×Ļ ×Ļ
×Ļ×© ×§×Ļ×Ļ×ĺ
×¢×¡ ×¢×¨
Ġ×ŀ×Ļ×Ļ×ĵ ×ľ×¢×ļ
×© ×ķ×Ļ×Ł
Ġ×¤×Ĳ×¨ ×Ľ
×¨ ×¨
Ġ×¤ ×Ļ×§
Ġ×ĳ ×Ļ×Ļ×Ĵ
×Ĳ×¤ ×ľ
Ġ×¤ ×¢×¨×ĺ
Ġ×ķ×ķ ×Ļ×ł
×Ļ×Ļ×ľ ×ĺ×¢
Ġ×ł×§ ×ķ×ĵ×Ķ
Ġ×Ĳ×¤×ŀ ×Ĳ×ļ
×ľ ×Ĵ×¢×ŀ
Ġ×ĸ ×Ľ×ķ×ª
×¤ ×¤
×ĳ ×ķ×ł×Ĵ
×Ļ×© ×Ĳ×Ł
Ġ×Ĵ×¢×¨ ×Ĳ
Ġ×ŀ×Ľ ×©×Ļ×¨×Ļ×Ŀ
] .
Ġ×ĵ ×¢×ĺ
Ġ×ķ×ķ×¢×Ĵ ×¢×Ł
Ġ×ĵ ×Ļ×ł×Ĵ×¢×Ł
Ġ×Ķ ×ķ×ł×ĺ
×¢×ľ ×Ļ
r an
Ġ×ĸ ×Ļ×Ł
Ġ×Ĵ×¢×ŀ ×Ĳ
Ġ×ŀ×¦ ×ĵ
es s
Ġ×¢×§×ĸ×Ļ×¡×ĺ ×Ļ×¨×ĺ
Ġ×ĸ ×ķ×ļ
×ŀ ×ĸ×¨×Ĺ
Ġ×Ľ ×Ļ
Ġ×Ĳ×Ķ ×Ļ×Ļ×Ŀ
×Ĵ×¢×© ×ĺ
Ġ×Ļ×§×¡ ×Ļ×Ļ×ĺ×Ļ×ł×Ĵ
×ł ×Ļ×ĸ×Ĳ
×Ļ×ĺ ×¡
×Ļ×¨ ×¢×Ł
×¢×ĺ×¢×¨ ×Ļ
Ġ×¡×Ļ×ŀ ×Ļ×Ĳ
×¨×Ļ×Ļ×ĳ ×¢×Ł
Ġ×ĳ ×¨×Ļ×Ļ×
×¢×ŀ ×Ĳ×ĺ
Ġ×§×ľ ×Ĳ×¡
Ġ×§×ľ ×ķ×ĳ
×Ĵ×¢×Ĵ ×Ĳ×ł×Ĵ×¢×Ł
Ġ×ĳ×Ļ×Ļ×ł ×Ĳ×Ľ×ĺ
×ł ×¢×¨×¡
Ġ×¨ ×¢×ĳ
Ġ×Ĵ×¢×© ×ľ×¢×Ľ×ĺ
Ġ×¨×¢×ĵ ×¢
×ľ ×ľ×Ĳ
Ġ×ĵ×¨ ×ķ×Ļ×¡
×ķ×Ļ×ł ×ĺ×¢×¨
Ġ×Ĳ×Ļ×ł×ĺ×¢×¨×¢×¡ ×Ļ×¨×ĺ
×Ĵ×¢×§ ×¨
Ġ×ĳ×Ĳ×ĸ×ķ×ł×ĵ ×¢×¨×¢
a i
Ġ×¨ ×Ļ×Ľ×ĺ×¢×¨
Ġ×ĵ×Ļ×¨ ×ķ×ª
Ġ×Ļ×ł×ĵ×ķ×¡×ĺ×¨ ×Ļ×¢×¡
] ,
×§ ×ľ×Ĳ
Ġ×ľ ×ĺ
×©×¨ ×Ļ×¤×ĺ
at e
Ġ×¤×¨×Ļ×Ļ×ĺ ×Ĳ×Ĵ
×ľ ×ķ×ł×Ĵ×¢×Ł
×ĳ ×¡
Ġ×© ×ĵ
Ġ×©×ľ×¢×Ľ ×ĺ×¢
Ġ×ŀ ×ķ×Ķ
Ġ×Ĳ×Ļ×Ļ× ł×¤
×¨×Ļ×§ ×Ł
Ġ×Ĳ×Ļ×ĳ×¢×¨×Ĵ ×¢×Ĵ×¢×ĳ×Ł
×ķ ×ķ×§
Ġ×¡ ×Ĳ×ľ
Ġ×©×ĺ ×Ļ×Ļ×¢×Ł
Ġ×¡×ĺ ×Ļ×ľ
9 5
×¢×¨ ×ł
Ġ×ľ ×Ļ
×Ĳ×Ķ ×ľ
×ł×© ×ĺ×Ĳ
Ġ×§×Ĳ×ľ ×¢×ĵ×ĸ×©
ou n
ww w
Ġ×Ĳ×Ļ×ŀ×¤×¢×¨ ×Ļ×¢
Ġ×¤ ×Ĳ×ł
Ġ×ĳ×Ĳ ×ķ×ķ×Ĳ×ķ×¡×ĺ
ã Ģ
Ġ×Ĵ ×Ļ×ĳ×Ł
×¨×ĺ ×©
Ġ×¤×ľ ×¢×Ĵ
Ġ×Ĳ×Ļ×ĳ×¢×¨×Ĵ ×¢×ĵ×¨×Ļ×Ļ×ĺ
Ġ×ķ×ķ×¢×¨×¡ ×Ļ×¢×¡
7 6
×ľ×ķ×Ļ×ĳ ×¢×ł×Ļ×©
Ġ×ĸ ×Ľ
Ġ×§ ×Ļ×ł×¡×ĺ
×ł ×Ĳ×Ľ
Ġ×° ×¢×Ĵ×Ł
Ġ×¨×Ļ×ĸ ×Ļ×Ĵ×¢
Ġ×Ĳ×¨×Ļ×Ļ×ł×Ĵ ×¢×¨×¢×Ľ×ł×ĺ
Ġ×ķ×Ļ×Ķ ×Ļ
, ,
×ķ ×ķ×ł×Ķ
Ġ×ĵ×¢×¨ ×Ķ
Ġ×Ĳ×¨ ×¢×¡×ĺ
×Ļ×ł ×¢×¡
ĳ×¢×¨ ×Ĵ
Ġ×Ĵ×¢×ĸ ×ķ×Ľ×ĺ
×Ĳ×ł×Ĵ ×Ł
Ġ×Ĳ×± ×¤
Ġ×ĳ ×¢×¦
Ġ×ł ×ķ×ĵ
×§ ×ķ
×ª ×Ļ
Ġ×¤×Ĳ×ľ ×Ł
Ġ×ĳ×Ĳ×© ×ķ×ľ×ĵ
Ġ×¡ ×ķ×ĵ
Ġ×¨ ×Ĳ×ŀ
×©×ĺ ×Ļ×Ļ×¢×¨
Ġ×©×¨×Ļ×Ļ×ĳ ×¢×Ł
Ġ×ľ×¢×¦×ĺ ×¢×ł×¡
Ġ×ŀ×¢×Ĵ×ľ×Ļ×Ľ ×§×Ļ×Ļ×ĺ
Ġ×ŀ ×¢×ŀ
Ġ×¨ ×ķ×¤
×Ļ×¢ ×ĵ
Ġ×©×ĺ ×ķ×ŀ
Ġ×¢×ĳ ×ķ×ĵ×Ķ
×Ķ ×¢×ľ
Ġ×¦×Ļ×ķ ×ł
Ġ×ŀ ×ķ×¨
Ġ×¡ ×Ĳ×¦
×ķ×¡ ×Ĳ
×¢×¨×© ×Ĳ×¤×ĺ
Ġ×Ĳ×ł×ĵ×¢×¨ ×¢×¨
Ġ×ŀ×© ×Ĳ
×ľ ×Ļ×ĸ
Ġ×ŀ ×Ĳ×¨×ĺ
Ġ×ľ ×ķ
×¦ ×Ķ
Ġ×¤ ×¢×¡
×ľ ×ľ×¡
×ĵ ×Ļ×¨×Ł
Ġ×¤×¢×ĳ×¨ ×ķ×Ĳ×¨
Ġ×ķ ×©
×¤ ×¢×ľ
Ġ i
Ġ×¨ ×Ĳ×ĳ
×¢×¦ ×Ļ×¤
×¢×ª ×Ļ
Ġ×ĵ×ķ×¨×Ľ ×Ĵ×¢×ľ
Ġp ro
Ġ×Ĳ×¨×Ĵ×Ĳ×ł×Ļ×ĸ ×Ĳ×¦×Ļ×¢
×ĳ ×©
×Ļ×ĸ ×ķ×§
×¨×Ļ×Ļ×ĳ ×ĺ
Ġ×§×Ĳ×ł×ĵ×Ļ×ĵ ×Ĳ×ĺ
Ġ×ĵ×Ĳ×§×ĺ ×ķ×Ļ×¨×Ļ×Ŀ
×ĸ ×ľ
×ł×ĵ ×ľ
Ġ×¢×ľ ×¢×ŀ
×Ĳ×ŀ×Ĳ×ĺ ×Ļ×©
Ġ×¦×¢×ł×ĵ×ľ ×Ļ×Ĵ×¢×¨
a ch
Ġ×ł ×ķ×¥
Ġ×¤×ľ ×¢×Ĵ×Ł
Ġ×Ĵ ×Ļ×Ľ×§×Ļ×Ļ
×ķ×Ļ× §
Ġ×Ľ×Ĳ ×Ļ×ľ×ķ
Ġ×Ķ×ľ ×Ľ×ķ×ª
×ķ×Ļ×ķ ×ķ×Ļ
×ĺ×ķ×Ļ×¨ ×ķ×ł×Ĵ
×§ ×ķ×§
×ł×ĺ ×Ļ
×ķ×Ķ ×Ĳ
Ġ×¦×ķ×Ĵ ×¢×ľ×Ļ×Ļ×Ĵ×ĺ
or g
âĢĿ .
Ġ×¡×¢ ×ķ×ĵ×Ķ
Ġ3 1
Ġ×Ĳ×Ļ×Ļ×ł×Ĵ×¢×© ×¨×Ļ×ĳ×Ł
×ł ×¨×Ĳ
Ġ×Ķ×¢×ľ ×ĵ
Ġ×¨×¢×¤ ×ķ×ĳ×ľ×Ļ×§
ow n
Ġ×¡×ŀ ×Ĳ×¨×ĺ
Ġ×ķ×ķ×Ļ×ł×ĵ×Ĳ ×ķ×¡
7 4
Ġ×ŀ ×ķ×ĵ×Ķ
Ġ×ĸ ×Ļ×ľ
Ġ×¡ ×ķ×ĳ
Â ©
Ġ×Ĺ ×ķ×ľ
×Ĳ×ĵ ×ķ×ķ×Ĳ×§×Ĳ×ĺ
Ġ×§×¨ ×Ĳ×¤×ĺ
×ŀ×ķ×ł ×Ļ×§×Ĳ
Ġ×¨ ×Ļ×ľ
Ġ×ĺ ×¨×Ļ×Ļ×
×¨×§ ×ķ×Ļ×£
Ġ×¦×ķ×¤ ×¨×Ļ
Ġ×Ĵ ×ľ×¢×ĸ
Ġ×Ķ×Ĳ× §
×ľ×¢× ©
Ġ×ĳ×¢×¡ ×¢×¨×¢
×Ĳ×ķ×ł×ĵ ×ĸ×¢×¨
×ľ ×Ĵ
Ġ×¢×ł×ĵ ×¢
Ġ×ķ×ķ×Ĳ×¨ ×©
Ġ×ķ×ķ×Ļ×ĵ×Ļ×Ĳ ×¡
b e
Â ´
Ġ×ł ×Ļ×ĵ
×ł×¡ ×ĺ×¨×Ĳ
Ġ×ŀ×Ĺ ×Ļ×Ķ
Ġ×Ķ×¢×Ľ ×¢×¨×Ł
Ġ×ŀ×Ļ×ĵ ×Ļ×¢
×Ĳ ×Ļ×Ļ×¨
Ġ×¢ ×©×¨
×Ĳ×Ľ ×¢
×ķ×¡ ×¤
Ġ×§×Ĳ×ŀ ×¢×ł×ĺ
Ġ×ķ ×§
×ķ×ķ×Ļ× ¢
Ġ×ł ×Ļ×Ļ×ĺ
Ġ×Ĳ ×ķ×§×¨
Ġ×¨ ×©×¢
Ġ×Ĺ ×ķ×¦
×¢×¤ ×Ļ×¨×ĺ
×ĳ×¢×¨ ×Ĵ
×¤×¨ ×Ļ
Ġ×ĺ×¨×Ļ×Ļ×ĵ ×Ļ×ł×Ĵ
×Ĳ ×Ļ×ĵ
Ġ×Ĳ ×Ĳ×ĸ
Ġ×¦×ķ ×ķ×Ļ×©
Ġ×Ĵ×¢×ł ×¢×¨
×¢×ľ×¢×¨ ×ł×ĺ
×ľ×© ×ķ×Ł
Ġ×¦×ķ×§×ķ×ł×¤ ×ĺ
×ł×Ļ×© ×Ĳ
Ġ×¨×Ļ×Ľ×ĺ ×ķ×ł×Ĵ
Ġ×¤×Ļ ×Ļ×Ļ×§
Ġ×Ĺ×ł ×ķ×Ľ×Ķ
×ŀ ×Ĳ×Ľ×ĺ
Ġ×ĺ ×ķ×Ļ×©
Ġ×Ĺ ×ŀ
Ġ×Ĵ×¨×ķ×ł×ĺ ×ľ×¢×Ľ×¢
Ġ×ķ×ķ×¢×§×¡ ×ľ×¢×Ł
Ġ×Ĵ×¢×§ ×ķ×§×ĺ
Ġ×ĺ×¨×Ļ×ł×§ ×¢×Ł
Ġ×ĳ ×Ļ×ĳ×ľ
×¢×Ľ ×Ĳ×¤×ĺ
Ġ×Ĳ×ķ×Ļ×ĺ ×Ĳ×¨
Ġ×¤×Ĳ×¨×ĵ ×Ļ×ł×ĺ
×ĺ ×¤×Ĳ
Ġ×ł ×¢×§×¡×ĺ×¢
×Ļ×¡ ×¢×ŀ
×¨×Ļ×Ļ× ©
Ġ×Ĵ×¢×ĺ×¨ ×Ĳ×Ľ×ĺ
Ġ×¤×ķ×¡ ×§
Ġ×Ĳ×¤×Ļ×¦ ×Ļ×¢×ľ×¢
×Ĵ×¢×§×¨ ×ķ×Ļ×ł×ĺ×¢×¨
×¨ ×Ľ
Ġ×©×ĺ ×¢×ł×ĵ×Ļ×Ĵ
Ġ×Ľ ×Ĳ×¤
Ġtat to
" ...
×Ļ×¢ ×ł×ĺ
×ķ×ĳ ×ķ×ª
ĠS h
Ġ×ŀ×Ĳ×¨ ×Ĵ×Ł
Ġ×¨×Ĳ×ĺ ×¢×ķ×ķ×¢×Ł
7 8
×¢× ł×¤
Ġ×Ķ ×¨×Ĵ
×ł×Ĵ ×¢×Ķ×ķ×Ļ×ĳ×Ł
Ġa re
Ġ×ķ ×Ļ×ĵ
×¡ ×ķ×£
Ġ×§×ľ ×Ļ×Ļ×ĵ
Ġ×§×¢×¡×ĺ ×ľ
Ġ×¡ ×¢×ł×ĺ
×ĸ ×§
Ġ×¤×Ĳ×¨ ×ĵ×¢×Ŀ
×Ĳ×¤ ×Ĳ×ľ
Ġ×ŀ×© ×ª
Ġ×Ĵ×¢×ķ×ķ×Ļ×¡ ×ĺ
Ġ×ŀ×Ĺ×ĳ×¨ ×¦×Ļ×Ļ×ĺ
LI VE
×ķ ×Ĳ×Ķ
×¨ ×Ļ×ĺ×¢×ĺ
Ġ×§ ×Ĳ×ł×¦
Ġ×©×ĺ ×ķ×¨
Ġ×Ĳ×ľ ×ĳ
×¤×Ĳ×¨ ×Ĳ
Ġ×ŀ×¢×ľ ×Ķ
Ġ×ķ×ķ×¢×ĳ×ĸ×Ļ×Ļ×ĺ ×ľ
Ġ×ķ×ķ ×ķ×Ļ×ł
Ġ×© ×Ļ×§
×¢×ł ×Ļ×Ĵ×Ł
Ġ×Ļ ×ķ×Ĺ
Ġ×Ĳ×ĵ ×Ŀ
×ķ×ķ×Ļ×ľ ×ľ×¢
Ġ×¤×Ļ×Ļ×Ļ×§ ×Ļ×Ļ
Ġ×Ĳ ×ł×ľ×Ļ×Ļ×Ł
×¢×ĺ ×Ļ×©
×¨×ŀ ×Ļ×Ļ
×§ ×ķ×§×ĺ
×ł×ĺ ×Ļ×Ļ×ľ
×¡×ĺ ×Ļ×§
Ġ×Ĵ×¢×¦ ×Ļ×Ļ×ľ×ĺ×¢
×©×ŀ ×Ļ×ķ×ª
Ġ×Ĳ×Ļ×¡ ×ķ×¨
Ġ×Ĳ×Ļ×ł×Ĵ×¢×¨ ×ŀ×Ĳ×Ł
Ġ×¤ ×Ĳ×§×ĺ×Ł
×§ ×Ļ×©
×Ļ×¤ ×Ĳ×¨
Ġ×Ĳ×Ļ×ĵ ×¢×ł×ĺ
ĠC yp
Ġ×¤×Ļ×¨ ×ŀ×¢×¡
Ġ×¤×Ĳ×¨×ŀ ×Ĳ×Ĵ×Ł
Ġ×Ļ×¡ ×ķ×ĵ
Ġ×ĵ ×¢×§×Ĳ
Ġ×¢×¨ ×ŀ×¢×Ĵ
Ġ×ł×Ļ×ĺ ×Ĳ×ŀ×Ĳ×ľ
Ġ×Ļ×Ļ×ĵ ×Ļ×©×Ł
Ġ×ĵ×ķ×¨×Ľ ×Ĳ×ķ×Ļ×¡
×ķ×ķ×Ĳ×¨ ×¤×Ł
×ľ×¢×ł×ĵ ×Ļ×©
×ŀ×¢×¨×§ ×ĸ×Ĳ
Ġ×ŀ ×ķ×©
×Ļ×ľ ×Ŀ
Ġ×ĺ ×Ļ×ĺ×ľ
Ġ×Ĳ×ķ×Ļ×¡×Ĵ ×Ĳ×ĳ×¢
Ġ×Ķ×© ×¤
Ġ×Ĵ×¢×¤×¢×¨ ×ľ×¢×ļ
ĠCyp LIVE
Ġ×¢ ×ķ×ĳ×¨
×ŀ ×Ļ×Ł
Ġ×Ļ ×ķ×ł
Ġ×¡ ×ľ
Ġ200 0
×ĺ ×Ļ×Ļ
×¦ ×ķ×¨
Ġ×ķ×ķ×Ĳ ×ķ×Ļ×ľ
Ġ×Ĵ×ľ ×²
Ġ×¢×ł×ĵ ×¢×¨×©
Ġ×Ļ×ł×§ ×¨×Ļ×¡
Ġ×Ķ×ĵ ×ķ×¨
Ġ×ĵ×¢×ŀ×Ĳ×§ ×¨×Ĳ×ĺ×Ł
Ġ×¨×Ļ×ĸ×Ļ×§ ×Ļ×¨×Ł
Ġ×Ķ×¢×ĳ×¨×¢ ×Ļ
×¨ ×ĵ×¢×¨
Ġ×Ĳ×ĸ ×ķ×Ļ×ł×¢
Ġ×Ĳ×¨×Ļ×Ļ× ł×§
Ġ×Ķ×Ļ×Ļ×ľ ×Ļ×Ĵ×Ł
Ġ×Ĺ×ª ×Ł
Ġ×Ĵ×¢×©×¢ ×¢×ł×Ļ×©
Ġ×ŀ ×¦×ķ×ķ×ª
Ġ×Ķ×ķ×Ļ×¤×ĺ ×©×ĺ×Ĳ×ĺ
Ġ×ķ×ķ×Ļ×¨×ĺ ×ķ×Ĳ
Ġ k
×Ļ×Ľ ×£
Ġ×¤×Ļ×ľ ×ĺ×¢×¨
Ġ×§×Ĳ×ľ ×¢×ł×ĵ×Ĳ×¨
×Ĳ ×ķ×Ļ×¤
×Ķ ×¨×ĳ
Ġ×ľ ×Ļ×Ĳ
Ġ×Ĳ×¨ ×ķ×ł×ĺ×¢×¨
Ġ×ĺ×¨ ×Ĳ×ł×¡
Ġ200 2
Ġ×ŀ×§ ×ĳ×ľ
Ġ×Ļ×ķ×ł×Ĵ×¢×¨ ×ŀ×Ĳ×Ł
×ľ×ķ×Ĵ ×Ļ×Ł
×ł×¡ ×Ļ×ĸ
Ġ×§×Ĳ×ł ×Ĳ×ĵ×¢
×ĵ ×ķ×¨×ļ
Ġ×¤×ľ ×Ļ×Ĵ×¢×¨
Ġ×ŀ×© ×ľ
Ġ×¡×Ļ×ŀ ×Ł
Ġ×¡×Ļ×ĺ ×ķ×Ĳ
Ġ×¤×¨×Ļ×ķ×ķ ×Ĳ×ĺ×¢
? "
t u
×ĺ ×Ļ×ĺ
×ł ×ķ×ķ×¢×¨
×©×ľ ×ķ×Ŀ
Ġ×ľ×Ļ×Ļ×ĸ ×ķ×ł×Ĵ
×ĵ ×Ķ
×Ļ×§ ×Ļ×Ļ×ĺ×Ł
×¨×Ķ ×ķ×ł×ĵ×¢×¨×ĺ
Ġ×¨×Ļ×¤ ×Ĳ×ĳ×ľ
×ĺ ×Ļ×ķ×ķ×¢
Ġ×¨ ×Ļ×§×Ĳ
×Ķ ×Ĵ
×Ĳ×¤ ×©×¨
Ġ×ĳ×Ĳ ×ķ×ķ
Ġ×ŀ×Ļ×ľ×Ļ×Ĳ ×ł×¢×Ł
Y iddish
×¢×ľ ×ĺ×Ł
Ġ×ª ×¤
Ġ×ŀ×Ļ×ĺ×Ĵ×ľ ×Ļ×ĵ
Ġ×ķ ×ľ
×Ļ×ķ ×ĳ
×Ļ×ķ ×ķ×Ļ×ł×Ĵ
Ġ×ŀ×Ļ×ľ×Ļ×ĺ×¢×¨ ×Ļ×©×¢
×¨ ×Ļ×ŀ×ĺ
×ŀ ×ľ×ķ×ł×Ĵ
Ġ×ĵ×¢×¨ ×ł
Ġ×Ķ×© ×ł×Ķ
×ľ×ŀ ×Ł
×ĳ×ķ×ľ ×Ĵ×Ĳ
×© ×Ļ×§
×ķ×Ľ ×Ļ×Ŀ
Ġ×Ĵ×ľ ×ķ×ª
ï¬¯ ×ľ
Ġ×¡×Ĳ×ĺ×ŀ×Ĳ×¨ ×¢×¨
Ö ľ
Ġ×ĺ ×Ļ×ł×ĺ
Ġ×¡ ×Ļ×ĸ
Ġ×©×ŀ ×Ļ×Ŀ
×ŀ×ķ ×¢×¡×ĺ
Ġ×¤×¨×Ĳ×ĵ ×ķ×§
Ġ×Ķ ×ĺ
×ķ×ŀ ×¢×ł×ĺ×Ł
×Ĺ ×Ł
Ġ×ŀ×ľ ×Ĳ×Ľ
Ġ×Ĳ×Ļ×ĳ×¢×¨×Ĵ ×¢×ł×ķ×ŀ×¢×Ł
Ġ×ķ×¤ ×ŀ×¢×¨×§×ĸ×Ĳ
Ġ×Ĵ ×ķ×Ļ×Ŀ
Ġ×ĸ ×Ļ×Ļ×¢×ł×ĵ×Ļ×Ĵ
Ġ×Ļ ×¨×Ĳ
×Ĵ ×¢×Ĵ×¢×ĳ×Ł
×Ļ×§ ×ķ×ł×Ĵ
×¦ ×ķ×¤
Ġ×¤×¨ ×Ļ×Ļ×¢
Ġ×ĳ×Ĳ×©×ĺ ×Ļ×Ļ×ĺ
×ķ×§×¡ ×¢×¡
×ķ×ķ×ķ×ķ×ķ×ķ×ķ×ķ×ķ×ķ×ķ×ķ×ķ×ķ×ķ×ķ ×ķ×ķ×ķ×ķ×ķ×ķ×ķ×ķ×ķ×ķ×ķ×ķ×ķ×ķ×ķ×ķ
×ķ ×ķ×²
Ġ×ĵ×¨×Ļ×§ ×ĺ
×¨×ķ×ŀ ×¤×Ĳ
Ġ×¦×° ×²
Ġ×Ĳ ×£
Ġ×ŀ ×Ļ×§
×ĵ ×¢×ŀ
×ĳ ×Ĳ×ĸ
Ġ×ľ×Ļ×Ļ×¢ ×ł×ĺ
Ġ×ĳ×Ĳ×¦ ×Ĳ×ľ×ĺ
×ķ×ķ×Ļ×¨ ×Ĳ
×ľ ×¢×ĺ
×ĳ×¨ ×Ļ×Ļ×ĺ
×Ļ×ķ×ķ×Ļ×ĺ ×¢×ĺ×Ł
Â ¨
Ġ×Ĳ×¤ ×©×ĺ
Ġ×Ĳ×ķ×Ļ×¡×Ĵ ×¢×ľ
Ġ×ĸ×© ×Ĳ×ł×¡×Ĳ×Ł
Ġw ith
ĠI n
Ġ×¤×Ĳ×¨×¤ ×Ĳ×¨×Ł
Ġ×§ ×¨×ĳ×ł×ķ×ª
×§ ×ķ×§×Ł
Ġ×¨ ×¤
Ġ×ĸ×¢ ×¢×Ł
8 9
×Ľ ×Ŀ
Ġ×ĺ ×Ļ×ĺ
Ġ×ĵ×¨ ×Ļ×Ļ×ĺ
×¦×ķ×Ĵ ×¢×ĳ×Ł
×ł×¡×ŀ ×Ļ×ĺ×¢×¨
Ġtatto os
Ġ×ł ×¢×¤
×ĸ ×Ļ×¡
×§ ×ķ×ķ×¢×Ŀ
×ķ×ķ ×¢×ĵ
×Ĳ×ł×ĵ ×ľ×¢×Ł
×ľ×¢×¨ ×ł×¢×Ł
×ľ×ŀ ×ķ×ĵ
Ġ×Ĳ×Ļ×ĳ×¢×¨×ĸ×¢×¦ ×Ł
Ġ×ĳ ×ķ×ľ
×¤ ×¨×Ļ×Ļ
Ġ×© ×Ķ
×ŀ ×§×Ļ×Ļ
×ŀ ×Ļ×Ļ×ĸ×Ļ×ł×Ĵ
Ġ×Ķ×¢ ×ķ×ľ×Ŀ
Ġ×§ ×ķ×©
×ĳ×¢×¨ ×Ļ
Ġ×ª ×©×¢
×Ĳ×ľ×ĺ ×¢×Ł
Ġ×Ļ×ķ×Ĵ ×ł×ĺ
Ġ×ĳ ×Ļ×Ļ×§
×ł ×Ļ×¢×¡
×¨×Ļ× £
Ġ×ĵ×ķ×¨×Ľ ×©×ł×Ļ×ĺ
Ġ×Ĳ×Ļ×ł×ĵ ×¨×ķ×Ļ×¡
Ġ×§×ķ×ķ ×Ĳ×ľ
×ľ ×ķ×ª
×§×¡ ×Ĳ
Ġ×Ĵ×¢×ķ×ķ×Ĳ×ľ×ĵ ×Ļ×Ĵ×¢
×ķ×Ļ×Ķ ×Ļ
×© ×¤×¨
×ĵ ×ķ×¦×Ļ×¨×Ł
Ġ×Ĵ×¢×ķ×ķ×Ļ×Ļ×ł×ĺ ×ľ×¢×ļ
×¨ ×Ļ×¤
ï¬ »
in d
×Ĵ×¢×© ×¨×Ļ×ĳ×Ł
Ġ×ĺ×¢×¨×ŀ ×Ļ×Ł
4 9
Ġ×¤ ×ķ×¨
Ġ×¤ ×Ĳ×ł×ĺ
Ġ×¨ ×Ĳ×¤
Ġ×¨ ×¢×Ľ×ĺ×Ł
Ġ×Ĳ×¨ ×ŀ×Ļ×Ļ
×Ĺ ×ĵ
Ġ×§×ķ×ŀ ×¢×ł×ĵ
as s
×ŀ×Ļ×© ×Ļ
e y
×¨ ×Ļ×Ĵ×¢
Ġ×¤ ×¢×ľ×§×¢×¨
×ĸ ×Ļ×¢
×ł ×Ĳ×ĺ
×¢×ł ×¢×¨×¢
Ġ×ª ×Ļ×Ľ×£
Ġ×§×¨ ×ĳ×Ł
×Ĳ×ł×§ ×¡
Ġ×¦×ķ×Ĵ ×¢×Ĵ
Ġ×ŀ×¡×ª ×ŀ×Ĳ
Ġ×Ķ×Ļ×ĳ ×©
×¦ ×ķ×Ŀ
Ġ×¤×¨ ×Ļ×ł×¦
Ġ×ŀ×© ×ķ×Ĵ
Ġ×ł×Ļ×ĵ×¢×¨ ×Ļ×§
×ľ ×Ļ×Ļ×ĸ
×ľ ×ķ×©×Ĳ
Ġ×ķ×ķ ×Ļ×ĸ×Ĳ
×Ĺ ×ķ×Ł
Ġ×ĳ×¨ ×¢×ł×¢×Ł
Ġ×ĳ×¨ ×Ĳ×©
×ł×¡ ×ª
Ġ×Ĳ×ĳ ×Ļ×¡
×¨ ×Ĳ×©
×¡ ×¢×ľ
Ġ×ĳ ×Ļ×Ļ×ľ
Ġ×ĵ×¨ ×©×Ķ
×¢×ķ×ķ×Ĳ×¨ ×¤×Ł
Ġ×¨ ×¢×¡×ĺ
×¢×¡×ĺ ×Ļ×§×ĺ
Ġ×ŀ×ĳ ×©×¨
×ľ ×Ĳ×ŀ
Ġ×¨ ×¢×¨
×Ļ×¨ ×ª
×¢×ĺ ×¥
×ķ×ĵ ×¨
×ŀ×¢×¨ ×ĳ
Ġ×¤×Ļ×© ×ĳ×Ļ×Ļ×Ł
×ľ ×ĳ×Ĳ
Ġ×¡ ×¢×§×¡
Ġ×Ĳ×Ķ ×ĳ×ª
Ġ×© ×Ļ×Ĺ
×ĺ×¢×¨ ×Ļ×¢
Ġ×Ĳ×ķ×Ļ×¡ ×ł
Ġ×ĺ×¨ ×¢×¤×ĺ
Ġ×ĵ×¨ ×Ļ×ĺ×¢
Ġ×ŀ×Ļ×ł ×Ļ×Ŀ
Ġ×Ĳ×Ļ×Ļ×Ĵ ×¢×ł×¢×Ŀ
. ,
Ġ×¤ ×Ĳ×ĳ
Ġ×¦ ×¢×ľ
×ŀ ×Ĳ×ĵ
×Ļ×§ ×Ļ×Ļ
×¦ ×ķ×ł×Ĵ
.. ...
Ġ×Ĳ×ľ ×¢×Ŀ
Ġ×ª ×Ĺ
Ġ×ĳ×¨×Ļ×ĺ ×Ļ×©×¢
Ġ×¨×Ĺ×ŀ ×ł×ķ×ª
Ġ×ĵ×ķ×¨×Ľ×Ĵ×¢×ľ ×Ļ×Ļ×ł×ĺ
Ġ×ľ×ķ×§×¡ ×ķ×¡
×Ĳ ×Ĳ
×Ĳ ×Ļ×Ļ×
×¡ ×ľ×Ĳ
Ġ×ľ ×¢×§
×ª ×§
Ġ×Ĵ×¢×© ×¨×Ļ×ĳ×¢×Ł
Ġ×©×¨ ×Ļ×Ļ×ĺ
Ġ×ŀ×¢×ł×© ×Ł
×ĺ×Ļ×¨ ×ľ×¢×ļ
Ġ×Ķ ×Ļ×Ļ×ĳ×Ł
Ġ×ª ×¤×Ļ×ľ
×ķ×ķ×Ļ× Ľ
×¢×ĸ ×Ĳ×Ł
Ġ×Ķ×¢×¨ ×©×ĺ
Ġ×Ļ×Ķ ×ķ×©×¢
Ġ×¢ ×ŀ×¤
×§ ×§×ľ
×ķ×§ ×¨×Ĳ
×Ļ×ł×§ ×¡
Ġ×Ļ×ĵ ×Ļ×¢×ķ×ª
Ġ×Ĺ ×Ļ×ĸ×ķ×§
×Ļ×ŀ ×ĺ×¢
Ġ×Ĳ×Ļ×ĵ ×Ļ×©×Ł
×¤×¨ ×Ļ×¢×¨×ĵ
×©×ĳ ×ª
Ġ×¦×Ļ×ķ ×ķ×Ļ×ľ
×¢×¨ ×¥
×ŀ ×Ļ×ĵ
Ġ×ĵ×¢×¨ ×ľ×ķ×Ļ×ĳ×¢×ł×Ļ×©
×¦ ×ķ×ª
Ġ×ŀ×ł×Ķ ×ľ×Ļ×Ŀ
5 5
×ĵ ×Ļ×Ĵ×¢×¨
Ġ×ł ×¢×Ľ×ĺ
×Ļ×ķ ×ł×ķ×ª
Ġ×©×¤ ×Ļ×ĺ×Ĳ×ľ
Ġ×Ĳ×Ļ×Ļ× ł×ĸ
×ĸ×© ×¢×¨
×ł×¡ ×Ļ×¨×ĺ×¢
×Ĳ×¦ ×Ł
Ġ×Ĳ×¨×ĳ ×¢×ĺ×¢×¨
×¨ ×ķ×Ļ
Ġ×ĵ ×¨×Ļ×Ļ×¡
Ġ×ŀ ×ľ×Ĳ
×ĳ ×Ļ×ľ×Ĳ
Ġ×¡ ×ķ×§×¡×¢×¡
Ġ×ĺ×¨ ×Ĳ×Ĵ×ĺ
Ġ×Ĳ×ł×Ĵ ×¢×¦
×Ļ×Ķ ×Ŀ
Ġ×¤×ĺ ×Ļ×¨×Ķ
Ġ×ĵ ×Ĳ×ł
Ġ×Ĵ ×ĳ×Ĳ
×¢×ĸ ×¨
×ĳ×¨ ×Ļ
Ġ×¨×¢×Ľ ×¢×ł×¢×Ł
×¡ ×Ļ×ĸ
Ġ×Ķ ×ŀ×©
Ġ×Ĳ×ĸ ×ķ×Ļ×ķ×ķ×Ļ
×¢×Ĵ ×Ĳ×¨
Ġ×¡×¤ ×§
×± ×Ł
×¨×ľ ×Ļ×¨×Ł
Ġ×ĵ ×Ļ×¢×ľ
Ġ×ķ ×Ĳ
×© ×ł
Ġ×¢ ×ķ×ķ×¢×ł×Ļ×ķ
×ķ×¨ ×Ĵ
Ġ×ĳ×¨ ×¢×ł×Ĵ
el l
Ġ×Ĳ×ķ×Ļ×Ľ ×¢×ĺ
3 7
Ġ×¦ ×Ļ×ķ×Ł
×Ļ×¨ ×ķ×ł×Ĵ×¢×Ł
Ġ×ŀ×Ļ×ĺ ×ķ×ķ×Ĳ×ļ
Ġ×ĳ×¨ ×¢×Ľ×Ł
Ġ×§×ķ×ŀ ×¡×ĺ
×ķ×ł×§ ×¢×Ł
Ġ×ŀ×Ĵ ×Ļ×ĵ
×ŀ ×Ĳ×ł×ĺ
×§ ×§×Ĳ
×Ĵ ×¢×¨×Ł
×Ĳ×Ĵ ×Ļ×¨×ĺ
×Ļ×¤ ×¡
it y
×¨×ĺ ×Ļ×ł×Ĵ
×¨ ×Ļ×©×¢
×Ļ×Ļ×ĺ ×©
Ġ×¢×ĵ ×ķ×ª
Ġ×¤×¨×¢×ŀ ×ĵ
Ġ×ĺ×Ļ×Ļ×ĺ ×©
×ĳ ×ľ×Ļ
×Ļ×Ĵ ×ķ×¨
Ġ×Ĵ×¨ ×Ļ×ł×ĵ×¢×¨
×ķ×¦ ×Ł
Ġ201 5
al l
Ġ×ŀ×¢×© ×Ļ×Ŀ
Ġ×§×¢×ł×Ļ×Ĵ ×¨×Ļ×Ļ×ļ
Ġ×ĳ×¢×¦ ×Ŀ
6 9
Ġ×ķ ×ľ×Ĳ
×§ ×ķ×ĵ×©
×Ķ ×ŀ
×ł×ĵ ×ľ×¢×Ł
×Ĳ×¤ ×ĺ×Ł
Ġ×ĳ×Ļ×ľ ×Ļ×Ĵ
Ġ×¤×¨×Ļ×ķ×ķ×Ĳ×ĺ ×§×Ļ×Ļ×ĺ
Ġ×Ĳ ×¦
Ö· :
Ġ×ĳ ×ķ×§×¨
×ŀ ×Ĳ×¡
Ġ×¤×¨×Ĳ×Ĵ×¨ ×Ĳ×ŀ×¢×Ł
×¨×± ×¡
Ġ×Ĵ×¨×Ĳ×¡ ×¢×¨×Ļ
Ġ×Ķ ×Ĳ×¨×ĺ
Ġ×ĳ×Ļ×ľ ×Ļ×Ĵ×¢×¨
×Ĵ×¨ ×ķ×ł×ĺ
Ġ×¤×Ĳ×¨×§ ×¢×¨
Ġ×ŀ×ª ×¤×ľ
×ķ×ķ×Ļ×¨ ×ĺ
Ġ×Ĳ×Ļ×ł×ĵ×¢×¨ ×Ķ×Ļ×Ļ×Ŀ
Ġ×ĸ ×Ĳ×Ľ×¢×Ł
Ġ×ľ ×¢×¨×Ł
Ġ×Ĳ×ľ ×Ļ×ŀ
Ġ×¡×Ľ ×ł×Ķ
Ġ×Ĵ×¢×©×¤ ×Ļ×ľ×ĺ
Ġ×ķ×ķ ×Ĳ×ĸ
Ġ×© ×¨×Ļ×Ļ
Ġ×¨ ×Ĳ×ĸ
en d
Ġ×ĵ×¢×¨×¦ ×Ļ×Ļ×ľ
Ġ×Ķ ×Ļ×ĺ×Ł
Ġ×ŀ×¢×¨×¡×ĺ ×ł×¡
Ġ×ŀ×Ļ×ĸ ×ĺ
Ġ×Ķ ×¨×¢
×Ļ×ľ ×Ļ×ĺ×Ļ
×ĺ×© ×ķ×¡
Ġ×¢×ł ×Ļ
Ġ×ł×ª ×Ł
Ġ×¦×ķ×ł ×ķ×Ļ×¤
Ġ×¤ ×ķ×ł×ĵ
Ġ×ķ ×ł
Ġ×ŀ ×Ļ×ł×ĵ
×¡ ×ŀ
Ġ×Ĺ ×ŀ×Ļ×©×Ļ
×Ļ×Ļ×ĳ ×Ĳ
Ġ×¡×Ļ×¨ ×Ļ×¢
Ġ×ª×ŀ ×Ļ×ĵ
×Ĳ ×ķ×ķ
Ġ×ĵ ×©
×¦×Ļ×¢ ×Ł
Ġ×Ĵ×Ĳ ×ķ×ķ×¢×¨
×© ×ŀ×ķ
Ġ×¦ ×Ļ×Ĵ
×¦ ×ķ×ľ
×ł×ľ ×Ĳ×ł×ĵ
×¨×¤ ×Ļ×¨×Ł
Ġ×¤×Ĳ×ľ×Ĵ ×¢×ł×ĵ×¢
s h
Ġ×§ ×ĳ
×© ×§×¢
Ġ×Ĵ×¢×ł ×¢×¨×Ĳ
Ġ×¤×Ĳ×¨×©×ĺ ×Ļ×Ļ×¢×Ł
×§×¨ ×¢×ĵ×Ļ×ĺ
×¨ ×§×¡
×§ ×Ļ×Ł
Ġ×¡ ×Ļ×ł×Ĵ
Ġ×ĵ×¢×¨ ×ľ×ķ×Ļ×ĳ×ĺ
Ġ×Ĳ×ķ×Ļ×¡ ×ĸ×¢×Ł
Ġ×ĺ×¨ ×Ĳ×¤
h one
Ġ×¤×¨ ×Ļ×ĵ
×Ļ×Ļ×ĵ ×¢×¡
Ġ×Ĵ×¢×¨ ×ķ×¤
Ġ×ķ×Ļ×¡ ×¨×Ļ×Ľ×ĺ
Ġ× ł×¦
×¢×ł×ĵ ×Ł
Ġ×©×ł ×¢×ľ×¢×¨
Ġ×Ĳ×Ļ×Ļ×ł×© ×¨×Ļ×Ļ×ĳ×¢×Ł
×ķ×ķ×¡ ×§×Ļ
×¢×ł× ĳ
Ġ×©×ĺ×ķ×ŀ ×£
×Ļ×Ĳ ×ľ×¢
Ġ×¨×ĳ ×Ļ×Ł
×Ĳ ×Ļ×ł
×¨ ×ĸ×¢×¦×Ł
Ġ×© ×Ĳ×§
Ġ×ķ×ķ×Ĳ×¡ ×¤×Ĳ×¨×Ĳ
Ġ×Ĳ×¨×Ļ×Ļ×ł×Ĵ ×Ļ×Ļ×Ł
Ġ×¢×¡×ĺ ×¨×Ļ×Ļ×ļ
Ġ×§ ×ķ×Ŀ
×ĳ ×Ļ×ĺ×¢
×¢×ĳ ×Ĳ
Ġ×Ĵ×¢×ł ×Ļ×¡×Ł
Ġ×¦×ķ×ĸ ×Ĳ×Ŀ
Ġ×ŀ ×Ļ×¡×ĺ
Ġ×ĸ ×ľ×ŀ×Ł
Ġ×¦ ×Ļ×Ļ×Ľ×Ł
Ġ×Ĳ×ĸ ×Ļ×¢
×ĺ×Ļ×Ļ×ľ ×ĺ
Ġ×¡×§ ×Ļ×ľ×ĸ
×ŀ×¢×¨×§ ×ķ×ł×Ĵ×¢×Ł
×ł×ŀ ×Ĳ
×ľ ×ķ×ŀ
Ġ×ĸ ×ķ×ł
Ġ×ĺ ×ķ×ŀ
×Ļ×ľ ×Ļ×Ĳ
Ġ×Ĳ×Ļ×Ļ×ĳ×¢×¨×© ×ĺ×¢×¨
×Ļ×ŀ ×Ļ×ł
Ġ×ĳ×ľ ×ķ×Ļ
×Ĳ×ł×ĵ ×¢×¨
Ġ×ĸ×© ×¢
Ġ×ŀ×©×Ļ×Ĺ ×ĺ×¢
Ġ×Ĳ ×ĵ×¨
Ġ×¨ ×²
×Ļ×Ļ×ł ×ľ×Ļ×ļ
×¢×ł×ĺ ×¤
×§×¨ ×Ļ×¤
i a
Ġ× ł×ŀ
Ġ×ķ ×¡
Ġ×ĸ ×Ļ×ł×ĵ
×ĵ ×ķ×ľ
×ĳ ×ķ×§
×ķ×ŀ ×Ļ×ł×Ĵ
×ł×ĵ ×Ļ×§×¢×¨
×ķ×ĵ ×ª
×¢×Ĳ ×Ł
Ġ×¤×Ļ×ľ ×ĺ
×¨×¤ ×¢×¡×ĺ×Ļ×§×ĺ
Ġ×ĳ×Ĳ×ł ×Ļ×¦×¢×Ł
Ġ×Ķ×ķ×ĵ ×¢×Ķ
×Ļ×Ļ×Ļ×Ļ×Ļ×Ļ×Ļ×Ļ×Ļ×Ļ×Ļ×Ļ×Ļ×Ļ×Ļ×Ļ×Ļ×Ļ×Ļ×Ļ×Ļ×Ļ×Ļ×Ļ×Ļ×Ļ×Ļ×Ļ×Ļ×Ļ×Ļ×Ļ ×Ļ×Ļ×Ļ×Ļ×Ļ×Ļ×Ļ×Ļ×Ļ×Ļ×Ļ×Ļ×Ļ×Ļ×Ļ×Ļ×Ļ×Ļ×Ļ×Ļ×Ļ×Ļ×Ļ×Ļ×Ļ×Ļ×Ļ×Ļ×Ļ×Ļ×Ļ×Ļ
×¨ ×¢×Ĳ
Ġ×© ×±×Ł
×ł×ĵ ×ĸ×©
Ġ×ĳ×ľ ×Ļ×¦
Ġ×Ķ×ŀ ×ľ×ļ
Ġ×¤×Ĳ×¨×©×¤×¨ ×Ļ×Ļ×ĺ
Ġ×¤×¢×ł×¡ ×ĺ×¢×¨
iz er
Ġ×¨×¢×ķ×ķ ×Ĳ×ľ
Ġ×ŀ ×Ļ×Ļ×ł×¡×ĺ
Ġ×ĳ ×ĺ
Ġ×ĺ ×ķ×ł
×Ļ×¦ ×Ļ×¢×¡
Ġ×©×ľ ×Ĳ×¤×Ł
Ġ×ŀ×¦ ×ķ×ª
Ġ×ŀ×ķ×¡ ×ĵ
Ġ×§×¢×Ĵ ×ł×¢×¨
×Ĵ×¢×Ĵ ×¢×ł×Ļ×©
Ġ×¡ ×ª
Ġ×ĺ×¨ ×Ĳ×ĵ
Ġ×¡×¤ ×¢×Ļ×¡
Ġ×ĵ×¢ ×Ļ
Ġ×ķ×ķ×Ļ×¨×§ ×ķ×ł×Ĵ
×¢×¨ ×¢×ł×¥
×ľ ×Ļ×¨
Ġ×ĳ ×Ļ×ķ
×¤ ×Ļ×§×¡
Ġ×© ×Ļ×ĺ×Ķ
Ġ×Ļ ×¢×ł
×Ļ×ĵ ×¡
×Ļ×§×ľ ×¢×¡
Ġ×ŀ×Ĺ×ľ×ķ×§ ×ª
Ġ×Ĳ×Ļ× ¦
Ġ×ĺ ×ķ×Ķ
×Ļ×§ ×ľ×Ļ
Ġ×Ĵ×¢×¤ ×Ļ×ľ×Ł
Ġ×¦×ķ×¨×Ļ×§ ×§×ķ×ŀ×¢×Ł
.... ....
Ġ×Ĵ×¢×¤×¢×¨ ×ľ×Ļ×Ľ×¢
4 4
×ĳ ×¢×ľ
×ĳ ×Ļ×Ĳ
×¢×ł×¡ ×ĺ×¢
Ġ×¦×ķ×ŀ ×Ĳ×ľ
Ġ×Ĳ×ŀ×¢×¨×Ļ×§ ×Ĳ×ł×¢
e ad
Ġ×¤ ×¢×ĺ
Ġ×ľ ×Ļ×¢×§
Ġ×¢×¨ ×ľ×ķ×Ļ×ĳ×ĺ
Ġ×©×¤ ×Ļ×ľ×¢×¨
×Ĳ×ŀ×Ĳ ×¢×ľ×ĵ
×ĳ×¨×Ļ×§ ×Ĳ
Ġ×Ĳ×Ļ×ł×ĺ×¢×¨×ł ×¢×¥
Ġ×¨×Ļ×Ļ×Ľ ×¢
Ġ×¦×ķ×©×ĺ ×Ĳ×ł×ĵ
Ġ×ĳ×¨×ķ×§ ×ľ×Ļ×Ł
×¨×Ļ×Ļ×© ×Ĳ
×ĵ ×Ļ×Ļ
×ĺ×¨ ×Ĳ×ŀ×¤
×¢×ł×¡ ×Ļ
×ĺ×© ×¢×¨
Ġ5 00
×ł×¤ ×©
Ġ×¦×¢×ĺ ×Ļ×Ļ×ľ×ĺ
Ġ×¤×ľ×Ĳ×ĺ ×¤×Ĳ×¨
×¨ ×ķ×¤×Ł
Ġ×ĵ ï¬¯×¡
Ġ×ŀ ×¢×ĺ×¢×¨
×ĸ ×²
Ġ×¢ ×Ł
Ġ×ķ×ķ×Ļ×ľ ×ĵ
Ġ×Ĳ×ł×Ĵ ×¢×©
Ġ×Ĳ×ķ×ŀ ×ŀ×¢×Ĵ
Ġ×¨×¢×Ĵ ×¢×¡×ĺ×¨
Ġ×Ĺ×ķ×¦ ×¤×Ķ
×¢×ł ×Ļ×¡
Ġ×ĳ×¨ ×¢×ł×Ĵ×Ł
×Ļ×Ļ×ŀ ×Ļ×ł×Ĵ
×ł×Ļ×§ ×¢×¡
Ġ×§×Ĳ×¡ ×ĺ×Ł
5 9
×ķ ×ĺ×Ł
×¨ ×Ļ×Ĵ×Ł
Ġ×© ×ķ×¥
Ġ×©×ĺ ×Ļ×¦×¢
×Ļ×Ĳ ×Ķ
Ġ×ĳ×¨ ×Ļ×ª
×¢×ł×¡ ×¢
Ġ×Ĵ×¨×ķ×¤ ×¢×¡
×ŀ×ľ ×Ĺ×ŀ×Ķ
Ġ×Ķ×Ĳ× £
×¤×Ĳ×ľ ×Ĵ
Ġ×¤×Ĳ×¨×ł ×Ļ×Ľ×ĺ
Ġ×Ĳ×Ļ×ł×ĵ×¨×ķ×Ļ×¡ ×Ł
! "
6 8
Ġ×§ ×ķ
×ŀ ×Ļ×ł×Ĳ
×ķ×§ ×ķ×ŀ×¢×Ł
×Ĳ×ł×ĵ ×¢
Ġ×Ĳ×Ļ×ĵ ×Ļ×©×¢×¨
Ġ×¤×Ĳ×§×ĺ ×Ļ×©
Ġ×ľ×Ļ×ķ ×ĳ×Ĳ
Ġ×ľ ×¢×ĸ
×ķ×ŀ ×¤
Ġ×ĳ×Ĳ×¨ ×ĵ
×ĺ×©×ķ×¡ ×¢×ĺ×¥
×Ĳ ×Ļ×¦×ĺ
Ġ×Ļ ×ł×Ĳ
Ġ×¤×¨ ×Ĳ×¡
Ġ×Ĳ×ķ×Ļ×¤ ×Ĵ×¢×¨×Ļ×¡×Ł
Ġ×ĳ×¢ ×Ļ×¡
Ġ×Ĳ×Ļ×Ļ×ĳ×¢×¨×© ×ĺ×Ł
Ġ×¨ ×¢×Ĵ×Ł
×Ļ×ķ ×ķ×§
Ġ×§×Ĳ ×ķ×ĵ
Ġ×¨×Ĳ ×Ļ
Ġ200 7
×Ļ×Ļ×Ľ ×¢×ł×¢×Ł
Ġn ad
Ġ×ł×Ĳ×ŀ ×ĳ×¢×¨
Ġ×Ĳ×¨×Ļ×Ļ×ł ×ľ×Ļ×Ļ×Ĵ×Ł
Ġ×ĵ ×Ł
Ġ×Ĵ ×ķ×Ļ×Ĳ
Ġ×Ķ ×Ĳ×¤×Ł
×ĸ ×¢×Ķ×ĺ
Ġ×Ľ ×ŀ
Ġ×ł×Ĳ×¨ ×Ļ×©
Ġ×Ķ×Ĵ ×Ĳ×ķ×Ł
Ġ×ĳ×ª ×Ļ
Ġhttp s
izer ou
Ġ×ĸ ×Ĳ×ŀ
Ġ×ĳ ×Ļ×Ļ×ŀ×¢×¨
Ġ×Ĺ×© ×ķ×ĳ×¢×¨
am e
Ġ×¤×Ĳ×¨×ĸ ×Ļ×Ľ
Ġ×ŀ×ł ×Ļ×Ł
Ġ×Ĳ×ł×Ĳ×ľ ×Ļ×ĸ
Ġ×Ķ ×Ļ×Ĵ×¢
×§ ×ķ×¡
×¢×¡ ×§
Ġ×¤×Ĳ×¨ ×Ĵ×¢×©
Ġ( ?)
×ķ×¤ ×¨
Ġ×Ĳ×Ļ×ł ×ĺ×¢×ľ
×¨×ĳ ×Ļ×Ļ
×ķ×Ĺ ×Ķ
ĠJ izerou
Ġ×ľ×¢×ĳ×¢×ĵ ×Ļ×§
Ġ×Ĵ×¨×Ļ×Ľ ×ł×ľ×Ĳ×ł×ĵ
Ġ×ŀ×Ĳ× ł×Ķ
×Ļ×¤×Ĳ×¨ ×ł×Ļ×¢
Ġ×Ĳ ×ķ×ĺ
×ķ×© ×ĺ×¢×ľ×Ł
Ġ×Ĵ×ķ ×ĺ×¢×¨
Ġ×ĵ×Ĳ×¨×¤ ×¡×ĺ
Ġ×¨×¢×Ĵ×¢×¡×ĺ×¨ ×Ļ×¨×Ł
×¢×ĵ ×Ļ×§
×ķ×ł ×ĺ×¨
Ġ×Ĵ×¢×§ ×ľ
Ġs h
Ġ×Ļ×ł ×ķ×ķ×Ĳ
ig ht
Ġ×Ĵ ×Ĳ×ĵ
Ġ×Ķ ×Ļ×ª
Ġ×ĳ ×Ļ×ĵ
Ġ×Ĺ ×Ł
Ĥ ¬
×ĵ ×Ļ×§×Ł
×¢×ĵ ×Ļ×Ĵ×¢
Ġ×©×ĳ ×ĺ
Ġ×ĵ×¢×ŀ ×Ĳ×ľ×¡
Ġ×ķ×ķ×Ļ×¡ ×¢×Ł
Ġ×ŀ ×Ļ×©
Ġ×§ ×Ĳ×ł×¢×Ł
Ġ×ł ×Ĳ×¦×Ļ×Ĳ×ł×Ĳ×ľ×¢
×ĳ ×ł
Ġ×ĵ×¢×¨ ×ķ×ķ×¢×Ĵ×Ł
×¨×Ļ× ł×¦
Ġ×Ĳ×Ļ×ł×Ķ ×Ĳ×ľ×ĺ
×§ ×¦×Ļ×¢
Ġ×¨×¢×ĵ ×Ĳ
Ġ×Ĵ×¢×Ĵ ×¢×ł×ĺ
Ġ×Ķ×§ ×ĵ
Ġ7 0
Ġ×¨×Ĳ×© ×Ļ
Ġ×¤×Ļ×Ļ×¢×¨ ×Ł
×ľ ×Ļ×Ļ×©×Ĳ
Ö¸ -
Ġ×ł ×ķ×§
×¢×§ ×¥
Ġ×ŀ×© ×ļ
Ġ×¤×Ĳ×¨×ľ ×Ĳ×ĸ×Ł
×Ĳ ×ķ×ŀ
×ĺ ×ŀ×Ĳ
×¨ ×¢×¨
×¨ ×ŀ×¢
×Ķ ×¢×ł×Ĵ
×Ļ×¨ ×ŀ×¢
×¢×ĵ ×ķ×¨
×Ĳ×§ ×Ĳ
Ġ×ĳ×¨ ×Ĳ×ł×§×¡
×¤×Ĳ×¨ ×©×ĺ
Ġ×¦×ķ×¦ ×ķ×Ĵ
Ġ×Ĳ×ķ×Ļ×¡×Ĵ×¢×§ ×ľ×Ļ×ĳ×Ł
×¢ ×ķ×ľ×Ŀ
Ġ×Ĳ×Ļ× ł×©
×ĳ ×ľ×Ĳ
×Ļ×ľ ×¢
Ġ×Ĳ×ľ ×ĸ×Ĳ
Ġ×¡×§ ×¨×Ļ×Ł
Ġ×Ĵ×¢×¦ ×ķ×Ļ×Ĵ×Ł
×¢×ĺ×¨ ×¢×ĺ×Ł
a k
Ġ j
Ġ×¡ ×ķ×¨
×¢×¡ ×¤
×¦ ×Ļ×ķ
×¢×ŀ ×Ĳ×Ľ×ĺ
Ġ×ª ×Ľ×ľ
Ġ×Ĳ×¤ ×¦×Ļ×¢
Ġ×ĳ×ľ ×¢×§
Ġ×© ×ķ×ŀ
Ġ×Ĵ×¢×¤ ×Ĳ×¨
Ġ×ŀ×Ļ×ľ ×Ľ
Ġ×Ĳ×Ļ×ł×ĺ×¢×¨×¢×¡ ×Ĳ×ł×ĺ×¢
Ġ×¦×ĵ ×§×Ķ
Ġ×Ĳ×Ļ×ł×ĵ×¢×¨ ×¤×¨×Ļ
Ġ×¤ ×¢×¨×ĸ
Ġ×¤×ľ ×¢×ł×¢×¨
Ġ×ĳ×Ĳ×© ×¢×¤
×ĵ×Ļ×© ×Ĳ
×¨ ×¤×Ĳ
Ġ×¤ ×Ļ×Ļ×ł×¢
Ġ×ľ ×Ļ×Ļ
×Ĳ×ĺ ×ŀ×Ĳ×¨
×ł×§ ×Ĳ
ïŃ Į
×Ĵ×¨ ×ķ×Ļ×¡
×ŀ×¢×ł×ĺ ×¡
×ł ×Ļ×Ļ×Ł
Ġ×¡ ×¢×¤
×¨×Ļ×Ļ× Ŀ
Ġ×Ĳ×ķ×Ļ×¡ ×§×ľ
Ġ×ĳ×Ĳ×ĵ ×¢×¨×¤
×ķ×¨ ×©
×Ĳ×Ĵ ×¡
×ķ×ķ×¢×¨ ×§
Ġ×Ĳ×Ĵ ×¢×ł×ĺ×ķ×¨
Ġ×ķ×ķ×Ļ×Ľ ×Ļ
Ġ×¢×¨×ł×¡ ×ĺ×¢
Ã ¡
×ĺ ×ķ×ĺ
Ġ×ĸ ×Ĳ×¨
×ĵ ×Ļ×¤
×ĳ ×ķ×Ļ×¢×Ł
Ġ×¨ ×Ļ×ĳ
Ġ×Ĺ ×ķ×ŀ
Ġ×Ĵ×¢×ĳ ×ķ×Ļ×¢×ĺ
Ġ×¢×¦ ×Ŀ
Ġ×Ĳ×ľ×Ļ×ŀ ×ľ×ļ
Ġ it
Ġ×¨ ×ķ×Ļ×ĸ
Ġ×Ĳ×¨ ×Ľ
×ķ×§ ×ĺ×ķ×¨
×Ļ×ł×ĵ ×ķ×ł×Ĵ
Ġ×©×ľ ×Ļ×Ĺ
al s
Ġ×Ĳ×ł ×Ļ
Ġ×Ĳ×ķ×Ļ×¤×Ĵ ×¢×ł×ķ×ŀ×¢×Ł
×ķ×ķ×Ļ×© ×¢
Ġ×ł×ĳ ×Ļ×Ĳ
Ġ×ĵ×ĸ×©×Ĳ×ĳ ×¡
×ĳ×¨×Ļ×Ļ×ĺ ×¢×¨×Ł
Ġ×Ĳ×Ļ× Ĵ
×ŀ ×ŀ
×ŀ ×Ĳ×Ľ×Ł
×Ķ ×Ł
Ġ×ľ ×¤×Ļ
Ġ×Ĵ×¢×© ×ĺ×Ĳ
Ġ×ĳ×¨ ×Ľ×ķ×ª
×ŀ×© ×Ķ
ĠÂ «
Ġ×ŀ×Ĳ×ŀ ×¨
Ġw h
Ġ×§×Ķ ×ľ
Ġ×¡×§×Ĳ×ł×ĵ ×Ĳ×ľ×Ł
Ġ×Ĳ ×Ĳ
×ľ ×£
Ġ×ĵ×¨ ×Ļ×ĺ
Ġ×ĺ×© ×Ĳ×¨
!! !!
Ġ×ŀ ×¢×ł×ĵ
Ġ×ķ×ķ ×Ļ×ĺ
Ġ×©×¤ ×Ļ×¨×ĺ
Ġ×ĳ×Ļ×¡×ĺ ×ķ
Ġ×¡×Ļ×ĺ ×ķ
×ľ ×¢×ĵ×ĸ×©
Ġ×ĳ ×Ļ×ł×¢
Ġ×¤×¨ ×©×ª
Ġ×ķ×ķ×¢×¨ ×ĵ
×§×Ĳ ×Ł
Ġ×ķ×ķ×Ļ×Ļ×ĺ ×Ĳ×Ĵ
Ġ×ŀ×ķ×Ĺ ×ľ
o c
×§×¡ ×Ļ
Ġ×¤×ľ ×Ĳ×¨
Ġ×Ļ×© ×Ļ×ĳ×ķ×ª
Ġ×¢×ł×Ĵ ×ľ×Ļ×©×¢
Ġ×ľ×Ļ×Ļ×ĵ ×Ł
Ġ×Ĵ×ŀ ×ľ
Ġ×ĳ×ľ×¢×ĺ×¢×¨ ×¢×¨
res s
Ġ×ĵ ×Ĳ×ĺ
Ġ×ķ×ķ ×Ļ×Ļ×Ł
Ġ×ĳ×Ĳ ×ķ×ķ×Ļ×ĸ×Ł
×¢×ĸ ×©
Ġ×Ĳ×Ļ×ĵ ×¢×Ł
Ġ×ĳ×Ĳ×©×ľ ×ķ×¡
Ġ×§×Ĳ×¨×ĺ ×ľ×¢×ļ
Ġ×ķ×ķ×Ļ×§×Ļ×¤ ×¢×ĵ×Ļ×¢
×ŀ ×ķ×¡
Ġ×ľ ×Ļ×ĳ×Ķ
×Ĳ×ŀ ×ĳ
Ġ×ĳ×Ĳ ×ķ×ķ×Ļ×Ļ×ĸ×Ł
×ľ×¢× Ķ
Ġ×©×ķ×ľ ×ĵ×Ļ×Ĵ
ar t
Ġ×¤×¨×Ĳ×Ĵ ×¢×¡
i p
ã ĥ
×ĸ ×Ļ×§×¢
×ľ×¢× ł×¦
Ġ×ĳ×¨ ×ĳ×Ļ×Ŀ
×ŀ×Ļ×ĺ ×ľ
Ġ×Ĵ×¢×¦ ×Ļ×Ļ
Ġ×ľ×Ļ×Ļ×ĵ ×Ļ×Ĵ
Ġ×¤×¨×Ĳ×ĵ ×ķ×§×ĺ
Ġ×©×ķ×ķ×Ĳ×¨ ×¥
Ġ×Ĵ×ŀ×ľ ×Ļ×Ĳ×ľ
×¨ ×ĵ×Ļ
Ġ×Ķ ×ķ×ĺ
Ġ×¢×¨ ×Ļ×Ļ×ĸ
×ĵ×¨ ×Ļ×Ļ×¢×Ł
Ġ×©×ł ×Ļ×ĺ
Ġ×Ķ×ŀ ×§×ĵ×©
Ġ×Ĳ×Ļ×ł×ĵ×ķ×¡×ĺ×¨ ×Ļ×¢×ľ×¢
Ġ×Ĵ ×ľ×¢×ł×¦
×¤ ×ķ×ł×§×ĺ
×ķ×ĸ ×Ļ×ł×Ĵ
×ķ×Ĵ ×ŀ×Ĳ
Ġ×§×ľ ×¢×ł×¢×¨×¢
ï¬ Ŀ
Ġ9 0
Ġ×ŀ×Ļ×¡ ×Ļ×¢
Ġ×©×ķ×ķ×Ĳ×Ľ ×¢
×ł ×ķ×Ł
Ġ×ľ ×ĺ×ķ×ĳ
×¢×¤ ×Ĳ×ľ×Ł
Ġ×©×ľ ×Ĳ×¤×¢×Ł
Ġ×ł× Ľ
Ġ×Ĵ×¢×©×ŀ ×Ĳ×§×¢
Ġ×¤×¨×Ĳ×¤×¢×¡ ×Ĳ×¨
Ġ×©×ķ×ł×Ĳ ×Ļ×Ŀ
×ľ ×ľ×Ļ
Ġ×ŀ ×Ļ×©×Ł
Ġ×ĳ ×ķ×§
×Ļ×¦ ×Ļ×¨×Ł
Ġ×Ļ×¢×ĵ ×¢×Ŀ
Ġ×§×Ĳ×¨ ×Ļ×¢
×¤×ľ ×¢×§×ĺ
Ġ×ľ×¢×ł×Ĵ ×¢×¨×¢
Ġ×Ĳ×ķ×ł×Ĵ ×Ĳ×¨×Ł
Ġ×§×Ļ×ł×¡×ĺ ×ľ×¢×¨
e p
×¨×© ×Ļ×ĵ×Ł
Ġ×ĳ×Ļ×Ľ ×ľ
Ġ×ĵ×¢×¨×© ×Ļ×Ļ
Ġ×©×ķ×ĺ ×¢×£
3 1
Ġ×ĸ ×¢×ľ×ĺ
Ġ×¢×¨ ×¤
×ł×ĺ ×ķ×Ŀ
Ġ×Ĵ×Ĳ ×ķ×Ł
Ġ8 0
Ġ×Ĵ×ĵ ×ķ×ľ×Ļ
Ġ×ŀ×Ĳ×© ×Ļ×ł×¢×Ł
Ġ×Ĵ×Ĳ×ĵ ×Ĵ
Ġ×© ×¢×ķ×ª
Ġ×ľ×Ĳ ×ķ
Ġ×Ĵ×ķ ×Ļ×Ļ×Ŀ
Ġ×ĳ×¨×Ļ×ĺ ×Ĳ×ł×Ļ×¢
Ġ×ĳ×Ĳ×ł×ķ×¦ ×¢×¨
Ġ×© ×ķ×ª
Ġ×¤×¨ ×ķ×Ľ×ĺ
Ġ×ĳ×Ĳ×ĵ×¢×¨×¤ ×¢×ł×Ļ×©×Ł
Ġ com
ł× Ľ
Ġ×Ĳ×Ļ× ł×§
Ġ×ķ×ķ ×¢×Ķ
×ĵ ×§
Ġ×© ×Ļ×ĺ
Ġ×Ĳ×ľ ×ĺ×Ł
Ġ×ª ×ķ×¨×ª
Ġ×¢ ×ª
×ķ×ł ×ķ
Ġ×Ĳ×¤ ×ĵ×¢
Ġ×ĵ×Ļ×¡ ×§×Ĳ
Ġ×¦×ķ×§ ×ķ×ŀ×¢×Ł
Ġ×¦×ķ×ķ×Ļ×© ×¢×Ł
×¨ ×ķ×£
×¡ ×Ļ×¡×ĺ
×ķ×ª ×¨
Ġ×ª ×ķ×Ľ×Ł
Ġ×ĳ×Ļ×ĸ ×ĺ
Ġ×ĵ×ķ×¨×Ľ ×¤×Ļ×¨×Ł
×ŀ×ĵ ×Ļ×ł×ª
b s
×© ×Ļ×ķ×ª
×ĸ ×Ĳ×Ĵ×Ł
×§ ×Ļ×Ĳ
ïŃ Ĭ
Ġ×ŀ×ł×Ĺ ×Ķ
Ġ×Ĳ×Ļ× ł×¦
Ġ×ŀ ×ķ×Ļ×ĸ
×§ ×¢×Ĵ×Ł
Ġ×Ĳ×¤ ×ľ
Ġ×Ĳ×ĵ ×ķ×ķ×¢×¨×ĺ×Ļ×Ļ×ĸ
Ġ×¨×Ļ×Ľ×ĺ ×Ļ×§
4 8
Â »
×¤ ×Ĳ×ķ×Ł
Ġ×¦ ×ķ×Ķ
Ġ×¡ ×Ļ×ľ
Ġ×¡ ×¦
Ġ×Ĳ×¨ ×Ĳ×ĳ×¢×¨
×Ĳ×ĵ ×Ł
Ġ×ĳ×¢×ľ ×ĸ×¢×¨
Ġ×Ĳ×ł×¤ ×Ĳ×ł×Ĵ
×ķ×¦×Ĳ ×ķ×ª
×ķ×ķ×Ļ×Ľ ×ĺ
Ġ×¤ ×¢×ľ×¢×¨
Ġ×ŀ×¢×¨ ×¢×¨×¢
Ġ×§×¨ ×Ļ×Ļ
Ġ×ĳ×Ļ×ľ ×Ļ×Ĳ×Ł
Ġ×Ĵ×¢×ŀ ×Ļ×Ļ×ł×ĵ
Ġ×ĺ×¢×Ĵ ×ľ×¢×ļ
×© ×ķ×ĳ
Ġ×ĵ×¢×¨ ×ł×Ĳ
Ġ×Ĺ ×ķ×ĸ
Ġ×Ĳ×ķ×Ļ×¡ ×ĵ×¢×¨
Ġ- --
×ĵ×¨ ×ķ×ª
Ġ×§×¨ ×Ļ×Ĵ×Ł
Ġ×Ĳ×¨×ķ×Ļ×¡ ×§×ķ×ŀ×¢×Ł
×ľ×¢×¨ ×ľ×Ļ×Ļ
in a
Ġ×ķ×ķ×Ĳ×ĸ ×ł×¢×¨
×ĵ ×Ļ×¦×Ļ×Ĳ
Ġ×ľ ×¢×ł
Ġ×¢×¨ ×ķ×ķ×Ĳ×¨×ĺ
Ġ×¤×Ļ×ľ ×Ĳ×¡
×¨×Ĵ ×¢×ĺ
Ġ×Ĳ×¨×Ĳ×¤ ×Ĵ
Ġ×©×ĺ×Ĳ×¨×§ ×¢×¨
Ġ×ĸ×ķ×ł×ĺ ×Ĳ×Ĵ
Ġ×Ĳ ×ł×ł×¢×ŀ×¢×Ł
Ġ×ĵ ×Ļ×ŀ
Ġ×ĳ ×ķ
Ġ×¡×§ ×ķ×ķ×¢×¨
×©×ľ ×Ļ×¡×Ł
Ġ×Ķ×¦ ×ľ×Ķ
×¢×¨ ×©×ĺ
Ġ×¤ ×¢×¨×¡
×ľ ×ķ×¦
Ġ×Ĳ×Ļ×Ļ× ¤
×¢×Ľ ×¥
Ġâ Ĥ¬
Ġ×§×ķ×ķ ×Ĳ×ĵ
Ġ×¨×ķ×Ļ×ĺ ×¢
× ģ
×Ĳ× ²
×ľ ×Ļ×ĵ
Ġ×ľ ×ķ×Ļ×ł×ĺ
Ġ×¨ ×Ļ×ł×Ĵ
×¢×Ĵ ×Ĳ
Ġ×Ĳ×ĵ ×¨×ĳ×Ķ
Ġ×ĳ×© ×Ŀ
Ġ×¢×ł×ĵ ×Ļ×Ĵ×Ł
Ġ×ŀ×¨ ×ª
Ġ×¨×Ļ×Ļ×ĸ ×¢
Ġ×Ĳ×ķ×Ļ×¡×ĵ×¨ ×ķ×§
Ġ×Ķ ×Ĳ×¡
Ġ×¨ ×ķ×Ļ×ŀ
Ġ×Ĳ×¤ ×¨×Ļ×§×¢
×¨×ĺ ×ķ×Ĵ
Ġ×¤×Ĳ×ľ ×Ļ×¡×Ļ
×ľ×ĵ ×ķ×ķ×Ļ×Ļ×ĵ
Ġ×ľ×¢×¦ ×ĺ×¢×¨
Ġ×Ĳ×¨×Ļ×Ļ×ł×Ĵ ×¢×ľ×Ļ×Ļ×Ĵ×ĺ
Ġ×ķ×ķ×Ļ×Ļ×ł ×Ļ×§
Ġ×Ĵ×¢×Ķ×¢×¨ ×Ļ×Ĵ×¢
×¦×ķ×© ×ĺ×¢×ľ×Ł
Ġ×¨×Ļ×¤×Ĳ×ĳ×ľ ×Ļ×§×¢×Ł
ł× ł
Ġ×Ķ ×Ļ×ĵ
Ġ×¦×¢×ĺ ×ľ
Ġ×¤×Ĳ×¨×ł×Ļ×Ľ×ĺ ×¢×ĺ
Ġ×ĸ ×Ļ×Ľ
Ġ×ĳ ×Ļ×¡
×¤ ×Ĳ×¨×Ł
Ġ×ľ ×Ĳ×¡
Ġ×©×ĺ ×Ĳ×ŀ×ĺ
×¢×ł×ĺ ×ľ×Ļ×ļ
Ġ×ľ×ĳ ×ł×Ķ
Ġ×ł×Ĺ ×ŀ×Ł
Ġ×ĺ×Ļ×Ļ×¢×¨ ×¢×¨
Ġ×ĺ×Ĳ×ľ ×Ĳ×ł×ĺ
×ķ×ł× ª
Ġ×ŀ ×¢×ŀ×ĳ×¢×¨
Ġ×ĳ ×Ľ×ľ
Ġ×§ ×ķ×¤
Ġ×© ×ķ×Ķ
ow s
Ġ×ĵ×¨×Ļ×Ļ× ķ
Ġ×ĵ×¢×¨×ľ ×Ĳ×ł×Ĵ×ĺ
Ġ×Ĵ×¢×¢×ł×ĵ ×Ļ×Ĵ×ĺ
×¨ ×¢×ł×ĵ
Ġ×¤ ×Ļ×Ļ×ł×ĺ
×ķ×ŀ ×Ļ
Ġ×Ľ ×Ł
×Ĳ×¤ ×Ļ×ľ×ķ
Ġ×ķ×ķ×¢×¨ ×ľ×ĵ×ķ×ķ×Ļ×Ļ×ĵ
Ġ×Ļ×ĵ ×Ļ×ĵ
v a
×ĺ ×Ļ×¢
×ľ ×Ĳ×ŀ×Ļ×¨
Ġ×Ķ ×ĳ×Ĳ
×¦ ×Ļ×Ļ×Ĵ
Ġ×¤×¨ ×©×Ķ
×ł×© ×ķ×¨
Ġ×© ×¢×¤×¢×¨
Ġ×¨×¢×ĵ ×Ĳ×§×ĺ
ĠM ore
Ġ×©×Ļ×¢ ×ķ×¨×Ļ×Ŀ
Ñ ı
×ķ× ł×¥
Ġ×¡×ĺ ×Ĳ×¨
×ĳ×Ļ×¨ ×ķ×ª
×¤×¤ ×¢×¨×¡
Ġ×ŀ ×¢×Ľ×ĺ
×ĸ ×ĸ
Ġ×¨ ×Ļ×Ļ×ĵ×Ł
×¢×ŀ ×ľ
Ġ×ŀ×¢×¨ ×Ķ×Ļ×Ļ×ĺ
Ġ×° ×¢×ĺ
×Ļ×¢×§ ×ĺ×Ł
Ġ×¤ ×Ļ×ĺ
Ġ×ŀ ×Ļ×Ļ×ĸ
×ķ×ķ ×¢×ĸ
Ġ×ĺ ×Ļ×©×Ł
Ġ×ĺ ×Ļ×Ļ×ĺ×Ł
×ł×ĺ ×Ļ×ł
Ġ×ŀ×Ĺ ×ķ×ª
Ġ×¤×¢×¨ ×ĵ
Ġ×¤×Ĳ×¤ ×ķ×ľ×¢×¨
Ġ×ĵ×¢×ŀ×Ĳ×§×¨×Ĳ×ĺ ×Ļ×©×¢
×ķ ×¢×Ķ
Ġ×¡ ×ķ×ķ×Ļ×
Ġ×¤×Ĳ×¨ ×¤×ľ
Ġ×ĳ×¨ ×ķ×Ļ×ĺ
×ķ×ķ×Ĳ ×ķ
Ġ×° ×¢×ľ×ĺ
Ġ×©×Ļ×ĵ ×ķ×ļ
Ġ×Ĳ ×ķ×§×¨×Ĳ
Ġ×¨ ×¢×¦
Ġ×¤×Ĳ×¨ ×ĺ×¨
Ġ×Ļ×Ļ×ł×Ĵ ×ľ
Ġ×¢×ł×ĵ×¢×¨ ×ķ×ł×Ĵ×¢×Ł
Ġ×ĳ ×¢×ĵ
×§ ×Ļ×Ļ×Ł
×Ĵ ×Ļ×ľ×ĺ
×ľ×¢× ¦×ĺ
Ġ×¤×ľ ×Ļ×Ľ×ĺ
Ġ×Ĳ×ķ×Ļ×¡×Ĵ ×¢×ĵ
on t
Ġ×¤×Ĳ×¨×ľ ×Ĳ×ł×Ĵ
×¡×ĺ×¨ ×Ļ×ĸ
Ġ×ĺ×Ļ×§ ×¢×ĺ
r om
Ġ×ľ ×¦
Ġ, âĢ¬
ĠF l
Ġ×ĳ×Ĳ×ľ ×Ĳ×ł×Ĵ×ĺ
Ġ×¤×¢×ĵ×¢×¨ ×Ĳ×ľ×¢
R A
e f
Ã ©
Ġ×ĵ ×ķ×ĳ
Ġ×§ ×ĳ×¨
Ġ×Ĳ×ľ ×¤×Ļ×Ŀ
×Ļ×ŀ ×¤
Ġ×ĳ×¨ ×§
×ŀ×Ļ×ĺ ×Ĳ×Ĵ
×ł×Ļ×¢ ×ķ×ª
3 2
×ĳ ×§
Ġ×¦ ×Ļ×Ļ×Ĵ
×Ļ×ĺ ×Ĳ×¨
Ġ×¨ ×Ļ×Ļ×¢
Ġ×©×ĺ ×Ļ×ŀ×¢
Ġ×¤×Ĳ ×ķ×ľ
Ġ×Ĵ×¢×ĳ ×ĺ
×ľ×ŀ ×¢×©×Ķ
×Ļ×¡×¢×ŀ ×Ļ×ĺ
a pos
Ġ×ĵ ×Ĳ×Ľ×ĺ
Ġ×ŀ ×Ĳ×¡×Ł
Ġ×¢ ×ĳ×Ļ×¨×ķ×ª
×Ķ ×Ļ
Ġ×ľ ×ķ×Ļ
Ġ×Ĳ×ľ ×¢×ĸ×¨
Ġ×ł×Ĳ×¨ ×ĺ
Ġy ou
Ġ×§×¢×ŀ ×¤×Ł
Ġ×¤×Ĳ×¨×ķ×ķ ×Ĳ×ł×ĵ×ľ×ĺ
ÑĥÑĥÑĥÑĥ ÑĥÑĥÑĥÑĥ
ÑģÑģÑģÑģ ÑģÑģÑģÑģ
5 00
×ľ ×ķ×Ŀ
Ġ×ŀ ×ķ×ĺ
Ġ×¡ ×ĳ
×ķ×¨ ×¢×ł×¡
ĠC h
Ġ×ĵ×Ĳ×ľ ×ľ×¢×¨
Ġ×ł ×ķ×Ĵ×¢
×ĸ ×Ĳ×Ŀ
×¢×ĵ ×Ļ×Ĵ
Ġ×Ĳ×ŀ ×Ł
Ġ×©×Ľ ×ł×Ļ×Ŀ
Ġ×¤×¨×Ĳ×ĺ ×¢×¡×ĺ
Ð¿ Ð¿
×¤ ×Ĳ×Ł
Ġ×Ļ ×Ļ×©×¨
×Ļ×Ļ×¢ ×ł×ĵ×Ļ×§
×ķ×Ľ ×ķ×ª
Ġ×¨×¢×¡ ×Ĳ
Ñ Į
×§ ×ķ×ĵ×Ŀ
×Ķ ×Ļ×Ļ×ŀ
×Ļ×Ľ ×Ĳ×ľ
×ķ×ķ×Ļ×ľ ×Ĳ×ł×Ĵ
a h
×ĵ ×ŀ×Ļ×ł
Ġ×¢ ×ł×ĵ×Ļ×Ĵ
Ġ×ĺ×¨ ×Ĳ×Ĵ×Ł
Ġ×ŀ×ľ ×Ĳ×ļ
Ġ×Ĳ×Ļ×ĳ×¢×¨×Ĵ ×¢×ĸ×¢×¦×ĺ
Ġ×Ĳ×Ļ×Ļ×ł×¦ ×Ļ×§×¢
×ł×ł ×Ĳ
Ġ×§×ķ×ķ×Ĳ×ĵ ×¨×Ĳ×ĺ
u c
×¢×§ ×ľ×¢×ļ
×¢×§ ×ķ×§×ĺ
×Ļ×¦ ×ķ×ª
ĠâĢ ı
Ġ×ĸ×Ĳ×ľ ×¡×ĺ×ķ
Ġ×¢×ł×ĵ ×¨×ķ×Ļ×ĵ
×¨×Ļ×ĳ×¢×¨ ×¤×Ļ×¨×Ł
×Ĳ×ķ×ł×ĸ ×¢×¨
ĠAn im
Ġ×Ķ ×ķ×ł×Ĵ×¢×¨
Ġ×ĳ ×¢×ł×ĵ
Ġ×Ļ ×ŀ×Ļ×Ŀ
Ġ×©×ĺ ×¨×Ĳ
×ķ×ľ ×§
×ķ×¤ ×Ĳ
Ġ×ĳ×Ĳ× ł×ĵ
Ġ×¤×ľ ×Ĳ×ł
Ġ×Ĳ×ł×Ĵ ×¢
ĠW ord
Ġ×¦×ĵ ×§
R ead
a re
Ġ×ĵ ×¢×ł×§
×Ļ×ŀ ×ķ×ł×Ĵ
Ġ×¦×Ļ×Ļ×ĺ ×©×¨×Ļ×¤×ĺ
Ġ×Ĳ×Ļ×ł×ĵ ×Ļ×¢
Ġ×¤×¡ ×§×¡
×Ļ×Ĳ×ł ×Ļ×©×Ł
Ġ×Ĳ×Ļ×ł×Ĵ ×¢×ľ×Ļ×Ļ×ĺ
. [
Ġ×¤ ×¢×Ĳ
×§ ×¢×¨×Ł
×ķ×ķ ×Ļ×Ļ×ľ×ĺ
×Ļ×¦ ×ķ×ł×Ĵ
×¢×ł×¡ ×ĺ
Ġ×Ķ×Ļ×Ļ×ŀ ×Ļ×©×Ł
Ġ×Ķ×Ļ×¨ ×©
Ġ×Ķ ×Ļ×ł×ĵ
Ġ×§ ×ķ×ł×ĺ×¨
Ġ×Ĳ×ķ×Ļ×¡ ×ĵ
×¨×Ļ×§ ×¢×¨
Ġ×° ×¢×¨
in es
Ġ×ł×Ĳ×Ľ ×Ĳ×ł
Ġ×¤×Ĳ×¨×ĺ ×Ļ×Ļ×ĵ
×ķ×¦×Ĳ ×Ļ
Ġ×ľ×Ĳ×§ ×Ĳ×ľ×¢
×¨ ×ł×Ĳ
Ġ×ķ ×Ĵ
Ġ×§ ×Ļ×ł×Ĳ
×Ļ×§ ×Ļ
ab le
6 7
Ġ×Ļ ×§×¢×¨
Ġ×Ĵ×¢× ł×¦
Ġ×¡ ×Ĵ
×¢×ľ ×Ķ
×§×¡ ×¢×¡
×ľ×ĺ ×ķ×ł×Ĵ
Ġ×ŀ×ľ ×Ľ×ķ×ª
Ġ×Ĳ×¨×Ļ×Ļ× ł×©
Ġ×ŀ×¢ ×ķ×¨×¨
Ġ×ŀ×ķ×ĵ ×Ļ×¢
Ġ×ķ×ķ ×Ļ×Ļ×ĵ
×Ĳ×¨ ×ĳ×¨×Ļ×Ļ×ĺ×¢×¨×Ł
Ġ×§ ×Ĳ×©
×© ×Ļ
×ĸ ×¢×ł×¢×Ł
Ġ×© ×Ļ×Ļ×ł×¢×Ŀ
×ŀ ×Ĳ×Ľ
×Ļ×ĺ ×¢×ĵ
×Ľ ×ł×Ĳ
Ġ×ĳ×Ĳ ×ķ×ķ×Ĳ
Ġ×ĸ×Ļ×Ľ×¢×¨ ×Ķ×Ļ×Ļ×ĺ
Ġ×Ĺ×¡×Ļ×ĵ ×Ļ×©×¢×¨
ķ×ķ ×¢
Ġ×ŀ×Ļ×Ļ×ł ×ķ×ł×Ĵ×¢×Ł
Ġ×ĳ×Ĳ×¦ ×Ļ×Ĳ
Ġ×©×ĺ×¨ ×Ļ×ļ
×Ļ×Ļ×¨ ×Ĳ×ĺ
×Ĵ×¢×Ķ ×Ĳ×ľ×ĺ×Ł
Ġ×Ĳ×Ļ×ĳ×¢×¨×¦ ×Ļ×Ļ×Ĵ×ĺ
×ľ ×Ļ×ĵ×¢×¨
Ġ×© ×Ĳ×ĺ
Ġ×© ×ĵ×¨×ķ×ª
×ł×ĵ ×ľ×¢×ļ
×Ļ×¡×ĺ ×Ļ×©×¢×¨
Ġ×Ĵ×¢×¦ ×¢×ľ×ĺ×Ł
Ġ×Ĳ×Ļ×Ļ×ĳ ×Ļ×§
Ġ×ĳ×ĵ ×¢×Ķ
Ġ×© ×ķ×ķ×Ļ×ł×ĵ
×Ĵ ×Ļ×©
Ġ×¡ ×Ļ×¤
Ġ×¨ ×ķ×ĺ
Ġ×¤×Ĳ×¨ ×ķ×ŀ×¡
×Ĵ×¢×© ×Ļ×Ľ×ĺ×¢
Ġw ww
Ġ <
×¨ ×ĺ×¢
Ġ×Ļ ×ķ×ĸ×©×Ĳ
×Ĵ ×Ļ×ł×Ĵ
×Ĳ×ĺ ×Ĳ×¨
Ġ×¨ ×Ĳ×ŀ×Ĳ×¢×ľ×ĵ
×Ļ×¨ ×Ļ×Ļ×ĺ
×Ĳ×ŀ ×ĺ×¢
×ł×Ĵ ×ľ
Ġ×ŀ×ľ ×Ĺ
×ľ×Ļ×¢ ×ł×Ļ×©
Ġ×¤×Ĳ×¨×©×¤×¨ ×Ļ×Ļ×ĺ×Ł
Ġ×¤×ķ×¤ ×¦×Ł
Ġ×ŀ×ķ×ŀ ×Ĺ×Ķ
×ľ ×§×¢
Ġ×ŀ ×¢×ł×ĵ×ľ
×Ļ×ĺ ×Ļ×Ĳ
×ł×ĺ ×Ļ×§
Ġ×©×¤ ×Ĳ×ł×Ļ×¢
Ġ×Ĳ×ķ×Ļ×¡ ×¤×Ĳ×¨×©
Ġ×ĳ×Ľ ×ĵ×Ļ
Ġ×Ĳ×¤×Ļ×¦ ×Ļ×¢×ľ
Ġ×ķ×ķ×¢×ł×ĵ ×ĺ
Ġ×Ķ×§×ĵ ×ŀ×Ķ
ï ¿
×Ļ×ĺ ×Ļ×ķ×ķ
Ġ×ľ ×ķ×Ļ×£
Ġ×Ĳ×¤ ×Ł
Ġ×Ĳ×ķ×Ļ×¡ ×¤
×ķ×ł×ĵ ×¢
Ġ×Ĳ×¨×ķ×Ļ×¡ ×ł×¢×ŀ×¢×Ł
×¨×§ ×Ļ×Ļ
Ġ×Ĳ×Ļ×Ļ×¨ ×Ĳ×¤
Ġ×ĳ×Ĳ×¤ ×¨×Ļ×Ļ×ĺ
Ġ×¦×ķ×ĸ×Ĳ×ŀ ×¢×ł×Ĵ
Ġ×¡×Ļ×ĵ ×Ļ
Ġ×Ĳ×¨×Ĳ×ĳ ×Ļ×©×¢
Ġ×ĸ ×Ļ×¥
×ĸ ×¢×ľ×Ľ×¢
Ġ×ķ×ķ×¢×¨ ×¢×Ł
Ġ×ŀ×§ ×ķ×ŀ×ķ×ª
Ġ×¤×¨×Ĳ ×Ļ×¢×§×ĺ
Ġ×¡×¢×ľ×¢×§×ĺ ×Ļ×¨×Ł
Ġ×Ĵ×¢×ł×¢×¨ ×Ĳ×ľ
×© ×¢×ł
Ġ×©×¤ ×Ĳ×¦
×Ļ×ŀ ×¡
Ġ×Ĳ×ķ×ŀ ×Ĵ×ľ
×¨×§ ×Ļ×ł×Ĵ
Ġ×ŀ×ķ×ĸ ×Ļ×Ļ
Ġ×ŀ×ĵ ×ĳ×¨
Ġ×ĵ×Ļ×Ļ×ĺ ×©×¢
Ġ×¨×¢×Ľ ×ĺ×¢
×¡×Ļ×ĺ ×¢×¡
Ġ×ľ×ĺ ×ĵ
Ġ×Ļ×ķ×Ĺ ×ł×Ł
Ġ×¦ ×Ĳ×ł×ĸ
Ġ×Ļ ×ľ
×Ļ×ľ ×ª
Ġ×ķ×ķ×Ĳ ×ķ×Ļ×ł×ĺ
Ġ×¢×¤ ×¢×§×ĺ×Ļ×ķ×ķ
Ġ×Ĳ×Ļ×ĳ×¢×¨×Ĵ ×¢×ľ
Ġ×Ļ×ł×ĵ ×ĸ×©
Ġ×Ļ×¦ ×¨
Ġ×¤×Ĳ×¨×ł ×¢×Ŀ
Ø Į
Ġ×Ķ ×Ļ×Ļ×¡×Ł
×ł ×ķ×ķ
Ġ×©×¤ ×Ļ×¥
×¨×Ĵ ×¢×ł×Ļ×Ĵ×Ł
Ġ×¦×ķ×Ĵ ×¢×Ĵ×¢×ĳ×Ł
Ġ×ŀ×Ĳ×ł×ĺ ×Ĳ×Ĵ
Ġ×Ĳ×Ļ×ł×ĺ×¢×¨×¡ ×Ĳ×ł×ĺ
×¨ ×©×Ĳ
Ġ×¤ ×Ļ×ł×¦
Ġ×© ×Ļ×Ļ
×¢×ľ ×¢×¡
×Ļ×¨ ×¢
×¦ ×ķ×ķ×Ļ×©×Ł
Ġ×ª ×¤×ľ
×¤×Ĳ×¨ ×©×ĺ×Ļ×Ļ×ĺ
×ķ×ķ×Ĳ×¨ ×ĵ
Ġ×¤×Ĳ×¨×ĵ ×Ļ×ł×¢×Ł
Ġ×ł×Ĳ×ŀ ×Ĳ×¡×ĺ
Ġ×ŀ×Ĳ×© ×Ļ×Ł
×¢×¦×Ļ×¤ ×Ļ×©
Ġ×Ĳ×¦ ×Ļ×ł×ĵ
×ķ ×¢×Ł
×ĳ ×¢×ĺ
Ġ×ľ ×Ĳ×ĵ
×¢×¦ ×ķ×Ļ×Ĵ×Ł
Ġ×Ĳ×ķ×Ļ×¡×Ĵ ×¢×©×ĺ×¢×ľ×ĺ
Ġ×¢×ł×ĵ ×ľ×Ļ×ļ
T h
m ent
Ġ×ĵ ×¢×§×Ł
Ġ×ĸ ï¬Ł
×ĳ ×¢×¡
Ġ×Ļ ×ŀ×Ĳ
×¢×ĺ ×Ļ×Ļ×ľ×ĺ
Ġ×©×ĺ ×Ļ×Ļ
×ķ×ķ×¢ ×Ļ
Ġ×ľ×Ļ×ĺ×¢×¨ ×Ĳ×ĺ×ķ×¨
Ġ×©×ķ×ķ×Ļ× ŀ
×Ļ×¨×Ļ×¢ ×ł×¡
? '
×ķ×ł ×¢
×ķ×Ļ×¡ ×Ł
Ġ×¢×¤ ×¢×§×ĺ
×ķ×Ļ×¢ ×¨×ĺ
Ġ×ĵ×ĸ×© ×¢×ł×¢×¨
Ġ×¡×¤×¢×¦ ×Ļ×¤
Ġ×Ķ×¡ ×ĳ×¨
Ġ×ĳ×Ĳ×Ĵ ×ľ×Ļ×Ļ×ĺ
×¢×ł×¦ ×Ł
Ġ×Ĳ×Ļ×ĳ ×¨×Ļ×Ĵ×¢
×¨ ×ķ×§
×¨×Ļ× Ķ
Ġ×ĸ×¢×ľ ×ĺ×Ł
Ġ×ĳ×Ĳ×ł ×Ļ×¦×¢×¨
Ġ×Ĺ×ľ×§ ×Ļ×Ŀ
Ġ×¤×¨×¢×ŀ ×Ļ×¢×¨
Ġ×¦×ķ×ł ×¢×ŀ×¢×Ł
×Ļ×Ļ× ª
×ľ ×ĵ×Ĳ
×ĵ ×Ļ×Ĵ×Ł
Ġ×¤×Ĳ×¨×ŀ ×¢×¡×ĺ
Ġ×ĵ×¨×Ļ×§ ×Ł
×§×§×ľ ×Ļ×ł×§×¡
×ĺ ×ķ×¡
×ľ ×ŀ×©×ľ
Ġ×¢×¨ ×Ĳ
×Ĳ×Ĵ ×¢×¡
×Ļ×ĸ ×©
Ġ×ª ×ľ×ŀ×ķ×ĵ
×¡×ĺ ×Ļ×ł×Ĵ
ĠâĢ ĺ
Ġ×Ĵ×¢×Ĵ ×¢×¡×Ł
Ġ×¤×Ĳ×¨×ľ ×Ĳ×ł×Ĵ×¢×Ł
×Ĵ×¨ ×Ļ×Ľ
Ġ×¤×ķ×ľ ×¢
Ġ×ĳ×Ĳ×ľ ×Ļ×Ļ×ĵ
Ġ×¢×§×¡×¤ ×Ļ×¨×Ļ×¢×ł×¡
Ġ×Ĳ×Ļ×ł×ĸ ×ľ×¢×Ł
Ġ×¡×Ļ×ĺ×ķ ×Ĳ×¦×Ļ×¢
Ġ×ľ×Ļ×ĳ×Ķ ×Ĳ×ĳ×¢×¨
×¨ ×¢×Ĵ×Ł
Ġ×¤ ×Ļ×Ļ×Ĵ
Ġ×ķ×ķ ×¢×ŀ
×Ĵ ×ķ×ĺ
Ġ×Ĳ×ĳ ×ķ×ª
Ġ×Ķ×ĳ ×Ļ×ª
Ġ×Ĳ×ķ×§×¨ ×Ļ×Ļ×ł×Ĳ
Ñ ĭ
×ł×§ ×¢×Ł
ar d
Ġ×¦×¢×ł×ĺ ×¨×Ĳ×ľ
' )
×Ĳ ×ķ×ł×ĺ×¢×¨
Ġ×ĵ ï¬¯
Ġ×¤ ×¢×ĵ
Ġ×Ĵ×¢×ĸ ×¢×¦
Ġ×¢×¤ ×ľ
Ġ×©×¨ ×Ļ×¤×ĺ
Ġ×ĳ×¢×ľ ×ĸ×Ĳ
Ġ×Ĵ×¢×ķ×ķ×Ĳ×ľ×ĵ ×Ļ×§×¢
Ġ×ĳ×Ĳ×Ĵ ×¢×Ĵ
ĠïŃİï¬® ×¨
Ġ×ŀ×Ĳ×Ĵ ×Ĳ×ĸ
Ġ×§×ķ×ł×ĺ×¨ ×¡
t s
×ķ× ł×©
×ľ ×Ļ×Ĵ
Ġ×© ×¢×Ľ×ĺ×¢×¨
Ġ×¢ ×ĸ
Ġ×ĺ ×ķ×ł×§
Ġ×¨ ×Ļ×ĵ
×¢×ł×ĵ ×Ĳ
×Ĳ×ĳ×ľ ×Ļ×§
ĠP h
Ġ×Ĵ×¨×¢×ł ×¢×¥
Ġ×ĵ×Ļ×¡×§ ×ķ×¡
Ġ×© ×Ĳ×ł×¡
×Ķ ×ķ×Ļ×¤×ĺ
Ġ×ª ×Ļ×§
Ġ×¤×Ĳ×¨×ĳ ×ķ×ł×ĵ×Ł
×ķ×ķ ×Ļ×Ļ×¡×ĺ
Ġ×©×¤ ×Ļ×ľ×ĺ
Ġ×§×ľ ×Ļ×Ļ×ł×¢×¨
Ġ200 3
×ĺ×© ×ľ×Ĳ
×ł×Ļ×©×ĺ ×Ĳ
Ġ×ĳ×Ĳ×Ķ ×Ĳ×ľ×ĺ×Ł
Ġ×¨×ķ×Ĺ ×ł×Ļ×ķ×ª
Ġ×ĳ×¡ ×ļ
Ġ×ĳ×ľ×Ļ×¦ ×¤
Ġ×¦×ķ×¦×ķ×Ĵ ×¢×ĳ×Ł
i ed
Ð ²
Ġ×Ķ ×Ļ×ķ×Ŀ
Ġ×¦ ×Ĳ×ŀ
×§ ×¢×ł×¢×Ł
Ġ×Ĵ×¢× Ĺ
Ġ×ĳ×Ĳ×Ĵ×¨ ×¢×ł
Ġ×¤×ķ×ĺ ×ĳ×Ĳ
Ġ×ķ×ķ×Ĳ×¨×© ×Ļ×Ļ×ł×ľ×Ļ×ļ
Ġ×ł ×Ļ×§×¡
Ġ×Ĳ×Ļ×ł×ĺ×¢×¨ ×¢×¡×Ł
Ġ×Ĳ×ķ×Ļ×¡×Ĵ ×¢×Ķ
×ĺ×© ×¢
×¢×ł×§ ×Ĳ
Ġ×Ĳ×ŀ×ª ×¢
Ġ×Ķ×Ļ×¡×ĺ×Ĳ×¨ ×Ļ×©×¢
×ķ×ľ×¢×ĺ ×ĺ×¢
Ġ×¤ ×Ļ×Ļ×ĺ×Ļ×ł×Ĵ
Ġ×Ķ ×ķ×Ļ×£
×Ĳ×¨ ×Ĵ×ĺ
×Ļ×ł ×Ļ×ł×Ĵ
Ġ×§×ľ ×Ļ×¢×ł×ĺ
ir st
! )
×¢×¨ ×¢×¨
Ġ×¤ ×Ķ
×Ĵ ×Ļ
×¢×ĳ ×¢×Ł
Ġ×Ĵ×¢×ľ ×ķ×ł×Ĵ
×Ļ×Ļ×ŀ ×¡
Ġ×Ĳ×ĵ ×ķ×¨
×ĵ×ĸ×© ×Ļ×§×Ĳ
Ġ×ĳ×Ĳ×ĸ ×ķ×Ľ×Ł
Ġ×ľ×¢×¦ ×ĺ×Ł
Ġ×¤×ķ×¤ ×¦×Ļ×Ĵ
Ġ×ľ×¢×ķ×ķ ×¢×ľ×¡
Ð¼Ð¼ Ð¼Ð¼
Ġ×ŀ×Ļ×Ĳ ×ķ×¡
×¨ ×¦×¢
Ġ×ŀ ×Ļ×¡×ĺ×Ĳ
×¤ ×¢×¡
×§ ×ķ×ķ
Ġ×ŀ×Ĺ ×ľ×Ļ×ĺ
Ġ×¤×Ĳ×¨×© ×ķ×Ļ×ł×¢×Ł
Ġ×¨×¢×ĸ ×¢×¨
Ġ×Ĳ×Ļ×ł×© ×ķ×¨×¢×ł×¡
×Ĵ ×Ĳ×ł×Ĵ
×Ľ ×ŀ×Ķ
×¢×§ ×ĺ×¢×¨
Ġ×Ĳ×¤ ×¢×Ł
Ġ×¤×Ĳ×¨×ľ ×Ļ×¨×Ł
Ġ×ķ×ķ×¢×ĳ ×¡×Ļ×ĺ×¢×¡
Ġ×¢×ł×ĵ ×ľ×¢×ļ
ï ¼
Ġ×ľ ×Ļ×Ļ×ł×ĺ
Ġ×Ĵ×¢×ĺ ×¨×Ĳ
Ġ×ĳ×¢×¨ ×ľ
Ġ×¤×¨×Ĳ×ĵ×ķ×§ ×ĺ×Ł
×ĳ×Ĳ×ĸ ×Ļ×¨×ĺ
Ġ×Ĳ ×Ļ×Ļ×ľ
×§ ×¢×¨×¡
Ġ×©×ĺ ×Ĳ×§
×Ļ×Ľ ×ķ×ª
Ġ×Ĳ×Ļ×ł ×¢×ķ×ķ
×Ļ×ł×ĺ ×ľ
Ġ19 5
Ġ4 5
×¨×Ķ ×Ŀ
Ġ×ŀ×Ĳ×Ľ ×¢×¨
Ġ×¤×Ĳ×¨×ĸ ×Ĳ×ŀ
Ġ×ĳ×§ ×Ļ×¦×ķ×¨
ĠU S
×¨×Ļ×Ĵ ×Ļ×ł×¢×ľ
Ġ >
Ġ×¤ ×ĺ×ķ×¨
×Ĳ×ľ ×Ļ
×Ļ×ľ ×§×¢
Ġ×¢×¨ ×§×ľ
×¢×Ĵ ×Ĳ×ł×Ĵ×¢×Ł
×¨×Ļ× ł×¡
Ġ×§×Ĳ×¨ ×¢×¡×¤
Ġ×ĳ×Ĳ×ĸ ×ķ×ł×ĵ×¢×¨
Ġ×ł×© ×Ļ×Ŀ
Ġ×©×ĺ×ķ×¨ ×¢×Ŀ
e g
×ŀ ×¢×ĵ
×§ ×Ĳ×¨
Ġ×ĺ ×ķ×Ļ×Ĵ
Ġ×ŀ×Ļ×ĺ ×Ĳ
Ġ×Ĵ×¨ ×Ĳ×¤
Ġ×Ĳ×ķ×Ļ×¡ ×ĺ×¨
×¤×Ĳ×¨ ×ĳ
Ġ×Ĵ×ķ×ĺ ×¡
Ġ×Ĳ×¨×Ļ×Ļ×ł×Ĵ ×¢×§×ķ×ŀ×¢×Ł
Ġ×Ĵ×¢×ľ×¢×Ĵ×ł×Ķ ×Ļ×Ļ
×ķ×Ļ×ŀ ×¢×Ł
Ġ×ĳ×¢×ł ×¢×¤
Ġ×¤×ľ×ķ×¦ ×ľ×Ļ×ł×Ĵ
×ĵ×ŀ×Ļ×ł ×Ļ×¡×ĺ×¨×Ĳ
Ġ×ĳ ×Ļ×ł
Ġ×ĳ ×ķ×ł×ĵ
×Ĳ×ĺ ×¢×ķ×ķ×¢×ĺ
Ġ×©×ĺ ×Ļ×Ļ×ł×¢×¨
Ġ×Ľ ×Ļ×ĵ
×Ļ×ĸ ×Ļ×¨×ĺ
×ĵ×¢×¨ ×ł×Ĳ×ļ
×¢×¨×¡ ×Ĳ
×ł×Ķ ×Ļ×Ļ×ĺ
Ġ×Ĳ×Ļ×ł×ĺ×¢×¨ ×ķ×ķ×Ļ×Ĳ
ic e
×Ĵ×¢×ĵ ×¢×ł×§
×Ĵ×¢×¦ ×Ļ×Ļ×Ľ×ł×ĺ
Ġ×Ĳ×Ļ×ŀ×Ļ×Ĵ×¨ ×Ĳ×ł×ĺ×Ł
Ġ×ķ×Ļ×ĵ ×Ĳ×ķ
×¨ ×Ļ×Ļ×ł×Ļ×§×ĺ×¢
Ġ×ĵ ×Ļ×§
Ġ×¡ ×ŀ×Ĳ
Ġ×Ĺ ×Ļ×Ķ
Ġ×Ĳ×Ļ×Ļ× ł×§
Ġ×Ĳ×ĳ ×Ĳ×ŀ×¢
Ġ×¡×§ ×ķ×ķ×Ļ×¨×Ĳ
Ġ×ł×¡ ×Ļ×¢×Ķ
Ġ×¨×¢×ĸ×ķ×ľ×ĺ ×Ĳ×ĺ
ä ¸
Ġ×ĵ ×Ļ×Ľ×ĺ×¢×¨
Ö¸ Ö¾
Ġ×ĺ ×ķ×Ļ×¢×¨
Ġ×¨ ×Ļ×Ļ×ł×¢
Ġ×Ľ ×ŀ×Ķ
Ġ×ĵ×Ĳ×¨ ×¤×ĺ
Ġ×ĵ×Ļ×¡ ×Ĳ
Ġ×ĸ×Ĳ×Ĵ ×¡×ĺ
Ġ×ŀ×Ĵ ×Ļ×ľ×Ķ
Ġ×¤×¨×¢×ŀ ×ĵ×¢
Ġ×ĵ×Ĳ×§ ×ĺ×¢×¨
Ġ×©×¢×ł×§ ×¢×Ł
Ġ×Ļ×ł×ĺ ×¢×ľ
Ġ×ĳ×ľ×¢×§ ×ĳ×¢×¨×Ļ
Ġ z
Ġ×ł ×Ļ×¡×Ł
×Ĳ×Ĵ ×¢×Ł
Ġ×Ķ×Ĺ ×Ļ×Ļ×Ŀ
Ġ×Ĵ×ķ×¨ ×Ŀ
Ġ×ĳ×ķ×© ×¢×ķ×ķ×¢×Ł
Ġ×ĸ×Ļ×ľ ×ĳ×¢×¨
Ġ×ł×Ĳ×Ľ×Ĳ×ł ×Ĳ×ł×ĵ
Ġ×¤ ×Ļ×ł×Ĳ
×ĳ ×²
Ġ×¨ ×Ļ×Ļ×¥
×Ļ×¡ ×¢
Ġ×Ĵ×¢×§ ×Ĳ
Ġ×ľ×Ļ×ĳ ×ľ×Ļ×ł×Ĵ
Ġ×Ļ×ķ×ĵ ×Ł
Ġ×ĵ×Ĳ×ł×¢×¨×©×ĺ ×Ļ×Ĵ
Ð°Ð° Ð°Ð°
Ġ×ĵ ×¢×Ķ
×© ×Ļ×¦×Ł
Ġ×ł ×Ĳ×ĸ
×ł ×¢×ŀ×ĺ
×Ļ×© ×¢×Ł
×Ķ ×¨×Ķ
Ġ×ľ ×Ļ×ł
Ġ×Ĳ×ĸ ×Ļ×Ļ×Ĵ×¢×¨
Ġ×©×ĺ ×¢×ľ×¢
×ķ×ľ ×Ļ×¨×Ł
×Ĳ×ł ×Ļ×¡
Ġ×Ĵ×¢×ľ ×ķ×ł×Ĵ×¢×Ł
Ġ×¡×ĺ ×Ĳ×ĺ
Ġ×¨×¢×¤ ×Ĳ×¨
Ġ×¤×Ĳ×¨×ŀ ×Ĳ×Ľ×ĺ
×©×ľ ×ķ×¡
Ġ×ĳ×Ĳ×ĺ ×Ļ×Ļ×ľ
ĠSh ow
Ġ×ĵ ×Ļ×ł×ĺ
×Ĳ×¨ ×¥
Ġ×§ ×¢×¤×ľ
Ġ×ľ ×Ľ×ľ
Ġ×ĵ×¨ ×Ļ×ĺ×¢×¨
Ġ×ĸ×¢×ľ ×ł×¢×¨
Ġ×¢×§ ×ķ×ķ×Ļ×¤
Ġ×§×Ĳ×¨ ×ĵ
×ķ×ĳ×¨ ×¢×ł×Ĵ×¢×Ł
Ġ×¡×¢×¨×ķ×ķ×Ļ×¡ ×¢×¡
" ?
Ġ×ĵ ×Ļ×ł
Ġ×ĵ ×Ļ×ł×¢×¨
Ġ×§ ×Ļ×Ļ×ľ
Ġ×© ×²
Ġ×ĺ ×ķ×Ļ×©×ĺ
×Ľ ×ł×ĸ
Ġ×©×ĳ ×ķ×¢×ķ×ª
Ġ×Ĺ×¡ ×ĵ
Ġ×¡×ķ×¤ ×¨
Ġ×ĵ×¨×Ļ×Ļ×ķ×ķ ×¢×¨
b er
Ġ un
Ġ×ķ ×¢×ľ
×¡ ×Ļ×¤
×ł ×Ļ×ŀ
×¦ ×¨
×Ļ×ķ ×ķ×ľ×Ļ
×ł×ĵ ×ĸ
Ġ×¤×¨ ×¢×ĸ
×Ļ×Ļ×¡ ×¢×¨
×Ĳ×ĵ ×Ĳ×§×¡
Ġ×ŀ×¢×¡ ×¢×ĵ×ĸ×©
Ġ×ĵ×¢×ķ×ķ ×¢×ľ
Ġ×¤×ķ×ł×§ ×ĺ×Ł
Ġ×Ķ×ł×Ķ ×ľ×Ķ
Ġ×ŀ×Ļ×§ ×¨×Ĳ
Ġ×ŀ ×Ľ×ľ
Ġ×ķ×ķ ×Ĳ×ĺ
Ġ×Ķ ×Ł
Ġ×ĺ ×ľ
Ġ×¨ ×Ļ×Ļ×ļ
×ķ×ŀ ×Ļ×Ŀ
Ġ×ŀ×¢×¨ ×§
×§×ĺ ×Ļ×ķ×ķ×Ļ×ĺ×¢×ĺ×Ł
Ġ×ĳ×Ļ×ľ ×Ļ×Ĳ
Ġ×Ļ×© ×Ļ×ĳ
t oo
Ġ×Ķ ×Ļ×Ķ
×¢×ł ×¢×ĸ
×Ķ ×ĺ
×Ļ×Ļ×ł ×ķ×ł×Ĵ
×Ĳ×ł×ĵ ×Ł
×¨×ĺ ×Ļ×Ļ
×¨×ķ×Ļ×¡ ×Ĵ×¢×ĳ×Ł
ĠP ro
ou t
Ġ×ĵ×Ļ×ł×¡×ĺ ×Ĳ×Ĵ
×ľ ×¢×Ĵ×ĺ
×¡ ×ĵ
Ġ×§ ×ķ×¨×Ĳ
×¢×§ ×ĺ×¢
âĢ İ
Ġ×ķ×ķ×¢×ľ ×¢×Ľ×¢
Ġ×Ĵ×¢×© ×Ĳ
Ġ×Ĵ×ľ ×Ĳ×ĸ
Ġ19 0
Ġ×©×ł ×Ļ
Ġ×©×ķ×ľ ×Ł
Ġ×Ĳ×Ļ×© ×Ļ
×ł×ķ×¡ ×¢×¡
Ġ×Ĵ×¨×¢×ł ×Ļ×¥
Ġ×ª×¤ ×Ļ×ľ×Ķ
c o
×ĺ ×Ļ×ŀ
Ġ×Ĵ×¨ ×¢×Ĵ×Ĳ×¨
Ġ×©×ŀ ×¢×ľ
Ġ×ĳ×Ĳ×§ ×ķ×ķ×¢×Ŀ
Ġ×¢×§×¡ ×ĺ×¢×¨
Ġ×©×ķ×ķ×¢×¨ ×¢×¨
Ġ×¢×ł×Ĵ ×ľ
Ġ×ŀ×Ĳ×ĵ ×ł×¢
Ġ×Ķ×² ×¡×Ł
Ġ×¡×Ľ ×ķ×Ŀ
ï¿ ½
9 8
Ġ×Ĵ ×Ļ×Ļ×ĵ
Ġ×Ķ ×¢×ł
×ĵ ×ķ×¡
×Ļ×ľ ×Ļ×ł×Ĵ
Ġ×Ľ ×ľ×¢×¨×ľ×Ļ×Ļ
Ġ×Ĵ×¢×© ×¤×¨
Ġ×ł×Ĳ×Ľ ×ŀ×Ļ×ĺ×Ĳ×Ĵ
Ġ×©×ķ×ķ ×Ļ×Ļ×¥
Ġ×ŀ×Ĳ×ł ×Ĳ×ĺ×Ł
ÑĢ ÑĢ
. âĢŁ
×¨ ×ļ
Ö· âĢł
Ġ×Ĵ ×Ĳ×ĸ
Ġ×Ķ ×ĸ×Ķ
Ġ×ĳ ×Ļ×Ļ×¡
×ĳ ×ĵ×ĸ×©
×ł ×ķ×ł×Ĵ
Ġ×Ľ ×Ĳ×¨
Ġ×ĸ×Ļ×Ľ×¢×¨ ×§×Ļ×Ļ
Ġ×Ļ×ķ×ł×Ĵ ×¢×ľ×Ļ×Ļ×ĺ
Ġ×¦×¢×ł×ĵ×ľ ×Ļ×Ĵ×¢
×ľ×Ļ×Ļ×ĺ×¢×¨ ×ĸ
Ġ×ķ×ķ×¢×Ķ ×Ļ×§×ľ×¢×¡
×§ ×Ĳ×ł×¡
Ġ×¤×Ĳ×¨ ×§×ķ×ŀ×¢×Ł
Ġ×Ĺ ×¤
×ķ×ĳ ×¢
Ġ×Ĳ×¤ ×©×ĺ×¢×ľ×Ł
Ġ×Ĵ×¢×ĸ ×¢×¡×Ł
Ġ×ŀ×© ×Ľ
Ġ×Ĳ×¨×ķ×Ļ×¡ ×Ĵ×¢×©
Ġ×ĸ×² ×¢×¨
Ġ×¤×ķ×ĺ ×Ļ×Ł
Ġ×Ĳ ×§×¡
×ĺ ×ķ×ł×Ĵ
Ġ×Ĵ ×¨×Ļ×Ļ×¡
×ĸ ×¢×ķ×ķ×¢
×Ķ ×¢
Ġ×ĺ ×Ĳ×¤
×ª ×©
Ġ×ĵ×¨ ×©×ķ×ª
on g
Ġ×©×ķ×ķ ×¢×ĳ
×¨×¢ ×Ļ
ĠA l
×ķ×Ļ×Ľ ×Ł
s c
Ġ×Ĵ ×©×ŀ×Ļ×ķ×ª
Ġ×ĺ ×Ĳ×©
Ġ×ĳ×¨ ×¢×ĺ
×Ĳ×ĳ ×¢×¡
×¢×Ĳ ×Ļ×©×¢
Ġ×¡×ĺ×¨ ×ķ×§×ĺ×ķ×¨
×Ĳ×¨×ĳ ×¢×ĺ
Ġ×©×ĺ×¢×¨ ×§×¢×¨
Ġ×Ĵ×¢×ŀ×Ļ×Ļ×ł×ĵ ×¢
Ġ×ĳ ×ĳ
×© ×¢×¤
×ĸ ×Ļ×Ľ×¢×¨
Ġ×Ķ×¢×Ľ ×¢×¨×¢
×¨×Ļ×ĵ ×ĸ×©
Ġ×Ĳ×Ĺ ×ĵ
×¨×Ļ×Ļ×¡ ×ĺ
» ¿
×¡ ×¢×§
Ġ×Ĳ×¨ ×Ļ×Ĵ
Ġ×¤×¨ ×Ļ×Ļ×ł×ĵ
Ġ×§×¨ ×¢×Ĳ
Ġ×§×ľ×Ĳ×¨ ×¢
Ġ×ĳ×Ĳ×ĵ ×¢×§×ĺ
Ġ×ª×ľ×ŀ×Ļ×ĵ ×Ļ
×Ĵ×¨×Ļ×Ľ ×Ļ×©
F T
Ġ×ĵ ×ŀ
Ġ×§ ×ĵ
×¤ ×¢×Ł
×Ĳ×§ ×¢×¨
Ġ×ĺ×¨ ×Ĳ×¡×ĺ
×¨×§ ×¢×¨×ĺ
×¤×¨ ×Ļ×Ļ×ĺ
×ł×© ×ĺ×¢×ľ
×ł×Ĺ ×¡
Ġ×©×¢×ĵ ×Ļ×§×Ł
Ġ×¢×§×¡×ĺ ×¨×¢
l u
o g
×ĺ ×¢×Ĳ
×ľ ×ª
Ġ×¢ ×ķ×ľ
Ġ×ĺ ×¢×¡×ĺ×Ĳ
×ķ×ķ×Ļ× Ĵ
×¢×ł×ĵ ×¡
×ķ×© ×Ļ×Ŀ
×¨×© ×¢
at ch
Ġ×¡×Ļ×ŀ ×ĳ×Ĳ×ľ
Ġ×Ĵ×¢×©×ĺ ×Ļ×¦×ĺ
Ġ×ł×© ×ŀ×ķ×ª
Ġ×§×¢ ×Ļ×¡
Ġ×Ĳ×Ļ×ł×ĺ×¢×¨×ł ×Ĳ×¦×Ļ×Ĳ×ł×Ĳ×ľ×¢
Ġ×Ĵ ×Ļ×ľ
Ġ×Ļ ×ķ×©×¨
Ġ×§×ľ ×Ļ×§
×¢×ĸ ×¢×Ķ×Ł
Ġ×¢×¤ ×Ĳ×Ľ×¢
Ġ×ĳ×Ĳ×Ķ ×Ĳ×ľ×ĺ
Ġ×ľ×Ļ×Ļ×Ĵ ×¢×Ł
Ġ×¡×¢×ŀ ×¢×ĺ×¢×¨×Ļ
R C
i an
Ġ×ŀ ×Ļ×Ļ×¡×ĺ×¢×¨
Ġ×§ ×Ļ×Ŀ
Ġ×§ ×Ĳ×ĸ
Ġ×§ ×ķ×Ļ×¤×ĺ
Ġ×ł ×Ļ×Ļ×Ĵ×¢×¨
Ġ×¢ ×Ķ
Ġ×¡ ×Ĳ×ľ×ĵ
Ġ×ķ×ķ×Ļ×ľ ×¡×ĺ×ķ
it s
×ĳ×Ļ×ľ ×Ļ×ĺ×Ļ
Ġ×¢×ĳ ×Ļ×¨×Ķ
Ġ×ĳ×Ĳ×¨×Ļ×Ľ×ĺ ×¢×ĺ
Ġ×ĳ×Ļ×ĳ×ľ ×Ļ×Ĳ
ï »¿
×¨ ×¢×ĸ×Ļ×ĵ×¢×ł×ĺ
×ĳ ×ĸ
×ł×ĺ ×ķ×ķ×Ĳ
Ġ×Ļ×Ĳ×¨ ×¦×Ļ×Ļ×ĺ
Ġ×¤×Ĳ×ľ ×Ļ×¡
Ġ×Ļ×© ×ķ×ĳ
Ġ×Ĳ×¨×ķ×Ļ×¡×Ĵ ×¢×ĳ×¨×¢×ł×Ĵ×ĺ
Ġ×©×ĺ×¢×ĺ ×ľ×¢×ļ
Ġ×¤×Ĳ×¨×¤ ×Ĳ×¡×ĺ
Ġ×ĵ×¢×¤ ×Ĳ×¨×ĺ
×ľ×¢×ĳ ×ĺ
×ŀ×¢×ł×ĺ×© ×Ł
4 7
r u
×¨ ×ķ×ķ×¢×¨×ĺ×¡
×Ĵ ×¢×¨×¡
Ġ×¡ ×ķ×Ĺ
×Ĵ×ľ ×Ķ
Ġ×Ĳ×Ļ×ĳ×¢×¨×Ĵ ×¢×ľ×Ĳ×ĸ×ĺ
âĢ¬ âĢ¬
Ġ×¡×Ļ×ŀ ×ĳ×Ĳ
Ġ×ĳ×¢×ĺ ×Ļ×ł×Ĵ
×¨ ×ķ×¤
Ġ×Ĵ ×Ļ×ĺ×¢
Ġ×© ×Ľ×Ł
Ġ( $
ĠB en
Ġ×Ķ×Ĳ×ł×ĵ ×ľ
Ġ×Ĳ×ĺ×Ĳ×§ ×¢×¡
×ķ ×ķ×ĵ
Ö· -
Ġ×ŀ ×ĳ×¨
Ġ×© ×°
×Ľ ×¡
Ġ×Ĳ×¤ ×¢×ł×¢
Ġ×Ĳ×¤ ×Ĵ×¢×©×ĺ×¢×ľ×ĺ
Ġ×Ĳ×Ļ×ĳ×¢×¨ ×Ĳ×ľ
Ġ×Ĵ×¢×ľ ×Ļ×ĺ×Ł
Ġ×Ĵ×¢×§ ×¨
Ġ×ŀ×¢×ĵ ×Ļ×¢
×¡×ĺ×¨ ×¢×Ĳ
Ġ×ľ×Ļ×ĵ ×Ļ×ł×Ĵ
Ġ×ĳ×Ĳ×¦×Ļ×Ĳ ×ķ×ł×Ĵ×¢×Ł
l d
×Ĳ ×Ļ
Ġ×Ĵ ×Ļ×Ĳ
Ġ×§×ľ ×¢×ł×¢×¨
×ĳ×ľ ×¢×ŀ×¡
Ġ×Ĳ×¨×ķ×Ļ×¡×Ĵ ×¢×ĳ×Ł
Ġ×Ĳ×ķ×Ļ×¤×Ĵ ×¢×Ķ×¢×¨×ĺ
Ġw or
Ġ×Ĳ×ľ×ĺ ×ŀ×Ĳ×ĵ
×ł×Ĵ×¢×¨ ×©×Ĳ
Ġ×Ķ×Ļ×Ļ×¡ ×¢
Ġ×Ĳ×Ĺ×¨ ×Ļ×ķ×ª
×¨×¢×ĸ ×¢×ł×ĺ
Ġ×Ĵ×ĳ×Ĳ ×Ļ
Ġ×§ ×Ļ×¤
Ġ×ł ×Ļ×¡
Ġ×© ×§×¨
Ġ×ľ ×ķ×ŀ
Ġ×¡ ×Ĳ×ŀ×¢
×¨×ĳ ×ķ×ª×Ļ
×¨×ĵ ×Ļ×ł×¢×Ł
Ġ×ķ×Ļ×¡ ×ŀ×Ļ×Ļ
Ġ×ĳ×¨×Ļ×Ļ×ĺ ×¢
×ķ×Ļ×Ĵ ×ľ
us t
Ġ×¨×¢×¡×¤ ×¢×§×ĺ
Ġ×§ ×ķ×ķ×Ļ×ĺ
Ġ×§ ×ķ×Ļ×ľ×Ł
×ĳ ×Ĳ×ł
×Ļ×¡ ×§
×Ļ×¡×ĺ ×Ļ×©
Ġ×ĳ×ľ ×Ļ
×ĳ×Ĳ ×ķ×ķ×Ĳ×ķ×¡×ĺ
Ġ×Ķ×© ×Ĵ
Ġ×§×Ĳ×ŀ×¤ ×Ĳ×ł×Ļ
Ġ×ķ×ķ×Ĳ×§ ×¡×ĺ
Ġ×ķ×Ļ×¡ ×Ĵ×¢×¦×Ļ×Ļ×Ľ×ł×ĺ
Ġ×©×ĵ ×Ľ×Ł
×¨ ×ķ×Ļ×ĺ
Ġ×Ķ ×ķ×ŀ
Ġ×¡ ×Ļ×§
×Ļ×¤ ×¢×¨
×©×¨ ×²
Ġ×ŀ×Ļ×ł ×Ļ×ŀ×ķ×Ŀ
Ġ×ķ×ķ×Ĳ×¨ ×ĵ
Ġ×¡×Ļ×¡×ĺ ×¢×ŀ×¢×Ł
Ġm av
Ġ×Ĺ×©×ĳ ×ķ×ł×ķ×ª
Ġ×ŀ×Ĳ×ĺ ×¢×ŀ×Ĳ×ĺ
Ġ×¤×¨×Ļ×ł×¦ ×Ļ×¤×Ł
1 00
×Ļ× ł×©
×§ ×ķ×¤
Ġ×¦×ķ ×ķ×Ļ×ł×Ĵ
×ł×ĺ ×©
Ġ×ŀ×ĵ ×Ļ×ł×ķ×ª
Ġ×¤×Ĳ×¨×Ĳ ×Ļ×Ļ×ł
Ġ×ŀ×ŀ×© ×Ļ×ļ
×¢×ł× ĳ×¢×¨×Ĵ
Ġ !
×ĺ ×²
Ġ×¦ ×Ĳ×ľ×ĺ
Ġ×ĵ×¢×¨ ×©×ĺ
×ª ×ľ×Ļ
Ġ×ª ×Ķ
×Ļ×Ļ×ĵ ×Ļ×©
Ġ×Ĵ×¢×ĳ ×Ļ×Ļ×ĵ×¢
Ġ×Ĳ×ł×ĺ ×¤×ľ×¢×§×ĺ
Ġ×ķ×ķ×Ļ×¡ ×ł×©×Ĳ
Ġ×ł×Ĺ ×ª
Ġ×¤×Ĳ×¤ ×Ļ×¨
Ġtat too
Ġ×ŀ×Ĳ×ĵ×¢×¨ ×ł×¢
Ġmav ic
n d
Ġ×ĵ ×¢×ĺ×Ĳ
×ľ ×Ĳ×¡×Ł
Ġ×Ķ ×Ĳ×ŀ
Ġ×§ ×Ļ×Ļ×ł×¢
Ġ×ĺ ×¢×ľ×¢×¨
Ġ×¡ ×ĺ×¢×¨
Ġ×Ĳ×¨×Ļ×Ļ×ł×Ĵ ×¢×©
Ġ×Ķ×¢×Ľ ×¡×ĺ×Ł
Ġa m
Ġ×¨×© ×ķ×ª
Ġ×¡×¢×ľ ×¢×§×¦×Ļ×¢
×¢×¡ ×ĺ×Ł
Ġ×¤×¨ ×¢
×Ĳ×ł ×¢×¡
×©×ĺ ×Ĳ×ł×ĵ
Ġ×Ĳ×ķ×ł×ĵ×ĸ ×¢×¨×¢
Ġ200 5
Ġ×ĳ×Ĳ×ĸ ×ķ×ļ
Ġ×Ĳ×ķ×Ļ×¤×Ĵ ×¢×ķ×ķ
Ġ×ŀ×¢×ĺ ×¨
Ġl ine
×¨ ×Ļ×Ļ×¢×Ł
Ġ×ĸ ×Ļ×Ĵ
Ġ×Ķ ×ķ×¦×Ĳ×ķ×ª
Ġ×ł ×Ļ×Ļ×ŀ
×§ ×¤
Ġ×Ĳ×¨×ĳ ×Ļ×Ļ×ĺ×¢×¨
Ġ×©×Ĳ ×ķ×ľ
×ķ×ľ×ĵ ×ķ×ª
×¨×¢×ĵ ×Ĳ×§×ĺ×Ĳ×¨
Ġ×ĵ×¢×¨×§ ×ľ×¢×¨
Ġ×ŀ×Ļ×Ļ×§ ×¨×Ĳ
Ġ×§×Ĳ×¨×¢×¡×¤ ×Ĳ×ł×ĵ
Ġ×Ĵ ×Ļ×Ľ×¢×¨
Ġ×§ ×Ĳ×ł×§
Ġ×©×ĺ ×Ļ×¦×¢×¨
... "
Ġ×Ĵ×¢×¤ ×ķ×ł×ĺ
×¡×ĺ×¢×¨ ×Ĳ
Ġ×Ĳ×ķ×ł×Ĵ ×Ĳ×¨
Ġ×ķ×ķ×Ļ×Ļ× ĳ×¢×¨
Ġ×ĺ ×Ĳ×ĺ×Ł
×Ĳ×ľ ×¢×¡
Ġ×¨ ×Ļ×Ĳ
×¦ ×ķ×Ķ
Ġ×Ķ×Ļ×Ļ×ľ ×Ł
Ġ×Ĺ×¨×ĵ ×Ļ×©×¢
Ġ×Ĳ ×ķ×ĵ×Ĳ×Ļ
×Ĳ×ŀ ×¨
×ł×ĺ ×ľ×Ļ
Ġ×Ĳ×ķ× Ķ
Ġ×¢×ľ ×Ļ×ł×ķ
Ġ×Ķ×Ļ×Ļ×ł×ĺ ×Ļ×§×¢×¨
Ġ×¢×§×¡ ×ĺ×¢×¨×¢
if ied
Ġ×©×ķ×ķ×¢×ĳ ×¢×ľ×¢×ļ
a in
×ĺ ×¢×ŀ×ĳ×¢×¨
×Ķ ×Ĳ×ĳ×Ł
Ġ×¤×Ĳ×¨ ×Ļ×Ĵ×¢
×Ļ×©×ĺ ×©
Ġ×Ĺ ×ķ×§
×¢×¤ ×Ĳ×¨×Ł
Ġ×Ĵ×¢×¨ ×¢×Ľ×ł×ĺ
es p
Ġ×©×ĺ×¢×ľ ×ķ×ł×Ĵ
Ġm y
×ĳ×Ĳ×¨ ×¢
×Ļ×Ĵ×Ķ ×ĺ
Ġ×¨×¦ ×ķ×Ł
×ľ ×Ĵ×Ł
Ġ×© ×¢
×ķ×ķ ×ķ×¢×¨
×ķ×ķ ×Ĳ×©×Ļ×ł×Ĵ×ĺ×Ĳ×Ł
×Ĵ ×¢×ľ×ĺ
Ġ×¤×Ĳ×¨ ×¢×¤×ł×ĺ
×ł× ļ
×ł×ĵ ×Ļ×Ĵ×¢
Ġ×Ĳ×Ļ×ŀ ×¤
Ġ×Ĳ×Ļ×Ļ×ł×© ×ķ×ķ×¢×¨
Ġ×§×Ĳ×ł×¡ ×¤×Ļ×¨
Ġ×ĺ×¢×Ĳ ×ĺ×¢×¨
Ġ×¨×Ļ×¡ ×¤
ag e
Ġ×¤×Ĳ×¨×Ĵ×Ĳ×ł×Ĵ ×¢×ł×Ķ×Ļ×Ļ×ĺ
Ġ×Ĵ×¢×ł×¦ ×ľ×Ļ×ļ
9 7
Ġ×¤ ×Ĳ×ł×ĵ
×ĵ ×¢×§
×ĳ ×ķ×¡
Ġ×ĺ ×Ļ×ŀ
Ġ×Ĳ×ķ×Ļ× ľ
×Ļ×¢ ×ĵ×¢
×¢×Ĵ ×¨
×Ļ×Ļ×ľ ×ĸ
Ġ×Ĳ×ŀ ×ĳ
×¢×ľ×ĺ ×ľ
Ġ×Ĵ×ľ ×Ļ×Ļ×ĳ×ĺ
Ġ×Ĳ×ķ×Ļ×¡×Ĵ ×¢×ŀ
Ġ×Ĳ×ĳ ×Ļ
Ġ×Ĳ×ĳ ×Ļ×ĳ
Ġ×ĳ×¢×ľ ×Ĵ×Ļ×¢
ĠA I
×ŀ×ĳ ×Ļ×¨×Ł
×¨×¢×Ľ ×¢×ł×¢×Ł
Ġ×ŀ×ª×¤×ľ ×ľ
×¨ ×ľ×Ļ×Ļ×Ĵ×Ł
Ġ×¦ ×Ļ×Ļ×Ľ
Ġ×¨ ×Ļ×Ļ×ĺ
×ĵ×¢×¨ ×ĺ
×Ļ×¦ ×Ļ×Ĳ×ł
Ġ×Ĳ×ł×Ĵ ×¢×Ķ
Ġ×¤×Ļ×ł ×Ĳ×ł×¦
×ľ×Ļ×¡ ×Ļ×¡
×¨×Ĳ×¡ ×Ĳ×¤×ĺ
Ġ×Ĳ×ł×¢×¨×§ ×¢×ł×ĺ
Ġ×¡×ķ×ķ×Ļ× ķ×ķ×¢
Ġ×ĳ ×¢×ł×ĺ×©
Ġ×¦ ×¢×ĺ×¨×¢×ĺ×Ł
Ġ×¤×¨ ×Ļ×Ļ×Ķ
×ķ×ĵ ×Ļ×Ĳ
×ķ×ĺ ×¢×Ł
Ġ×Ĵ×¢×ľ ×Ĳ×¤×Ł
Ġ×Ĳ×ł×Ĵ ×¢×ĺ
Ġ×Ĳ×ĳ ×Ļ×ł×ķ
×Ĵ×ľ ×Ļ×Ļ×ĳ
Ġ×ĸ×Ļ×Ľ×¢×¨ ×Ķ×Ļ×Ļ
Ġ×ĺ×¢×¨ ×Ĳ
Ġ×ŀ×¢×Ĵ ×ľ×¢×Ľ×§×Ļ×Ļ×ĺ
Ġ×Ĳ×ł ×ķ×ķ×Ļ×Ļ×ĸ
Ġ×ŀ×¢×ľ ×ĵ×Ł
Ġ199 9
Ġ ve
Ġ×ĸ ×§
Ġ×§ ×ķ×Ļ×ľ
×¢×¡ ×Ļ
Ġ×¤×¨ ×¢×©
Ġ×¨×ĳ ×ł×ķ×ª
Ġ×Ĵ×¢×ĺ ×Ļ×ł×Ĵ
Ġ×¨×Ĺ ×ľ
ĠO ff
Ġ×¦×¢×© ×ĺ×¢×¨×Ł
Ġ×¨×ķ×Ĳ ×Ļ×Ĵ
" )
Ġ r
×¨ ×Ļ×¢×¨
Ġ×ĵ ×Ļ×ķ×ķ
Ġ×ŀ ×¢×§×Ł
Ġ×© ×Ļ×©
Ġ×¦ ×Ļ×ľ×Ł
×Ķ ×Ĳ×ľ
×Ķ ×¢×¨×ĺ
Ġ×ľ ×§
×¦ ×ķ×ĸ
Ġ×Ĳ×ķ×Ļ×¡ ×ĺ×¢×¨
Ġ×¢×ł ×ĺ×¢×¨
Ġ×ĵ×ĳ×¨ ×Ļ×Ŀ
= =
×ľ ×Ļ×§×ĺ
Ġ×¨ ×¢×Ľ×ł×ĺ
×Ļ×ł ×¢×ľ×¢
Ġ×¤×¨ ×Ĳ×§×ĺ
Ġ×¤×Ĳ×ľ ×§×¡
×ĳ×ľ ×ķ×Ŀ
Ġ×ŀ×Ļ×ł ×ķ×ĺ×Ł
Ġ×ĳ×ŀ ×Ĺ
Ġ×¨×Ĳ×ĵ ×Ļ×Ĳ
×ĳ×© ×¢×ª
Ġ×¨×¢×ķ×ķ×Ĳ×ľ ×ķ×¦×Ļ×¢
×¨ ï¬®
Ġ×ŀ ×ķ×Ľ
×¡ ×§×¡
×Ĵ ×¢×ĵ×ĸ×©
×Ĵ ×¢×ķ×ķ×¢×Ł
×Ļ×Ĵ ×ĺ×¢
×ł×ĺ ×ľ
×ķ×ķ×Ļ× ł×§
Ġ×Ĵ×¢×ĸ ×ķ×ł×Ĵ×¢×Ł
Ġ×ŀ×ķ×ĸ ×ĺ
Ġ×ľ×Ļ×ĳ ×©×Ĳ×¤×ĺ
×ķ×ķ×Ļ×ĺ ×©×¢×¨
Ġ×¨×¢×¤ ×Ĳ×¨×ĺ
Ġd e
Ġ×ķ×ķ×¢×ł×ĵ ×Ł
Ġ×Ĳ×ķ×ŀ×ŀ×¢×Ĵ ×ľ×¢×ļ
T E
Ġ×ĸ ×Ļ×ł×Ĵ
×¤ ×¡×ĺ×¨×¢×Ĳ
Ġ×¢ ×ķ
×¦ ×²
Ġ×¢×ł×ĺ ×¤×¢×¨×ĺ
Ġ×ŀ×ĵ×¨×© ×Ļ×Ŀ
Ġ×Ĵ ×Ļ×Ĵ
Ġ×Ĵ ×Ļ×Ļ×ŀ×Ļ×ł×Ĵ
×¡ ×Ļ×ľ
Ġ×ĸ ×ķ
Ġ×ĳ ×ķ×Ľ
×ł ×Ĳ×Ľ×ĺ
×ķ×¨ ×¡×Ł
×ķ×¡ ×§
Ġ×Ĳ×¤ ×Ļ×¨
×Ļ×¦ ×Ļ×¨×ĺ
×Ļ×Ķ ×¨
Ġ×ĳ×Ĳ×ł ×ķ×¦×ĺ
Ġ×§×Ĳ×¨ ×¡
Ġ×¨×Ļ×ĺ ×©×Ĳ
Ġ×Ĵ×ķ×ľ ×¤×¡×ĺ×¨×¢×Ĳ
8 6
×ĺ ×Ļ×Ļ×¢×¨
Ġ×ķ×ķ ×Ĳ×Ľ
Ġ×§ ×©×Ļ×ķ×ª
×Ľ ×ĺ×¢×¨
Ġ×ŀ×Ļ×ĺ ×ľ×¢×Ł
×Ĳ×ł ×Ļ×¢×¡
×Ļ×Ľ ×Ŀ
×ķ×ĸ ×¢×¨
×¢×§×ĺ ×¢×ĵ
×¨×Ĵ ×ľ
Ġ×Ķ×Ļ×Ļ×ł×ĺ ×Ļ×§×Ł
Ġ×¢×§×¡ ×Ļ×ĵ×¢×ł×ĺ
Ġ×ĺ×¢×Ľ ×ł×Ļ×©
Ġ×Ĵ×¢×©×ĺ ×Ļ×ŀ×ĺ
Ġ ;
×ĵ ×¢×§×Ł
×ķ×ķ ×Ļ×Ļ×¨
×Ĵ ×Ĳ×¨
Ġ×ĳ×Ĳ ×Ĳ×ŀ×ĺ×¢
Ġ×¦×ķ×ķ ×¢×ľ
Ġ×ķ×ķ×Ļ×Ļ×ľ ×Ł
Ġ×¡×ĺ ×Ĳ×ł×ĵ
Ġ×¦×ķ×¨×Ļ×§ ×Ĵ×¢×ĳ
×Ļ×Ļ×§ ×Ĳ
an g
Ġ×Ĳ×ł×ĺ ×©×ķ×ľ×ĵ
Ġ×Ķ×¢×Ľ ×¡×ĺ×¢
×¤×ķ×ľ ×¢
×¨ ×Ļ×ł×Ĵ×¢×Ł
×¨ ×ŀ×Ļ×ĺ×ľ
Ġ×ĵ ×¢×ĵ
Ġ×ŀ ×ķ×¦
Ġ×© ×Ļ×ļ
Ġ×¤×Ĳ×¨ ×Ļ×ĸ
Ġ×©×ĺ ×Ł
Ġ×Ĳ×ķ×Ļ×¡×Ĵ ×¢×ľ×¢×¨×ł×ĺ
×Ĵ×¨ ×Ĳ×¤
Ġ×ŀ×ķ×¡ ×Ļ×£
ĠS t
.... ..
Ġ×Ļ×¡ ×ķ×¨×Ļ×Ŀ
×ĸ ×Ļ×ļ
×ŀ ×ĺ×¢×¨
×ŀ ×¢×¤
Ġ×¨ ×ķ×ĵ
Ġ×¤×Ĳ×¨ ×ķ×ķ×Ĳ
×ª ×ķ×¨×Ķ
×¢×ŀ ×Ļ×Ŀ
ĠT om
Ġ×Ĳ×ľ×Ĵ×¢×ŀ ×Ļ×Ļ×ł×¢×¨
Ġ×ľ×¢ ×Ļ×§
×ķ×ł×ľ×Ĳ ×ķ×ĵ
×Ĳ×Ļ×ł ×¢×Ŀ
Ġ×Ĳ×ķ×Ļ×¡×¤×Ĳ×¨×© ×ķ×ł×Ĵ
e re
Ġ×© ×Ļ×¨
×Ĵ ×ķ×Ĵ×ľ
Ġ×Ĳ×ķ×ŀ ×Ĳ
Ġ×ĳ×Ĳ×© ×¨×Ļ×Ļ×ĳ
Ġ×Ĳ×¨×Ļ×Ļ×ł×¦ ×ķ×ľ
Ġ×¨×ķ×ŀ ×¢×ł×Ļ×¢
Ġ×§×¨×Ļ×Ļ×ĸ ×Ł
Ġ×©×ķ×Ķ ×ľ
o p
Ġ×ŀ ×¢×Ĵ×Ł
Ġ×ĸ ×Ļ×ĵ
Ġ×ĸ ×Ļ×ł×¢×Ł
×ĵ ×¢×ľ×¡
Ġ×¡ ×¢×¨×ĺ
×Ĳ×ĺ ×Ļ×ķ×ķ
×Ĳ×Ķ ×Ł
Ġ×§×Ĳ×ľ ×Ļ×¨
Ġ×ĵ×Ļ×¡ ×§×¨
Ġ×ŀ×ł ×ķ×Ĺ×Ķ
Ġ×Ĳ×ł×Ĵ×¢ ×ķ×ķ×Ļ×ĸ×Ł
c t
×ł ×Ļ×¡×Ĳ
×ķ×ķ×Ļ× ĳ
×¢×ł×¡ ×Ĳ
Ġ×ŀ×¡ ×ĵ×¨
Ġ×ĵ×¢×¨×Ĵ×¨×Ļ×Ļ×Ľ ×ĺ
Ġ×¤×Ļ×ł×§ ×ĺ
×ľ ×¢×§×ĺ×Ļ×ķ×ķ
Ġ×ķ×ķ ×Ĳ×¤×Ł
Ġ×ķ×ķ ×ķ×ł×ĵ×¢×¨
Ġ×Ķ ×Ļ×©
Ġ×ĳ ×Ļ×ł×Ĵ
×¢×ŀ ×Ļ
×Ĳ×Ĵ ×¢
Ġ×Ĳ×Ļ×ł ×ĺ×©
×ĳ×¨ ×ļ
Ġ×¡×ĺ ×¢×¤
Ġ×ĳ×Ļ×ľ ×Ļ×Ĵ×¢
Ġ×§×Ĳ×¨ ×¢×Ĳ
ïŃİ ×Ł
Ġ×Ķ×Ĳ×ľ×ĺ ×¢×Ł
Ġ×Ĳ×Ļ×ĳ×¢×¨×Ĵ ×¢×ĳ×Ł
Ġ×Ķ×Ĳ×ľ ×Ĳ×ł×ĵ
×Ļ×ĵ×ĸ×© ×Ļ×ĸ
as t
Ġ×¤×Ĳ×¤ ×ķ×ľ
Ġ×ĳ×Ļ×ŀ ×Ļ
Ġ×Ĺ×ŀ ×¥
Ġ Ö¾
×ĺ ×Ĳ×¨
Ġ×Ĵ ×ķ×Ĳ
Ġ×ĳ ×§×¨
Ġ×§ ×Ļ×ķ×ĺ
×ĸ ×ľ×¢×ļ
×Ļ×© ×Ķ
Ġ×ľ ×Ļ×ĺ×¢
×¢×ĺ ×Ļ
×Ľ ×Ļ×ł
Ġ×¤×Ĳ×ľ ×¢×¡×ĺ×Ļ×ł×¢×¨
Ġ×Ĵ×¢×ĵ ×ķ×ľ×ĵ
Ġ×¤×ľ×Ĳ×ĺ×¤×Ĳ×¨ ×ŀ×¢
Ġ×©×ķ×ķ×Ļ×ł×ĵ ×ľ
Ġ×¤ ×Ĺ×ĵ
Ġ×Ļ ×ķ×¦×Ĳ
×¢×ĺ ×Ļ×§
×ł×Ĵ ×¢×ĺ×Ĳ
Ġ×¡×¤ ×¨×Ļ
×¢×¨×¡ ×Ļ
Ġ×Ĵ×¢×ķ×ķ×Ĳ×ľ×ĵ ×Ļ×§×¢×¨
×ĵ×ľ ×ķ×ª
Ġ×Ĵ×ĵ×ķ×ľ ×Ļ×Ŀ
×Ļ×Ļ× ĳ×¢×¨
Ġ×§ ×ķ×Ļ×¤
×Ļ×ĺ ×ķ×¨
×Ĵ ×¢×ĳ×¢×¨
Ġ×ľ ×Ļ×¢
×Ļ×Ĵ ×ķ×ł×Ĵ
Ġ×ª ×¤×Ļ×¡
Ġ×Ĳ×Ļ×ł ×ĺ
Ġ×Ĵ×¢×ĳ ×¢×Ł
Ġ×ĳ×Ĳ×§ ×Ĳ×ł×ĺ×¢×¨
Ġ×ĺ×¢×¨ ×§×Ļ×Ļ
Ġ×Ĵ×¢×ķ×ķ×¢×ĸ ×¢×ł×¢×¨
Ġ×ĺ×©×¢×Ľ ×Ļ×©
Ġ×¢×¨×ľ ×ķ×Ļ×ĳ×Ł
Ð ´
Ġ X
×¤ ×¨×ĺ
Ġ×ľ ×¢×ĺ
Ġ×ĵ×¢×¨ ×Ķ×Ļ×Ļ
×ķ×ĺ ×Ķ
Ġ×ĳ×ľ ×²
Ġ×ĸ×Ĳ×ľ ×¢×Ł
Ġ×ł×¤ ×ª×ľ×Ļ
×ŀ×¢×ł×ĵ ×Ļ×¨×Ł
j i
t h
Ġ×ĵ ×§
Ġ×Ĵ ×ĵ×¨
Ġ×§ ×Ĳ×ľ×ĺ
×Ĳ×ĺ ×Ļ×ķ×ķ×¢
×Ļ×¡ ×ķ×ł×Ĵ
Ġ×Ĺ ×Ļ
Ġ×Ĳ×Ļ×Ļ× ł×Ķ
×¢×ł×ĺ×© ×Ĳ
Ġ×¢×¤ ×¤
Ġ×Ĵ×¢ ×¢×¤
Ġ×Ĵ×¢×¨ ×Ĳ×ĺ×¢×ķ×ķ×¢×ĺ
Ġ×Ĵ×¢×ķ×ķ×Ĳ ×ķ×ł×¢×Ł
Ġs t
os t
Ġp m
Ġ×¡×¤×¢×¦ ×Ļ×¢
Ġ×Ĳ×ł×© ×ĺ
Ġ×¤×¨×Ĳ×ĵ ×ķ×¦
lo ad
Ġ×Ľ×Ļ×ł ×¢×ĸ×¢×¨
Ġ×¤×ľ×Ļ×¡ ×ł×ĵ×Ļ×§
e k
Ġ×ĳ ×Ļ×ĺ×¢×¨
×¤ ×Ļ×ĵ
×ĸ ×Ļ×ł×ĺ
Ġ×Ĳ×¨ ×Ļ
Ġ×©×ĺ ×ķ×ª
Ġ×©×ĺ ×Ļ×¦×ĺ
Ġ×¤×¨ ×¢×Ķ
Ġ×ķ×ķ×¢×ľ ×¢×Ł
Ġ×ĵ×¨ ×ķ×§×ĺ
Ġ×Ĳ×Ļ×Ļ×ĵ ×ľ
Ġ×ĳ×Ĳ×ĸ ×ķ×Ľ×ĺ
Ġ×ĵ×Ļ×Ļ×ĺ ×©×Ł
×ķ×Ļ×ĵ ×¢×¨
Ġ×¤×Ļ×Ļ×¢×¨ ×¡
Ġ15 0
Ġ×ŀ×Ľ ×ķ×Ĺ
Ġ×©×¨×¢×§ ×ľ×Ļ×Ľ×¢
Ġ×¤×¢×¨×ĸ×¢×ł ×ľ×Ļ×Ľ×¢
RA FT
F irst
Ġ×Ĵ ×Ļ×Ķ
Ġ×¦ ×Ļ×Ļ×Ĵ×ĺ
×ķ×¨ ×¢
×ł×ĺ ×Ļ×§×Ł
×Ļ×ķ×ķ ×¢×Ł
Ġ×Ĳ×ķ×Ļ×¡×Ĵ ×¢×¨
×ķ×ķ×Ĳ×¨ ×ĵ×Ļ×Ļ×Ł
Ġ×¤×¢×ľ ×ĵ×¢×¨
Ġ×¤×Ĳ×¨×ĳ×ľ ×Ļ×ĳ×Ł
Ġ×Ĳ×¨×Ļ×Ļ×ł×§ ×ķ×ŀ×¢×Ł
P hone
Ġ×ĵ×¢×¨ ×ĸ×¢×Ł
×ł×ĵ ×Ļ×ł×Ĵ
Ġ×ª ×¢×ł
×ĸ×© ×¢×ĺ
Ġ×Ĳ×ķ×Ļ×¡×Ĵ ×¢×ĳ×¨×Ĳ×Ľ×Ł
×ķ×Ļ×¢ ×ļ
Ġ×ŀ×Ļ×ľ ×Ĳ
Ġ×Ĳ×¡ ×ķ×¨
Ġ×Ĳ×ł×ĺ ×Ļ×Ļ×ľ
Ġ×Ķ×© ×ª
Ġ×Ĳ×Ļ×ł×¤ ×Ĳ
ĠP re
Ġ×ķ×ķ×Ĳ×§ ×¡×Ł
×ľ×¢×ĳ ×Ĳ
Ġ×Ĳ×Ļ×ł×¡ ×ĺ×Ĳ
Ġ×Ķ ×Ļ×ł×ĺ
×ĸ ×ķ×ł×ĵ
Ġ×¡ ×Ĳ×¨×ĺ×Ł
×ķ×ª ×Ĳ
Ġ×¤×¨ ×Ļ×Ļ×¢×Ł
×§×Ĳ ×ķ×ķ×Ļ×ĺ×©
Ġ×©×ľ ×¢×¤
Ġ×Ļ×¢×¦×ĺ ×Ļ×Ĵ×¢
Ġ×Ĳ×© ×Ľ×ł×ĸ
Ġ×¨×ķ×¡ ×Ļ×©×¢×¨
×¨×¢×ĺ ×ķ×Ŀ
Ġ×¡×ĺ×¢×Ļ×ĺ ×ŀ×¢×ł×ĺ
Ġ×ł×ķ×ŀ ×ĳ×¢×¨
Ġ×¤×Ļ×Ļ×ľ ×¡
×ŀ×Ļ×ľ ×ľ×¢×¨
×ĺ×Ļ×¢ ×ł×¥
×ł×ĺ×Ļ×ł ×Ļ×ķ
Ġ×Ĳ×Ļ×Ļ×ł×©×ķ×ķ×¢×¨ ×ķ×ł×Ĵ
Ġ× ł×Ķ
Ġ×¢ ×ĳ×ķ×ĵ
Ġ×¢ ×ł×©×ķ×¨
×ł× Ŀ
×Ļ×ķ ×ł
×Ļ×Ļ×¢×¨ ×ĸ
×Ļ×Ļ×¡ ×Ĳ
Ġ×Ĳ×ķ×ŀ ×ĸ×Ļ×¡×ĺ
Ġ×Ĳ×ķ×Ļ×¡×Ĵ ×¢×ł
Ġ×Ļ×Ĳ×¤ ×Ĳ×Ł
Ġ×ľ×¢×ł×Ĵ ×¢×¨
Ġ×Ķ×¢×¨×© ×Ł
Ġ×¢×Ľ ×ĺ×¢
Ġ×¨×¢×ĵ×Ĳ×§×ĺ ×Ĳ×¨×Ł
Ġ ï¬»
×¢×ł×ĺ ×Ļ×ł×¢
×Ĺ ×Ļ×ľ×Ķ
×¤×¨ ×Ĳ×ł×¦×ķ×Ļ×ĸ
Ġ×Ļ×© ×Ł
Ġ×ĳ×© ×ķ×Ŀ
×ł×ĳ ×Ĳ
Ġ×ĵ×¢×¨×§ ×¢×ł×ĺ
Ġ×Ĳ×Ļ×ł×ĺ×¨×¢×¡ ×Ĳ×ł×ĺ
×Ļ×ķ×ķ×Ļ×ł×Ĵ ×¡
M S
×ĺ ×ĺ×Ĳ
Ġ×ŀ ×ķ×ĺ×©
×¤ ×Ļ×¢
Ġ×ł ×¢×ķ
×ĸ ×Ļ×Ľ×ĺ
×ł ×Ļ×§×¡
×ĺ×¢×¨ ×ĵ×Ļ×§
×Ļ×ĸ ×Ļ×¡
Ġ×Ĳ×¨×Ļ×Ļ× ł×ĳ
ĠP l
Ġ×ŀ×ł×Ķ ×ľ
×¨×ķ ×¢×Ł
Ġ×ŀ×¢×ĵ×Ļ×¦ ×Ļ×ł
Ġ×§×¨×ķ×ĳ ×Ļ×Ŀ
Ġ×©×Ļ×Ĺ ×ª
×Ĳ×Ļ×Ļ× ł×ŀ×Ĳ×ľ
RC RAFT
4 6
8 7
Ġ×ł ï¬¯×¨
×ŀ ×¢×ł
Ġ×Ļ ï¬Ŀ
Ġ×¡ ×Ĳ×ŀ
Ġ×¤×Ĳ×¨ ×©×¨
Ġ×¤×Ĳ×¨ ×Ĳ×ł×ĺ
×ĺ×¢×¨ ×§
×Ļ×¡ ×Ļ×¢
×ķ×ĵ ×Ļ×Ŀ
×Ļ×ł×§ ×ĺ
×ķ×ķ×Ļ×¡ ×ĺ
×¨×Ļ×Ļ×¡ ×Ł
ĠD es
Ġ×ł×ķ×§ ×ľ×¢×Ĳ
Ġ×Ĵ ×Ļ×ľ×ĺ
Ö¸ ...
×¡ ×Ļ×©
Ġ×Ķ ×¢×ĳ×¨
Ġ×¦ ×Ļ×Ļ×Ĵ×Ł
Ġ×©×ĺ ×ķ×¤
Ġ×Ĺ ×Ļ×ķ×ĳ
×Ļ×ĸ ×Ļ×©
×Ļ×Ļ×Ĵ ×¢×Ł
×¤×Ĳ×¨ ×ĵ
Ġ×¢×ŀ ×ĳ×Ĳ
Ġ×¡×Ĳ×ĺ×ŀ×Ĳ×¨ ×¢
Ġ×ĺ×ķ×ķ×Ļ×ĺ ×ĺ×¢×¨
×ķ×ł× Ŀ
×Ĳ×Ļ×Ļ×¨ ×Ĳ×¤×¢
×ľ ×ŀ×Ĳ
Ġ×§ ×Ļ×ŀ×ĺ
×© ×ķ×ķ
×Ĳ×ľ ×¢×Ł
Ġ×ĵ×¢×¨ ×ĳ×Ļ×Ļ
×ķ×ŀ ×¢×¨×¡
×¤×Ĳ×¨ ×ķ×Ŀ
Ġ×§×Ļ×Ļ× ¤
×ľ×ĳ ×ķ×Ļ×Ŀ
Ġ×ĳ×ł×Ļ×ŀ ×Ļ×Ł
' !
) ;
Ġ×ĵ ×Ĳ×Ķ
Ġ×Ĵ ×Ļ×ļ
Ġ×¨ ×ŀ
×¢×¤ ×¢×¡
Ġ×Ĵ×¢×Ķ ×Ļ×Ļ×¨×Ĳ×ĺ
Ġ×¢×¤ ×ł×ĺ
Ġ×¡×Ĳ ×ķ×ķ×¢×ĺ
Ġ×¤×Ļ×ł ×¢×Ŀ
Ġ×ŀ ×ķ×¦×Ĳ×Ļ
Ġ×© ×Ĳ×¤
Ġ×© ×Ľ×¨
×Ļ×¦ ×Ķ
Ġ×¨×Ĳ ×Ļ×Ĳ×Ł
Ġ×Ĳ×ķ×Ļ×¡×Ĵ ×¢×ĸ×¢×Ł
×Ļ×ł×ĺ ×ľ×¢×ļ
×ķ×ķ×Ļ×Ļ×ĸ ×ĺ
Ġ×¨×Ļ×ĸ ×Ł
Ġ×Ķ×Ĵ ×ĵ×ķ×ľ
Ġ×Ĵ×¢×Ķ×¢×¨ ×©×ĺ
Ġ×¤×ķ×¡ ×ĳ×Ĳ
Ġ×¢×ľ×¢×ŀ ×¢×ł×ĺ×Ł
own load
Ġ×ľ×Ļ×ĳ×Ķ×Ĳ×ĳ×¢×¨ ×¡
Ġ×ĵ ×ĳ
Ġ×§ ×Ļ×ł×Ĵ
×¢×ł ×Ļ×§
Ġ×ĺ ×Ļ×Ļ×Ŀ
Ġ×Ļ ×ł×Ĵ
Ġ×¡ ×ł×Ĳ
Ġ×¨ ×Ĳ×ľ×¢
×Ľ ×ĸ
×ł×ĵ ×¡
Ġ×ŀ×¢×¨ ×¡×¢×¨
×Ļ×Ļ×ĵ ×ĸ×©
Ġ×° ×¢×¨×ĺ
Ġ×ĳ×Ĳ×ĸ ×¢×¦×ĺ
×Ĵ×¢×ķ×ķ ×Ļ×Ļ×ł×ĺ
ac k
Ġ×Ĳ×Ļ×ĵ×¢×ł×ĺ ×Ļ×ĺ×¢×ĺ
Ġ×¤×¨×Ļ×Ļ×Ķ ×Ļ×Ļ×ĺ
C h
Ġ×ķ×ķ ×Ļ×Ļ×¨
Ġ×§ ×ķ×ĺ×©
Ġ×ĺ ×Ĳ×ł×¦×Ł
Ġ×ľ ×¢×Ľ×¢×¨
×ł× ²
Ġ×Ĵ×¢×ľ ×Ĳ
Ġ×¤×Ĳ×¨×© ×ķ×Ļ×Ł
Ġ×¤×¨×ķ×ĳ ×Ļ×¨
Ġ×Ĳ×ķ×Ļ×ĳ×¢×¨×© ×ĺ×Ł
Ġ×ŀ×Ĺ×©×ĳ ×ķ×ª
Ġ×ŀ×ķ ×¢×ĵ
×ľ ×Ļ×¦×Ļ×Ĳ
×© ×Ŀ
Ġ×Ĳ×ķ×Ļ×¤ ×ķ×ķ×¢×§
Ġ×¦×ķ×ķ ×Ļ×Ļ×¤
an i
Ġ×¨×¢×Ľ×ĺ ×¡
Ġ×¨×¢×ľ×Ļ×Ĵ×Ļ×¢ ×ĸ×¢
×ľ×Ļ×¦ ×Ļ×¨×ĺ
Ġ×§×ĳ×ľ ×Ķ
Ġ×¤ ×Ļ×ĵ
Ġ×¤ ×Ļ×Ĵ×ķ×¨
Ġ×ł ×¢×¨×ķ×ķ
Ġ×Ľ ×¤×¨
×ľ×ĺ ×Ļ
×¨×¡ ×¢×ľ×Ĳ
Ġ×Ĳ×ĵ×ķ×¨ ×Ľ
×ĺ ×¢×ł×¦
Ġ×ĵ ×¢×§×ľ
Ġ×Ķ ×Ļ×Ļ×¤
×ĳ ×Ĳ×©
×ŀ ×¨×¢
Ġ×ĺ ×ķ×ľ
Ġ×Ĳ×ľ ×Ļ×Ķ×ķ
Ġ×ĳ×Ĳ×§ ×¡
×ĺ×© ×Ł
Ġ×¤×¨×Ĳ ×ķ×ķ×Ļ×
Ġ×Ĳ×ł×Ķ ×Ĳ×ľ×ĺ×Ł
Ġ×ĳ×ª ×Ļ×Ŀ
Ġ×ŀ×Ļ×¡ ×ĺ×¢×¨×Ļ×¢
Ġ×Ķ×Ľ ×©×¨
×©×ĺ×¢×ĺ ×Ļ×§×Ł
×ĸ×Ļ×¡ ×ķ×ķ×Ĳ
Ġ×ĳ×Ĳ×©×¢×¤ ×¢×ł×Ļ×©×Ł
Ġ×¢×ł×ĵ×Ļ×Ĵ ×ĺ
×¢×¨ ×Ļ×Ļ×©×Ĳ
Ġ×¤ ×Ĳ×¦×Ļ×¢
Ġ×¡ ×Ļ×Ļ×ķ
×¦ ×Ļ×§
×Ļ×¤ ×Ĳ
×Ĳ×ł×¦ ×¢×Ł
Ġ×Ĳ×ķ×Ļ×¡×Ĵ ×¢×ķ×ķ
Ġ×©×ĺ×Ĳ×¨×§ ×Ł
×Ĵ×¢×¤ ×Ĳ×¨×Ł
Ġ×ĵ×¢×¨×© ×Ļ×ł×¢×Ł
Ġ×§×ĵ×ķ×© ×Ķ
Ġ×ª×Ľ×ľ ×Ļ×ª
Ġ×ķ ×ķ×¡
Ġ×¢ ×ķ×ľ×Ķ
×Ĵ ×ĵ
×¦ ×¢×ł×ĺ×¢×¨
Ġ×¤×¨ ×Ĳ×§
Ġ×¨×Ļ×ĸ ×Ļ×§×¢
Ġ×Ĵ×¢×ĳ×¨ ×Ĳ×Ľ×ĺ
Ð ·
â ī
×¨ ×ĸ×Ĳ
Ġ×ŀ ×Ĳ×Ķ
Ġ×¢ ×Ļ
Ġ×¢ ×ķ×ķ
×Ľ ×ĸ×Ĳ
Ġ×©×ĺ ×Ļ×ľ×¢×¨
×ľ×¢× ł×¡
×¤×Ĳ×¨ ×§
Ġ×ŀ×¢×ł ×Ļ×ķ
Ġ×¦×Ļ×¨ ×ķ×§
a u
×¨ ×ķ×Ļ×¢
Ġ×ĵ ×Ļ×ł×Ĳ
×ķ×Ļ× ł×¡
Ġ×ĳ ×¢×©
×§ ×Ļ×ķ
Ġ×¨ ×ķ×Ŀ
×Ļ×ķ ×ķ×Ļ×ĵ
×ł×¡ ×¢
Ġ×Ĵ×¢ ×ķ×ķ×Ļ×§
Ġ×Ĳ×ķ×ŀ ×ĳ×Ĳ
×Ļ×ª ×Ķ
Ġ×Ķ×¢×ľ ×ĵ×Ł
Ġ×¦×ķ×Ĵ ×Ĳ
Ġ×Ĺ×¡ ×¨
Ġ×ŀ×Ļ×Ļ×ł ×Ļ×ł×Ĵ
Ġ×¤×ķ×¡ ×§×Ļ×Ŀ
Ġ×¢×ľ×¢×§×ĺ ×¨×Ĳ
Ġ×Ķ×Ĳ×¤ ×¢×ł×ķ×ł×Ĵ
Ġ×ľ×Ļ×ŀ×ķ×ĵ ×Ļ×Ŀ
Ġ× Ł
Ġ×ŀ ×¢×Ľ
Ġ×¢ ×ĵ×Ł
×ŀ ×Ļ×ľ×Ĳ
Ġ×ľ ×ļ
Ġ×Ľ ×ŀ×ķ
om ent
Ġ×¤×Ĳ×¨×ľ ×Ĳ×ĸ×ĺ
Ġ×Ĳ×¨×ĺ ×Ĳ×ĵ×Ĳ×§×¡
Ġ×§×¨×Ļ×ĺ ×Ļ×©
Ġ×ķ ×Ľ×ľ
Ġ×Ĵ ×ķ×ľ×Ŀ
×ĸ ×Ļ×Ļ×©×Ĳ
Ġ×© ×Ĳ×¡
Ġ×Ļ ×¢
Ġ×ľ ×Ļ×Ļ×Ľ
Ġ×¡ ×Ļ×ł
Ġ×¨ ×Ĳ×ĺ×¢
Ġ×ĵ×¢×¨ ×©×¨
Ġ×ª ×ł
Ġ×Ĳ×Ļ×Ļ×ĵ ×Ļ×¢
Ġ×¤×Ĳ×¨×© ×Ļ×ĵ
Ġ×Ĳ×ķ×ŀ×Ĵ ×¢×§
Ġ×Ĳ×Ļ×Ļ×ł×Ĵ ×¢×ł×ķ×ŀ×¢×Ł
Ġs p
Ġ×Ĳ×§ ×¢×Ĳ×Ł
Ġ×ŀ×Ļ×Ļ×§ ×¨×Ĳ×¡×Ĳ×¤×ĺ
Ġ×©×§ ×Ļ×¢×Ķ
Ġ×ĵ ×¢×¡×ĺ
Ġ×ĳ ×ĺ×ľ
×¤ ×¨×Ĳ
×ĸ ×ķ×ļ
Ġ×¦×ķ ×ĺ×Ļ×Ļ×ľ×ĺ
Ġ×ŀ×Ļ×ĺ ×Ĵ×¢×Ķ×Ĳ×ľ×ĺ×Ł
×ķ×ŀ ×¢×ł×¢
Ġ×¤×¨ ×Ĳ×ł×ĺ
Ġ×ª ×§×ľ
Ġ( ).
×Ļ×ł× Ŀ
×Ļ×¢×ľ ×ĵ
Ġ×ľ×Ļ×Ļ×ĵ ×Ļ×ĸ
Ġ×ķ×ķ×Ļ×¨ ×ķ×¡
Ġ×ĳ×§ ×Ļ×¢×¡
Ġ×ł×Ļ×ĵ×¢×¨ ×Ļ×§×¢×¨
×ł×Ĵ×¢×¤ ×Ļ×ľ×ĺ
×ľ ×¢×ł
Ġ×ŀ ×¨×Ļ×Ŀ
Ġ×Ĵ ×Ĳ×¡×ĺ
×Ļ×¨ ×ĺ×¢×¨
Ġ×©×ĺ ×Ļ×§×¢×¨
Ġ×Ĳ×ķ×Ļ×¤ ×ĺ
×¢×§×ĺ ×Ĳ×¨
er b
Ġ×Ķ×Ļ×Ļ×ŀ ×Ļ×©
×¨×Ļ×Ļ×ĺ ×ķ×ł×Ĵ
Ġ×©×ĺ×Ĳ×¨ ×ĳ×Ł
Ġ×Ĵ×Ĳ×ľ×ĵ ×¢×ł×¢
Ġ×¤×Ĳ×ĸ ×Ļ×¦×Ļ×¢
ran s
Ġ×ŀ×Ĳ×¨×ĺ ×Ĵ×¢×ĵ×ĸ×©
×ĳ×Ĳ×ķ×ķ×Ĳ×ķ×¡×ĺ ×ĸ×Ļ×ł
a p
Ġ×ĵ ×Ļ×ĺ
Ġ×© ×Ļ×¤×Ł
×ŀ ×Ĳ×ł×ĺ×¢
×§ ×ķ×¨
Ġ×¨ ×ķ×ľ×¢×ĺ
×Ĳ×¤ ×Ĳ
×¨×ĳ ×Ļ×§
Ġ×ľ×Ļ×Ļ×ĵ ×Ļ×§
Ġ×Ĳ×ł×§ ×¢×ĺ×¢
Ġ×ª×¤×Ļ×ľ ×Ļ×Ł
Ġ×ŀ×Ĳ×ł×Ķ ×¢×ĺ×Ł
×ķ ×ĺ×¢
Ġ×¤ ×Ļ×§×¡
Ġ×¤ ×ł×Ĺ×¡
×¡ ×Ļ×¡
×ĸ ×Ļ×Ł
×Ķ ×ķ×Ļ×ĸ
Ġ×¨ ×ķ×§×Ł
Ġ×ĳ×Ĳ ×ķ×ķ×¢×Ĵ×ķ×ł×Ĵ
Ġ×ĺ×¨ ×¢×¨×Ł
Ġ×ĳ×ł ×Ļ×ł×Ļ×Ŀ
Ġ×¤×Ĳ×¨×ĺ ×Ĳ×Ĵ×¡
ĠAI RCRAFT
9 6
Ġ Ñģ
×ľ ×Ŀ
×ŀ ×Ļ×§
×Ĳ×¡ ×ĺ×Ł
×Ļ×Ĳ ×ª
×ł×ĵ ×Ļ×§×Ł
×Ĳ×ŀ ×¢×ĺ×¢×¨
×ķ×ĺ ×¡
×Ļ×¦ ×Ļ×Ł
Ġ×ĳ×¨ ×Ĳ×ĸ
Ġ×ł×Ĳ×¨ ×Ļ×©×¢
Ġ×§×¨ ×Ļ
Ġ×Ĵ×¢×ľ ×ĺ×¢×¨
an y
Ġ×ŀ×¡ ×ķ×¨×Ķ
×Ļ×Ļ×ĺ×¢×¨ ×ĸ
×ł×¦ ×¢×¨
×ł×¦ ×Ļ×¢
Ġ×Ĳ×ĺ ×ŀ×Ĳ×¡
Ġ×Ĵ×¢×ķ×ķ×Ļ×¡ ×Ł
Ġ×Ĳ×² ×Ł
Ġ×ĺ×¢×§ ×¢×¡
Ġ×¤×Ĳ×¨×¦ ×Ļ×Ļ×ľ×Ł
ig n
Ġ×ŀ×ľ×Ĺ ×ŀ×ķ×ª
×ĺ ×ľ×¢
×¨ ×¨×Ĳ
Ġ×ķ ×ķ×Ķ×Ĳ
Ġ×ŀ ×¢×Ķ
Ö¸ âĢ¬
×ĸ ×Ĳ×ŀ
×§ ×Ĳ×ŀ
×Ĵ ×¤
×Ļ×ľ ×ľ×Ĳ
Ö¿ ,
Ġ×Ľ ×ķ×ľ
×ľ×¢× ł×Ĵ
×©×ĺ ×¢×ľ×ĺ
Ġ×ĺ×¨ ×ķ×Ļ×¢
×ķ×¦ ×Ļ×¢×¡
Ġ×Ĵ×¢×ľ ×Ļ×Ļ×¢×ł×ĺ
×Ĳ×ł×¦ ×ĺ
ĠÐ ¿
Ġe x
Ġ×ĵ×Ĳ×Ķ ×Ļ
5 6
×ľ ×¢×§×ĺ
×ĳ ×Ĳ×ĵ
×¨×Ļ×Ļ× ŀ
Ġ×ŀ×© ×¤×ĺ
Ġ×Ļ×© ×ķ×ĸ
Ġ×Ĳ×ł×ĺ ×Ļ×¡×¢×ŀ×Ļ×ĺ
×¨×¢×¡ ×¢
Ġ×¡×¢×¨ ×ķ×ķ×Ļ×¨
Ġ×¢×ŀ ×Ļ×¦×¢×¨
Ġ×ĳ×ŀ ×Ļ×ľ×Ĳ
Ġ×¤×Ĳ×¨×Ĳ×ł×ĺ ×ķ×ķ×Ĳ×¨×ĺ
Ġ×¤ ×Ĳ×ĳ×ľ×Ļ×§
Ġ×ķ×ķ ×Ļ×Ļ×ł×¢×Ł
×ŀ ×¢×ľ
×Ķ ×Ĳ×¨
×¢×¤ ×Ĳ
×Ĳ×§ ×ĺ×¢×¨
×¢×ĳ ×¨×Ĳ
×¢×ĸ ×Ĳ
Ġ×©×ľ ×Ĳ×¤×ĺ
Ġ×Ĺ×¡×Ļ×ĵ ×Ļ×©
Ġ×Ĳ×Ļ×ŀ ×¢×¨
Ġ×§×ķ×¨ ×¦×Ł
Ġ×Ķ×Ļ×ľ ×ľ
Ġ×¡×¢ ×Ļ×ķ×ķ×Ļ×ł×Ĵ×¡
Ġ×ľ×ĺ×ķ×ĳ ×ª
Ġ×¦×ķ×¨×Ļ×§×Ĵ×¢×ĳ ×ľ×Ļ×ĳ×Ł
×Ĳ ×ķ×ł
Ö· !
×ľ ×Ļ×Ļ×ĸ×ĵ
Ġ×ĸ ×Ļ×Ļ×ĵ×Ł
Ġ×Ķ ×Ļ×Ľ×ľ
Ġ×¢ ×ŀ×Ĳ
×ķ×ķ ×ĺ
Ġ×¤×Ĳ×¨ ×¢×ł×ĵ
×¦ ×Ļ×Ŀ
Ġ×ŀ×Ļ×ĺ ×ĺ×Ļ×Ļ×ľ×Ł
Ġ×Ĳ×ľ ×Ļ
Ġ×¢×¤ ×¢×Ŀ
Ġ×©×ľ ×Ĳ×Ĵ×Ł
Ġ×Ĵ×¢×§ ×Ĳ×ł×ĺ
at ed
Ġ×Ĳ×ĺ ×ľ
Ġ×©×Ĳ ×ķ
Ġ×ĵ×¢ ×Ļ×Ŀ
ĠS p
Ġ×ĳ×Ļ×ĺ ×¢×¨×¢
Ġ×Ĺ×¨×ĵ ×Ļ×Ŀ
Ġ×ĺ×¨×Ĳ×ł×¡ ×¤×Ĳ×¨×ĺ
y iddish
Ġ×ķ ×Ļ×ľ
Ġ×§ ×¢×ľ×ĺ
×¤ ×ķ×ª
Ġ×¡ ×ĳ×¨×Ĳ
×Ĳ×ľ ×Ļ×©×¢
×Ĳ×ł ×Ĳ
... ]
Ġ×¨×Ĳ ×Ļ×Ķ
Ġ×Ĳ×ķ×ŀ ×ľ×¢×Ĵ
Ġ3 00
Ġ×ŀ×§ ×ķ×¨×ķ×ª
Ġ×¦×ķ×Ĵ ×¢×ĸ×Ĳ×Ĵ×ĺ
Ġ×¨×¢×ĸ ×©×Ļ×Ŀ
Ġ×¤×Ĳ×¨×ĳ ×Ĳ×ĺ×Ł
Ġ×ŀ×¢×ĵ×Ļ×¦ ×Ļ×ł×Ļ×©
Ġ×Ĳ×ķ×Ļ×¡×ĵ×¢×¨ ×ķ×ķ×Ļ×Ļ×ľ×ĺ
×¨ ×Ĳ×Ķ
×ł ×Ĳ×¨×ĺ
×ł ×¢×ĸ
×ŀ ×¦
×ķ×ĵ ×Ļ×ł×Ĵ
×ł×Ĵ ×¢×ł×¢×Ŀ
×Ĵ×¨ ×Ĳ×ĵ×¢
Ġ×¦×ķ×¤ ×Ĳ×¨×Ł
Ġ×ķ×ķ×Ļ×Ļ×ĺ ×¢
Ġ×Ļ×Ĺ ×ĸ
Ġ×ŀ×ĸ ×Ļ×§
×¨ ×Ļ×Ļ×Ł
×¨ ×Ĳ×ľ×¢
Ġ×Ĳ×Ļ× ķ
×ĸ ×Ĳ×Ĵ
×ŀ ×Ĳ×§
×¦ ×Ļ×ŀ×¢×¨
Ġ×Ľ ×Ķ×Ĳ×ĳ
×ķ×¡ ×ĺ×¢×¨
×Ļ×ĳ ×ĺ
Ġ×¡×¤ ×¨×ĵ
×Ĳ×ĸ ×¢
Ġ×Ĵ×ľ ×ķ×Ļ×ĳ
Ġ×¤×Ĳ×¨×ĳ ×Ļ×ł×ĵ×Ł
Ġ×ŀ×¢×ĺ ×Ķ×Ĳ
×¢×ł× ł
ĠOff ers
×Ľ×Ļ×ł ×¢×ĸ×Ļ×©
I N
R E
m oment
×ĵ ×Ļ×¨
×ŀ ×¢×ĸ×Ļ×©
×ķ×ķ ×¢×ĳ
×Ĵ ×¢×Ĳ
Ġ×ŀ×Ļ×ĺ ×Ļ×ł×Ĵ×ĸ
Ġ×¢×¨ ×ľ×Ļ×ļ
âĢ ĺ
ic s
Ġ×Ĳ×Ļ×Ļ×ł×¦ ×Ļ×Ļ×ĺ×Ļ×§
×Ĳ×ķ×Ļ×¡ ×¢×¨
Ġ×ŀ×ł×Ķ ×Ļ×Ĵ
Ġ×ł×Ĺ ×ķ×Ŀ
Ġ×¡×¢×ł×Ĳ×ĺ ×Ĳ×¨
×ķ ×¢×ľ×¢
×¨ ×¢×ľ
×ľ ×Ļ×Ļ×ĵ
×© ×¨×Ļ×Ļ×ĳ×Ł
Ġ×¦ ×¢×ł×ĸ
Ġ×¢ ×ŀ×¢×¡
Ġ×Ļ ×Ļ×ľ
Ġ×ľ ×Ĳ×Ľ×Ł
Ġ×¡ ×Ĳ×¡
Ġ×¤×¨ ×Ĳ×¡×ĺ
×ķ×© ×Ķ
×Ļ×ķ×ķ ×¢×¡
×° ×²
Ġ×Ĳ×Ļ×Ļ×Ĵ ×ł×ĺ
Ġ×¤×Ĳ×¡ ×ĺ×Ł
Ġ×Ĵ×¢×ķ×ķ×Ļ×ł ×¢×¨
Ġ×ĵ×¢×¨×§ ×¢×ł×¢×Ł
Ġ×¦×° ×Ļ×©×Ł
Ġ×ĵ×Ĳ×ĸ ×Ļ×Ĵ×¢
Ġ×ķ×ķ×ķ×Ļ×ł ×ķ×ł×Ĵ
×¤×¨×Ĳ×ł×¦×ķ×Ļ×ĸ ×Ļ×©
o y
s k
×ĵ ×ĸ
Ġ×¡ ×¢×ł×ĵ
×Ĳ×ľ ×Ĳ×Ĵ×Ļ×¢
×¢×ĺ ×¢×¡
Ġ×Ľ×ľ ×Ķ
×Ļ×Ļ×ķ ×ķ×Ĳ
×¨×©×Ļ×Ļ×ĵ ×¢×ł×¢
×ł×Ļ×¡ ×Ŀ
Ġ×Ĳ×ł×ĺ×ľ ×Ĳ×¤×Ł
Ġ×Ĳ×¨×¢×¡×ĺ ×Ļ×¨×ĺ
Ġ×Ĳ×Ļ×ĳ×¢×¨×Ĵ×¢×ľ ×¢×ĳ×ĺ
×Ĳ ×ķ×Ļ
Ġ×ĵ ×Ĳ×ŀ
×¡ ×ķ×ķ×Ĳ
Ġ×ł ×¢×ł×ĺ×¢×¨
Ġ×© ×ķ×ŀ×¨
×§ ×ķ×ŀ×¢×ł×ĺ
×Ķ ×Ļ×¡×ĺ×Ĳ×¨
×Ĵ ×¢×ķ×ķ×Ĳ
Ġ×Ľ ×ķ
×ĵ×¢×¨ ×ķ×ķ×Ļ×Ļ×ľ
×©×¨ ×Ļ
Ġ×Ĳ×Ĺ ×¨×Ĳ
Ġ×ľ×Ļ×ĺ ×ķ×ķ×Ļ×©×¢
Ġth at
4 3
Ġ {
×ľ ×Ļ×ŀ
×ª ×ľ×§
Ġ×¨×ĳ ×ķ×ª×Ļ
Ġ×Ļ×¢×ĵ ×¢×Ł
×± ×¤
×Ļ×Ĺ ×Ķ
Ġ×Ķ×Ĳ×¨ ×¦×Ł
Ġ×§×Ĳ×ľ ×¢×ł×ĵ×¢×¨
Ġï¬® ×Ł
ÐµÐµ ÐµÐµ
Ġ×Ĺ×ķ×ŀ ×©
O n
Ġ×ķ ×Ļ×ķ
×ķ×§ ×§
Ġ×Ĳ×ķ×Ļ×¡ ×ľ×Ĳ×ł×ĵ
Ġ×ŀ×¢×¨ ×ĵ×¢×¨
Ġ×ĺ×¨ ×¢×Ĵ×¢×¨
×ł×¡ ×Ļ
×¤×¨ ×¢×ĸ×Ļ×ĵ×¢×ł×ĺ
Ġ×Ĳ×ł×ĺ ×Ķ×Ĳ×ľ×ĺ
×ķ×Ļ×Ľ ×ĺ
Ġ×Ĳ×ķ×Ļ×ĺ ×Ĳ×ŀ×Ĳ×ĺ×Ļ×©
Ġ×ĺ×Ļ×¤ ×¢
Ġ×§×Ĳ×ł×¡ ×¢×¨×ķ×ķ
Ö¼, ,
×Ķ×Ķ ×Ķ×Ķ
×¨×ĺ×ķ×Ĵ ×¢×ĸ×Ļ×©
i v
n g
×¨ ×ķ×ķ×¢×Ĵ
Ġ×Ķ ×¢×¤
×© ×¢×¨×ĸ
Ġ×¢×¨ ×ķ×ļ
×ķ×ł×Ĵ ×Ł
Ġ×ĵ×Ĳ ×ķ×ł×ľ×Ĳ×ķ×ĵ
Ġ×¤×Ĳ ×Ł
Ġ×Ĳ×Ļ×ĳ×¢×¨ ×Ļ×Ĵ×¢
00 1
Ġ×ŀ×¢×ł×ĺ×© ×ľ×¢×ļ
Ġ×Ĳ×Ļ×ĵ ×¢×Ĳ
×ł×§ ×¢
Ġ×° ×Ļ×ľ
Ġ×¦×ķ×Ĵ ×¢×ĳ
Ġ×¤×Ļ×¨ ×ķ×ª
Ġ×Ĳ×ł×¦ ×ķ×Ķ
Ġ×§×ĳ×ľ ×ª
Ġ×Ĳ×ĳ×Ļ×¡ ×¢×ľ
×¡×Ļ×¡×ĺ ×¢×Ŀ
Ġ×¤×Ļ×ľ×Ĳ×¡ ×Ĳ×¤×Ļ×¢
Ġ×¤×Ļ×ł×¦ ×ĺ×¢×¨
Ġ×ĳ×§×¨ ×ķ×ĳ
×¡ ×ľ×Ļ
×© ×Ļ×¡
×© ×Ļ×§×Ł
Ġ×¢ ×ķ×ĳ
×Ĵ ×Ļ×Ļ
Ġ×ľ ×Ļ×ľ
Ġ×¡ ×Ĳ×ł×§
×Ļ×§ ×ķ×ª
×¢×ł×ĺ ×©×ĺ
×ł×ĵ ×¨
×ķ×ĸ ×Ļ×ł×Ļ×©
Ġ×ĺ×¨ ×ķ×Ļ×¢×¨
Ġ×ĳ×Ĳ×¨ ×¢×Ľ×ĺ
×ŀ×Ļ×ĺ ×Ĳ
Ġ×Ĳ×Ļ×Ļ×ł×Ĵ ×¢×¤×Ļ×¨×ĺ
Ġ×©×ĺ×Ļ×Ļ×ĺ ×ľ×Ļ×ļ
Ġ×ķ×ķ×Ĳ×ľ ×£
×Ĳ×¨×ĳ ×¢×ĺ×Ł
Ġ×ĵ×Ĳ×§ ×ķ×ŀ×¢×ł×ĺ
Ġ×§×¨×Ļ×¡×ĺ ×ľ×¢×ļ
Ġi Phone
×¤×Ĳ×¨×ķ×Ŀ ×§×¢×¤×ľ
i al
Ġ×Ĳ ×Ŀ
Ġ×Ĵ ×ł
Ġ×Ķ ×ĵ×¨
×Ĵ ×¢×Ł
×¢×ĺ ×ľ
×Ļ×ĵ ×©
Ġ×Ĳ×ľ ×ķ×ľ
Ġ×Ľ ×Ļ×Ļ
Ġ×ĳ×¨ ×¢×ł×ĺ
×¨×ĺ ×ķ×Ł
Ġ×¦×ķ×ķ ×¢×§×Ł
Ġ×Ĳ×ķ×ŀ ×ĳ×Ĳ×§
Ġ×Ĵ×¨×¢×¡ ×ĺ×Ł
Ġ×ŀ×Ļ×ĵ ×ķ×ª
Ġ×¨×¢×¡ ×ķ×¨×¡×Ł
Ġ×ĳ×Ĳ×ŀ×¢×¨ ×§×Ł
×ķ×ķ×¢×ł ×Ļ×¢
Ġ×Ĳ×Ļ×ł×Ķ ×Ĳ
Ġ×ķ×ķ×¢×ŀ ×¢×ł×¡
Ġ×Ĳ ×§×¢
×¨ ×Ķ×Ĳ
Ġ×¤ ×¢×ł
Ġ×¤ ×Ĳ×ĺ×©
Ġ×Ĵ ×²
×¡ ×Ļ×Ļ×ĺ
Ġ×ĳ ×Ļ×Ĵ
×ĵ ×Ļ×Ł
×§ ×¢×ĵ×Ĳ
×Ļ×ľ ×ĺ×¢
Ġ×Ĵ×¢ ×ķ×ķ×Ļ×ĵ
Ġ×Ĵ×ľ ×Ļ×Ļ×Ľ×Ł
Ġ×Ĵ×¢×ĳ ×ķ×Ļ×¨
×Ļ×ł×§ ×¢
Ġ×Ĳ×ķ×Ļ×¡×Ĵ ×¢×Ķ×Ĳ×ľ×ĺ×Ł
Ġ×ĵ×ĸ×© ×¢×ĺ
Ġ×¨×Ļ×ĸ ×Ĳ
Ġ×§×¢×© ×¢×ł×¢
Ġ×¤×¨×Ĳ×¤×¢×¡ ×Ļ×Ĳ×ł
Ġ×Ĵ×ĸ ×Ļ×¨×Ķ
Ġ×©×ĺ×Ļ×Ļ×¢×¨ ×Ł
ï¼ Į
Ġ×ª×¤×Ļ×¡ ×Ķ
×ľ ×Ļ×Ļ×Ĵ×ĺ
×¡ ×Ĳ×Ł
Ġ×ĳ ×¢×Ķ
Ġ×Ĺ ×ķ×ĳ
×©×ĺ ×Ļ×ŀ×¢×Ł
×Ļ×ķ×ķ ×¢×Ļ
Ġ×Ĳ×ķ×ŀ ×¢×ĺ
Ġ×ĳ×Ĳ×© ×Ļ×¦×Ł
Ġ×ĳ×Ĳ×¨ ×ķ×Ĳ
Ġ×¢×ł×ĵ ×¢×¨×Ł
Ġ×Ĺ×© ×Ļ×ĳ×ķ×ª
Ġf rom
Ġ×ĵ×¢×ľ ×Ļ×ķ×ķ
Ġ×ŀ×¢×ŀ ×ĵ
Ġ×Ļ×ł×§×¨×Ļ×¡ ×Ļ×ł×Ĵ
ĠPh ot
g an
Ġ× ł×ĸ
×ľ ×ķ×ķ×Ĳ
×¡ ×§×Ļ
Ġ×§ ×Ļ×ļ
×¤ ×Ļ×©
×¤ ×ķ×ł×Ĵ
×ĸ ×¢×Ķ
×ŀ ×Ĳ×¨×§
×§ ×ľ×¢×¨
Ġ×Ľ ×Ļ×Ļ×¤
Ġ×Ĳ×Ļ×¨ ×Ĳ×§
Ġ×Ĵ×¢×© ×¨×Ļ×Ĵ×Ł
×¢×¦ ×Ļ×Ł
Ġ×Ĵ×¢×ł ×Ĳ
il e
Ġ×Ĳ×¨×ķ×Ļ×¡×Ĵ ×Ļ×Ļ×Ł
Ġ×ĺ×¢×Ľ ×ĺ×¢×¨
ĠÐ ²
Ġï¬¯ ïŃĦ
Ð¾Ð ²
×Ķ×Ĵ ×Ŀ
Ġ×ĵ×¢×¤×Ĳ×¨×ĺ ×ŀ×¢×ł×ĺ
Ġ×ª×§×ľ ×Ļ×ĺ×ķ×¨
×¨ ×Ļ×©×¢×¨
Ġ×ĳ ×ķ×ĺ
×ĳ ×¢×ľ×Ĳ
×Ļ×Ľ ×¢
×¢×ł×ĵ ×Ļ×§×¢
Ġ×Ĳ×ķ×Ļ×¡×Ĵ ×Ĳ×ĳ×¢×¡
×± ×ĸ
Ġ×ĳ×Ĳ×¨ ×Ļ×ŀ×ĺ×¢
×¡×ĺ×¢ ×Ļ×ĺ
Ġ×¤×Ĳ×¨×ĺ ×Ļ×Ļ×¢×Ł
Ġ×¨×¢×¤ ×¢×¨
Ġs e
Ġ×Ĳ×Ļ×Ļ×ĸ ×Ł
×Ĵ×¢×Ķ ×¢×¨×ĺ
Ġ×ĸ×Ļ×¡ ×¢
×ĺ ×¡
×ľ ×Ĳ×§
Ġ×ķ×ķ ×ķ×Ļ×ľ
Ġ×Ķ ×ł×¤×©
×§ ×¤×Ķ
Ġ×ĺ ×Ļ
Ġ×Ļ ×Ļ×©
×Ĵ ×¢×ľ×Ĳ
×Ļ×¡ ×¤
×Ļ×ĸ ×Ļ×¨×Ł
×ķ×© ×Ŀ
Ġ×ķ×ķ×¢×¨×ĺ ×ľ
Ġ×ĳ×Ļ×ľ×ĵ ×Ļ×ł×Ĵ
×ľ×Ļ×ĺ ×ķ×ķ×Ļ×©
Ġ×ł×ª ×ł
Ġ×Ĳ×ķ×¦ ×¨×ķ×ª
×ł×Ĵ×¢×© ×¨×Ļ×ĳ×Ł
×Ĳ×Ļ×ł×ĺ×¢×¨ ×¢×¡
f or
Õ ¡
Ġ×Ķ ×Ļ×ķ
Ġ×ĳ ×ĸ×Ķ
×Ĳ×¨ ×Ĳ
×ĳ ×ķ
Ġ×¦ ×Ļ×Ļ×ľ×Ł
Ġ×¡ ×Ļ×Ļ×ĸ
Ġ×Ĳ×Ļ×Ļ× ¡
×ĳ×¨ ×ķ×ļ
Ġ×ŀ×ľ ×Ľ×Ķ
Ġ×©×ĳ ×ĺ×Ļ×Ŀ
Ġ×¢×ł×ĵ ×ĸ×©×Ĳ
Ġ×ķ×ķ×¢×¨×ĺ×¢×¨ ×ĳ×ķ×ļ
Ġ×Ĳ×Ļ×Ļ×ł×¦ ×Ļ×Ĵ×¢
Ġ×¨×¢×ĸ×ķ×ľ×ĺ×Ĳ×ĺ×Ł ×Ĳ×Ļ×Ļ×Ł
Ġ×Ĵ×¢×ķ×ķ×Ļ×ĵ ×ŀ×¢×ĺ
Ġ up
Ġ×Ĵ ×¤
Ġ×ĺ×¢×§×¡ ×ĺ×Ł
Ġ×¤×Ĳ×¨×ĺ ×Ļ×Ĵ
×ķ×Ļ×ł×ĺ ×ŀ×Ĳ
Ġ×ĵ×Ĳ×§ ×ķ×ŀ×¢×ł×ĺ×Ł
Ġ×Ĳ×ķ×Ļ×¡×ĵ×¨ ×ķ×§×Ł
Ġ×©×¢×¤×¢×¨ ×Ļ×©
7 3
Ä į
×¤ ×Ļ×§
×ĳ ×¢×§
Ġ×© ×Ļ×Ļ×ł×¢×¨
Ġ×© ×Ĳ×¨×£
×ł ×Ļ×ĺ×Ł
×Ĳ×ĺ ×Ļ×¢
×Ļ×ł ×Ĳ×¦×Ļ×¢
Ġ×©×ĺ ×Ĳ×ŀ×¢×Ł
×¢×Ľ ×Ļ×©
Ġ×Ĵ×¢×Ĵ ×ł×ĺ×Ł
Ġ×©×ĺ×Ļ×§ ×ľ×¢×ļ
Ġ×§×Ļ×ľ ×Ĳ×ŀ×¢×ĺ×¢×¨
Ġ×¤×Ĳ×¨×§×¢×¨ ×ĺ×¢
Ġ×ĺ×¨×Ĳ×ĵ ×Ļ×¦×Ļ×Ĳ×ł
Ġ×¤×Ĳ×¨×ĸ×Ļ×Ľ ×¢×¨×ĺ
Ġ×ĺ×ľ ×Ļ×ª
b um
Ġ×ķ×ķ ×¢×¤
×ł ×Ļ×Ļ×©×Ĳ
Ġ×Ļ ×ķ×©
×Ļ×§ ×¢×¡
×Ļ×ł ×ĺ×Ł
×Ĳ×Ľ ×ĺ×¢
×¢×ŀ ×¢×ł×¥
Ġ×ĳ×ľ ×¢
Ġ×ŀ×© ×ŀ×¢
Ġ×Ĳ×¨×ķ×Ļ×¡ ×Ĵ×¢×©×ĺ×¢×ľ×ĺ
Ġ×° ×ķ
Ġ×ł×ķ×¦ ×ľ×¢×ļ
Ġ×ķ×ķ×Ĳ×¨ ×¤×Ł
Ġ×Ļ×Ĺ ×Ļ×Ĳ×ľ
Ġ×Ľ×Ļ×ł ×¢×ĸ×Ļ×©
ines e
Ġ×ķ×ķ ×¢×ĵ
×¡ ×¢×ĺ
×ĸ ×Ļ×¦×Ļ×¢
Ġ×© ×Ļ×Ľ
Ġ×© ×ł×ª
×Ķ ×Ļ×Ļ×¡×ĺ
Ġ×¤×Ĳ×¨ ×Ĳ×Ľ×ĺ×Ł
Ġ×Ĵ×¢×ķ×ķ ×ķ
×ł×Ĵ ×§×Ļ×ł×Ĵ
Ġ×ĳ×ľ ×Ĳ×§
×ķ×Ĵ ×Ļ×Ļ×Ł
Ġ×ĵ×ĸ×© ×Ļ
Ġ×Ĳ×ķ×ł×ĺ×¢×¨ ×ł×¢×ŀ
Ġ×ŀ×§ ×¢×Ł
Ġ×¤×Ĳ×¨×§ ×Ļ×ł×Ĵ
Ġ×©×ĺ×Ĳ×¨ ×§×Ļ×Ļ×ĺ
Ġ×Ĳ×§ ×¢×Ĵ×Ł
×¦×ķ×Ĵ ×Ļ×Ļ×Ł
Ġ×ľ×Ļ×ĺ ×ĺ×ľ×¢
×Ĵ×¢×ķ×ķ×Ļ×Ļ×ł×ĺ ×ľ×¢×ļ
×ľ ×Ļ×ķ
×ľ ×Ĳ×ĵ
Ġ×¢ ×ľ×ĺ
×ŀ ×Ļ×Ļ×¡×ĺ×¢×¨
×¨×Ļ×Ļ× ¤
×¨×Ļ×Ļ× Ĳ
×¢×¦ ×Ļ×Ĳ
Ġ×ĺ×¨ ×¢
Ġ×©×ŀ ×©
in k
Ġ×ĺ×¢×¨ ×Ļ×ĺ×Ĳ
Ġ×Ķ×¢×¨ ×ķ×ª
Ġ×§×ķ×ľ ×ķ×ª
Ġ×ľ×© ×Ŀ
Ġ×ķ×ķ×Ļ×¤ ×ľ
×ĺ×Ļ×ł×Ĵ ×¡
Ġ×ŀ×ł×Ķ×Ĵ ×Ļ×Ŀ
Ġ×©×Ĳ×ĵ ×Ł
Ġ×Ĳ×ł×ĺ×ľ ×ķ×Ļ×¤×Ł
Ġ×ĺ×¨×Ļ×Ļ× ł×Ĵ
Ġ×¦×ķ×Ĵ×¢×Ĵ ×¨×Ļ×Ļ×ĺ
Ġ×Ĳ×ķ×Ļ×¡×§×ľ ×Ļ×Ļ
ł×Ľ ×¢
×ĺ×¢×ł×¦ ×Ļ×¢×ľ
×¨×ķ×Ļ×¢ ×§×ĺ
Ġ Ö·
Ġ×ĳ ×Ļ×§×¡
Ġ×ł ×Ļ×¥
Ġ×¦ ×Ļ×Ķ×ľ
Ġ×¢ ×Ļ×ĳ×ķ×¨
Ġ×Ļ ×ķ×¨
Ġ×¨ ×Ĳ×ł×Ĵ
×¢×ĺ ×Ļ×Ĵ×ĺ
×Ļ×Ļ×¢ ×¡
×¢×ĳ ×ķ×Ļ×ĺ
Ġ×Ĳ×Ļ×Ļ×ĵ ×¢×ľ×¢
Ġ×ĳ×Ĳ×¦ ×Ļ×Ļ×Ľ×ł×ĺ
Ġ×©×¢×ł×§ ×ĺ
Ġ×¢×¨×ŀ×¢×Ĵ ×ľ×Ļ×Ľ×Ł
4 1
Ġ×ł ×Ĳ×ł×ĺ×¢
Ġ×Ĳ×ĸ ×©
Ġ×ĳ×Ļ×ĸ ×ĺ×ķ
Ġ×ĺ×© ×¢×¨×ł
Ġ×ŀ×Ĺ ×ķ×Ļ×ĳ
Ġ×ĳ×¢×¨ ×ľ×Ļ×Ł
Ġ×¨×¢×Ľ ×¢×ł×ķ×ł×Ĵ
Ġre qu
Ġ×ľ×Ļ×Ĵ ×¢×ł×ĺ
Ġ×¢×§×¡×ĺ×¨ ×¢×Ŀ
Ġ×ŀ×Ļ×ł×ĵ ×¡×ĺ×¢×¨
b ook
h ttp
r ot
×Ļ×ĺ ×¢×Ł
×Ķ ×²
Ġ×¦×ķ ×ĺ×Ĳ×Ĵ
×Ļ×¨ ×¡
×Ľ ×¤×Ĳ
Ġ×Ĵ×¢×© ×¢×Ķ×Ł
Ġ" "
Ġ×Ĵ×¢×ĵ ×¨×Ļ×Ļ×ĺ
Ġ×ĺ×¢×Ĳ ×¨×Ļ×¢
Ġ×Ĵ×¢×¤×¢×¨ ×ľ×Ļ×ļ
×ł×Ľ ×Ĳ
×¦×ķ×¨ ×Ļ×§
Ġ×Ĵ×ķ×Ļ×Ĳ ×Ļ×©×¢
×¨×Ļ×ł×¦ ×Ļ×¤
8 2
×ľ ×Ļ×ĺ×Ļ
Ġ×ĸ ×Ĳ×ĳ
Ġ×Ķ ×¢×ĵ
Ġ×§ ×Ļ
×¤ ×Ļ×Ļ×ĵ
×Ļ×ĺ ×Ĳ×¨×Ļ×¢
Ġ×¡ ×§×ľ
Ġ×ĳ×¨ ×ķ×¡×ĺ
×ķ×© ×Ł
Ġ×¤×ľ ×Ļ×ĺ
Ġ×Ĳ×¨×ķ×Ļ×¡ ×ĳ×¨×¢×ł×Ĵ×¢×Ł
Ġ×ŀ×§ ×¨×ĳ
Ġ×¤×¨×Ĳ ×Ļ×¢×§×ĺ×Ł
×Ĳ×ŀ×Ĳ×ĺ ×Ļ×©×¢
Ġ×ĺ×¢×ĺ ×Ļ×§×Ļ×Ļ×ĺ
Ġ×ŀ×Ĺ×ķ×ª ×Ł
×¢×ł ×Ł
Ġ×¡ ×ķ×Ľ×ķ×ª
×Ĺ ×Ĺ
×Ĳ×ł ×Ļ×©×¢×¨
×ł×ĺ ×§×Ļ×Ļ
×ķ×¤ ×ª
×ŀ×¢×ł×ĺ ×Ĳ
âĢ¦ ]
Ġ×Ľ×ª ×ĳ
Ġ×¤×¨×Ļ×Ļ×ľ ×¢×ļ
Ġ×¦×Ļ×¤ ×¢×¨×Ł
Ġ×¤×ľ×Ĳ×¨ ×Ļ×ĵ×¢
Ġ×ķ ×ķ×ĳ
Ġ×¤×Ĳ×¨ ×Ĳ×Ĵ×¨
Ġ×¤×Ĳ×¨ ×ł×¢×ŀ×¢×Ł
Ġ×Ĳ×¨ ×ķ×Ł
×¢×¨×ĺ ×ķ×ł×Ĳ
Ġ×Ĵ×ľ ×ķ×ĺ×¢×Ł
Ġ×ĵ×ĸ×© ×Ĳ×¨
Ġ×¤×Ĳ×¨×© ×¢×¨
Ġ×¨×¢×Ĵ ×ķ×ľ×¢×¨
×¨×Ļ×ĵ ×Ł
×¨×ķ×ŀ ×¢×ł×Ļ×©
Ġ×§×Ĳ×¨×ĺ ×ľ
Ġ×¢×Ļ×¨ ×ķ×ĳ
Ġ×ĺ×©×¢×Ľ ×Ļ×Ļ
×¢×¨ ×Ļ×Ļ×ĺ×Ļ×ł×Ĵ
×ĵ ×ĺ
×ĸ ×¢×ľ
Ġ×© ×ķ×ĺ×¢×¨
×¢×ŀ ×ĳ×Ĳ
×Ļ×Ļ×ĵ ×ĺ
×Ĳ×ľ×ĺ ×Ļ×ĸ×Ļ×©
×¨×ĳ ×ķ×ł×ĵ×Ł
Ġ×Ĳ×ł×Ĵ ×¢×©×ĺ×¢×ľ×ĺ
Ġ×ĳ×Ĳ×© ×¨×Ļ×Ļ×ĳ×Ł
Ġ×©×ķ×ķ ×Ĳ×ļ
×ķ×§×¨ ×Ļ×Ļ×ł
×¨ ×ł×ĺ
Ġ×ĵ ×Ļ×ĳ
Ġ×ŀ ×¨×Ł
Ġ×© ×ŀ×Ĳ
Ġ×ĺ ×Ĳ×Ķ
×ł×ĵ ×Ł
×Ļ×¤ ×Ļ×§
Ġ×ŀ×© ×ł×Ļ×ķ×ª
Ġ×¨×¢×ĵ ×Ĳ×Ĵ×Ļ×¨×ĺ
Ġ×° ×¢×ľ
Ġ×Ĵ×¢×ŀ ×Ļ×©×ĺ
Ġ3 5
×ŀ×¡ ×Ľ×ª
ĠT h
×¨×ŀ ×ĸ
am es
Ġ×ŀ×Ĳ×Ľ ×¡×ĺ
Ġ×Ĳ×Ļ×¡ ×ĺ
im pl
Ġ×ĳ×Ļ×ķ ×¨×Ĳ
Ġ×¨×¢×ĸ×¢×¨ ×ķ×ķ×Ļ×¨×ĺ
Ġ×Ķ×©×Ĵ ×Ĺ×Ķ
0 6
×ķ ×ķ×ĵ×Ĳ×Ļ
×¢×¨ ×Ļ×¢
Ġ×¤ ×Ļ×Ļ×ł
Ġ×Ķ ×¢×ľ×ĺ
Ġ×ĳ ×Ļ×©
Ġ×ĳ ×ķ×¨×Ĳ
Ġ×© ×Ļ
Ġ×¢ ×£
×§ ×¢×ł×ĺ
Ġ×¦×ķ ×ĺ
Ġ×¤×Ĳ×¨ ×Ĵ×¨
Ġ×Ĳ×Ļ×ĳ×¢×¨ ×ľ×¢×ĳ
×ķ×Ĵ ×Ĳ
×¨×ĳ ×¢×ĺ×¢×¨
Ġ×§×¨ ×Ļ×¤
Ġ×ĵ×ĸ×© ×ķ×ľ
ĠS MS
Ġ×Ķ×¡ ×ª×Ŀ
×ĺ×¢×ľ ×ĺ×¢×¨
Ġ×§×Ĳ×ł×ĺ×¨ ×Ļ
×Ĳ×¦×Ļ×Ĳ×ł ×Ĳ×ľ
Ġ×ĳ×§ ×©×Ķ
Ġ×ĸ×Ľ×¨ ×ķ×Ł
4 2
e v
×¢× ł×ŀ
Ö¸ Ö¼
Ġ×ĳ ×Ļ×Ļ×Ł
Ġ×Ĳ×ľ ×¢×§×¡
Ġ×Ľ ×ķ×ķ×ł×Ķ
×ĳ×¢×¨ ×ĺ
×ł×Ĵ ×¢×ł×Ķ
Ġ×ĺ×© ×¢×¤
×Ļ×ł× ł
×¨×©×ĺ ×Ļ×Ļ×ĺ
Ġ×¡×ĺ×¨ ×Ĳ×©
Ġ×Ĳ×¨×ĳ×¢×ĺ ×¡
Ġ×Ķ×ľ ×ķ×Ļ
Ġ×ĳ×Ķ ×ŀ×Ķ
Ġ×ĵ×¢×ľ ×Ļ×ķ×ķ×¢×¨
Ġ×Ĵ×¨×¢×Ĵ×Ĳ×¨ ×Ļ×Ĳ×ł×Ļ×©×Ł
impl ified
Ġ×¤ ×Ļ×¦
×¡ ×ŀ×Ĳ
Ġ×Ķ ×ĳ×ľ
Ġ×¡ ×ł
Ġ×¤×Ĳ×¨ ×Ĵ×ľ
×Ļ×ł ×¢×ĺ
×Ļ×ł×ĵ ×¢×Ł
Ġ×ĳ×© ×ł×ª
Ġ×¢×ł ×ľ×Ļ×Ľ×¢
Ġp os
Ġ×¤×Ĳ×¡ ×Ļ×¨×Ł
Ġ×Ļ×¨×ķ×© ×Ķ
Ġ×ĳ×Ľ ×ķ×ķ×ł×Ķ
×¨×Ļ×Ľ×ĺ ×Ļ×Ĵ
×ķ×ķ×¢×ĵ ×Ļ×©
Ġ×Ĺ×ķ×ĸ ×§
Ġ×¢×ĳ×ķ×ĵ ×ª
×¨ ×ķ×Ĳ
Ġ×ķ×ķ ×Ļ×ł×ĵ
×§ ×ł
×¢×ľ ×ĺ×¢
×¢×ĺ ×¨×Ĳ
×ĺ×¢ ×ķ×ª
Ġ×¤×Ĳ×¨×§ ×ķ×Ļ×¤
Ġ[ âĢ¦]
Ġ×ķ×ķ×Ĳ×¨ ×¤×ĺ
ic h
Ġ×ľ×¢×ĳ ×¢×Ł
×¡×¢×¨ ×ĳ×Ļ×©
×ĺ×¢×ľ ×ĺ×¢
Ġ×§×Ĳ×ł×¡ ×ĺ×Ļ×ĺ
Ġ×ĺ×Ļ×Ļ×ĺ ×ľ×ĳ×ķ×Ļ×Ŀ
Ġ×Ļ×ł×§×¨×Ļ×¡ ×Ļ×ĸ
A N
u re
×§ ×ł×Ĳ
Ġ×ľ ×Ĳ×ļ
×Ĳ×ł ×Ļ×Ŀ
×¢×ł×ĵ ×ĺ
×ķ×¦ ×Ļ×Ŀ
Ġ×Ķ×Ĳ×ĳ ×¢×ļ
Ġ×Ĵ×¢×ŀ ×¢×Ĵ×ĺ
Ġ×¦×ķ×Ĵ ×¢×ĳ×Ł
×ĵ×ĸ×© ×Ļ
Ġ×ĺ×¢×Ĵ ×ľ×Ļ×Ľ×¢
Ġ×ĵ×ķ×¨×Ľ ×¤
Ġ×ĺ×ķ×¨ ×¢×Ŀ
Ġ×ĺ×ķ×¨ ×ŀ×¢
Ġ×ĳ×ķ×© ×Ķ
Ġ×ĳ×Ĳ×Ĵ×¨ ×Ĳ×ĳ×Ł
Ġ×ĵ×Ĳ×¨×¤ ×¡×ĺ×ķ
×¤×¨×Ļ×¢×¨×ĵ ×Ļ×Ĵ×¢
Ġ×©×ĺ×ķ×ª ×Ļ×Ŀ
×ķ ×ķ×ł
Ġ×ŀ ×Ļ×¡×Ĳ
×§ ×²×ĺ
×Ĺ ×¡×Ļ×ĵ
×ł×¡ ×¢×¨
Ġ×§×ľ ×Ļ×ł×Ĵ×ĺ
×³ ×³
×Ĵ×¨ ×ķ×ĸ×Ļ×ł×Ļ×©
Ġ×Ĳ×Ļ×Ļ×Ĵ ×¢×ł×¢×¨
Ġ×¤×¢×¨ ×¦×Ļ×Ĵ
Ġ×¤×Ĳ×¨×ĳ ×Ĳ×ł×ĵ
Ġ×¨×Ĳ×© ×ķ×Ł
Ġ×ł×§ ×ķ×ĵ×ķ×ª
Ġ×Ļ×§×¢×¨ ×ĵ×Ļ×§
yiddish moment
j ani
z erb
×ĺ ×Ķ×Ĳ
Ġ×ĵ ×Ļ×§×ĺ
×ľ ×Ĳ×ĺ
Ġ×© ×Ļ×ľ×¢×¨
×ª ×ª
Ġ×Ĳ×¤ ×Ĵ×¢×¨
Ġ×Ĵ×¨ ×Ļ×ł×¢
×ł×¤ ×Ĳ
×´ .
Ġ×Ĳ×Ĺ ×ķ×¥
Ġ×ŀ×ĳ ×ķ×ľ
×ľ×¢×ł×ĵ ×¢×¨
Ġ×Ĳ×ķ×Ļ×¡×¢×¨ ×Ĵ×¢×ķ×ķ
Ġ×ĺ×Ĳ×ľ ×¢×¨
zerb ai
a el
o b
×¨ ×¢×ķ×ķ
Ġ×ĸ ×¢×¡×ĺ
Ġ×¤×Ĳ×¨ ×ĵ×¨
×ĺ×¢×¨ ×ĵ
Ġ×Ĵ×¢×ķ×ķ ×Ĳ×¨×ĺ
Ġ×Ĳ×¤ ×Ķ
×©×ĺ ×ķ×ª
Ġ×ĺ×¨ ×ķ×§
×ķ×ķ×Ĳ×¡ ×¢×¨
Ġ×Ķ×ŀ ×Ĺ
Ġ×Ĺ×© ×§
Ġ×¨×Ĳ×© ×ķ×ł×Ļ×Ŀ
as h
×¡×¢×¡ ×Ļ×ł×Ĵ
Ġ×¡×¢×ĺ ×ĺ×Ļ×ł×Ĵ×¡
Ġ×ł×Ĳ×¦ ×Ļ×¡
Ġ×Ĵ×ľ×¢×ĸ ×ľ
zerbai jani
7 1
×ĺ ×Ļ×©×ĺ×©
×ľ ×Ļ×Ļ×ĳ×ĺ
Ġ×ĸ ×ŀ
×ĸ ×Ľ×¨
Ġ×ľ ×Ļ×Ļ×£
Ġ×¡ ×Ļ×Ļ×ĵ
×Ļ×¨ ×Ļ×©×Ĳ
×¢×ĺ ×¢×Ł
×Ļ×¡ ×ľ×¢×ł×ĵ
Ġ×Ĵ×¢×© ×ŀ×ķ×¢×¡×ĺ
×Ļ×ł×ĵ ×Ļ×©×Ĳ
Ġ×° ×Ļ×§
×ĺ×© ×Ĵ×¨×Ļ×Ľ×Ļ×©
×ķ×Ļ×ľ ×Ļ×©×¤
Ġ×Ĳ×ł×ĺ ×§×¢×Ĵ×Ł
Ġ×Ķ×¢×¨ ×¦×¢×¨
Ġ×ķ×ķ×Ĳ×¨ ×©×¢
×ł×Ļ×© ×Ķ×Ĳ
Ġ×Ĳ×ķ×Ļ×¤×Ĵ ×¢×ĺ
×©×ľ ×¢×ĺ×Ļ×©
Ġ×ŀ×ŀ ×ľ×Ĳ
×Ļ×©×Ĳ ×Ļ×ł×ĵ×Ĳ
×Ļ×©×Ĳ ×ķ×§×¨×Ļ×Ļ×ł
×Ļ×©×Ĳ ×Ļ×¨×Ļ×©×Ĳ
×Ļ×©×Ĳ ×Ļ×¡×ľ×¢×ł×ĵ
Ġ×¢×§×ĸ×Ļ×¡×ĺ ×Ļ×¨×Ł
Ġ×ĸ×¢×§×¡ ×¢×¨
×¨×Ļ×© ×§×Ĳ
×¨×Ļ×© ×©×¤
×¢×ĳ×¨×¢ ×Ļ×©×Ķ
×Ļ×ł×Ļ×© ×¤×¨×Ĳ×ł×¦×ķ×Ļ×ĸ×Ļ×©
×ķ×ł×Ĵ×¢×¨ ×Ļ×©×Ĳ×Ļ×¡×ľ×¢×ł×ĵ
×Ķ×Ļ×ľ ×Ļ×©
×¢×ł×Ĵ×ľ×Ļ×© ×Ĳ
×¨×ķ×¡×Ļ×© ×ĳ×ķ×ľ×Ĵ×Ĳ
×¨×ķ×¡×Ļ×© ×¡×¢×¨×ĳ×Ļ×©
ai ×ĺ×¢×¨×§
×§×Ļ×© ×ĳ×ķ×ľ×Ĵ×Ĳ
×ľ×¢×ł×ĵ×Ļ×© ×ĵ×Ĳ
Ġ×ŀ×Ļ×ľ×Ľ ×Ļ×§
×ľ×Ļ×¢×ł×Ļ×© ×Ļ×Ĳ
Th ai×ĺ×¢×¨×§
×ł×¢×ĸ ×Ļ×©×Ĳ×Ļ×¨×Ļ×©×Ĳ
×¨×ķ×ķ×¢×Ĵ ×Ļ×©×¤
×¢×Ľ×Ļ×© ×ĵ×Ĳ
×¨×ķ×ŀ×¢×ł×Ļ×© ×¨×ķ×¡×Ļ×©×¡×¢×¨×ĳ×Ļ×©
×ĺ×Ļ×©×ĺ×© ×¢×Ľ×Ļ×©×ĵ×Ĳ
×Ļ×ł×ĵ×Ļ×©×Ĳ ×ķ×ł×Ĵ×¢×¨×Ļ×©×Ĳ×Ļ×¡×ľ×¢×ł×ĵ
×¢×ĳ×¨×¢×Ļ×©×Ķ ×Ļ×ł×ĵ×Ļ×©×Ĳ×ķ×ł×Ĵ×¢×¨×Ļ×©×Ĳ×Ļ×¡×ľ×¢×ł×ĵ
Thai×ĺ×¢×¨×§ ×Ļ×©×Ĳ×ķ×§×¨×Ļ×Ļ×ł
×ł×¢×ĸ×Ļ×©×Ĳ×Ļ×¨×Ļ×©×Ĳ ×Ļ×ĺ×Ĳ
×¨×ķ×ŀ×¢×ł×Ļ×©×¨×ķ×¡×Ļ×©×¡×¢×¨×ĳ×Ļ×© ×¡×ľ×Ĳ
×¢×ĳ×¨×¢×Ļ×©×Ķ×Ļ×ł×ĵ×Ļ×©×Ĳ×ķ×ł×Ĵ×¢×¨×Ļ×©×Ĳ×Ļ×¡×ľ×¢×ł×ĵ ×Ļ×©×Ĳ×Ļ×ł×ĵ×Ĳ
S implified
×ķ ×Ĳ×ľ
Ġ×ĵ ×Ļ×ķ
×¡ ×ľ×ĳ
×ĸ ×Ļ×Ļ×ł×¢×Ł
×ŀ ×ł×Ķ
×¦ ×ķ×ł×¢×ŀ×¢×Ł
×Ĺ ×¨
Ġ×Ĵ×¨ ×Ļ×ł
Ġ×Ĳ×ķ×Ļ×¡ ×ŀ
Ġ×§×¨ ×Ĳ×ŀ×¤
ï¬® ×¨
×¢×ł×§ ×ľ
ïŃİ ×ĺ
Ġ×ľ×Ĳ×ł×ĵ ×Ĳ×ł×¢×¨
Ġ×Ĳ×Ļ×Ļ×ł×¦ ×Ļ×§×¢×¨
×¨×¢×ĵ ×Ĳ
Ġ×ĳ×Ĳ×ŀ×¢×¨ ×§
Ġ×Ĵ×¢×ķ×ķ×¢×ł ×ľ×Ļ×Ľ×¢
Ġal bum
Ġ×¢×¨×ŀ×¢×Ĵ ×ľ×Ļ×Ľ×ĺ
âī ł
×©×ľ×¢×ĺ×Ļ×© ×ľ×Ļ×ĺ×ķ×ķ×Ļ×©
A zerbaijani
R L
T C
Ġ×¤ ×Ļ×©×¢×¨
Ġ×ŀ ×ķ×ľ×ĺ
Ġ×Ĵ ×Ļ×ŀ
Ġ×ł ×Ļ×§×Ĳ
×ŀ ×Ĳ×ľ×ĺ×Ļ×ĸ×Ļ×©
×§ ×¢×ł
×ķ×ķ ×ķ×Ļ×¢×ĺ
Ġ×¨ ×ķ×Ļ×Ŀ
×ļ ×¢×ł×Ĵ×ľ×Ļ×©×Ĳ
×ĵ×¢×¨ ×ķ×ł×Ĵ
×Ļ×Ļ×¢×¨ ×¡
×Ļ×ł×ĵ ×ĺ
Ġ×¨×ĳ ×Ļ×Ŀ
×¢×¨×¡ ×Ļ×©×¤
Ġ×Ĵ×¢×ľ ×¢×Ľ×ĺ×¢×¨
Ġ×§×Ĳ×¨ ×Ĳ×ľ
Ġ×©×ķ×ķ×¢×¨ ×Ļ×§×Ļ×Ļ×ĺ×Ł
×ł×Ļ×© ×§×Ĳ
×ł×Ļ×© Ch
×ł×Ļ×© ×¡×ķ×ķ×Ĳ
×ł×Ļ×© ×Ĵ×¨×ķ×ĸ×Ļ×ł×Ļ×©
Ġ×Ķ×ľ ×ľ
×Ļ×©×Ĳ ×ķ×¨×ĵ
×Ĳ×¨×ŀ ×Ĳ×ł×Ļ×©
Ġ×ĺ×Ļ×¤ ×¢×¨
×¡×§ ×ĳ×¢×ľ×Ĳ
Ġ×Ĳ×Ľ×ĺ ×ķ×ł×Ĵ
×ĳ×Ļ×© ×ŀ×Ĳ×ľ×ĺ×Ļ×ĸ×Ļ×©
×ĳ×Ļ×© ×Ĳ×¨×ŀ×Ĳ×ł×Ļ×©
Ġ×ķ×ķ×Ļ×ł×ĺ ×©×Ł
×ľ×¢×Ķ ×¢×ĳ×¨×¢×Ļ×©×Ķ×Ļ×ł×ĵ×Ļ×©×Ĳ×ķ×ł×Ĵ×¢×¨×Ļ×©×Ĳ×Ļ×¡×ľ×¢×ł×ĵ×Ļ×©×Ĳ×Ļ×ł×ĵ×Ĳ
Ġ×Ĳ×Ļ×ł×¢×ķ×ķ ×Ļ×Ļ×ł×Ļ×Ĵ
Ġ×ķ×Ļ×ľ ×¢×Ŀ
×¨×ĺ×ķ×Ĵ×¢×ĸ×Ļ×© ×¨×ķ×ŀ×¢×ł×Ļ×©×¨×ķ×¡×Ļ×©×¡×¢×¨×ĳ×Ļ×©×¡×ľ×Ĳ
×ķ×ķ×¢×ĵ×Ļ×© Thai×ĺ×¢×¨×§×Ļ×©×Ĳ×ķ×§×¨×Ļ×Ļ×ł
×ĺ×©×Ĵ×¨×Ļ×Ľ×Ļ×© ×Ķ×Ĳ
×Ļ×ł×Ļ×©×¤×¨×Ĳ×ł×¦×ķ×Ļ×ĸ×Ļ×© ×Ĵ×Ĳ
×Ķ×Ļ×ľ×Ļ×© ×ķ×ķ×¢×ĵ×Ļ×©Thai×ĺ×¢×¨×§×Ļ×©×Ĳ×ķ×§×¨×Ļ×Ļ×ł
Azerbaijani ×ĳ×Ĳ
×ķ×ķ×ķ×Ļ×¢×ĺ ×ł×Ĳ
×ł×Ļ×©Ch inese
×ł×Ļ×©×Ĵ×¨×ķ×ĸ×Ļ×ł×Ļ×© ×ĵ×Ļ×Ļ
×Ļ×©×Ĳ×ķ×¨×ĵ ×ķ×ķ×ķ×Ļ×¢×ĺ×ł×Ĳ
×ĳ×Ļ×©×ŀ×Ĳ×ľ×ĺ×Ļ×ĸ×Ļ×© ×ł×Ĳ
×ĳ×Ļ×©×Ĳ×¨×ŀ×Ĳ×ł×Ļ×© Azerbaijani×ĳ×Ĳ
×Ķ×Ļ×ľ×Ļ×©×ķ×ķ×¢×ĵ×Ļ×©Thai×ĺ×¢×¨×§×Ļ×©×Ĳ×ķ×§×¨×Ļ×Ļ×ł ×Ļ×©×Ĳ×ķ×¨×ĵ×ķ×ķ×ķ×Ļ×¢×ĺ×ł×Ĳ
Â ®
×¢×¨ ×ľ
×¤ ×¢×¨×¢
×ĳ ×Ľ×ľ×ľ
Ġ×©×ĺ ×Ĳ×¤×ľ
Ġ×Ĺ ×ł×Ķ
Ġ( "
Ġ×¢×ĺ ×ķ×ķ×Ĳ×¡
Ġ×Ĺ×ľ ×ķ×ŀ×ķ×ª
Ġ×¢×ŀ ×¢×ĸ×Ĳ×Ł
Ġ×ĳ×Ļ×ĸ×ł×¢×¡ ×¢×¨
×¨×ĺ×¢×¨ ×¡
Ġ×Ĳ×Ļ×ł×¢×¨ ×Ķ×Ĳ×ľ×ĳ
×©×ľ×¢×ĺ×Ļ×©×ľ×Ļ×ĺ×ķ×ķ×Ļ×© ×ŀ×Ĳ
8 1
Ġ×¤ ×Ļ×ł×¤
Ġ×ĸ ×Ĳ×¤×ĺ
Ġ×ł ï¬¯
×ŀ ×§
Ġ×Ļ ×ł×¢×¨
×Ĵ ×ľ×Ĳ
×ĵ×¢×¨ ×¡
Ġ×ª ×Ĳ×ķ
Ġâ Ĩ
Ġ×Ĵ×¨×ķ×Ļ×¡ ×§×Ļ×Ļ×ĺ
×ł×§ ×¡
Ġ×©×ŀ ×ķ×¦
Ġ×Ĳ×ķ×ŀ ×Ĳ×Ł
×ķ×ł×ĺ ×Ļ
Ġ×ŀ×¡ ×Ĳ×ĺ×ŀ×Ĳ×¨
×Ľ×Ķ ×Ł
Ġ×Ķ×Ĵ ×ĵ×¨
Ġ×ķ×ķ×Ļ×Ļ×ĺ ×Ļ×§
Ġ×¡×¢ ×ķ×ĵ×ķ×ª
Ġ×ĵ×Ļ×¢ ×Ĵ×Ĳ
×¢×ł×ĺ×¤ ×¢×¨×Ł
×ľ ×¢×¤×ĺ
×ł ×¢×§×¡×ĺ
×¢×ł ×ķ×ł×Ĵ×¢×Ł
Ġ×Ĵ×¢×ķ×ķ ×¢×ĳ
×¢×ŀ ×¢×ł×ĺ
Ġ×©×¤ ×Ļ×Ĳ×ł
×Ļ×¤ ×ķ×¨
Ġ×ĸ×Ĳ×ľ ×¥
Ġ×Ĳ×ķ×Ļ×¤ ×Ķ×¢×¨×Ł
Ġ×ĵ×¢×ŀ ×¢×§
Ġ×¦×ķ×Ĵ ×¢×©
×ķ×ķ×Ļ×¡ ×Ł
is s
Ġp l
×Ĵ×¢×ŀ ×Ĳ×Ľ×ĺ
×¨×Ļ×Ļ×¡ ×Ļ×ł×Ĵ
Ġ×ĸ×¦ ×ķ×§
Ġ×©×ĺ×ķ×ĵ ×Ļ×¢×¡
Ġ×Ĵ×¨×Ļ×Ľ ×Ļ×©
Ġ×§×Ĳ×ł×ĵ×Ļ×ĵ ×Ĳ×ĺ×Ł
Ġ×ĵ×ķ×¨×Ľ×Ĵ×¢×¤ ×Ļ×¨×ĺ
Ġ×§×ĺ ×Ŀ
Ġ×¤×Ĳ×¨×Ľ ×Ĳ×¤×ĺ
Ġ×¡×¦ ×¢×ł×¢
i x
×¨ ×¢×ł×ĺ
Ġ×© ×ĳ×¢
Ġ×¨ ×Ĳ×ĺ×Ł
×Ļ×ķ ×ł×Ĵ
Ġ×Ľ ×ĳ
×§×ĺ ×Ļ×Ĳ
Ġ×° ×¢×¨×Ł
Ġ×Ĳ×ķ×ł×ĺ×¢×¨ ×Ĵ×¢×©×¨×Ļ×ĳ×Ł
×ŀ×¢×¨ ×§×Ł
Ġ×§×Ĳ×¤ ×Ļ
Ġ×Ĳ×Ĺ ×¨×ķ×Ł
Ġ×¨×¢×ł×ĺ ×Ĵ×¢×ł
Ġ×Ĳ×ķ×Ļ×¢ ×¨
Ġ×Ĳ×ķ×Ļ×¢ ×¨×Ł
Ġ×¢×§×ĸ ×¢×§
U S
Ġ×¡ ×ķ×ķ×Ĳ
Ġ×¨ ×Ļ×ĺ×©
Ġ×¨×¢×¤ ×Ĳ×ĳ×ľ
×Ĵ×¢ ×ķ×ķ×Ļ×ĸ×Ł
Ñģ ÑĤ
Ġ×Ĳ×ķ×Ļ×¡×Ĵ×¢×¤ ×Ļ×¨×ĺ
Ġ×ĵ×¢×ĳ ×Ĳ×ĺ×¢
Ġ×©×Ĺ ×Ļ×ĺ×Ķ
Ġ×Ķ×Ļ×ĺ ×ľ×¢×¨
Ġ×ĵ×¨×Ļ×Ļ×¡ ×Ļ×Ĵ
Ñ ĩ
Ġ×Ļ ×ķ×ĺ
Ġ×Ļ ×ķ×ł×Ķ
Ġ×¤×Ĳ×¨ ×ł×ĺ
Ġ×Ĳ×ľ ×ķ×§
×ķ×ķ×¢×¨ ×ĵ
Ġ×¤×Ĳ×¨×©×ĺ ×¢×ľ×Ł
Ġ×¤×Ĳ×¨×©×ĺ ×Ļ×Ļ×¡×ĺ
Ġ×©×ķ×ķ ×Ĳ×Ĵ×¢×¨
Ġ×Ķ×Ĳ×ľ ×ĳ×¢×¨
Ġ×©×ĺ×¢×¨ ×ĺ
Ġ×ł×¢×ĺ ×ķ×ķ×Ĳ
×ĵ×ķ×¨ ×Ľ
Ġ×Ĳ×Ļ×Ļ×¨×Ĳ×¤ ×¢×Ĳ×Ļ×©×¢
Ġ ),
×ĺ ×ĺ×©
×¡ ×¤×¨
×ŀ ×ŀ×Ĳ
Ġ×ŀ×Ļ×ĺ ×Ļ×ł×Ĵ
Ġ×Ĵ×¢×ķ×ķ ×¢×¨
×Ļ×ķ ×ķ×ĵ
×Ĳ×ŀ ×¢×¡
Ġ×Ĳ×¤ ×Ļ×ł
Ġ×Ĵ×¢×© ×Ĳ×ł×§×¢×Ł
×¨×ĺ ×¨×Ĳ
×¢×¨×¡ ×ĺ×¢
Ġ×©×ľ ×Ĳ×£
Ġ×Ļ×Ĺ ×ķ×¡
ĠD ownload
ÑĢ Ð°
×ľ×ķ ×ķ×ĵ
Ġ×Ķ×ķ×¨ ×Ĳ×Ķ
Ġ×ĸ×¢×ľ×ĺ ×¢×ł×¢
×ł×Ĵ×¢×ł×Ķ ×Ļ×Ļ
×Ļ× ł×¥
Ġ×§ ×²
×¤ ×Ļ×ľ×ĺ
×ł ×Ļ×Ļ×ĺ
Ġ×ĺ ×ķ×Ļ×ĳ
×Ĵ ×ł×Ĳ
×Ļ×ł ×Ļ×Ĳ
Ġ×ĳ×ľ ×¢×Ŀ
Ġ×ŀ×Ĳ×ł ×¨×Ĳ
Ġ×Ĳ×ŀ×Ĳ×ľ ×Ļ×Ĵ×¢
Ġ×Ĵ×¢×ķ×ķ×Ļ×¡ ×¢×¨
Ġa s
Ġ×Ĳ×ķ ×ķ×ł×ĺ
Ġf ree
Ġ×¡×ķ×¤ ×¢×¨
Ġ×¢×ĳ ×¨×Ļ×ª
Ġ×ĵ×¢×ĳ ×Ĳ×ĺ
Ġ at
×ĳ ×¢×Ł
Ġ×¢ ×ķ×©×¨
×Ļ×ķ ×ķ×Ĵ
Ġ×Ľ ×¡
Ġ×§×ľ ×¢×¨
Ġ×¨×¢×ĵ ×Ĳ×§×ĺ×Ĳ×¨
Ġ×ĺ×© ×Ļ×Ļ×ł×¢
×¨×Ĵ ×¢
Ġ×ĺ×¢×¨ ×Ļ×ĺ×Ĳ×¨×Ļ×¢
Ġ×ķ×ķ×¢×ĳ ×¡×Ļ×Ļ×ĺ
Ġ×§×Ĳ×¨ ×¢×¢
Ġ×ķ×ķ×Ļ×¡ ×§×Ĳ×ł×¡
Ġ×¦×ķ×ķ×Ļ×Ļ×ĺ ×¢×Ł
Ġ×§×¢×Ĵ ×ł×©×ĺ×¢×ľ
Ġ×Ĳ×ĺ×Ĳ×§ ×Ļ×¨×ĺ
Ġ×ł×Ĳ×ĺ ×Ļ×¨
Ġ×§×Ļ×Ļ×ľ ×Ļ×Ŀ
Ġ×¢×ł×ĺ×¢×¨ ×¤
Ġ×§×¨×Ĳ×ŀ×¤ ×ľ×Ļ
r ow
Ö ²
Ġ×ľ ×ķ×Ļ×ĳ
Ġ×¨ ×Ļ×Ļ×ł
Ġ×¨×¢×ĵ ×ķ×¦×Ļ×¨×Ł
×¤×Ĳ ×ķ×ł×¡
Ġ×¤×Ļ×¨ ×¢×¨×©×Ĳ×¤×ĺ
×¨×Ļ×Ļ×ĵ ×ł×ĵ×Ļ×§×¢
×¨×Ļ×Ļ×Ľ ×Ł
×ŀ×¢×ł×ĵ ×Ļ×ĵ
Ġ×¢×Ĵ ×Ļ×¤×ĺ×Ł
Ġ×ł×¦ ×Ĺ×ķ×Ł
Ġ×ŀ×Ĳ×Ĵ×Ĳ×ĸ ×Ļ×Ł
Ġ×§×Ĳ×¨×¢×¡×¤×Ĳ×ł×ĵ ×¢×ł×ĺ
Ġ×ĳ×Ĳ×©×¨×Ļ×Ļ×ĳ ×ķ×ł×Ĵ
Ġ×ĳ×¨×Ĳ×ĸ ×Ļ×ľ
Ġ×Ĳ×ķ×ŀ×¢×ĺ ×ķ×Ŀ
Ĵ ×¢×¨
×§ ×Ĳ×ŀ×¤
Ġ×¡ ×Ļ×ł×Ļ
Ġ×¨ ×Ļ×¢×ľ
×¢×¡ ×Ļ×¢
×¦ ×Ĳ×ľ
×¦ ×¢×Ŀ
×ķ×ľ ×Ļ×ł×Ĵ
Ġ×Ľ ×¤
×ĳ×¨ ×¢×ł×Ĵ×Ł
Ġ×Ĳ×¤×Ĵ ×¢×¤
Ġ×¤×¨×Ĳ×ĳ ×Ļ×¨×Ł
ind ows
Ġ×ľ×¢×§ ×¦×Ļ×¢×¡
Ġ he
×¨ ×Ļ×¨×Ł
×ľ ×Ļ×Ļ×ĳ
Ġ×§ ×Ļ×ĵ×¡
×ĳ ×Ĳ×Ł
×§ ×ľ×¢
×Ļ×§ ×ķ×¨×¡
Ġ×¨ ×ķ×Ļ
×ķ×ŀ ×ĵ
Ġ×Ľ ×©
×Ĳ×¤ ×Ĳ×ľ×Ļ×¢
Ġ×Ĵ×¨ ×±
Ġ×ĳ×¨ ×ķ×Ļ×Ł
×Ĳ×ł×ĵ ×¢×¨×¢
Ġ×§×¨ ×Ļ×ĸ×Ļ×¡
Ġ×¡×ĺ ×Ĳ×§
Ġ×Ĺ×¡ ×¨×ķ×Ł
Ġ×§×Ĳ×ľ ×Ļ×¤×Ĳ×¨×ł×Ļ×¢
ĠB as
Ġ×ĳ×ķ×ĵ ×ĸ×©×¢×ĺ
ess ion
Ġ×Ķ×Ļ×ª ×¨
Ġ×§×Ļ×¤ ×¨×Ĳ×¡
Ġ×ķ×ķ×Ļ×Ļ×¨ ×ķ×¡
Ġ×Ļ×Ĺ×ĸ ×§×Ĳ×ľ
Ġ×ķ×ķ×Ļ×¡×§×Ĳ×ł×¡ ×Ļ×Ł
7 2
æ ľ
Ġ×¤ ×Ļ×Ļ×ł×ĵ
×¡ ×Ĺ
×§ ×Ļ×ł×ĵ
×¢×Ĵ ×Ĳ×¨×Ļ×¢
×Ļ×Ĳ ×ł×¢×Ł
Ġ×Ľ ×ĵ
Ġ×Ľ ×¢×¡
Ġ×Ĳ×Ļ×ĳ×¢×¨ ×ĳ×ľ
Ġ×Ĳ×ķ×Ļ×¤ ×Ķ
×¨×ĺ ×¢×ĵ
Ġ×Ĵ×¨×ķ×Ļ×¡ ×ķ×ķ×Ĳ×¨×ĵ×Ļ×Ļ×Ł
Ġ×Ĳ×¨×ķ×Ļ×¤ ×ľ×Ļ×Ļ×Ĵ×Ł
Ġ×Ķ×Ļ×Ļ×ľ ×Ļ×§
Ġ×ĵ×Ļ×¤ ×ľ
Ġ×ĵ×ĵ×ĸ×© ×¡
Ġ×©×Ļ×ĺ ×ķ×ª
Ġ×Ĺ×¡×¨ ×ķ×ł×ķ×ª
r y
Ġ×ŀ ×Ķ×Ĳ×ĺ
Ġ×ł ×¢×ķ×ķ
×Ĵ ×¢×ĺ×¨
×Ļ×¡ ×Ļ×ĸ
×ľ×Ĳ ×Ł
×¢×Ķ ×Ĳ
×Ļ×Ļ×ĸ ×Ł
Ġ×Ĵ×¢×ĳ ×¢×ł×ĺ×©×ĺ
Ġ×¡×Ļ×ŀ ×ł×Ļ×Ŀ
Ġ×Ķ×¢×Ľ×¢×¨ ×ķ×ł×Ĵ
Ġ×¨×Ļ×§ ×ķ×ķ
Ġ×ł×§ ×ŀ×Ķ
Ġ×ķ×ķ×Ļ×ĸ ×©
ec tion
Ġ×Ĳ×Ļ×ł×¡ ×ĺ×¨
×ł×Ĳ×Ľ ×ĵ×¢×Ŀ
Ġ×ŀ×ľ×Ĳ×Ľ ×Ļ×Ŀ
Ġ×Ķ×ĳ×Ĳ ×Ļ×Ŀ
Ġ×ª×Ķ ×ľ×Ļ×Ŀ
×¨ ×¢×Ł
Ġ×ĵ ×¢×ĸ
Ġ×ĳ ×¦×ľ
×¤ ×¢×§×ĺ
×ł ×Ļ×©×Ł
×Ĳ×ľ ×ĺ×¢
Ġ×¨ ×ķ×¦
Ġ×Ĳ×Ļ×¨ ×ľ×Ĳ×ł×ĵ
×Ļ×Ļ×¢×¨ ×ĺ
×¢×ł×ĵ ×ľ×¢×ļ
Ġ×ķ×ķ×¢×ľ×ĺ ×¡
×ľ×ĺ ×Ļ×¤
Ġ×ĳ×Ĳ×§ ×ķ×ķ
Ġ×Ĳ×¨×Ĳ×¤ ×ł×¢×ŀ×¢×Ł
Ġ×ĸ×© ×ķ×§
Ġ×¡×ĺ×¨ ×¢×ł×Ĵ×ĺ
ĠT V
Ġ×ŀ×ª ×ł×Ķ
Ġ×ĺ×ķ×Ļ×ĺ ×¢
Ġ×Ķ×² ×¡×ĺ
×¨×¢×ĺ ×Ĳ×¨
Ġ×ĵ×Ĳ×ĸ ×Ļ×§×¢
Ġ×Ĳ×ł×ĺ×ķ×ķ×Ļ×§ ×ľ×ĺ
Ġ×Ļ×¢×ł ×¢×ŀ×¡
Ġ×Ĳ×Ļ×ł×¦ ×Ļ×ĵ×¢×ł×ĺ
Ġ×Ĳ×ŀ×ĳ ×Ĳ×¡
Ġ×Ĳ×§×¢ ×Ļ
8 3
i e
r ic
Ġ×Ĳ ×ļ
Ġ×¤ ×Ļ×Ļ×¤
Ġ×ŀ ×Ļ×Ľ×Ĳ×ľ
×¡ ×Ŀ
Ġ×Ķ ×¢×Ĳ
×Ķ ×Ļ×Ł
×Ļ×¢ ×¨×Ĳ
×ķ×¨ ×ł×Ĳ×ľ
ĳ×¢×¨ ×Ĵ×¢×¨
Ġ×ª ×ķ×ľ×ĵ×ķ×ª
Ġ×ĳ×¨ ×ķ×Ĵ
Ġ×§×ľ ×Ĳ×¤
Ġ×¢×ĺ ×§
Ġ×ŀ×ľ ×Ľ×Ļ×Ŀ
il able
Ġ7 5
Ġ×Ļ×ķ×ĵ ×Ļ×©×¢
Ġ×ŀ×ĺ ×ŀ×Ĳ
Ġ×Ĺ×Ļ×ĵ×ķ×© ×Ļ×Ŀ
Ġ×ĳ×ķ×ĵ ×Ĳ×¤
AA AA
×ł×ĺ×Ļ×ł×Ļ×ķ ×Ļ×ł×Ĵ
Ġ×¤ ×Ĳ×©
×ľ ×Ļ×§×Ĳ
Ġ×Ĺ ×ĺ×Ĳ
×ķ×ł ×Ł
Ġ×Ĳ×ķ×Ļ×¡ ×ľ×Ļ×Ļ×Ĵ
Ġ×ĳ×¨ ×Ļ×Ļ×ĺ×¢×¨
×ĵ×¨ ×Ļ×ĵ
×ķ×Ĳ ×Ļ
×ŀ×¢×¨ ×Ĳ
Ġ×ŀ×Ļ×ĺ×ľ ×©×ķ×ľ
Ġ×Ķ×§ ×Ķ×ľ
Ġ×Ĵ×¢×ķ×ķ×Ĳ×ľ×ĵ ×Ļ×§×Ł
Ġn ot
Ġ×¤×©×ķ ×ĺ×¢×¨
Ġ×ľ×Ļ×Ĵ ×ł×ĺ
ĠY iddish
Ġ×ŀ×ķ×¨ ×Ĳ×ĵ
Ġ×¡×Ĳ×¦ ×Ļ×Ĳ×ľ
×ĳ×Ĳ×ł ×ķ×¦
Ġ× ²
Ġ×© ïŃĦ
×ŀ ×Ĳ×ĺ
Ġ×ľ ×Ļ×¨
Ġ×¨ ×Ļ×Ļ×¡×ĺ
Ġ×¤×Ĳ×¨ ×¢×Ŀ
Ġ×¤×¨ ×ĺ
Ġ×§×¨ ×Ļ×Ľ×Ł
Ġ×Ĵ×¢×ł ×Ļ×ĺ
Ġ×Ļ×© ×ķ×¢×Ķ
×Ĵ×¨ ×Ļ×¡×Ł
Ġ×¤×Ĳ×¨×ĺ ×ķ×Ĵ
Ġ×ĳ×Ĳ×ĸ ×¢
Ġa va
Ġ×Ļ×ł×§ ×Ĳ
Ġ×Ĳ×ł×Ĵ×¢×¤ ×Ļ×¨×ĺ
Ġ×¢×ł×§ ×Ĳ
Ġ×ĵ×ķ×¨×Ľ×Ĵ×¢×¤ ×Ĳ×¨×Ł
Ġ×¡×Ļ×Ļ×ķ ×ķ×Ļ
Ġ×ĳ ×¦
Ġ×ĳ ×ķ×Ļ×ŀ
Ġ×§ ×Ļ×ĳ
×© ×¢×ł×§
×Ļ×© ×Ĳ×ł×¡
Ġ×Ĳ×ľ ×£
Ġ×ŀ×¢×ł×ĺ×© ×Ķ×Ļ×Ļ×ĺ
Ġ×Ĵ×¢×¤ ×¢×ľ×ĺ
Ġ×¡×ĺ ×Ĳ×¤
Ġ×ŀ×Ĺ ×ĸ×§
Ġ×Ķ×¨×ĳ ×ł×Ļ×Ŀ
Ġ×Ĳ×ł ×ķ×ķ×¢×ĸ
Ġ×¨×¢×§ ×Ĳ×ŀ
Ġ×ľ×ĳ ×ł×ķ×Ł
Ġ×Ĵ×¢×©×¤ ×Ļ×¨×ĺ
Ġ×Ĳ×¨×Ĳ×ĳ ×Ļ×¢
Ġ×¡×§×Ĳ×ł×ĵ ×Ĳ×ľ
×Ķ×¢×ľ ×¤×Ł
Ġ×¡×Ĳ×¦ ×Ļ×Ĳ×ľ×¢
Ġ×¡×Ĳ×ľ×ĵ ×Ĳ×ĺ×Ł
Ġava ilable
. âĢĿ
Ö· Ö¾
×¡ ×Ļ×¨×Ł
×Ļ×Ĵ ×¢×ł
Ġ×ª ×¨
×ķ×ķ×Ļ× ¦
Ġ×ŀ×¢×¨ ×Ľ×Ķ
ł×¦ ×Ł
×ł×¡ ×¢×¡
Ġ×Ĵ×¢×ĸ ×ķ×ł
Ġ×§×¨ ×Ļ×ŀ×Ļ×ł
Ġ×ķ×ķ×Ĳ×¨ ×¢×ł×ķ×ł×Ĵ
Ġ×ľ×Ļ×Ļ×ĵ ×ĺ
Ġ×Ķ×Ĳ×ľ ×¥
oo d
ĠN Y
Ġ×ŀ×¨ ×Ľ×ĸ
Ġ×Ķ×ķ×ŀ ×Ĳ×¨
e x
Ġ×© ×ķ×¨×©
Ġ×Ĳ×¨ ×§
×¢×ĵ ×Ļ×Ĵ×ĺ
×Ĳ×ĵ ×ĸ×©
Ġ×ķ×ķ×Ļ×Ļ×ľ ×¢×¨
×ķ×ķ×Ļ×¡ ×¢×¡
×Ĵ×¨ ×Ļ×¡×ķ×ł×Ĵ
Ġ×Ĳ×¨×ķ×Ļ×¡×Ĵ ×¢×ĳ×¢×¨
as in
Ġ×¤×¢ ×Ļ×ĵ×ĸ×©
ers ion
Ġ×ķ×ķ×Ļ×ĸ ×ķ×Ļ
Ġ×Ĳ×ĺ×Ĳ×§ ×Ļ×¨×Ł
Ġ×¤×Ĳ×¨×Ĵ×Ĳ×ł×Ĵ ×¢×ł×¢
Ġ×§×Ĳ×ŀ×ķ×ł ×Ļ×¡×ĺ×Ļ×©×¢
×¢×¡×§ ×¢×Ŀ
Ġ×Ľ×Ļ×ĵ ×ķ×¢
Ġve gan
Ġ×Ĳ×¤×Ļ×ł ×Ļ×¢×Ł
r it
×¨ ×ķ×Ļ×¢×Ł
Ġ×ĵ ×¢×Ĵ
Ġ×ŀ ×¤×¨
Ġ×ķ×ķ ×Ļ×¡×ĺ
×ĸ ×¢×¦×ĺ
Ġ×¦ ×¢
Ġ×¢ ×ł×ľ
Ġ×ĺ ×Ļ×Ļ×ŀ×¡
×Ļ×©×ĺ ×¢×¨
×Ļ×ĵ ×ĸ
×ķ×ĸ ×Ĳ
Ġ×ł×Ļ×ĺ ×ľ
Ġ×§×ľ ×Ļ×Ļ×ł×¢×Ŀ
Ġ×¡×ĺ ×Ļ×ŀ
×ł×© ×ĺ×Ļ×Ļ×Ł
Ġ4 00
it ive
Ġ×Ĺ×ª ×ķ×ł×ķ×ª
Ġ×Ĳ×Ļ×Ļ×ł×¦ ×Ļ×Ĵ
Ġ×Ĺ×ĸ ×Ļ×¨
×ķ×ķ×§ ×¢
Ġ×ª×Ļ×§ ×ķ×Ł
Ġ×¤×Ĳ×¨×ķ×ķ×Ĳ ×ķ×ł×ĵ
×¤ ×ķ×¡
×¤ ×Ļ×©×Ĳ
Ġ×¢ ×ĸ×¨
×Ļ×ĺ ×¢×¨×ĺ
Ġ×Ļ ×ĺ
Ġ×¨ ×Ļ×ŀ
Ġ×ĵ×¢×¨ ×ķ×ķ
×ķ×Ļ×¡ ×ĺ
Ġ×Ĳ×ŀ ×ĺ
Ġ×Ĵ×¢×Ĵ ×ľ×ķ×Ļ×ĳ×ĺ
×¢×§×ĺ ×Ļ×Ĳ
Ġ×Ĵ×¢×ĺ ×¨×Ļ×Ļ
Ġ×ĺ×© ×¢×¨
×ĺ×© ×Ļ×ł×Ĵ
×Ĳ×ł×§ ×Ł
Ġ×Ĳ×Ķ ×Ļ×Ļ×ŀ
Ġ×¦×ķ×Ĵ ×¢×¤
Ġ×¤×Ĳ×¨×ľ ×Ĳ×ŀ×¢×ł×ĺ
Ġ×Ķ×ª ×Ĺ
Ġ×¡×ķ×¤ ×¨×Ļ×Ŀ
×Ļ×¢×§ ×ĳ
Ġ×Ĳ×Ļ×ŀ×Ļ×Ĵ×¨ ×Ĳ×¦×Ļ×¢
Ġ×ĺ×¢ ×Ļ×¤
tu re
×¤×¨×Ļ×¢×¨×ĵ ×Ļ×Ĵ×¢×ł
Ġ Q
×ŀ ×Ļ×Ļ×ł×ĺ
×§ ×Ĳ×ĺ
Ġ×ľ ×¢×¡×Ĳ
×Ĳ×ľ ×Ĳ
×Ļ×Ļ×¢ ×ĺ
Ġ×Ľ ×ķ×ķ
Ġ×ł×Ĳ ×ķ×ĺ
×¢×ĸ ×¢
Ġ×¨×Ĳ ×ķ×ĳ×Ł
×§×ĺ ×Ļ×§
×Ļ×ł×§ ×Ĳ
Ġ×Ĳ×ķ×ŀ ×©×ķ×ľ×ĵ
Ġ×ŀ×¡ ×¤×¨
Ġ×ŀ×ŀ ×ª
Ġ: :
Ġ×Ĳ×Ļ×ĳ×¢×¨×ĸ×¢×¦ ×ķ×ł×Ĵ×¢×Ł
Ġn am
ãĢ Ĥ
Ġ×ł×ª×ł ×Ļ×Ķ×ķ
' ...
×¨ ×ķ×ĵ
×¢×¨ ×ĺ×¢×¨
×ľ ×ĺ×Ĳ
×¡ ×¢×ĵ
Ġ×ĸ ×Ļ×Ļ×ĵ×¢×¡
Ġ×Ķ ×ķ×ŀ×Ĳ
×ł ×Ļ×ª
×Ĵ ×¨×Ļ×Ļ×ĵ
×Ļ×¡ ×ĳ×ķ×§
×¢×§ ×ķ×Ļ×¤×ĺ
Ġ×©×ĺ ×Ļ×Ļ×¢×ł×ĵ×Ļ×§
Ġ×Ĳ×¤ ×¢×§×ĺ
×ķ×ķ×¢×¨ ×Ļ
×ŀ×¢×ĺ ×¢×¨×¡
Ġa pp
Ġ×Ĳ×§×ĺ ×Ļ×ķ×ķ
Ġ×ŀ×ª ×Ļ×¨
×¨×¨ ×Ļ×Ľ×ĺ×Ł
Ġ×¨×Ļ×§×ķ×ķ ×Ļ×Ļ×¢×¨×ĸ
V iew
h er
Ġ \
×Ĳ ×ķ×Ŀ
×ľ ×Ľ×Ĳ
Ġ×Ĵ ×ĵ×Ļ
Ġ×Ĵ ×ķ×ĸ
×ł ×Ĳ×Ľ×Ł
×ŀ ×Ļ×Ļ×ĸ
×Ķ ×Ľ
×¢×ľ ×¤×Ł
Ġ×¤×Ĳ×¨ ×ĳ×Ł
Ġ×©×ĺ ×Ĳ×ł×ĵ
×ķ×ł ×¢×¨×ĸ
×¢×Ľ ×¢×ł×ĺ
Ġ×ĺ×¨ ×Ĳ×§
Ġ×ĺ×¨ ×Ļ×¤
×± ×ĺ
Ġ×ŀ×§ ×¨×Ļ×ĳ
Ġ×Ĳ×ł×ĺ ×ķ×ķ×¢×¨
Ġ×Ļ×ķ×ĵ ×¢
ay s
Ġ×¦×ķ×ĺ×¨ ×ķ×Ļ
Ġ×¡×Ļ×ĵ ×ķ×¨
Ġ×ĵ×¢×ĺ ×Ĳ×ľ×Ł
Ġ×§×Ĳ×ł×§ ×ķ×¨
à ¤
Ġ×¤ ×©
Ġ×ķ×ķ ×Ļ×Ļ×ļ
×¡ ×¥
Ġ×ĳ ×Ļ×ĺ×©
×Ĳ×¨ ×ķ×Ļ×¡
×ĵ ×ł×©×Ĳ
Ġ×Ĵ×¢× ¥
Ġ×Ĵ×¨ ×¢
Ġ×ĳ×ľ ×Ļ×Ļ×ĳ
×Ĳ×ĵ ×¢×ŀ
×Ļ×Ķ ×¨×ĺ
×©×ľ ×Ļ×¡
×ŀ×Ĳ×¨ ×ĵ
Ġ×¤×Ĳ×¨×¤ ×Ļ×¨×ĺ
ĠR ay
Ġ×§×¢ ×Ļ×¨
Ġ×§×Ĳ×ĺ ×¢×Ĵ×Ĳ×¨×Ļ×¢
ut e
×ľ×Ĵ×¢×ŀ ×Ļ×Ļ×ł×¢
Ġ×ĳ×¨×Ļ×Ļ× §
Ġ×ĺ×ķ×ł×§ ×ľ
u ed
Ġ ....
×ķ ×ķ×ª
×ŀ ×²
Ġ×Ĳ×ĸ ×Ĳ×ł×¡
×ķ×¨ ×Ł
×ķ×ŀ ×ĸ
×Ļ×ĳ ×Ļ×Ĳ
Ġ×¦×ķ×ķ ×¢×§
×ķ×Ľ ×Ŀ
Ġ×¤×Ĳ×ľ ×Ĵ×Ł
Ġ×§×ķ×ŀ ×¢×ł×ĵ×Ļ×§
Ġ×©×ķ×ķ ×¢×ĵ×Ł
×ł×¦ ×Ļ×¢×ľ
×ķ×ķ×Ĳ×¨ ×ĺ×Ł
Ġ×Ĳ×Ļ×© ×ķ
Ġ×ķ×ķ×Ļ×ĵ×Ļ×Ĳ ×ķ
Ġ×Ĳ×Ļ×ł×ĺ×¢×¨×¡ ×Ĳ×ł×ĺ×¢
Ġ×¡×Ļ×Ĵ ×ł×Ĳ
Ġ×¡×Ĳ×ł×§ ×¦×Ļ×¢×¡
Ġ×ĵ ×Ļ×Ļ×ķ×ķ
×© ×Ļ×ł×¢×¨
×Ķ ×Ĳ×ł×ĺ
Ġ×¤×Ĳ×¨ ×ķ×ķ×¢×¨×ĺ×¡
Ġ×Ĳ×ĸ ×¢×ľ
âĢ «
Ġ×Ľ ×ļ
Ġ×Ķ×Ĳ× ©
×ķ×ĺ ×Ļ×ł×Ĵ
×ł×Ĵ ×§×©×Ĳ
Ġ×¤×ľ ×Ļ×¤
×Ĳ×ĸ ×Ĳ
Ġ×ĺ×© ×¢
Ġ×¤×Ĳ×¨×©×ĺ ×¢×ł×ĵ×ľ×Ļ×ļ
an t
Ġ×Ĳ×¨×Ļ×Ļ× ł×¤
Ġ×§×Ĳ×ŀ ×Ĳ×ł×ĵ
Ġ×Ĳ×Ļ×ĳ×¢×¨×Ĵ ×¢×ĳ
×ķ×ķ×¢×Ĵ ×Ĳ
ĠT od
as e
ĠB I
Ġ×ĳ×Ĳ×Ķ ×Ĳ×ł×ĵ
Ġ×Ĳ×Ĵ ×¢×ł×ĵ×¢
Ġ×Ĳ×§ ×¦×Ļ×¢
Ġ×ĳ×Ĳ×Ĵ ×Ĳ×ł×Ĵ×¢×Ł
Ġ×Ĳ×Ļ×ł×ĸ ×©×¢×ł
F ree
×Ĳ ×ķ×ª
×ĺ ×Ļ×¡×ĺ×Ļ×§
Ġ×ŀ ×Ĳ×ł×Ĵ
Ġ×ķ×ķ ×Ļ×¢×ĺ
Ġ×Ķ ×Ľ×Ķ×Ł
×ķ×ķ ×¢×ĺ×©
×Ļ×ł ×Ļ×¨×ĺ
×ķ×¡ ×Ļ×ł×Ĵ
Ġ×Ĵ×¨ ×Ĳ×ĳ
×ł×Ĵ ×ĵ
×¢×Ĳ ×¨×ĳ×¢×ĺ
Ġ×Ķ×Ļ×Ļ×ł×ĺ ×Ļ×Ĵ×Ł
Ġ×¢×§×¡ ×¢×¡
Ġ×ŀ×©×¤ ×Ļ×¢
Ġ×¤×Ĳ×¨×Ĵ ×¢×¡
×¨×Ļ×ĵ ×Ĳ
Ġ×ĸ×Ĳ×Ĵ ×ł×ĵ×Ļ×Ĵ
Ġ×¨×¢×§ ×ľ
×ĳ×ĵ ×Ļ×ľ
Ġ×¢×ľ×¢×§×ĺ ×¨×Ļ×§
Ġ×ķ×ķ×ķ×Ļ×ł ×Ĳ
Ġcom p
Ġ×¢×¨×ķ×ķ×Ĳ×¨×ĺ ×¢×ĺ
Ġ×Ĳ×ķ×ŀ×Ĵ×ľ ×Ļ×§
Ġ×¦×ķ×ķ×¢×ľ ×£
Ġ×Ĳ ×ł×ĸ
Ġ×ĵ ×Ĳ×Ĵ
×¤ ×Ļ×Ł
Ġ×© ×ķ×Ļ×ĵ×¢×¨
Ġ×ĺ ×¢×¤
×Ļ×ľ ×¤
×Ľ ×Ļ×¨
×ķ×ľ ×Ł
Ġ×Ĺ ×§
ĠâĢ ¦
Ġ×Ĵ×¢×Ķ ×¨×Ĵ×¢×ĺ
Ġ×Ĳ×ķ×Ļ×¡×Ĵ ×¢×ĵ×¨×Ļ×Ļ×ĺ
Ġ×ĳ×Ĳ×© ×¨×Ļ×ĳ×Ł
Ġ×Ĵ×¢×ķ×ķ×Ĳ ×ķ×Ļ×¨
Ġ×ĵ×Ļ×¡ ×¤
Ġ×Ĵ×¢×Ĳ ×Ĵ×¨×Ĳ×¤
×¨×Ļ×ĳ ×¢×ł×¢
Ġ×ĵ×¢×¨×§×ľ×¢×¨ ×ķ×ł×Ĵ
u d
×ĺ ×©×ĺ
Ġ×¤ ×Ĳ×§
Ġ×ĸ ×Ļ×Ļ×ł×¡
×Ĳ×ł ×Ļ×§
Ġ×Ĳ×ķ×Ļ×¡ ×ľ×¢×¨×ł×¢×Ł
Ġ×Ĵ×¢×¨ ×Ĳ×ĺ×Ł
Ġ×Ĳ×ķ×Ļ×¡×Ĵ ×¢×ĺ×¨
×ķ×Ĺ ×ķ×ª
Ġ×Ķ×Ļ×Ļ×ľ ×Ļ×Ĵ
Ġ×Ĳ×¤×Ĵ ×¢×Ķ×Ĳ×ľ×ĺ×Ł
Ġ×ľ×© ×ķ×ł×ķ×ª
Ġ×ŀ×ĳ ×ĺ×ľ
Ġ×Ķ×¦ ×ĵ×Ļ×§
ĠR ach
Ġ×Ĺ×ĸ ×ķ×Ł
Ġ×Ĵ×¢×©×¤ ×¢×ĺ×Ļ×Ĵ×ĺ
Ġ×ľ×ĵ ×¢×ª×Ļ
Ġ×Ĳ×ķ×Ļ×ĺ×Ĳ×¨ ×Ļ×ĺ×¢×ĺ×Ł
Ġ×Ļ×ł×ĵ×ĸ×© ×¢×§×©×Ĳ
Ġ×¤×¨×Ĳ×ĵ×ķ×¦ ×Ļ×¨×ĺ
Ġ×Ĳ×ķ×Ļ×¡×Ĵ×¢×ł ×ķ×¦×ĺ
ĠTod ay
Ã Ĩ
×ķ ×ķ×ĵ×Ļ×§
×¤ ×¢×ľ×ĵ
×ł ×Ļ×¦
×ŀ ×Ĳ×©
Ġ×ľ ×ķ×¡×ĺ
Ġ×¨ ×Ļ×ķ
.. )
×Ļ×Ĳ ×ł×¢×¨
×¨×ĺ ×ł×¢×¨
Ġ×¨×¢×ĵ ×ľ
Ġ×©×¨×Ļ×Ļ×ĳ×¢×¨ ×¡
Ġ×¢×§×¡ ×¤×¢×¨
Ġ×Ļ×ł×¡ ×ĺ×¨×Ĳ
Ġ×¨×¢×Ľ ×¢×ł×ĺ
Ġï¬¯ ×ĵ×¢×¨
×ķ×ķ×Ļ×ł×Ĵ ×¢×Ł
Ġ×¨×Ĳ×§ ×Ĳ×ĺ
Ġ×ŀ×Ĳ× ł×Ľ×¢
Ġ×Ĳ×ĺ×ľ ×Ĳ×ł×ĺ
Ġ×ĵ×¢×ľ×Ļ×ķ×ķ×¢×¨ ×¢×Ł
b l
c c
f t
×¨ ×ŀ×¡
×ľ ×Ļ×ĺ×Ĳ
Ġ×ķ×ķ ×Ļ×ł×¡
×ĵ ×ľ×Ļ
Ġ×¦ ×¨×Ķ
×Ĵ ×Ļ×¨×Ł
Ġ×Ĺ ×ĸ×Ł
Ġ×ª ×ķ×©
Ġ×ķ×ķ×Ĳ ×ķ×ł×ĵ
Ġ×ĺ×¨ ×ķ×§×Ł
Ġ×§×ľ ×Ļ×Ļ×Ĳ
×¨×ĵ ×ĸ×©×Ĳ
×ķ×ł×ĵ ×¢×¡
Ġ×ĺ×© ×Ļ×¤
Ġ×ĳ×¢×¡ ×ĺ×Ł
Ġ×ĵ×Ļ×¨ ×¢×§×ĺ×¢
Ġ×Ĳ×ķ×ł×Ļ×ķ×ķ×¢×¨×¡ ×Ļ×ĺ×¢×ĺ×Ł
Ġd ji
Ġ×Ķ×¢×¨×© ×Ĳ×¤×ĺ
Ġre sc
Ġ×¡×¢×ł×ĺ ×¨×Ĳ
Ġ×¨×Ĳ×¤ ×Ĳ×ĺ
ĠRach ael
? ...
×ĺ ×Ļ×§×Ł
×ľ ×Ļ×Ļ×¢
×¦ ×¢×ļ
×Ļ×Ĵ ×¨×Ĳ
Ġ×ķ×ķ×Ĳ ×ķ×§×¡
Ġ×Ĳ×ķ×Ļ×ĳ ×ł×ĵ×¢×¨
Ġ×©×ŀ ×ķ×¥
×Ļ×¢×¡ ×¢
Ġ×¦×ķ×Ĵ ×¨×Ļ×Ļ×ĺ×Ł
Ġ×¦×ķ×ĸ ×Ļ×Ļ×Ł
Ġ×Ķ×© ×Ľ×ľ
Ġ×Ĳ×ŀ×ª ×¢×¨
Ġ×Ķ×¨ ×Ĳ×©
Ġ×Ĳ×ķ×Ļ×ĳ×¢×¨×© ×ĺ×¢
Ġ×Ķ×§×ĵ×ķ×© ×Ķ
×ľ×Ĵ×¢×ŀ ×Ļ×Ļ×Ł
Ġ×ĸï¬Ł ×Ł
Ġnam ed
A B
Ġ×ĸ ×Ļ×Ļ×ĵ
Ġ×ľ ×Ĳ×ĳ
Ġ×Ľ ×ķ×Ľ
×Ĳ×¤ ×¢×ł×¢
Ġ×Ĳ×ķ×ŀ ×ĵ×¢×¨
Ġ×Ĵ×¢×Ĵ ×¢×ĳ×¢×Ł
Ġ×Ĵ×¢×ĵ ×ķ×Ļ×¢×¨×ĺ
Ġ×ĺ×¢×§×¡ ×Ĳ×¡
×ķ×Ļ×¨ ×¢×ł×¢
Ġ×§×Ĳ×ŀ×¤ ×¢×ł×Ļ
×ķ×ĳ×ľ ×Ļ×Ł
Ġ×Ĳ×¤×Ĵ ×¢×Ķ
Ġ×¨×¢×§ ×ķ×ķ×Ļ×¨
×Ļ×ĵ×ĸ×© ×Ĳ
×¨×¢×ĵ ×Ĳ×Ĵ×Ļ×¨×ĺ
Ġ×ĸ×Ľ×¨ ×ķ×ł×ķ×ª
ook book
Ġ×ľ×Ĳ×ĸ ×¢×Ł
Ġ×ŀ×©×ª ×ķ×§×§
Ġ×Ķ×ĺ ×ĳ×¢
Ġ×ĸ×Ĳ×¨ ×Ĵ×Ł
Ġ×Ĳ×¨×Ĳ×¤×Ĵ ×¢×ľ×Ļ×Ļ×Ĵ×ĺ
×ŀ×Ĳ×Ľ ×¢×¨
×¤×Ĳ×¨×ĳ ×Ĳ×ł×ĵ
Ġresc ued
E N
g e
×¢×ĺ ×Ļ×©×Ł
×ķ×ŀ ×Ł
×Ļ×Ļ×ł ×ľ×¢×ļ
×Ĺ ×ĸ
×ĵ×¢×¨ ×¦×ķ
×ķ×§ ×¢×¨
Ġ×Ĳ×ķ×Ļ×¡ ×ĺ×¨×Ĳ
×Ļ×ĳ ×Ļ×ľ×Ļ×ĺ×Ļ
×ł×¡ ×ĺ×Ĳ
Ġ×Ĳ×ł×Ĵ ×¢×Ĵ
×¨×§ ×ķ×Ļ×¤×Ł
Ġ×ķ×ŀ ×Ĵ×¢×ķ×ķ×Ļ×Ļ×ł×ĺ×ľ×¢×ļ
Ġ×Ĳ×Ļ×ł×¡×ĺ×Ļ×ĺ ×ķ×¦×Ļ×¢×¡
×¨×¢×ŀ ×Ļ×¢
6 3
Ġ×ŀ ×¢×ł×ĺ
Ġ×Ĵ ×ĳ×Ļ×¨
×¡ ×Ļ×Ļ×ĵ
×ŀ ×Ĳ×ł
Ġ×¡ ×Ĳ×¤
×Ĳ×¡ ×ĺ×¨
×¢×ĺ ×Ļ×ĺ
×¦ ×Ļ×ĺ×¢×ĺ
Ġ×Ĳ×ł×Ĵ ×¢×ł
Ġ×¨×¢×ĵ ×¢×¨
Ġ×ĳ×Ļ×ĸ ×Ļ
Ġ×¤×Ļ×ľ ×ŀ×¢×Ł
Ġ×ĳ×¢×ľ ×Ļ×ĸ
Ġ×Ķ×ŀ ×Ł
Ġ×Ķ×© ×§×¤×Ķ
19 0
Ġ×Ĳ×Ļ×ł×ĺ×¢×¨×¢×¡ ×Ĳ
Ġ×§×¢×Ĵ ×¢×Ł
Ġ×Ķ×©×¤ ×¢×Ķ
_ _
×ľ ×Ļ×§×¢
×© ×Ľ
×ĸ ×¢×Ķ×Ł
×ŀ ×Ĳ×ŀ×¢×ł×ĺ
Ġ×Ļ ×ŀ×Ļ
Ġ×Ĵ×¢×ķ×ķ ×Ĳ×ł×ĵ×Ł
Ġ×Ľ ×ł
Ġ×Ĳ×ķ×Ļ×¡ ×ķ×ķ
Ġ×ĳ×¨ ×ļ
Ġ×Ĳ×ķ×Ļ×¤ ×©×ĺ×¢×ľ×Ł
×¨×ĺ ×Ļ×Ļ×ĵ
Ġ×Ĵ×¢×Ķ ×¢×¨×Ł
Ġ×Ĳ×ł×Ĵ ×Ļ×Ļ×Ł
Ġ×Ĳ×ķ×ŀ ×¤
Ġ×Ĵ×¢×Ĵ ×Ĳ
Ġ×Ĳ×¨×Ĳ×¤ ×Ĵ×¢×ł×ķ×ŀ×¢×Ł
Ġ×ĵ×ķ×¨×Ľ ×¤×Ĳ×ľ
?? ??
Ġ×ĳ×Ĳ×ĳ ×¢×Ł
Ġ×¡×ĺ×ķ×ĵ ×Ļ×Ĳ
Ġ×¦×ķ×¦ ×Ļ×¢×Ł
Ġ×Ĳ×ķ×Ļ×ĺ×Ĳ×¨ ×Ļ×ĺ×¢×ĺ
Ġ×¨×¢×¡×ĺ ×Ĳ×¨
×ľ×Ľ×Ĳ ×ķ×¨×Ķ
, âĢŁ
f ession
×¨ ×Ļ×ķ×Ŀ
Ö¸ :
Ġ×ĳ ×Ļ×Ļ×ĺ
Ġ×¦ ×Ļ×¦
Ġ×¢ ×ŀ×¢×¨
×§ ×Ļ×ĺ
Ö¿ Ö¾
×ķ×ŀ ×ķ
×Ļ×ł ×ķ×Ŀ
Ġ×©×ĺ ×Ļ×ŀ×ķ×ł×Ĵ
×¢×ŀ ×ķ×ł×Ĵ
×Ļ×Ĳ ×ĺ
×Ĳ×Ĵ ×Ļ×©×¢
×ķ×ĵ ×Ļ×¢
Ġ×Ĵ×¢×Ĵ ×¢×ł×ĺ×¢×¨
×¨×© ×Ł
Ġ×ĺ×© ×Ĳ×§
×ŀ×© ×Ļ×Ĺ
Ġ×ľ×¢×¦ ×ĺ×¢×¨×¢
Ġ×ŀ×¤ ×Ĳ×¤×Ĳ
Ġ×ĸ×Ļ×ĳ ×¢×¦
Ġ×Ĳ×¨×Ļ×Ļ×ł×ĳ ×¨
5 3
9 3
l ot
Ġ×¦ ×ĳ
×ł ×Ļ×¤
Ġ×ľ ×ł×ķ
Ġ×ľ ×¢×ĳ×¢×¨
Ġ×¡ ×Ļ×Ļ×¢
×Ĳ×¡ ×Ĳ×ļ
×¤×¨ ×¢×¡
Ġ×§×Ĳ×ľ ×ĺ×¢
Ġ×ĳ×Ĳ×ĵ ×Ļ×ł×Ĵ
×ķ×ķ×¡ ×§
×ķ×ķ×Ļ×Ĳ ×ĸ×ķ×Ļ
Ġ×¤×¡×ķ×§ ×Ļ×Ŀ
Ġ×ĸ×©×ķ×¨×ł×Ĳ×ľ ×Ļ×¡×ĺ
×©×ŀ×ķ ×¢×¡×Ł
Ġ×§×ķ×ķ×Ļ×ĺ ×ľ
Ġ×Ĵ×¢×¢×¤ ×¢×ł×ĺ
Ñ ħ
×ĵ ×Ļ×ŀ
×§ ×Ĳ×ł
Ġ×ĺ ×Ĳ×ł×¥
×Ļ×¡ ×Ļ×Ĳ
Ġ×¤×¨ ×Ļ×ĸ
×©×ĺ ×¢×Ł
×Ĳ×ĸ ×Ļ×¢
Ġ×Ĵ×ľ ×Ĺ
×Ĵ×¨ ×Ĳ×¤×Ļ×¢
Ġ×Ĳ×§×ĺ ×Ļ×ķ×ķ×¢
Ġ×¤×Ĳ×¨×ĳ×¨ ×¢×ł×ĺ
Ġ×©×ĺ×ķ×ĵ ×Ļ×¢
×¨×ĵ×¢×¨ ×¡
Ġ×¨×¢×¤×Ĳ×ĳ×ľ ×Ļ×§×Ĳ×ł×¢×¨
' s
s p
ð Ł
×¨ ×Ĳ×ľ×ĵ
Ġ×Ķ ×¢×ł×Ĵ
×¤ ×ķ
Ġ×© ×Ļ×¡×ľ
×ł ×ķ×Ŀ
×¦ ×¢×Ł
×ķ×§ ×Ļ×Ļ×©×Ĳ
×¢×© ×Ĳ×Ł
Ġ×Ĳ×¨×ķ×Ļ×¡ ×Ķ×¢×ľ×¤×Ł
Ġ×Ĳ×ł×Ĵ ×¢×Ķ×Ĳ×ľ×ĺ×Ł
Ġ×¤×Ĳ×ľ ×©×¢
Ġ×©×ķ×ķ ×¢×¨×Ł
×Ļ×¢×¨ ×¡
Ġ×¤×Ĳ×¨×ĳ ×¢×¡×¢×¨×Ł
Ġ×Ĳ×Ļ×ł×ĺ×¢×¨×¢×¡ ×¢
Ġd o
Ġ×ĺ×¢×ķ×ª ×Ļ×Ŀ
Ġ×ĵ×Ĳ×ł ×Ĳ×ľ×ĵ
×Ķ×¢×ł×Ĵ ×Ļ×§×Ļ×Ļ×ĺ
Ġ×¤×¢×¨×ĸ ×Ĳ×Ł
×ĳ×Ĳ×ł×ķ×¦ ×¢×¨×¡
a ve
Ġ×ķ ×ĸ
Ġ×ķ ×Ļ×Ĵ
Ġ×Ĵ ×Ļ×ķ×¡
×ł ×¢×Ĳ
Ġ×ľ ×Ļ×¤×ĺ
Ġ×ľ ×¢×§×¦×Ļ×¢
Ġ×¤×¨ ×Ļ×¢
×ł×ĺ ×ĵ×¢×§×Ł
×©×ĺ ×¨
Ġ×ĳ×ľ ×Ĳ×ĸ×Ł
Ġ×§×¨ ×Ĳ×¡
Ġ×Ĳ×ķ×Ļ×¡×Ĵ ×¢×¦
Ġ×ĳ×Ĳ×© ×¢×¤×ĺ
Ġ×ŀ×Ĺ ×ł×ļ
er i
×ķ×Ĺ ×ł×Ļ×ķ×ª
×¢×¨×ĸ ×Ļ
Ġ×§×ł ×¢×Ľ×ĺ
ĠG re
Ġ×¤×¨×Ĳ×¦ ×¢×¡
id e
×¡×§ ×ķ×ķ×¢
Ġ×Ļ×ķ×¡ ×Ļ
Ġ×ª×ŀ ×Ļ×ŀ×ķ×ª
Ġ×ľ×Ĺ ×Ļ×Ļ×Ŀ
Ġ×Ĳ×¨×Ĵ×Ĳ×ł×Ļ×ĸ ×Ĳ×¦×Ļ×¢×¡
×ł×Ļ×¡ ×¢
Ġ×ĳ×¨×Ļ×Ļ× Ĳ
×Ļ×¦×ķ×ª ×ķ
Ġ×ĳ×ŀ×Ĺ ×Ļ×¦×ķ×ª×ķ
Ġ×Ķ×©×ª ×ĵ×ľ×ķ×ª
rot ection
Ġ×¦×ķ×ĺ×Ĳ×Ĵ ×¡
Ġ×ĳ×¨×ķ×Ĵ ×ĸ
6 1
8 00
b al
Ġ×ŀ ×¢×ª
Ġ×¨ ×ķ×§
Ġ×Ľ ×Ĳ×ĳ
Ġ×¨×¢×ĵ ×¡×ĺ
×ķ×Ķ ×¨
Ġ×° ×¢×ľ×Ł
×ĳ×ķ×¨ ×Ĵ×¢×¨
Ġ×Ķ×§ ×ĳ
×Ļ×Ļ×¦ ×¢×ļ
Ġ×Ļ×ĵ ×ķ×¢
×ľ×¢×ł×ĵ ×Ļ×©×¢
Ġ×ŀ×Ķ×¨ ×ĸ
Ġ×ľ×ĵ ×¢×ª
ri p
Ġ×©×Ĳ×¨ ×¤×¢
A L
m e
Ġ×¦ ×ķ×ĳ×ľ
Ġ×¢ ×ł×¤
Ġ×ľ ×Ĳ×Ľ×ĺ
Ġ×¨ ×¢×ł
Ġ×Ľ ×¢×ľ×ĺ
Ġ×ķ×ķ×¢×ľ ×ĺ×Ł
Ġ×Ĳ×ķ×Ļ×¡ ×¢×¨×Ł
×¨×ĺ ×ľ×¢×ļ
Ġ×¡×ĺ ×Ļ×Ŀ
Ġ×Ĳ×ķ×ŀ ×ķ×ª
Ġ×©×ĺ×Ĳ×ĺ ×Ļ×©×¢
Ġs u
Ġ×ĺ×¨×¢×¤ ×Ļ×§
Ġ×ŀ×¦×ĳ ×Ķ
×©×ĺ×¢×ľ ×ķ×ł×Ĵ
Ġ×Ļ×ł×¤ ×Ĳ
Ġ×Ķ×Ĳ×ĵ ×ŀ×ķ
Ġ×¨×©×¢ ×Ļ×Ŀ
×©×¤×¨ ×Ĳ×ļ
Ġ×ķ×ķ×ķ×ł×ĵ×¢×¨ ×ľ×¢×ļ
Ġ×Ļ×ł×Ĵ ×¨×Ļ×ĵ
Ġ×ĵ ×ł×Ĳ
×Ļ×Ļ× ł×¤
Ġ×ŀ ×Ĳ×§
Ġ×ĳ ×Ļ×ł×Ķ
Ġ×§ ×¢×¨×Ĳ
×¤ ×Ĳ×ĺ
Ġ×© ×¢×Ŀ
Ġ×¦ ×¢×ĳ×¨×Ĳ×Ľ×Ł
Ġ×ľ ×¢×Ľ×ĺ
Ġ×¨ ×ŀ×ĸ
×¦ ×ĵ×Ļ×§
×¦ ×¢×ĵ×ķ×¨
Ġ×©×ĺ ×¨×Ļ×Ļ×ŀ
×Ĺ ×ĳ×¨
×ķ×ľ ×Ļ×Ļ×Ĵ×Ł
×ķ×ĺ ×Ļ
×Ļ×Ļ×ĵ ×Ļ×©×¢
×§×ĺ ×©×¢×¨
Ġ×ŀ×¡ ×ª×Ŀ
Ġ×©×¨ ×Ķ
Ġ×Ĳ×ĺ ×¢×Ŀ
Ġ×ĺ×¢×Ĵ ×ľ×Ļ×ļ
Ġ×§×Ĳ×ŀ×¤ ×Ĳ×ł×Ļ×¢
×ľ×Ļ×ĺ ×Ļ×©
Ġm e
Ġ×ĺ×ķ×ĳ ×Ļ×Ŀ
Ġ×¤×¨×Ĳ×¦ ×¢×ĵ×ķ×¨
ro p
Ġ×¦×Ļ×ķ ×ł×ķ×ª
×ł×Ļ×ĸ ×Ļ×¨×ĺ
Ġ×©×ķ×ŀ ×¨×Ļ
e ar
Ð ¹
Ġ×ķ ×Ĳ×Ļ×Ł
Ġ×ĸ ×ķ×¤
Ġ×ĳ ×¢×Ĵ
×© ×Ļ×¥
Ġ×ł ×Ĳ×¡
Ġ×© ×Ĳ×¤×ĺ
Ġ×¢ ×Ļ×Ł
×ŀ ×ķ×¨
×Ĵ ×ķ×ª
×Ľ ×ķ
×Ľ ×¢×¡
×ª ×Ķ
×ł×ĺ ×Ķ×Ĳ
×ķ×¡ ×ĺ×¢
Ġ×¤×Ļ×ľ ×Ļ×¤
Ġ×Ĳ×Ļ×ł×ĺ×¢×¨ ×¢×¡×ĺ
ï¬® ×ľ
×Ļ×Ļ×ŀ ×¢×¡
Ġ×ł×ķ×¦ ×Ļ×§
Ġ×Ķ×Ĳ×¨ ×ĵ
Ġ×Ļ×ł ×ķ×ķ×¢×¡
Ġ×Ĵ×¢×©×ľ ×Ĳ×Ĵ×Ł
Ġ×§×¢ ×Ļ×§
×Ļ×Ļ×ª ×Ĳ
Ġpos itive
Ġ×ķ×ķ ×Ĳ×Ĵ
Ġ×ķ×ķ ×¢×Ļ
Ġ×ķ×ķ ×Ļ×ł×©
Ġ×Ĵ ×ĳ
Ġ×© ×Ļ×Ļ×ł×ĺ
Ġ×ĺ ×Ļ×¨×Ł
×Ĵ ×Ļ×¨
Ġ×¡ ×ķ×ķ×Ļ×ĺ
Ġ×¨ ×ķ×ĸ
Ġ×ŀ×Ļ×ĺ ×ķ×ķ×Ĳ
×Ļ×Ĵ ×ľ×ĺ
×¢×ŀ ×¤×ľ
×Ļ×ķ ×ķ×Ļ
Ġ×ĵ×¨ ×Ļ×ĺ×Ł
Ġ3 2
Ġ×Ĳ×¨×ĳ ×Ļ×Ļ×ĺ×Ł
×§×ľ ×Ĳ×¡
ĠF or
×ķ×ķ×Ļ×ł ×¢
×Ļ×Ļ×¨ ×¢
Ġ×Ĳ×ł×Ĵ×¢×¤ ×Ļ×ľ×ĺ
Ġ×¡×ľ×Ĳ ×ķ×ķ×Ĳ×§
Ġ×¢×§×Ĳ×ł×Ĳ×ŀ ×Ļ×©×¢
Ġ×¦×ĵ ×ĵ×Ļ×Ŀ
Ġ×ĵ×¢×ľ ×¢×ķ×ķ×¢×¨
Ġ×Ķï¬¯ ×ĳ×Ł
ire ct
Ġ×§×¢×ľ ×ķ×ĸ
Ġ×ŀ×ķ×Ķ ×¨×Ĳ
Ġ×ĳ×Ļ×Ļ×ľ ×Ĳ×Ĵ×¢×¡
Ġ×Ĵ×¢×ľ×ķ×ł×Ĵ ×¢×ł×¢
Ġ×¢×ķ ×ķ×ľ×Ķ
Ġ×§×Ļ×Ļ×¤ ×ľ
E R
f ac
á ĥ
Ġ×ĸ ×Ĳ×¥
Ġ×ĳ ×ĳ×ľ
Ġ×¢ ×©
×ł ×Ļ×©×¢×¨
×ķ×ķ ×¢×ĺ×Ł
Ġ×¤×¨ ×Ļ×©×ĺ
Ġ×§×Ĳ ×ķ×¨×ĺ
×©×ĺ ×Ĳ×Ŀ
×ķ×© ×ĺ
×ł×¡ ×ĺ×¢×¨×¡
Ġ×ķ×ķ×Ļ×ľ ×ł×¢
Ġ×ĳ×Ĳ×© ×¨×Ļ×Ļ×ĳ×ĺ
Ġ×¢×§ ×Ļ×ĳ×Ĳ
Ġ×ŀ×Ĳ×ľ ×Ł
Ġ×¦×ķ×Ĵ ×¢×§×ķ×ŀ×¢×Ł
×ķ×ķ×Ļ×ĸ ×¢×Ł
×Ļ×ł×¡ ×ĺ×Ł
Ġ×ĳ×Ĳ×©×ĺ×¢×ĺ ×Ļ×Ĵ×Ł
Ġ×Ķ×Ĺ ×¡×Ļ×ĵ
Ġ×Ĵ×ľ×Ļ×§ ×ľ×¢×ļ
Ðº Ð¸
×ľ×Ĳ×ĸ ×¢
Ġ×ĳ×Ĳ×ķ×ķ×Ĳ×ķ×¡×ĺ ×ĸ×Ļ×ł
Ġ×§×Ĳ×ł×¡×¤×Ļ×¨ ×Ĳ×¦×Ļ×¢×¡
Ġ×Ĳ×ĺ×ŀ×Ĳ×¡ ×¤×¢×¨×¢
9 4
Ġ×Ĳ ×ĳ×Ł
×¤ ×Ļ×ľ×Ł
×ĳ ×Ĳ×¨×ĵ
×ĸ ×Ļ×¦×¢×¨
×ł ×¢×§
×ŀ ×ľ×¢×Ł
Ġ×ĺ ×¢×ĳ
er ve
Ġ×ĳ×Ĳ×¨ ×Ļ×ŀ
×Ļ×Ļ×ŀ ×Ĳ
×ł×¦ ×Ļ×§
Ġ×ķ×ķ×¢×ĳ ×¤
×ĵ×Ļ×© ×§×Ļ×Ļ×ĺ
Ġ×ķ×ķ×Ļ×Ľ×ĺ ×Ļ×§×¢
×¨×ŀ ×¢×¡×ĺ
Ġ×¨×¢×¡ ×ĺ×Ĳ
Ġ×ĵ×¢×¨×Ĵ ×Ļ×Ļ×Ł
Ġ×ŀ×Ĳ×ĺ ×¨
×¨×ĳ×¨ ×¢×Ľ×¢×¨
Ġy i
Ġ×Ĳ×¤×¢×¨ ×Ĳ×¦×Ļ×¢
9 2
Ġ Õ
Ġ×ķ ×¢×ĵ
×© ×¨×Ļ×Ļ×ĳ×ĺ
×¢×ł ×ķ×ª
×Ĵ ×¨×Ļ×£
Ġ×ĵ×¢×¨ ×Ķ×Ĳ×ľ×ĺ×Ł
×ķ×¡ ×¢
Ġ×Ĵ×¨ ×Ĳ×ŀ×¢×Ł
×¢×ł×ĵ ×Ļ×¨×ĺ
Ġ×ĳ×ľ ×ķ
×ķ×ł×ĵ ×¡
Ġ×©×ŀ ×Ĳ×ĺ×¢
re am
ĠÂ »
×Ĵ×¨ ×Ļ×Ł
Ġ×¨×¢×¤ ×¨×¢×ĸ×¢×ł×ĺ
Ġ×Ĳ×Ļ×ŀ×¢×Ļ×ľ ×¡
×Ĵ×¢×ľ ×Ĳ×ĸ×ĺ
Ġ×ĵ×Ĳ×ł×§ ×ĳ×Ĳ×¨
Ġ×ĳ×¢×ł×§ ×ľ
Ġ×©×ķ×ķ×Ļ× Ĵ×¢×¨
Ġ×Ļ×ł×Ĵ×¨×Ļ×ĵ ×Ļ×Ĳ
' ?
n e
Ġ×¤ ×ķ×Ļ×Ĵ×ľ
Ġ×Ķ ×Ķ
×Ĵ ×¢×ł×ĺ×ķ×¨
Ġ×¤×Ĳ×¨ ×Ĵ×¨×¢×¡
×Ļ×Ĳ ×¨×Ł
×ķ×ľ ×ķ×ª
Ġ×¤×¨ ×¢×¡×ĺ
×Ļ×Ľ ×ķ
×ķ×ĺ ×¨
Ġ×©×ł ×Ļ×Ļ×ĵ×Ł
Ġ×Ĺ×¡×Ļ×ĵ ×Ļ
Ġ×ŀ×Ĳ×¨ ×Ļ×ļ
Ġ×Ľ×Ķ ×ł×Ļ×Ŀ
Ġ×Ĵ×¢×¢×ł×ĵ ×Ļ×§×ĺ
Ġ×ĺ×¢×¡×ĺ ×Ļ×ł×Ĵ
Ġ×¢×¨×§×ľ ×¢×¨×ĺ
Ġ×ŀ×ĳ×¨ ×¨
Ġ×ª×¢×ł ×Ļ×ª
Ġ×°×Ļ×§ ×Ļ×¤
i b
Ġ ïŃĬ
×¨ ×¢×¨×Ļ
×ľ ×²×Ł
×Ĳ×¨ ×Ļ×Ļ×Ł
Ġ×ł ×Ļ×©
×ł ×ľ×Ĳ
Ö¼ -
×Ķ ×ķ
×Ļ×¡ ×Ļ×¤
Ġ×©×ĺ ×Ĳ×ľ×¥
×ķ×ľ ×¡
×ķ×ľ ×Ļ×¨×ĺ
×¨×Ļ×Ļ× §
×Ļ×¡×ĺ ×Ļ×§×¡
Ġ×Ĵ×¢×ĸ ×Ļ×ł×Ĵ×¢×Ł
Ġ×Ĳ×¨×Ĳ×¤ ×§
×° ×Ļ×§×Ļ
Ġ7 2
×Ľ×ª ×ĳ
Ġ×Ļ×ķ×ĵ ×¢×Ł
Ġ×ķ×ĳ ×¤×¨×ĺ
Ġ×ĺ×¨×Ļ×ł×§ ×ĺ
Ġ×©×Ĺ ×¨×Ļ×ª
Ġ×Ĳ×Ļ×ł×ĺ×¢×ľ ×¢×§×ĺ
T S
Ġ or
Ġ×Ĳ ×Ĵ×¨×¢×¡
Ġ×ŀ ï¬®
Ġ×Ĵ ×ķ×ĳ×¢×¨
Ġ×§ ×¢×ĸ
Ġ×ĺ ×Ļ×Ļ×Ĵ
Ġ×Ļ ×¨×ĵ
Ġ×Ļ ×ķ×ĺ×Ĳ
×Ĵ ×Ļ×©×¢
Ġ×ĵ×¢×¨ ×¤×Ĳ×ľ×Ĵ
Ġ×©×ĺ ×¢×Ĵ
×¨×Ļ×Ļ× ł×Ĵ
×§×¡ ×Ļ×ŀ×ķ×Ŀ
×ķ×ĸ ×Ļ
Ġ×§×ľ ×ŀ×Ł
Ġ×¤×ľ ×Ļ×Ĵ
Ġ×Ĳ×ķ×ŀ ×Ĳ×¤
Ġ×Ĳ×ķ×ŀ ×©×ĺ
Ġ×Ĵ×¢×§ ×Ĳ×¡×ĺ
×ŀ×¢×¨ ×§×ĺ
Ġ×¦×ķ×Ĵ ×Ĳ×ĳ
or row
Ġ×ĸ×¢×ľ×ĳ ×©×ĺ×¢×ł×ĵ×Ļ×§
Ġ×Ĳ×ľ×Ĵ×¢×ŀ ×Ļ×Ļ×Ł
×§×Ĳ×ľ ×Ļ×¤×Ĳ×¨×ł×Ļ×¢
Ġ×§×ľ×Ļ×¤ ×¡
Ġ×Ĵ×¢×ķ×ķ×¢×ĸ ×¢×ł×¢
×Ļ×ķ×ķ×§ ×Ļ×Ļ
Ġ×ª×¤×ľ ×Ķ
" "
×ľ ×¢×Ŀ
Ġ×ķ ×Ļ×©
Ġ×Ķ ×¢×ĺ
×ĵ ×ķ×¦
Ġ×¢ ×ķ×¡×§
Ġ×ĺ ×Ļ×Ĳ
Ġ×¡ ×ľ×Ļ×Ĺ
×ķ×§ ×¦×Ļ×¢
Ġ×Ĳ×ķ×ŀ ×Ĵ×¢×¨
Ġ×ŀ×¢ ×Ļ×Ł
Ġ×ķ×ķ×Ļ×Ĳ ×ŀ×Ļ×ł×Ĵ
Ġ×§×Ĳ×ł ×Ĳ×ľ
Ġ×ĳ×Ĳ×Ĵ ×¨×Ļ×£
Ġ×¡×ĺ×ķ×ĵ ×¢×ł×ĺ
Ġ×ŀ×Ĳ×¡ ×Ļ×ķ×ķ×¢
Ġ×ł×ĳ ×¨×Ĳ
Ġ×¢×ľ×¢×ŀ ×¢×ł×ĺ
×ľ×Ĵ ×ĳ×Ļ
Ġ×ĳ×¨×Ĳ×© ×Ļ×ª
Ġ×Ĳ×ł×ķ×ķ×Ļ×Ļ×ĸ ×ķ×ł×Ĵ×¢×Ł
Ġ×ł×ķ×§×ľ×¢×Ĳ ×¨×¢
Ġ×Ķ×Ĵ×ĵ×¨ ×ª
Ġ×ĳ×Ĳ×ĵ×Ļ×ł×Ĵ ×ķ×ł×Ĵ×¢×Ł
Ġ×§×¢×ľ×ķ×ĸ ×©×Ł
Ġ×ĸ ×Ĳ×ł×¢
Ġ×ĳ ×ķ×Ļ×ļ
Ġ×§ ×ĵ×©
×Ļ×Ļ×ĺ ×¡
Ġ×ª ×ķ×¡×¤
Ġ×¤×ľ ×Ĳ×¡
×ķ×Ľ ×Ļ×ĳ×Ĳ
Ġ×Ĵ×¢×Ĵ ×ľ×Ļ×Ļ×ĳ×ĺ
Ġ×ĵ×ĸ×© ×Ļ×ĸ
Ġ×ĸ×Ļ×Ļ×ĺ ×Ļ×Ĵ×¢
×ľ×ĵ ×ĸ
Ġ×¡×¢×¨ ×ķ×ķ×¢×¨
Ġ×Ĳ×Ĺ ×ª
Ġ×¢×ŀ ×ķ×ĵ
Ġ×ĵ×¢×¨×¦ ×²
Ġ×ķ×ķ×Ļ×ĵ ×ĸ×©
Ġ×¤×Ĳ×¡ ×Ļ×Ĵ
Ġ×ĳ×Ĳ×ľ ×Ļ×ĳ
Ġ×ĳ×Ĳ×¤ ×¢×ľ
Ġ×©×¨×¢×§ ×ľ×¢×ļ
Ġ×Ĳ×Ļ×¡ ×ľ×Ĳ×ŀ
ĠV ersion
Ġ×Ļ×¤ ×¢×§×¡
Ġ×ł×Ļ×Ļ×Ĵ×¢×¨ ×Ļ×Ĵ
Ġ×§×Ĳ×¨×Ĳ×ľ ×Ļ×Ļ×ł×¢
Ġ×ĳ×ķ×Ļ×ŀ ×ľ
! âĢİ
I C
i um
×ĺ ×Ļ×¤
×¢×¨ ×ľ×Ļ×Ļ
Ġ×ĵ ï¬®
Ġ×ĳ ×©×¨
Ġ×¡ ×ķ×¡×¤
Ġ×¢×¨ ×ķ×ķ
Ġ×©×ĺ ×¨×Ļ×§
×Ĳ×ŀ ×Ĳ×¡
Ġ×Ĵ×¨ ×Ļ×Ļ×ĺ×Ł
Ġ×ĳ×¨ ×¢×ł
×ĳ×¨ ×Ľ×Ķ
ĠC oun
ĠÂ ¨
Ġ×ŀ×¦ ×Ļ×ĳ×Ķ
Ġ×Ķ×¢×¨ ×ľ×Ļ×ļ
Ġ×ķ×ķ×Ļ×Ļ×¡×ĺ ×ķ
Ġ×Ĵ×¢×ĵ×¢×ł×§ ×Ł
Ġ×Ļ×ĵ ×Ļ×¢×Ķ
Ġ×Ĳ×ķ×Ļ×ĺ ×Ĳ×¡
Ġ×§×Ķ ×ľ×Ķ
Ġ×Ĵ×¢×ķ×ķ×Ĳ×ľ×ĵ ×Ļ×Ĵ
Ġ×Ĳ×¨×ķ×ŀ ×Ļ×Ĵ×¢
Ġ×Ļ×¢×¨ ×Ļ×Ĵ×¢
Ġ×¤×Ĳ×ŀ ×Ļ×ľ
×ĳ×ł ×ķ×Ĵ×¢
Ġ×ĳ×Ĳ×ľ×Ļ×Ļ×ĵ ×Ļ×Ĵ×ĺ
% .
r os
×¡ ×¢×¤
×Ļ×ĸ ×Ĳ×¦×Ļ×¢
Ġ×Ĳ×ķ×Ļ×¡ ×ķ×ķ×Ĳ×ľ
×ķ×¤ ×¢×Ł
Ġ×¨×¢×ĵ ×ł×¢×¨
Ġ×¢×¨×© ×Ļ×ł×¢×Ł
Ġ×ĺ×© ×Ļ×ĸ
ĠÂ ©
×Ļ×Ļ×ł×ĵ ×ĸ×©
Ġ×Ĳ×ł×Ķ ×ķ×Ļ×ĳ
Ġ×Ķ×¢×ľ×¤ ×¢×Ł
Ġ×ł×¤×© ×ķ×ª
Ġ×Ĳ×ł×ĺ×ķ×ķ×Ļ×§ ×ľ×ķ×ł×Ĵ
Ġ×ŀ×ķ×© ×Ĵ
Ġ×ĵ×¨×Ļ×Ļ×ķ ×ķ×Ļ×ł×Ĵ
Ġ×ŀ×¢×ĵ×Ļ×¦×Ļ×ł ×Ļ×©×¢
Ġ×Ĳ×ķ×ŀ×Ĵ×¢×§ ×¢×¨×ĺ
Ġ×ŀ×ŀ×ª ×§×Ļ×Ŀ
Ã Ń
Ġ×ĸ ×Ļ×¦×ķ×ł×Ĵ
Ġ×Ķ ×Ļ×Ļ×ļ
×Ķ ×Ľ×ľ
×¦ ×ķ×ŀ
×Ļ×Ļ×ł ×Ļ×©
×ł×ĵ ×¨×Ĳ
Ġ×Ĺ ×¨×ĵ×Ļ
Ġ×Ķ×Ĳ ×ķ×¡×ĺ
Ġ×ª ×ķ×¨×ķ×ª
Ġ×Ĳ×ķ×Ļ×¡ ×ĺ
Ġ×Ĳ×ķ×Ļ×¤ ×¤
×ŀ×¢×¡ ×Ļ×§
×Ļ×ł×§ ×¢×Ł
Ġ×©×ŀ ×¢×§×ĺ
Ġ×§×Ļ×ł×ĵ×¢×¨ ×ľ×¢×ļ
Ġ×ĵ×ĸ×© ×Ĳ×Ł
Ġ×¤×Ĳ×¨×ľ ×Ļ×¨×ĺ
Ġ×Ĳ×ķ×ŀ×Ĵ ×¢×¤×¢×¨
Ġ×Ķ×ĵ ×¢×ª
Ġ×ĳ×Ķ ×ŀ×ķ×ª
Ġ×ŀ×¤ ×¨×©
if e
Ġ×¢×©×¨ ×ª
s o
Ġ Ö¸âĢ¬
×¢×¨ ×Ļ×ł×Ĵ
Ġ×Ĵ ×Ļ×¡×ĺ
Ġ×§ ×Ĳ×ĳ
×ł ×¢×Ľ×ĺ×Ł
Ġ×ľ ×¢×Ĳ
Ġ×¨ ×Ķ
×Ļ×Ĵ ×¡
Ġ×Ĳ×¨ ×Ļ×ŀ
Ġ×Ĵ×¢×ķ×ķ ×ķ×Ļ×ł×ĺ
×Ĺ ×Ļ×Ļ×Ŀ
Ġ×Ĵ×¨ ×ķ×Ļ×ľ
Ġ×¨×ĳ ×Ļ×Ķ
Ġ×§×¨ ×Ł
Ġ×Ĵ×¢×¦ ×ķ×ķ
Ġ×ł×¡ ×Ļ×Ŀ
Ð½ Ð¸
Ġ×¨×ķ×ŀ ×ĸ
Ġ×©×Ļ×ĵ ×ķ×Ľ×Ļ×Ŀ
Ġ×ŀ×Ĳ×ĺ×¢×ŀ×Ĳ×ĺ ×Ļ×§
Ġ×§×ķ×ĺ×© ×ŀ×¢
×¨ ×ķ×Ĵ
×Ļ×Ļ× ¦×ĺ
Ġ×ķ ×Ĳ×Ľ
Ġ×Ķ ×ł×ĳ
×ĵ ×ľ×¢×¨
×ĳ ×Ļ×Ļ×Ŀ
×Ĵ ×ĸ
Ġ×ľ ×¢×©
×ķ×¨ ×ķ
×Ĺ ×Ĳ
Ġ×ĳ×ľ ×ķ×ŀ
Ġ×§×ľ ×²
Ġ×Ĵ×¢×ĳ ×Ļ×Ļ×ĵ×¢×¡
×ķ×ł×ĺ ×©
Ġ×§×Ĳ×ŀ ×Ļ×ĺ×¢
Ġ×Ķ×Ĳ×¨ ×¦
Ġ×ĳ×Ĺ ×Ļ×ł×Ŀ
ĠM em
Ġ×Ĳ×ķ×Ļ×¤×Ĵ ×¢×§×ķ×ŀ×¢×Ł
Ġ×Ĳ×Ļ×ł×Ĵ ×Ĳ×ł×¦×¢×Ł
Ġ×ŀ×Ĳ×¨ ×©
Ġd es
Ġ×Ķ×Ĺ ×¨×ĵ
Ġ×ĳ×Ĳ×ĺ×¨ ×Ĳ×Ľ×ĺ×Ł
×ĵ×ĵ ×ĵ×ĵ
Ġ×ĳ×Ĳ×©×ķ×ľ×ĵ ×Ļ×Ĵ×ĺ
Ġ×¦×Ļ×ķ×ł ×Ļ×¡×ĺ×Ļ×©×¢
Ġ×¨×¤ ×ķ×Ĳ×Ķ
Ġ×Ĳ×ķ×Ļ×¡×ĵ ×¨×Ļ×§×Ł
Ġ< <
×ł×ĺ×ľ ×ķ×Ļ×¤×Ł
v en
Ð ³
×¨ ×Ļ×ĸ×Ĳ
Ġ×ĵ ×Ĳ×Ľ
×ľ ×¢×ŀ
Ġ×ŀ ×Ĳ×¤×¢
Ġ×ĸ ×Ļ×Ľ×ĺ
Ġ×§ ×Ļ×Ļ×¡×¢×¨
Ġ×© ×§×ľ
Ġ×¢ ×ķ×ĵ
Ġ×Ľ ×¢×ĸ
Ġ×Ļ×Ĳ×¨ ×ĵ
Ġ×§×ľ ×ķ×Ļ×ĸ
×ĺ×¨ ×Ĳ×Ľ×ĺ
×Ļ×Ķ ×Ĳ
Ġ×ĺ×Ļ×Ļ×ľ ×ĺ
Ġ×ĳ×© ×ķ×¨×Ķ
Ġ×ĳ×Ĺ ×Ļ×ł×Ķ
ĠM an
ĠP rotection
Ġ×ł×¤ ×§×Ĳ
Ġ×¡×Ļ×¨ ×Ļ×©×¢
Ġ×ŀ×¢×¡ ×¢×¨
âĢľ ,
Ġ×ŀ×ķ×Ĺ ×Ķ
Ġ×Ĳ×¤×Ļ×¦ ×Ļ×¨
Ġ×¨×Ĳ×¡ ×Ļ×¡×ĺ
×ķ×ķ×ķ×ķ×ķ×ķ×ķ×ķ×ķ×ķ×ķ×ķ×ķ×ķ×ķ×ķ×ķ×ķ×ķ×ķ×ķ×ķ×ķ×ķ×ķ×ķ×ķ×ķ×ķ×ķ×ķ×ķ ×ķ×ķ×ķ×ķ×ķ×ķ×ķ×ķ×ķ×ķ×ķ×ķ×ķ×ķ×ķ×ķ×ķ×ķ×ķ×ķ×ķ×ķ×ķ×ķ×ķ×ķ×ķ×ķ×ķ×ķ×ķ×ķ
Ġ×Ĳ×ķ×Ļ×¡×Ĵ×¢×ľ ×Ĳ×©×Ł
×ķ×ķ×Ļ×Ľ×ĺ ×Ļ×Ĵ
Ġ×Ĵ×¢×©×¤×¨ ×¢×Ľ×Ł
Ġ×ª×Ĳ×ķ ×ķ×ª
ĠBas ic
i es
Ġ ðŁ
×¨ ï¬¯
Ġ×ķ ×ĺ
Ġ×Ķ ×Ĳ×ŀ×Ļ×¨
×¢×ł ×Ļ×Ĳ
Ġ×¡ ×Ĳ×ĵ
Ġ×¤×Ĳ×¨ ×Ĵ×¢×©×ĺ×¢×ľ×ĺ
×Ļ×Ļ×ł ×Ļ×Ŀ
Ġ×¤×¨ ×Ļ×¢×ĵ
Ġ×©×¤ ×Ĳ×ł
×©×ĺ ×Ļ×Ļ×Ĵ×¢×¨
Ġ×¨×ĳ ×Ķ
×ĺ×© ×ĺ×Ĳ
Ġ×¤×Ĳ×¨×§ ×Ĳ×Ľ×ĺ
×¢×Ļ×ľ ×¡
×ľ×Ļ×ĺ ×Ļ×§×¡
Ġ×¤×Ĳ×ľ×Ļ×ĺ ×Ļ×§×¢×¨
Ġ×ª×© ×ķ×ĳ×ķ×ª
Ġ×ŀ×¢×§×¡ ×Ļ×§×¢
Õ¡ Õ
Ġ×ŀ ×Ĳ×§×¡
Ġ×ŀ ×Ļ×Ľ×ľ
Ġ×ķ×ķ ×¢×Ľ×ł×ĺ
Ġ×§ ×ľ×¢×ł×¡
×§ ×ĺ×Ł
×¢×ĺ ×ľ×¢×Ľ×¢
×ķ×¨ ×Ļ×Ļ×ª×Ĳ
×¢×Ĵ ×¨×Ĳ
Ġ×¢×¡ ×§×Ł
×¢×ŀ ×¢×ĵ
Ġ×ĳ×¨ ×¢×§×ľ×¢×ļ
Ġ×ŀ×¢×¨ ×Ļ×ĳ
Ġ×ŀ×Ļ×ł ×¢×¡
Ġ×Ķ×¢×¨ ×¦
Ġ×¤×Ĳ×¨×ŀ ×Ļ×Ļ×ĵ×Ł
Ġ×Ĳ×¨×ķ×Ļ×¡×Ĵ ×¢×ł×ķ×ŀ×¢×Ł
Ġ×¨×¢×ĸ ×¢×¨×ķ×ķ
Ġ×ĺ×¨×¢×¤ ×¢×Ł
Ġ×Ĳ×ł×Ķ ×ķ×Ļ×ĳ×Ł
×Ĳ×ŀ×¢×¨ ×Ļ×§×Ĳ×ł×¢×¨
Ġ×©×ķ×ķ×Ĳ×¨ ×¦×¢×¨
×Ĳ×Ĺ ×¨
Ġ×Ļ×Ĺ×Ļ×ĵ ×Ķ
Ġ×¦×¢×¨ ×¢×ŀ
Ġ×ķ×¡ ×¢×¨×¡
Ġ×Ĳ×ķ×Ļ×¡×Ĵ×¢×ĵ ×¨×Ļ×§×ĺ
asin o
×¨ ×Ļ×©×Ł
Ġ×ŀ ×ķ×¨×Ķ
Ġ×ŀ ×Ĵ×ľ×Ķ
Ġ×ķ×ķ ×Ļ×§×ĺ
×Ĳ×¨ ×Ľ
×¤ ×¨×Ļ×Ļ×ĸ
×¢×ł ×ľ×Ļ×ļ
Ġ×Ĳ×¨ ×ĵ
×¨×Ĳ ×Ł
Ġ×ķ×ķ×¢×ľ ×ĵ×Ļ×ł×Ĵ
Ġ×§×ľ ×ķ×Ĵ×¢
×¨×Ļ×§ ×Ĳ×ł×¢×¨
Ġ×§×¨ ×ķ×Ļ×Ł
×Ļ×Ľ×ĺ ×¢×¡
Ġ×¢×¤ ×¢×ł×ĺ
an k
an s
×Ĵ×¢×¨ ×ķ×¤×Ł
×ķ×Ļ×¨ ×¢
Ġ[ ...]
Ġ×¤×Ĳ×¨×ĺ ×Ĳ×ľ
Ġ×Ķ×¨×ĳ ×Ļ×Ŀ
Ġ×Ĳ×ł ×Ĳ×ł×¡
×¨×Ļ×Ļ×Ľ ×¢
Ġ×Ĵ×¢×Ĳ ×Ļ×Ļ×Ĵ
Ġ×Ĳ×ķ×Ļ×¡×¦ ×ķ×¤
×Ļ×Ļ×ķ×ķ ×¢×ľ×ĺ
Ġ×¦×¢×ł×ĺ ×¨×Ĳ×ľ×¢
Ġ×¤×Ĳ×¨×ķ×ķ ×Ĳ×ł×ĵ×ľ×¢×Ł
Ġ×¦×Ļ×ķ×ķ×Ļ×ľ ×¢
ĠAnim als
ĠUS A
Ġ×Ĳ×ķ×Ļ×¤×ķ×ķ×¢×§ ×¢×Ł
Ġ×¤×Ĳ×¨×Ĳ×Ĵ×¨ ×Ĳ×£
a pp
×ľ ×Ľ
Ġ×ķ×ķ ×Ĳ×ľ×ĵ
Ġ×Ķ ×Ľ×ķ×ľ
×ĸ ×Ļ×§×¢×¨
Ġ×Ļ ×ķ×ĵ×Ĳ
Ġ×ł×Ĳ×¨ ×ķ×ķ×Ĳ×¡
×Ĳ×ĳ ×¡
Ġ×ķ×ķ×¢×ľ×ĺ ×ľ
Ġ×©×ŀ ×Ļ×Ļ×Ľ
Ġ×° ×Ĳ×¡
Ġ×ŀ×Ĺ ×ľ×Ķ
×ķ×Ĺ ×Ļ×Ŀ
Ġ×¤×¨×Ĳ×Ĵ×¨ ×¢×Ŀ
Ġ×¤×Ļ×ł ×Ĳ×ł×¥
Ġ×Ķ×Ļ×¤ ×©
bs ol
Ġ×ł×¢×¨×ķ×ķ ×¢×ĸ
Ġ×¡×¢×¨×ķ×ķ×Ļ×¨ ×¢×¨
Ġ×¨×¢×§×ķ×ķ×Ļ×¨ ×¢×ŀ×¢×ł×¥
Ġ×ĳ ×ķ×Ļ
Ġ×§ ×ķ×ĳ
×© ×ł×¢×ľ
Ġ×¦ ×ķ×Ļ×ĳ×¢×¨
Ġ×Ĳ×¨ ×Ļ×Ķ
Ġ×©×¤ ×Ĳ×¨×Ł
Ġ×©×¤ ×Ļ×¨×Ĳ
Ġ×ĳ×Ĳ× ł×Ĵ
×¨×ĵ ×Ļ×ł×Ĵ
×¦×Ļ×¢ ×ł×ĺ
×ķ×Ľ ×¢×¨
×Ļ×ª ×Ļ
×ķ×ł×§ ×Ĳ×ĺ×©
Ġ×¤×Ĳ×¨×Ĳ ×ķ×¨
Ġ×¡×ĵ×¨ ×Ķ
Ġ×¢×§×¡×¤ ×¢×¨×ĺ
Ġ×ĵ×Ĳ×ł×§ ×¢×Ł
Ġ×Ļ×Ĺ×Ļ×ĵ ×Ļ×Ŀ
×¨×Ļ×ĺ ×¢×¡
Ġ×¤×Ĳ×¨×ĳ×Ļ×ł×ĵ ×ķ×ł×Ĵ
Ġ×§×Ĳ×ŀ×¢×ł×ĺ ×Ĳ×¨×Ł
×ķ×ł×ª ×Ł
ĠFl ight
ĠAnim al
Ġ×¢×¤×¢×§×ĺ ×Ļ×ķ×ķ×§×Ļ×Ļ
Ġ×ĳ ×¢×§×Ł
Ġ×© ×Ļ×¡×Ł
×ŀ ×Ŀ
×ŀ ×¢×©
×Ļ×ľ ×Ļ×Ŀ
Ġ×ª ×ĳ
Ġ×ĳ×¨ ×Ļ×Ĳ×Ķ
Ġ×ĳ×¨ ×¡×ľ×ĳ
Ġ×Ļ×Ĳ×¨ ×§×¢×¨
Ġ×ŀ×§ ×¤×Ļ×ĵ
×´ ,
ĠK ill
Ġ×ŀ×ĺ ×ĳ×¢
Ġ×ķ×ķ×Ļ×ł ×Ļ×ł×Ĵ
Ġ×ĳ×Ĳ×Ĵ×¢×Ĵ ×ł×ĺ
Ġ×§×Ĳ×ł×¡×ĺ×Ļ×ĺ ×ķ×¦×Ļ×¢
bsol ute
Ġ le
×¨ ×Ĳ×ĵ
×¢×¨ ×Ļ×¡
×ł ×Ļ×Ĳ×ľ
×ŀ ×¢×ł×¢×¨
Ġ×Ļ ×ŀ×£
Ġ×ľ ×Ĳ×ŀ
Ġ×ľ ×Ļ×ł×Ĵ
Ġ×ľ ×ķ×Ļ×¤
×Ĳ×¤ ×Ĳ×¨
×ķ×ĸ ×Ķ
×¢×ł×ĵ ×Ļ×§×¢×¨
Ġ×ĺ×Ĳ ×ķ×Ł
Ġ×ĵ×Ļ×¨ ×¢×§×ĺ×Ĳ
×¤×ĺ ×ķ×ķ×¢×¨
×Ļ×Ļ×§ ×¡
×ĵ×ĸ×© ×Ļ×ĸ
Ġ×ŀ×ķ×¡ ×ķ×ľ
ic ation
Ġ×Ĳ×¤×Ĵ ×¢×ĸ×Ĳ×Ĵ×ĺ
×¤×Ĳ×ľ ×Ļ×ĺ
ol d
Ġ×Ķ×Ľ ×ł×¡×ª
Ġ×ĳ×ķ×ĵ ×§
Ġ×§×ķ×ŀ×¢×ł×ĵ ×Ļ×Ĵ×Ł
Ġ×¤×Ĳ×¨×Ĵ×¢×© ×ľ×Ĳ×Ĵ×Ł
Ġ×Ľ×Ĳ×¨ ×Ĳ×§×ĺ×¢×¨
ĠTom orrow
? ,
o v
ä º
×ľ ×Ļ×¡×Ł
×ľ ×ĵ×Ļ×§
Ġ×ķ ×ķ×¤
Ġ×ĸ ï¬¯
Ġ×ĳ ×ĺ×¢×ķ×ª
×ŀ ×¢×ĺ×¢×¨
Ġ×Ļ ×ķ×ĸ
Ġ×Ļ ×ł×ĺ×Ĳ
×Ľ ×Ĳ×¤
×¨×Ĳ ×ķ×ĵ
Ġ×Ľ ×Ļ×ĺ
×ł×Ĵ ×¢×ł×ķ×ŀ×¢×Ł
×Ļ×¡×ĺ ×Ļ×©×Ł
×ĵ×¨ ×Ļ×Ł
Ġ×Ĵ×¢ ×ķ×ķ×Ļ×ł×¡
Ġ×Ĳ×ķ×Ļ×¡×Ĵ ×¢×¨×¢×Ľ×ł×ĺ
Ġ×¤×Ĳ×¨×© ×ķ×ķ
×Ĵ×¢×¨ ×ķ×¤
Ġ×¢×ł×ĵ ×Ļ×§×Ł
×¨×ķ×Ļ×¡ ×ķ×ķ×Ļ×Ļ
Ġ×¨×Ļ×Ľ×ĺ ×Ļ×Ĵ×Ł
ĠA bsolute
Ġf un
Ġ×¡×¢×§ ×Ļ×ķ×¨
Ġ×Ĳ×ķ×ª ×ķ
Ġ×Ļ×ł×¡ ×Ĳ
Ġ×ĵ×Ļ×ĸ ×¢×¨×¥
Ġ×ŀ×Ļ×ĸ ×¨×Ĺ
âĢª .
Ġ×ķ×ķ×¢×§×¡ ×ľ
Ġ×ĺ×Ļ×§ ×¢×ĺ×¡
Ġ×¤×Ļ×Ļ×Ĵ ×ľ
Ġ×Ĵ×¢×ĸ×¢×¦ ×ľ×Ļ×Ľ×¢
Ġ×Ļ×ł×ĺ×¢×ľ ×ľ×Ļ×Ĵ
ĠDes erve
ĠCoun ter
l and
×Ļ×¡ ×§×Ĳ
×Ĳ×ł ×¢×ľ
Ġ×Ĳ×Ļ×Ļ× ĳ×¢×¨
Ġ×Ĳ×ķ×Ļ×¡ ×¨×¢×Ľ×¢×ł×¢×Ł
×¢×Ľ ×ľ
Ġ×¡×ĺ ×Ĳ×ľ
Ġ×ĵ×ķ×¨×Ľ ×Ĵ×¢×Ĵ×Ĳ×ł×Ĵ×¢×Ł
Ġ×Ĳ×Ļ×Ļ×ł ×¨×¢×ĵ×Ł
Ġm ore
ĠÐ ¸
Ġy our
ab l
Ġ×Ľ×Ļ×ł ×ķ×¡
Ġ×ª×Ļ×¨ ×ķ×¦×Ļ×Ŀ
Ġ×ŀ×¢×ĵ×Ļ×¢ ×°×Ļ×§×Ļ
Ġ×ĵ ×Ĳ×¤
Ġ×ĳ ×¢×§×¢×¨
Ġ×§ ×ŀ
×¤ ×¢×ł×ĺ×¢
Ġ×ł ×ķ×Ķ
×ł ×Ĳ×ŀ×¢×Ł
×Ļ×ĺ ×Ļ×¡
Ġ×ľ ×Ĳ×Ĵ×¢×¨
×ķ×¨ ×ĺ×©
×Ĳ×¤ ×¢×¡
Ġ×ĳ×Ĳ ×ķ×ķ×Ļ×ľ
Ġ×Ĳ×¤ ×Ļ×¦×Ļ×¢
×ł×Ĵ ×Ļ×ł×Ĵ
Ġ×Ĳ×ł×Ĵ ×¢×¨
Ġ×¤×Ĳ×ľ ×©
×ĺ×© ×Ļ
Ġ×ĵ×¢ ×Ļ×¡
ou s
ĠW indows
Ġ×Ĳ×Ļ×Ļ×¨×Ĳ×¤×¢ ×Ļ×©×¢
Ġ×¨×¢×Ĳ ×§×¦×Ļ×¢
×Ĳ×ĸ×© ×Ļ×¨×Ł
Ġ×ĳ×Ĳ×ĸ×ķ×ł×ĵ ×¢×¨×©
×ĳ×§ ×Ļ×¦×ķ×¨
Ġ×ĳ×Ĳ×Ķ×Ĳ×ľ×ĺ ×¢×ł×¢
Ġ×¤×Ĳ×ľ×Ļ×¡ ×Ļ×¡
Ġ×¦×Ļ×¦ ×Ļ×ª
ç ļ
×ķ ×¢×¨×ĸ
Ġ×Ĳ ×¡×ĺ×¨
Ġ×Ĳ×Ļ× ¢
Ġ×ĸ ×ķ×ŀ
Ġ×Ķ ×¡×¤
×Ĳ×¨ ×Ļ×§
×ĵ ×¢×ł×ĺ
×ĸ ×ŀ
Ġ×¦ ×¨
×§ ×Ĳ×Ŀ
Ġ×¨ ×ķ×©×Ŀ
×ķ×¨ ×¢×¡
Ġ×Ĳ×¤ ×Ĵ×¢×¨×¢×ĵ×ĺ
Ġ×Ĳ×¤ ×Ļ×§×ķ×¨×¡
×Ļ×ŀ ×Ļ×Ŀ
Ġ×ķ×ķ×Ļ×¨ ×§×Ł
Ġ×ĺ×ķ×ĳ ×ķ×ª
25 0
Ġ×§×Ĳ×¡×ĺ ×ķ×ŀ×¢×¨×¡
Ġe mail
Ġ×©×ĺ×ķ×ĵ ×Ļ×¨×Ł
Ġ×©×ĺ×ķ×ĵ ×Ļ×¨×ĺ
Ġ×§×Ĳ×ł×¤ ×¢×¨×¢×ł×¥
Ġ×¤×ķ×Ļ×ľ ×Ļ×©×¢
Ġ×Ļ×©×Ļ×ĳ ×ª
Ġ×ŀ×¢×Ķ ×¨
Ġ×¦×ķ×ĳ×ľ ×Ĳ×ĸ×ĺ
Ġ ch
×ĺ ×¢×Ŀ
×ľ ×ķ×ķ×¢
Ġ×Ĵ ×ĺ
Ġ×ĸ ×Ĳ×¨×Ĵ
×ĵ ×Ĳ×¨×ĺ
Ġ×Ļ ×Ĳ×¡
Ġ×Ļ ×ł×ĺ×¨×Ĳ
×Ļ×§ ×¢×ľ
Ġ×¨ ×Ĳ×ĳ×¢×¨
ĠâĢ Ł
Ġ×ĵ×¨ ×Ĳ×¡×ĺ
Ġ×ŀ×Ĺ ×ĸ
Ġ×ĵ×ķ×¨×Ľ ×¤×Ĳ
×ľ×ŀ ×Ļ
Ġ×Ļ×¦ ×Ļ×Ĳ×ª
Ġ×Ĳ×¨×Ĵ ×¢×ł×ĺ×Ļ×ł×¢
Ġ×Ĳ×Ļ×ĺ ×Ĳ
Ġ×¤×¨×Ĳ×ł×¦×ķ×Ļ×ĸ ×Ļ×©×¢
Ġ×§×Ĳ×ł×ĺ×¨×Ĳ×ľ ×Ļ×¨×Ł
×ł×Ĵ×¢×¤ ×Ļ×ľ×ĺ×¢
Ġ×¤×Ĳ×¨×ĳ×Ļ×ł×ĵ ×ĺ
Ġ×Ĵ×ľ×Ļ×Ļ×Ľ ×¦×Ļ×Ļ×ĺ
Ġ×ķ×ķ×Ļ×Ļ× ł×
Ġ×Ĳ×¨×Ļ×Ļ×ł×¦×ķ×ľ ×Ĳ×Ĵ×Ł
5 2
Ġ us
×Ĳ ×Ļ×¡
×Ĳ ×Ļ×Ļ×ł×¢
×ľ ×ķ×Ĳ
Ġ×Ķ ×Ļ×¦
×Ĳ×¨ ×¢
×Ĳ×¨ ×Ļ×©×¢
×ł ×Ĳ×¨×ŀ
×§ ×ķ×ª
×¢×ł ×¢×ľ
Ġ×ĺ ×¢×ł×ĵ
×¢×¡ ×Ļ×Ł
×¢×ŀ ×¢×¡
×ķ×ľ ×Ĳ×¦×Ļ×¢×¡
Ġ×Ľ ×ł×¡×ª
×¡×ĺ ×ł×¡
×¨×ĺ ×Ķ
×ĳ×ľ ×ķ×Ļ
Ġ×ŀ×Ļ×ł ×Ĳ×¨
Ġ×¨×ķ×¡ ×Ł
Ġ×¡×§ ×Ļ×¤
×¢×ĳ×¨ ×Ĳ×Ľ×ĺ
Ġ×¢×ł×ĵ ×ĸ×©
Ġ×©×ķ×ľ ×ĵ×Ļ×§
Ġ×ĳ×Ĳ×¤ ×ķ×Ļ×ľ×Ł
Ġ×¤×Ĳ×¨×ĳ×¨ ×¢×ł×Ĵ×ĺ
×¨×Ļ×Ļ×Ľ ×ĺ
Ġ×ŀ×¢×¡ ×ĺ×Ł
Ġ×¤×ķ×Ļ×ł×ĺ ×¡
pl ay
Ġ×¨×¢×¦ ×¢×¤
Ġ×ķ×ķ×Ļ×Ļ×ĵ ×ľ×Ļ
Ġ×Ķ×¢×ĳ×¨ ×¢×Ĳ
Ġ×ķ×Ļ×ķ ×Ĳ×ľ
O M
×ĺ ×Ļ×ĵ
×ľ ×Ļ×Ļ×¡
Ġ×ĸ ×¨×Ķ
×© ×ŀ×¢
×Ĳ×ĺ ×Ļ×©×¢
×Ļ×Ļ×ĺ ×©×ĺ
×Ļ×ł ×¢×ł×ĺ
Ġ×Ĳ×Ļ×ĳ×¢×¨ ×ł×¢×ŀ×¢×Ł
Ġ×¡×¤ ×¢×©
Ġ×Ĳ×ł×Ĵ ×¢×ľ
Ġ×¤×Ĳ×ľ ×¡
Ġ×Ĳ×¡ ×Ļ×¤×Ķ
Ġ×©×ł ×¢×ľ×¢
Ġ×ĳ×Ĳ×ł ×¢×Ł
Ġ×Ĵ×¢×ĺ×¨ ×Ļ×Ļ×¢
Ġ×¤×Ĳ×¨×Ķ ×Ĳ×ł×ĵ
Ġ×ľ×Ļ×¡×ĺ ×¢×ĵ
Ġ×¤×Ĳ×ĳ ×¨
Ġ×©×¤×Ļ×Ĳ×ł ×Ĳ×ĸ×©
Ġ×Ľ×¢×ľ×ĺ ×Ļ×¢×¨
Ġ×Ļ×ł×ĺ×¢×ľ×ľ×Ļ×Ĵ ×¢×ł×¡×¢
6 2
9 1
×Ĳ ×ķ×Ļ×¤×Ł
×ľ ×¢×¤
Ġ×Ĵ ×¢×¨×Ł
Ġ×ĸ ×¢×¥
Ġ×Ķ ×ķ
Ġ×Ķ ×Ļ×ł×ĸ
×ŀ ×Ļ×¡
×Ķ ×Ĳ×¤×ĺ
Ġ×ľ ×ª
Ġ×¨ ×¢×¤×ľ
Ġ×¤×Ĳ×¨ ×¡
Ġ×Ľ ×¨
Ġ×Ľ ×Ĳ×Ł
×Ļ×Ļ×ľ ×ķ×ł×Ĵ
Ġ×Ĵ×¨ ×ķ×Ļ×ĸ
Ġ×Ĳ×ķ×Ļ×¡ ×¤×Ļ×¨×Ł
Ġ×ĵ×¨ ×Ļ×ĺ×ľ
Ġ×Ĳ×ķ×Ļ×¡×Ĵ ×¢×¨×ķ×¤×Ł
Ġ×Ĳ×ĳ ×Ļ×ķ
×ķ×¨×Ĳ ×Ļ×Ŀ
Ġ8 00
Ġ×ŀ×Ĳ×¨ ×ĵ
×¨×Ļ×Ļ×ĳ ×ĵ
×Ĳ×ŀ×¢×¨ ×Ļ×§×¢
Ġ×§×Ĳ×ł×ĺ ×¨×Ĳ
ti f
Ġ×Ĵ×¨×¢×ł ×¢×¦×Ł
Ġ×Ļ×ĳ×¢×¨ ×Ĵ×¢×ĳ×Ł
oun t
Ġ×Ĳ×¨×Ĳ×¤×§ ×Ĳ×¤×Ļ×¢
ĠÂ¨ âĢł
Ġ×Ĵ×¢×¦×ķ×ķ ×ķ×ł×Ĵ×¢×Ł
âĢª. âĢ¬âĢ¬
Ġ ).
Ġ×Ĳ ×ķ×ķ×¢×¨
×¢×¨ ×Ļ×Ĳ
Ġ×¤ ×ķ×ĵ
Ġ×ķ×ķ ×Ļ×ĺ×Ĳ
Ġ×Ķ ×ŀ×©×ļ
Ġ×ĳ ×§×Ļ
×§ ×ĵ
Ġ×ľ ×ķ×ĳ×ľ×Ļ×Ł
×Ĳ×ł ×ĺ×Ĳ
Ġ×Ĵ×¢×ĸ ×¢×Ĵ
×Ĳ×ĵ ×¢×¨×ĺ
×ĺ×¨ ×Ļ×¡×¢
×¨×Ĵ ×¢×§×ķ×ŀ×¢×Ł
Ġ×ŀ×Ļ×ł ×Ĳ
Ġ×§×Ĳ×ŀ ×¢×¨
×ŀ×Ļ×ĺ ×Ł
Ġ×ĵ×¢ ×Ļ×ĺ
Ġ×¤×¡ ×§×Ļ×Ŀ
Ġ×Ĳ×¨×ĺ×Ļ×§×ľ ×Ł
Ġ×Ĵ×¢×ĺ×¨ ×Ĳ×Ĵ×Ł
Ġ×Ļ×ĵ ×¢×Ł
Ġ×ª×© ×¡
Ġ×Ķ×ĵ ×ĳ×¨×Ļ×Ŀ
Ġ×ľ×Ķ ×ĳ×ĵ×Ļ×ľ
Ġ×Ķ×¢×¨×© ×ľ
Ġ×ŀ×Ĳ×¡ ×§
×Ĵ×¢×Ķ ×Ļ×ĺ
ĠU RL
Ġ×ľ×¢×ĳ×¢×ĵ ×Ļ×§×¢
Ġ×¤×¨×Ļ×Ļ×ľ ×Ļ×ļ
Ġ×¤×¢×¨×ĺ ×ľ
Ġ×¢×©×¨ ×Ķ
Ġ×ĸ×ŀ ×ł×Ļ×Ŀ
Ġ×Ĵ×¢×ĸ×ķ×ł ×ĺ×¢
Ġ×Ķ×Ĺ×¨×ĵ ×Ļ×ª
g ame
×ľ ×Ļ×ł
Ġ×ķ×ķ ×Ļ×¥
Ġ×ĳ ×Ļ×ĳ×¢×¨
Ġ×§ ×Ļ×©
×ĳ ×Ĳ×ŀ×ª
×§ ×¢×¨×ĸ
Ġ×ĺ ×ŀ×Ĳ
Ġ×ĺ ×ķ×¡×Ĳ
Ġ×ľ ×¢×ĸ×¢×¨
Ġ×¢×¨ ×ļ
×Ļ×ķ ×ķ×ľ
Ġ×¤×¨ ×Ļ×ľ×Ļ×ł×Ĵ
Ġ×Ĺ ×ĸ×¨
×Ĳ×ŀ ×Ļ×¢
×ĵ×¢×¨ ×Ļ×ĳ×¢×¨
×ķ×ķ×Ĳ ×Ļ
×ł×§ ×ķ×¨
×¨×Ĵ ×ķ×Ŀ
Ġ×ľ×Ļ×Ļ×ĵ ×Ļ×Ĵ×¢
Ġ×¢×ĵ ×Ķ
Ġc an
Ġ×Ĳ×¨×ķ×ŀ ×Ĵ×¢×ł×ķ×ŀ×¢×Ł
Ġ×ĵ×¢×¨×¦×Ļ×Ļ×ľ ×ķ×ł×Ĵ
Ġ×Ĵ×¢×§×ľ ×¢×¨×ĺ
Ġ×ŀ×¢×Ľ×ĺ ×Ļ×Ĵ×¢
5 4
v iew
Ġ×ĵ ×¢×ķ×ª
Ġ×¤ ×¢×§
Ġ×¤ ×Ļ×ķ
Ġ×ķ×ķ ï¬¯
×¡ ×Ļ×Ļ
×¡ ×Ĳ×ĺ×ŀ×Ĳ×¨
Ġ×ĸ ×¢×¦×ĺ
Ġ×§ ×Ļ×¡
Ġ×ł ×¢×¦
×ĸ ×ķ×Ļ×ł×¢
×¢×ĵ ×Ļ
×Ļ×ķ ×ł×Ĵ×¢×Ł
×Ĺ ×¡
Ġ×Ĳ×ľ ×Ļ×Ĳ
Ġ×Ĳ×¤ ×ĺ×Ļ×Ļ×ľ
Ġ2 50
×ł×¡ ×ĺ×¢×¨
Ġ×¨×ĳ ×Ļ×¦×Ļ×Ł
Ö´ Ö¼
Ġ×¢×¤ ×Ł
Ġ×¡×Ĳ ×ķ×ĵ×Ļ
Ġ×Ĵ×¢×ĳ ×¨×Ĳ
×Ļ×Ľ×¢×¨ ×ķ×ł×Ĵ
Ġ×¤×Ĳ×ľ ×Ĳ×¥
Ġ×ł×Ĳ×Ľ ×Ĳ×ľ×¥
Ġ×¢×§ ×¡×ĺ×¨×Ĳ
×ĺ×ķ×¨ ×Ĳ
Ġ×ŀ×¡ ×ķ×ĵ×¨
Ġ×¦×ķ×Ĵ ×Ĳ×ł×Ĵ
Ġ×©×¨ ×Ļ×Ļ×¢
Ġ×ª×Ĵ×ķ×ĳ×Ķ ×¦×Ļ×Ļ×ĺ
Ġ×ª×Ĵ×ķ×ĳ×Ķ ×¤×Ĳ×¨×ķ×Ŀ×§×¢×¤×ľ
Ġ×Ĳ×©×Ľ×ķ×ľ ×§×¢×¤×ľ
Ġ×©×ķ×ľ ×¢×¡
Ġ×ĳ×Ĳ×ĵ ×¢×¨×ĺ
×¡×ĺ×¢×¨ ×¡
Ġ×ĳ×Ĳ×Ķ ×Ĳ×ł×ĵ×ľ×¢×Ł
×¤×Ļ×ľ ×¢
×ķ×ķ×¢×¨×ĺ ×Ļ×§
Ġ×ĺ×©×Ļ×§×Ĳ ×ķ×ķ×¢
Ġ×¦×¢×ł×ĵ×ľ ×Ļ×§×¢×¨
Ġ×§×ľ×ķ×Ĵ ×¢×¨
Ġ×ľ×¢×ķ×ķ ×¢×ľ
Ġ×ŀ×ķ×ŀ ×Ĺ×Ļ×Ŀ
Ġ×Ľ×¢×ŀ ×Ļ×§
Ġ×ŀ×Ĳ×ĺ×¨ ×Ļ×Ĳ×ľ
×Ĳ ×Ļ×Ļ×¢×¨
Ġ×§ ×¢×ł×¢×¨
×ĵ ×ķ×Ļ×¢×¨×Ł
Ġ×© ×Ĳ×Ļ×Ł
Ġ×¢ ×ķ×ĸ
×Ķ ×¡
Ġ×Ļ ×ķ×ľ
Ġ×¡ ×¡
Ġ×¡ ×¢×ł×ĺ×¢×¨
Ġ×¨ ×Ļ×¡×ĺ
×¢×ĺ ×Ĳ×¨
×Ĳ×Ĵ ×Ĳ
×ł×ĵ ×ľ×ĺ
×Ĳ×ŀ ×ľ×ĺ
Ġ×Ľ ×Ĳ×ľ
Ġ×Ľ ×Ļ×¤×ķ×¨
Ġ×ĳ×ľ ×Ļ×ł×ĵ
Ġ×ĳ×ľ ×ķ×ŀ×Ļ×ł×Ĵ
×Ļ×Ļ×ĵ ×ĸ
×ľ×Ļ×Ľ ×¢×Ł
Ġ×¨×¢×ĵ ×¢×Ł
Ġ×Ĵ×¢×ŀ ×Ļ×©
×ķ×Ļ×ł ×ķ×ł×Ĵ
Ġ×Ĳ×¨×ķ×Ļ×¤ ×§×ķ×ŀ×¢×Ł
Ġ×Ĵ×Ĳ×ł×¦ ×¢×Ł
Ġ×Ĳ×ŀ×ª ×Ł
Ġ×¡×Ļ×¡×ĺ ×¢×ŀ×¡
Ġ×Ĳ×¨×ķ×Ļ×¡×Ĵ ×¢×ķ×ķ×Ĳ×¨×¤×Ł
Ġ×Ĳ×ł ×ķ×ł×Ĵ
Ġ×¡×¢ ×Ļ×ł×ĺ
Ġ×ĵ×Ļ×¤ ×Ĳ
Ġ×ĺ×¢×§ ×ł×Ĳ
×Ĳ×Ĺ ×ĵ
Ġ×§×Ĳ×¡×ĺ ×ķ×ŀ×¢×¨
×¨×ķ×ķ ×ķ×ĺ
Ġal l
Ġ×Ĳ×Ļ×Ļ×ł×¤ ×ľ×ķ×¡
×¦×ķ×ľ ×Ļ×ĳ
Ġ×©×ķ×ķ×Ļ×ŀ ×¢×Ł
Ġ×¢×ł×Ĵ×ľ ×Ļ×©×¢×¨
Ġ×©×ĺ×Ļ×ľ×¢×¨ ×Ķ×Ļ×Ļ×ĺ
Ġ×Ĳ ×ł×Ľ
Ġ×¤ ×¢×§×ľ
Ġ×ķ ×Ļ
Ġ×ŀ ×Ļ×©×ĺ
Ġ×Ĵ ×¢×ł×ĺ×¤×¢×¨×ĺ
×¡ ×¢×ĳ×Ĳ
Ġ×ĳ ×Ļ×©×¨×Ĳ×ľ
Ġ×§ ×ĺ×Ł
Ġ×§ ×ķ×Ĵ×ľ
Ġ×© ×Ļ×¡
Ġ×© ×ª
Ġ×¢ ×Ļ×ľ×Ĳ
×ŀ ×Ļ×¨×ĺ
×Ķ ×ķ×ķ×Ķ
Ġ×ĺ ×Ļ×Ŀ
Ġ×ľ ×Ļ×Ļ×¡
Ġ×¡ ×ķ×ŀ
Ġ×¨ ×Ļ×Ļ×¢×Ł
×Ľ ×Ĳ×¤×Ł
×ķ×ł ×ĺ×Ĳ
Ġ×ķ×ķ×¢×ľ ×ĵ×¢×¨
×ĺ×¨ ×¢×ĺ×Ł
Ġ×Ĵ×¢×¤ ×Ĳ
Ġ×Ĳ×ł×Ĵ ×¢×ĳ
Ġ×Ĵ×¢×ĵ ×¨×Ļ×§×ĺ
×ł×© ×ĺ
Ġ×Ĳ×ķ×ł×ĺ×¢×¨ ×Ĵ×¨×ķ×ł×ĺ
×¨×ķ×Ļ×¡ ×Ĵ×Ĳ
15 0
×Ĵ×¢×¤ ×Ļ×¨×ĺ
Ġ×Ķ×ĵ ×Ļ×Ł
Ġ×Ķ×Ĺ ×ľ×ĺ
ĠD e
Ġ×¤×¨×Ĳ×¤ ×Ĳ×Ĵ
Ġ×Ķ×¢×ĳ×¨×¢ ×Ļ×©
Ġ×¢×ł×ĵ×¢×¨ ×ķ×ł×Ĵ
×©×© ×©×©
Ġ×ľ×Ļ×ķ×ĳ×Ĳ ×ķ×ķ×Ļ×ĺ×©×¢×¨
Ġ×Ĵ×¢×Ĳ×Ĵ×¨×Ĳ×¤ ×Ļ×©
×ĺ ×Ļ×§×Ĳ
×¨ ×ķ×ĺ
Ġ×¤ ×Ĳ×ŀ×¤
Ġ×ŀ ×ķ×ª×¨
Ġ×ŀ ×ł×Ļ×¢×ķ×ª
Ġ×¦ ×Ļ×§×ľ
×ł ×Ļ×¨
×ŀ ×Ļ×Ĳ
Ġ×ĺ ×Ļ×¢
×Ĵ ×¢×ĳ×¨×¢×ł×Ĵ×ĺ
Ġ×Ĳ×ĸ ×Ĳ×ł×¢
Ġ×Ĳ×ķ×Ļ×¡ ×§×ķ×§×Ł
×¨×ĺ ×ľ
Ġ×Ĵ×¢×Ķ ×Ļ×Ļ×ŀ
×ķ×¦ ×Ĳ×Ķ
Ġ×Ĳ×ł×Ĵ ×¢×©×ĺ
×Ĳ×Ķ ×¨
×ł×© ×Ķ
Ġ×ŀ×¦ ×Ķ
Ġ4 8
en s
Ġ×ĳ×¢ ×ķ×ŀ×¨
×¢×ł×© ×Ļ×Ĳ
Ġ18 0
Ġ×Ļ×ĵ ×¢×Ĳ
Ġ×§×¨×Ļ×Ĳ ×ª
Ġ×Ķ×Ĳ×ł×ĵ ×ľ×ĺ
×ķ×ķ×¢×¨×¡ ×§×Ļ
Ġ×¤×Ĳ×¨×¨ ×¢×Ľ×ĺ×Ł
Ð¿Ð¿ Ð¿Ð¿
Ð¼Ð¼Ð¼Ð¼ Ð¼Ð¼Ð¼Ð¼
Ġ×Ĳ×Ļ×ł×ĺ×© ×¢×¡
Ġ×¢×ł×ľ ×Ļ×ļ
Ġ×ĵ×Ļ×Ļ×ķ×ķ ×¢×¨×¡
Ġ×Ĳ ×ķ×ľ×Ļ
Ġ×ĸ ×ķ×ŀ×¤
×ŀ ×¢×ł×©
×¢×ł ×¢×¨×Ł
Ġ×ľ ×¢×ŀ×ĳ×¢×¨
Ġ×¡ ×ķ×ĵ×ķ×ª
×Ĳ×ľ ×¡×ĺ
×Ļ×Ĵ ×¢×ł×ĺ
×¨×Ĳ ×Ļ×Ļ×ł×Ļ×§×ĺ×¢
×ª ×Ł
Ġ×¤×¨ ×ķ×ŀ×¢×¨
×¢×¦ ×Ļ×¢×ľ×¢
×ķ×¤ ×ķ×ª
Ġ×ĳ×¨ ×Ĳ×ĵ
Ġ×Ĵ×¢×ľ ×¢×Ĵ×Ł
Ġ×Ĳ×ķ×Ļ×¡×Ĵ ×¢
×¤×Ĳ×¨ ×©×¢×¨
×ķ×Ļ×ĳ ×¢×Ł
×Ĵ×¢×© ×Ļ×§×ĺ
Ġ×Ķ×ŀ ×ķ×Ł
âĢŁ Ö¾
ar y
×©×ĳ ×Ķ
Ġ×ŀ×¢×¡ ×Ļ×ķ×ķ
Ġ×Ĳ×Ļ×Ļ×¨×Ĳ×¤×¢ ×Ļ×©×¢×¨
Ġ×Ķ×Ĳ×ł×ĵ ×ľ×¢×Ł
Ġ×ľ×ĵ ×ķ×Ĵ×ŀ×Ĳ
×Ĵ×¢×¦ ×ķ×Ļ×Ĵ×Ł
Ġ×ŀ×©×ķ×Ĵ×¢ ×Ļ×Ŀ
Ġ×ł×ķ×ĵ ×ł×¢
Ġ×Ĳ×ĳ×Ļ×¡ ×¢×ľ×¢
Ġ×Ĳ×ķ×Ļ×¡×ĺ×¨ ×Ĳ×ľ×Ļ×¢
Ġ×¡×ķ×Ĺ ×¨
Ġ×§×Ļ×ł×Ĵ ×ĵ×Ĳ
çļ Ħ
d uc
m es
×Ĳ ×Ļ×ł×ĵ
×Ĳ ×Ļ×Ļ×ķ×ķ×¢×ľ×ĺ
×ķ× ł×¡×ĺ
×¡ ×Ĳ×Ļ×ĸ
Ġ×ĸ ×Ļ×Ľ×Ł
Ġ×§ ×¢×ĺ
Ġ×ł ×¢×§×¡
×ĳ ×ķ×©
×§ ×¢×Ĵ
×Ĵ ×¢×¡×ĺ
×¢×¡ ×¡
×¢×§ ×©×Ĳ×Ł
Ġ×Ĵ×¢×© ×¢×¤
×ĸ×© ×¢
×Ļ×Ļ×ĵ ×ľ
×ķ×Ĵ ×¡
×Ĳ×Ľ×ĺ ×¡
×¨×ĺ ×ŀ×Ĳ
Ġ×¢×ĺ ×¡
Ġ×Ĳ×ķ×Ļ×¡×Ĵ ×¢×§×ķ×ŀ×¢×Ł
Ġ×©×ķ×ķ ×¢×ľ
Ġ×Ĳ×¡ ×ª×¨
×ķ×ķ×Ļ×¡ ×¢
×ķ×ķ×¢ ×Ļ×ľ
Ġ×¦×ķ×ŀ ×Ļ×©×ĺ
Ġ×¢×§×¡×ĺ×¨ ×¢×ŀ
Ġ×¡×ŀ×Ĳ×¨×ĺ ×¤×Ĳ×ķ×Ł
Ġ×ĸ×Ļ×Ľ ×¢×Ł
ÑģÑģÑģÑģÑģÑģÑģÑģ ÑģÑģÑģÑģÑģÑģÑģÑģ
y s
Ã ¤
×ĺ ×¢×ł×ĺ
Ġ×ķ ×ķ×ľ
×¡ ×ķ×ĳ
Ġ×Ķ ×ĺ×ķ×ĳ
Ġ×© ×¢×ł×¢×¨
Ġ×¢ ×Ĳ
×ŀ ×Ĺ×Ķ
Ġ×ľ ×ŀ×¢×Ł
Ġ×¢×¨ ×ľ×Ļ×Ļ
×¢×ĵ ×¨×ķ×§×ĺ
âĢ ¢
×©×ĺ ×Ĳ×ł×¢×Ł
×ł×Ĳ ×Ļ
Ġ×¨×Ĳ ×Ļ×ķ×ª
Ġ×¢×ľ ×Ļ×ķ
Ġ×ĳ×Ĳ×¨ ×ĺ×Ł
Ġ×ľ×Ļ×ł×§ ×¢×Ł
Ġ×Ľ×ľ ×ľ×Ļ×Ŀ
Ġ6 00
Ġ×Ĵ×¢×ĺ×¨ ×Ĳ×¤×¢×Ł
×ĳ×Ļ×ľ ×ĵ
Ġ×¦×Ļ×ķ ×ł×Ļ×Ŀ
ter n
×Ļ×ķ×ķ×Ļ×ĺ ×Ļ
Ġ×Ĺ×ķ×© ×ļ
Ġ×¤×Ĳ×ł ×¢×ľ
Ġ %
×¨ ×ł×¢
Ġ×¤ ×Ĳ×ł×Ĵ×ĺ
Ġ×Ĵ ×Ĳ×ł×Ĵ
Ġ×Ķ ×ķ×Ļ×¢×ļ
Ġ×¢ ×ł×Ľ×Ĳ
×§ ×Ĳ×¤
×§ ×ķ×ľ×ĺ×ķ×¨
Ġ×¨ ×¢×ķ×ķ×Ĳ
×¢×ĺ ×Ļ×ķ×ķ
×¦ ×§×¢
×ª ×ĳ
×ĵ×¢×¨ ×¤×Ĳ×¨
Ġ1 20
Ġ×ł×Ĳ ×ķ
Ġ×Ĳ×ķ×Ļ×¤ ×ŀ×¢×¨×§
×¨×ĵ ×ĸ×©
Ġ×¢×ľ ×Ļ
Ġ×ł×Ĳ×Ľ ×¤×Ĳ×ľ
ĠC l
Ġ×§×Ĳ×ŀ×¤ ×¢×ł×Ļ×¡
Ġ×ĵ×¢ ×ķ×ķ×Ļ×¡×¢×¡
Ġ×Ľ×Ĳ×ĺ×© ×Ļ×Ĵ
×Ĳ×¦×Ļ×Ĳ×ł ×Ĳ×ľ×¢×¨
×Ĵ×¢×§ ×ķ×§×ĺ
Ġ×§×¢×¡×Ļ×Ļ×ĵ×¢×¨ ×ĵ×Ļ×§
×Ĵ×¢×©×ĺ ×Ĳ×ł×¢×Ł
Ġwh o
Ġ×ĵ×Ĳ×ĺ ×ķ×Ŀ
Ġ×ŀ×¢×ĺ×¨ ×Ĳ×¤×Ĳ×ľ×Ļ×¢
Ġ×ľ×¢×Ļ×§ ×ķ×ķ×Ĳ×ĵ
×ľ ×ķ×ĺ
Ġ×Ĵ ×Ļ×¡×Ł
Ġ×Ķ ×ł×Ĺ
Ġ×ĳ ×¢×Ĳ
Ġ×ĳ ×ŀ×Ķ
Ġ×§ ×Ĳ×ļ
Ġ×ł ×ķ×ľ
×ł ×Ļ×¨×ĺ
Ġ×ĺ ×¨×Ļ×Ļ×¡×ĺ
Ġ×¡ ×Ĳ×ĳ
Ġ×©×ĺ ×²
Ġ×Ľ ×ķ×ª
Ġ×ł×Ĳ ×¢×ł×ĺ
Ġ×§×¨ ×¢×Ŀ
×ķ×ķ×¢×¨ ×ĺ×¢×¨
×ł×§ ×¨×Ļ×Ļ
ï¬¯ ×¨×Ł
×ķ×Ĳ ×ķ×ª
Ġ×§×Ĳ×ŀ×¤ ×Ĳ×ł×Ļ×¡
×©×¤ ×¢×ĺ×¢×¨
ĠP os
Ġ×¤×Ļ×ł ×¢×£
Ġ×ľ×Ļ×ĺ ×ķ×ķ×Ĳ×§
ph is
Ġ×¤×¨×Ĳ×ĺ ×¢×¡×ĺ×Ł
Ġ×¤×ľ×ķ×¦ ×ľ×ķ×ł×Ĵ
Ġ×Ĳ×ķ×§×¨×Ĳ ×Ļ×ł×¢
Ġ×Ĺ×¤ ×¥
Ġ×ĵ×ĸ×©×Ļ×ĸ ×¢×¨×Ĳ
ĠMem phis
m art
Ġ×ĵ ×ķ×§
×ľ ×Ļ×Ĵ×¢
Ġ×ŀ ×ĸ×Ķ
×ĵ ×ķ×ĵ
×ĳ ×ĵ×¨×ļ
Ġ×¢ ×ĳ×¨
×ŀ ×Ĳ×¨×ĺ
Ġ×ĺ ×ķ×ķ×¢×¨×¡×§×Ļ
×Ĵ ×¢×ľ×Ļ×Ļ×Ĵ×ĺ
Ġ×¡ ×Ļ×¢
×¢×ľ ×Ļ×¢
×¢×ľ ×ľ×Ĳ
×Ļ×ķ ×ķ×Ļ×ľ
Ġ×Ĺ ×ķ×ĳ×ķ×ª
×ł×ĺ ×Ļ×§×¢
Ġ1 000
Ġ×Ĵ×¢×Ķ ×Ĳ×ľ×ĺ×¢×Ł
Ġ×©×ľ ×¢×¤×Ł
Ġ×§×Ĳ×ľ ×Ļ×¨×Ł
×ĸ×¢×¦ ×¢×¨×Ļ×Ļ
×ķ×ķ×Ļ×¨ ×Ł
Ġ×¨×© ×¢×ķ×ª
×§×¡×ł×ķ×ŀ×§×¡ ×ĵ
Ġ×ŀ×Ĳ×Ľ ×ľ×Ļ×Ŀ
Ġ×ŀ×¢×ł×© ×Ķ×Ļ×Ļ×ĺ
Ġ×©×ĺ×Ĺ ×Ļ×Ŀ
×ķ×ķ×Ļ×Ļ×ĵ ×Ļ×ł×Ĵ
ÑĥÑĥÑĥÑĥÑĥÑĥÑĥÑĥ ÑĥÑĥÑĥÑĥÑĥÑĥÑĥÑĥ
Ġ×©×Ĳ×ł×¡ ×Ł
Ġ×¤×Ĳ×ŀ×Ļ×ľ ×Ļ×¢×¡
Ġ×Ľ×¢×ĸ ×ĳ×Ĳ
Ġ×§×Ĳ×ł×ĺ×¨×Ĳ ×ķ×ķ×¢×¨×¡
5 8
Ġ×ŀ ×Ļ×Ļ×ł×¢×¨
×© ×ĺ×¢×¨×Ł
×¤ ×Ļ×Ĳ
×ĸ ×ķ×Ľ×ĺ
Ġ×© ×ķ×¤
×ŀ ï¬®
Ġ×¡ ×Ķ×Ĳ×ĺ
Ġ×¨ ×Ļ×ľ×Ĳ
Ġ×¨ ×Ļ×Ļ×ł×¢×Ŀ
×ł×ĺ ×Ļ×ĵ
Ġ×ª ×©×¨×Ļ
Ġ×¤×Ĳ ×ķ×ł×¡
×Ļ×Ļ×¢×¨ ×Ł
Ġ×ķ×ķ×Ļ×ľ ×ł×¢×¨
Ġ×Ķ×Ĳ×ĳ ×Ļ×ļ
Ġ×ŀ×© ×ľ×Ļ×Ŀ
×§×Ļ×Ļ×ĺ ×Ĳ
×ł×¢×¨ ×ĸ
Ġ×Ĳ×© ×ª
Ġ×¡×Ĳ×ĺ ×¢×ľ
Ġ×Ĳ×ķ×Ļ×Ĵ ×¢×Ł
×¨×ľ ×¢×¡
Ġ×Ķ×Ļ×ł×ĺ×¢×¨ ×Ĵ×¨×ķ×ł×ĺ
Ġ×ľ×Ļ×¤ ×Ĳ
Ġ×ª×¤×Ļ×ľ ×ķ×ª
Ġ×¦×ķ×ķ×Ļ×ł×Ĵ ×¢×Ł
Ġ×Ķ×Ļ×© ×Ļ×ĳ×Ķ
! ...
Ð ±
×Ĳ× ±
×¢×¨ ×Ļ×Ł
×Ļ×Ļ× ł×©
×§ ×Ĳ×¨×ĺ
×§ ×ķ×ķ×Ĳ×¨×ĺ
×ķ×ķ ×¢×ľ×Ľ×¢
Ġ×¤×Ĳ×¨ ×Ĵ×ľ×Ļ×Ļ×ļ
Ġ×¢×¨ ×¦
Ġ×©×¤ ×¢×§
×Ļ×ĳ ×¢×ł×¢
×Ļ×¤ ×ľ×Ĳ
Ġ×§×ľ ×Ļ×Ļ×ł×Ļ×§
ï¬ µ
×ĺ×¨ ×Ķ
Ġ×Ĵ×¢×¤ ×¨×ķ×ķ×ķ×ĺ
Ġ×ĵ×ĸ×© ×Ļ×Ĳ
Ġ×¨×¢×Ĵ ×Ļ×Ĳ
Ġ×Ļ×ķ×ł×Ĵ ×ľ
Ġ×¡×¢×§ ×ķ×ł×ĵ×¢×¡
Ġ×¢×¨×Ĵ ×¡×ĺ×¢
Ġ×ĳ×Ļ×Ļ×© ×ĺ×Ļ×Ļ×¢×¨
Ġ×ĸ×©×ķ×¨×ł×Ĳ×ľ ×Ļ×¡×ĺ×Ł
Ðº Ð°
Ġ×ĸ×ķ×ł×ĺ ×Ļ×§
Ġ×Ķ×ķ×¨ ×ķ×ķ×Ļ×¥
Ð°Ð°Ð°Ð° Ð°Ð°Ð°Ð°
×Ķ×Ļ×¡×ĺ×Ĳ×¨ ×Ļ×¢
p ress
×¢ ×¢×¡
Ġ×Ĳ ×ĳ×Ĳ
Ġ×ĵ ×ĸ
×ľ ×Ľ×Ķ
×ľ ×Ľ×ª
Ġ×ŀ ×Ĳ×ł×ĵ
Ġ×ķ×ķ ×Ĳ×ł×ĵ
Ġ×Ĵ ×¨×Ļ×Ļ×ĸ
Ġ×ĳ ×Ļ×§
×ķ×ķ ×¢×¨×Ł
Ġ×¨ ×Ļ×Ļ×ł×¢×¨
×¢×ĺ ×Ļ×Ł
Ġ×¤×¨ ×Ĳ×ĸ×¢
Ġ×ĵ×¨ ×Ĳ×¤
Ġ×¡×ĺ ×Ļ×§×¢×¨
×ķ×Ĺ ×Ł
×ķ×Ļ×ľ ×¢
al e
Ġ×ŀ×©×¤ ×Ĺ×ª
×ķ×Ļ×ĵ ×¢×Ŀ
Ġ×Ĳ×Ļ×Ļ×ĸ ×¢×¨
Ġ×ľ×¢×ĳ×¢×ĵ ×Ļ×Ĵ×¢
Ġ×ĺ×¢×ł ×¢×¡×Ļ
×ł×Ĵ×¢×© ×Ļ×§×ĺ
ãĢ ģ
ell ow
Ġ×¤×Ĳ×¨×ĸ×Ļ×Ľ ×¢×¨×Ł
Ġ×¦×Ĳ×ł×ĸ ×¢×¨
Ġ×ĳ×Ĳ×Ĵ×¨×¢×ł ×¢×¦×ĺ
Ġ×Ĳ×ķ×ŀ×ľ×¢×Ĵ ×Ĳ×ľ×¢
O W
×ĺ ×¢×ł×¢
×ľ ×ķ×ķ
×¡ ×¢×Ĳ
×¤ ×¢×§×ĺ×Ļ×ķ×ķ
Ġ×Ĳ×¨ ×ŀ
Ġ×Ĵ×¢×ķ×ķ ×¢×ľ×ĺ
Ġ×Ĳ×¤ ×¨×Ļ×Ŀ
Ġ×Ĵ×¨ ×¢×¤
Ġ×Ĳ×Ļ×ĳ×¢×¨ ×¨×Ĳ×©
Ġ×¨×ĳ ×ķ×ł×ķ
Ġ×Ĳ×ķ×Ļ×¤ ×Ĵ×¢×¨
Ġ×ŀ×© ×ķ×Ŀ
Ġ×ŀ×Ĺ ×ķ×ľ×§
×ĳ×ľ ×ķ×Ļ×ĸ
Ġ×ŀ×Ļ×ł ×¢
Ġ×ĳ×Ĳ×ł ×ķ×¥
Ġ×¢×§×¡ ×¢×ľ
Ġ/ /
Ġ×Ĳ×ķ×ķ×¢×§ ×ł×¢×ŀ×¢×Ł
Ġ6 66
Ġb r
Ġ×ŀ×Ľ ×Ĺ
×¦×Ļ×Ĳ ×ķ×ª
×ķ×ĳ×¨ ×¢×ł×Ĵ×Ł
Ġ×ķ×ķ×Ļ×ĸ ×ł×Ļ×¥
Ġ×Ķ×Ļ×ĵ ×¨×Ĳ
×¨×¢×ł×ĵ ×Ļ×§×Ł
Ġ×¡×Ĵ ×ķ×ľ×Ķ
Ġ×¢×§×¡×¤×¢×¨ ×ĺ×Ł
5 1
×¨ ×Ļ×¡×Ĳ
Ġ×ĵ ×¢×ĵ×Ĳ
Ġ×ŀ ×¨×ŀ×ĸ
×ĳ ×ľ×¢×ļ
Ġ×© ×Ļ×Ļ×ĺ
×ł ×Ļ×ķ×ķ×¢×¡
×Ļ×ĺ ×Ļ×ķ×ķ×¢
Ġ×Ļ ×¦×Ĳ
Ġ×¡ ×ķ×Ļ
×Ļ×ł ×Ļ×¨×Ł
Ġ×©×ĺ ×Ĳ×ľ
×¢×ł×ĺ ×¡
Ġ×Ĺ ×ķ×ª
Ġ×Ľ ×Ļ×¨
×§×Ĳ ×ķ×ķ×¢
×¨×ĵ ×Ļ×Ĳ
Ġ×ŀ×Ĺ ×Ļ
an ce
Ġ×ŀ×¢×Ĵ ×Ĳ
×§×¨ ×Ļ×Ĵ
×¤×ľ ×Ļ×¢
Ġp h
Ġ×§×¢×¨ ×¤
Ġ×Ĳ×§ ×Ĳ×ĵ×¢×ŀ
Ġ×ĺ×ķ×¨ ×ł×¡
×Ĳ×Ĺ ×ŀ
Ġ×ĸ×¢×ľ×ĳ×¡×ĺ ×©×ĺ×¢×ł×ĵ×Ļ×§
Ġ199 0
Ġ×Ĳ×ķ×Ļ×¡×Ĵ×¢×© ×ŀ×ķ×¢×¡×ĺ
Ġ×ĳ×Ĳ×ł×ķ×¦ ×¢×¨×¡
×¨×ł ×ķ×ŀ×¢×Ł
Ġ×Ĺ×ķ×© ×Ļ×Ŀ
Ġ×Ķ×Ĳ×§ ×Ł
Ġ×Ĳ×Ļ×Ļ×ľ ×¢×ł×ĵ
Ġ×¡×¢×¨×ĺ ×Ļ×¤
Ġ×Ĳ×Ļ×ł×ĸ×©×¢×ł ×Ļ×¨×Ļ×¢
Ġ×Ĳ×ķ×ŀ×©×ĺ ×¢×ł×ĵ×Ł
×ĸ ×Ļ×Ļ×ł×¢
Ġ×© ×Ĳ×¨×ĺ
Ġ×¦ ×Ļ×ĳ
Ġ×¢ ×ŀ×Ļ×¨
×Ĵ ×Ļ×ĺ
Ġ×ľ ×¢×¤×ĺ
Ġ×¨ ×ķ×Ļ×Ĳ
Ġ×¤×Ĳ×¨ ×ķ×Ļ×¡
Ġ×¤×Ĳ×¨ ×¢×ł×ĺ×¤×¢×¨×ĺ
×Ļ×ķ ×ķ×ĸ
Ġ×Ĵ×¨ ×©×ķ×Ł
Ġ×¤×ľ ×Ļ×ĸ
×ŀ×© ×¤
Ġ×ĳ×¢×ľ ×ĸ
Ġ×ķ×ķ×Ļ×Ľ×ĺ ×Ļ×§×¢×¨
Ġ×Ķ×ķ×Ļ×ĸ ×Ł
Ġ×¤×ķ×ł×§×ĺ ×ľ×Ļ×Ľ×¢
Ġ×©×ķ×ľ ×ĵ
×ľ×ŀ×Ļ×ĵ ×Ļ×Ŀ
Ġ×Ĺ×Ļ×ľ ×ķ×ľ
Ġ×¨×Ĺ×ŀ ×Ļ×Ĳ×ľ
Ġ×ĺ×Ĳ×ĺ ×¢×¡
Ġ×ł×Ĳ×¦ ×Ļ
Ġ×ĵ×ķ×¨×Ľ×©×ł×Ļ×ĺ ×ľ×¢×ļ
Ġ×Ĳ×Ļ×Ĵ ×ł×Ĳ×¨
Ġ×ĵ×Ļ×ŀ ×¢×ł×©×Ļ×Ĳ
Ġ×¤×ľ×Ĳ×ł ×¢×ĺ
" ).
×ķ× ł×¦
Ġ×¤ ×ª
×ľ ×¢×¨×¡
×ľ ×§×Ł
Ġ×ł ×Ļ×¨
×¦ ×ĵ×Ļ×ł×Ĵ
×¢×§ ×¢×Ł
×¢×§ ×ĸ×Ļ×¡×ĺ
×Ļ×ĵ ×¢×¡
Ġ×¤×¨ ×Ļ×Ļ×¢×¨
Ġ×ª ×Ĺ×ª
×Ĳ×§ ×¨×Ĳ×ĺ
×Ļ×ŀ ×Ļ
×Ļ×¤ ×Ļ×¦×Ļ×¨×Ł
×¢×¨×ĺ ×Ļ×Ļ×©×Ĳ
×ĺ×¨ ×Ļ×Ĳ
×ĺ×¨ ×Ĳ×§
×ł×§ ×ľ
×Ļ×ª ×Ļ×Ŀ
Ġ×ŀ×Ĺ ×Ļ×Ļ×ĳ
Ġ×Ĳ×¨×ķ×Ļ×¤×Ĵ ×¢×ľ×Ļ×Ļ×Ĵ×ĺ
×§×¢×¨ ×Ĳ
Ġ×¡×ĺ×¨ ×Ĳ×ĺ
Ġ×Ĳ×Ļ×Ļ×ł×Ĵ ×¢×ĸ×¢×Ł
Ġ×Ĳ×Ĺ ×Ļ×Ŀ
Ġ×ĳ×Ĳ×ĵ ×Ļ×ł×ĺ
Ġ×Ĳ×Ļ×Ļ×ĳ ×Ļ×©×ĺ×¢×¨
×Ĵ×¢×ĸ ×Ĳ×Ĵ×ĺ
×ķ×Ļ×Ĵ ×ĺ
âĢª -
Ġ×Ľ×Ļ×ł ×¢×ĸ
Ġ×Ĵ×ĸ ×Ļ×¨×ķ×ª
Ġ×ĺ×ķ×Ķ ×ĺ
Ġ×©×ķ×ŀ ×¨×Ļ×Ŀ
Ġ×Ĳ×ķ×Ļ×¡×ĵ ×¨×Ļ×§
Ġ×Ĳ×¨×Ļ×Ĵ ×Ļ×ł
Ġ×¡×ľ×Ĳ×ķ×ķ×Ĳ×§ ×Ļ×Ļ
. '
5 7
P ress
×ĺ ×¢×Ł
×¨ ×ķ×Ļ×¤
Ġ×Ķ ×¢×§
Ġ×§ ×ĵ×Ļ×©
×ĵ ×¢×§×ĺ
×ĳ ×Ĳ×Ķ
Ġ×ĺ ×§×¡
×Ĳ×ľ ×Ĳ×ĵ
Ġ×¨ ×Ļ×¨×Ł
×Ļ×¡ ×§×¢×¨
×Ļ×ĵ ×Ķ
×ł×ĵ ×¢×¨×Ł
×¢×¦ ×Ķ
Ġ×Ĳ×Ļ×ĳ×¢×¨ ×Ķ×ķ×Ļ×¤×ĺ
Ġ×Ĵ×¢ ×ķ×ķ×Ļ×¨
Ġ×Ĵ×¢×ĺ ×¨×Ļ×ĳ×Ł
ï¬® ×ĺ
Ġ×¨×ķ×ĳ ×Ļ×Ł
Ġ×Ĵ×¢×¦ ×Ļ×Ļ×ľ×ĺ
Ġ×¡×¢×ľ ×¤×Ĳ×ķ×ł×¡
Ġ×¨×¢×ĺ ×Ĳ×¨×Ļ×§
Ö° Ö¼
Ġï¬¯ ×ĳ×¢×¨
Ġ×ł×Ĳ×ĺ×ķ×¨ ×ľ×Ļ×Ľ×¢
Ġ×Ĳ×ķ×Ļ×¡×ł ×Ĳ×Ŀ
×Ļ×Ļ×Ļ×Ļ×Ļ×Ļ×Ļ×Ļ×Ļ×Ļ×Ļ×Ļ×Ļ×Ļ×Ļ×Ļ×Ļ×Ļ×Ļ×Ļ×Ļ×Ļ×Ļ×Ļ×Ļ×Ļ×Ļ×Ļ×Ļ×Ļ×Ļ×Ļ×Ļ×Ļ×Ļ×Ļ×Ļ×Ļ×Ļ×Ļ×Ļ×Ļ×Ļ×Ļ×Ļ×Ļ×Ļ×Ļ×Ļ×Ļ×Ļ×Ļ×Ļ×Ļ×Ļ×Ļ×Ļ×Ļ×Ļ×Ļ×Ļ×Ļ×Ļ×Ļ ×Ļ×Ļ×Ļ×Ļ×Ļ×Ļ×Ļ×Ļ×Ļ×Ļ×Ļ×Ļ×Ļ×Ļ×Ļ×Ļ×Ļ×Ļ×Ļ×Ļ×Ļ×Ļ×Ļ×Ļ×Ļ×Ļ×Ļ×Ļ×Ļ×Ļ×Ļ×Ļ×Ļ×Ļ×Ļ×Ļ×Ļ×Ļ×Ļ×Ļ×Ļ×Ļ×Ļ×Ļ×Ļ×Ļ×Ļ×Ļ×Ļ×Ļ×Ļ×Ļ×Ļ×Ļ×Ļ×Ļ×Ļ×Ļ×Ļ×Ļ×Ļ×Ļ×Ļ×Ļ
×ĳ×ĵ×ĸ×© ×¢×§×¡
×¡×¢×§ ×Ļ
Ġwor k
×Ļ×ķ×ł ×Ļ×ĺ×Ļ
Ġ×Ľ×Ļ×Ļ×¤ ×¢×¥
Ġ×Ķ×ł×ĳ ×Ļ×Ĳ
Ġ an
Ġ×ĵ ×Ĺ
Ġ×ĵ ×¢×ł×ŀ
×¡ ×Ļ×ķ×ķ
Ġ×Ķ ×Ĵ×¨
Ġ×ĳ ×ĳ×Ļ×ª
Ġ×§ ×Ļ×Ļ
Ġ×§ ï¬¯
×ĵ ×Ļ×Ļ×ĺ
×ĸ ×Ļ×§×Ł
×ł ×Ļ×¦×ĺ
×ŀ ×Ļ×©×¢
×§ ×Ļ×Ļ×ł×¢×¨
Ġ×Ļ ×ķ×¡×ĺ
×Ļ×ĵ ×Ļ×ł×Ĵ
×Ļ×ŀ ×Ļ×ł×Ĵ
×¨×ĳ ×Ļ×Ļ×ĺ
×Ļ×Ļ×¡ ×¢×Ł
×¨×ĺ ×Ļ×¡×Ĳ
Ġ×ĺ×¨×Ĳ×ŀ×¤ ×¡
Ġ×¢×ŀ ×Ļ
Ġ×ŀ×¢×ĵ ×Ĳ
Ġ×ŀ×ª ×Ł
Ġ×Ĳ×ĳ×¨ ×Ŀ
Ġ×ł×¡ ×Ļ×ķ×Ł
Ġ×©×Ľ ×Ļ×ł×Ķ
Ġ×©×ķ×ķ×Ĳ×Ľ ×§×Ļ×Ļ×ĺ
Ġ×Ķï¬¯ ×ĳ
Ġ×ł×¢×Ĵ ×ľ
ra ph
Ġ×¤×Ĳ×ĵ ×¢×¨×ĺ
Ġ×ł×Ĳ×¨×Ļ×© ×§×Ļ×Ļ×ĺ×Ł
Ġ×Ķ×Ĳ×© ×Ľ×ķ×ľ
×ł×Ļ×ķ×ķ×¢×¡ ×ĵ×Ļ×§
×¢×¨ ×¢×ł×¦×Ł
×ľ ×Ļ×¨×ķ×ł×Ĵ
×ľ ×Ļ×Ļ×ł×ĸ
Ġ×ŀ ×Ĳ×Ķ×ľ
Ġ×ķ×ķ ×Ļ×¦×¢
Ġ×§ ×Ĳ×¦
×© ×¢×¡
Ġ×¡ ×¢×ľ×Ĳ
Ġ×¡ ×ľ×Ļ×¤
×Ĳ×ľ ×¢×ł×¢
Ġ×¨ ×¢×Ļ
×Ľ ×ĺ×¢
Ġ×©×ĺ ×ķ×Ļ×ĳ
Ġ×Ĺ ×ķ×ľ×Ķ
Ġ×ŀ×Ĳ ×ķ×¨
Ġ×Ĵ×¢×ĸ ×ķ×ł×ĺ×¢×¨
Ġ×Ĳ×ķ×ł ×¢×Ŀ
Ġ×ķ×ķ×Ļ×Ļ×¡ ×¢×Ł
Ġ×ŀ×Ļ×ľ ×ľ×¢×¨
×ĵ×ĸ×© ×¢
Ġ×Ķ×¢×¨ ×Ķ
Ġ×Ĳ×¨×ķ×Ļ×¡×Ĵ ×¢×ľ×Ĳ×ĸ×ĺ
Ġ×¨×¢×¡ ×Ļ×¤
Ġ×Ĵ×ĵ ×ķ×ľ×Ķ
Ġ×ĳ×Ĳ×ĳ ×ķ×ĳ
Ġ×ŀ×¨ ×Ĺ
Ġ×ĳ×¨×Ļ×ĺ ×Ļ×©×¢×¨
Ġ×Ĵ×¨×ķ×ł×ĺ ×Ļ×Ļ×Ĵ
Ġ×§×ĵ×ķ×© ×ª
Ġ×¤×¢×ĳ×¨ ×ķ×Ĳ
Ġ×§×¢×ľ ×¢×ł×ĵ×¢×¨
Ġ×ŀ×Ļ×ķ ×ł×Ļ×¡×Ĳ
Ġ×ł×Ļ×ĵ ×¨×Ļ×Ĵ
Ġ×ŀ×©×ķ×Ĵ ×¢×ª
Ġ×Ķ×ŀ×© ×Ļ×Ĺ
Ġ×ŀ×¢×ł×ĵ ×¢×ľ×¢
×¨×¢×ł×ĵ ×Ļ×§×ĺ
esp ons
Ġ×ĳ×Ĳ×¨×¢×Ľ×ĺ ×Ļ×Ĵ×ĺ
×Ĳ×Ļ×ł×ĺ×¢×¨×¢×¡ ×Ĳ×ł×ĺ
Ġ×ķ×ķ×Ļ×ĵ×ĸ×© ×Ļ×ĺ
Ġ×ł×ķ×Ķ ×Ĵ
×Ĳ ×ķ×ķ×Ĳ
×Ĳ ×Ļ×Ļ×ł×¡
×ĺ ×Ĳ×§×¢
Ġ×ŀ ×Ļ×Ļ×ł×¡
Ġ×ķ×ķ ×¢×ł×¢×ĸ
Ġ×ĸ ×¢×§×ľ
Ġ×ĳ ×¢×ĺ×¢×¨×Ļ
×© ×Ľ×¨
×ĵ ×Ļ×Ļ×ĺ×©
×ĳ ×Ĳ×§×¡
Ġ×© ×¢×ŀ×¢×Ł
Ġ×© ×ķ×¤×¨
Ġ×¢ ×Ĵ×¨
Ġ×ĺ ×Ļ×Ļ×Ľ×Ł
Ġ×Ļ ×¢×ĳ
×Ĵ ×ł
Ġ×¡ ×Ļ×ķ×Ł
Ġ×¡ ×Ļ×Ļ×Ľ×ľ
Ġ×¦×ķ ×¢×¨×©×ĺ
Ġ×¢×¨ ×¢×ł×¡×ĺ×¢
×¢×ŀ ×ĳ×ķ×¨×Ĵ
Ġ×¤×¨ ×Ļ×ŀ
×ľ×¢× ĳ×¢×¨
Ġ×¤×Ĳ ×ķ×¡×ĺ
×§×¡ ×ľ
Ġ×ĺ×¨ ×Ļ×¤×Ķ
×Ļ×ł×ĵ ×ĸ×©×Ĳ
×¢×ĸ ×ł×¢×¨
Ġ×Ĵ×¢×ŀ ×¢×§×ĺ
Ġ×ĺ×¢×¨ ×§×Ļ×©
Ġ×Ļ×© ×¢×Ļ
Ġ×Ļ×© ×ķ×¢×ķ×ª
×ķ×ķ×Ļ×ľ ×Ļ×Ĳ
Ġ×¤×Ĳ×¡ ×ŀ×Ĳ×§
Ġ×Ĳ×Ļ×ł×Ĵ ×ľ
×¨×Ļ×Ļ×ĵ ×ł×ĵ×Ļ×§
Ġ×§×¢×ł×¡ ×¢×¨
Ġ×¤×¨×Ĳ×ĵ ×ķ×¦×Ļ×¨×Ł
Ġ×ŀ×ł ×ķ×¨×Ķ
Ġ×¦×¢×ł×ĺ ×¨×Ĳ
Ġ×Ĳ×Ļ×Ļ×ł×Ļ×§ ×¢×ľ
Ġ×Ĳ×ķ×Ļ×ĳ×¢×¨ ×Ķ×Ĳ×ł×ĺ
Ġ×Ķ×Ĵ×Ķ ×ķ×ª
Ġ×¡×ĺ×¢×¨ ×ķ×Ļ×ĵ
Ġ×ĵ×Ļ×¡×§×¨ ×¢×©×Ĳ
Ġ×Ĵ×¢×ķ×ķ×Ļ×§ ×¡×Ł
Ġ×Ĳ×Ļ×Ļ×¡ ×Ļ×¡
) ?
Å Ļ
Ñ Ĩ
Ġ×ŀ ×¢×ĳ×ľ
Ġ×ķ×ķ ×ķ×Ļ×ł×¢×Ł
×© ×Ļ×ĺ
Ġ×¢ ×Ķ×¨
Ġ×ľ ×Ļ×ĸ
×Ļ×¡ ×ĺ×Ĳ×Ł
Ġ×Ĺ ×Ĵ×Ĳ
×¡×ĺ ×Ĳ×Ł
Ġ×©×¤ ×Ļ×¨
×Ļ×Ľ×ĺ ×Ļ×§
Ġ×¢×¨×© ×Ļ×Ļ×ł×¢×Ł
Ġ×¤×Ĳ×ľ ×ĵ×¢×¨
Ġ×Ĳ×ķ×Ļ×¡×Ĵ ×¢×Ĳ×¨×ĳ×¢×ĺ
×ľ×¢×¨ ×Ĳ
Ġ×¦×ķ×Ĵ ×Ļ×Ļ×Ł
Ġ×ĳ×¢×ľ ×Ĳ
Ġ×Ĳ×Ļ×Ļ×Ĵ ×ł×Ĳ×¨×ĺ
ĠïŃİ ï¬¯
Ġ×¡×¢×ľ ×ĸ
Ġ×¡×¢×§ ×¨×¢×ĺ×Ĳ×¨
Ġ×ĳ×¤ ×Ļ×¨×ķ×©
×ľ×ķ ×Ļ×Ļ×ĸ
Ġ×¨×¢×Ĳ ×ľ×Ļ×ĺ×¢×ĺ
Ġ×ľ×¢×ĳ×¢×ĵ ×Ļ×Ĵ
Ġ×Ļ×¢×¨ ×ľ×¢×ļ
Ġ×¦×ķ×ĳ ×Ļ×ł×ĵ
Ġ×ł×ĳ×Ļ×Ĳ ×Ļ×Ŀ
Ġ×ł×Ļ×Ļ×ŀ ×Ĳ×ĵ
! âĢŁ
×Ĳ ×ķ×ł×Ĵ
Ġ×Ĵ ×Ĳ×ĳ
×ĵ ×¢×Ł
×ĵ ×ķ×ķ×¢×¨×ĺ×Ļ×Ļ×ĸ
×ĳ ×Ļ×¡×ĺ
×ĸ ×Ļ×ĳ
×ŀ ×ķ×ŀ
Ġ×ĺ ×Ĳ×ĳ
Ġ×ľ ×¢×ª
Ġ×ľ ×ķ×Ļ×ĳ×Ł
×¢×ľ ×Ŀ
Ġ×Ľ ×ķ×ł×Ķ
Ġ×ŀ×Ļ×¨ ×Ĳ
×Ļ×¢×¡ ×¢×¡
Ġ×§×Ĳ×¤ ×Ļ×ĺ×Ĳ×ľ
Ġ×¤×¢×¨ ×ľ
Ġ×§×ķ×ķ ×¢×ĺ×©
Ġ×ª×© ×¢×Ķ
Ġ×¤×Ĳ×¨×ł ×¢×ŀ×ĺ
Ġ×¦×ķ×¦ ×ķ×©×ĺ×¢×ľ×Ł
Ġ×ª×ŀ ×ķ×ĸ
×ĳ×Ĳ×§ ×Ĳ×ł×ĺ
Ġ×Ĳ×ľ×ĳ ×Ĳ×Ŀ
×¤×Ĳ×¨×©×ĺ ×Ļ×Ļ
ĠPre m
Ġ×¤×Ĳ×¨×ĺ×ķ×Ĵ ×Ĳ×ľ
×Ĳ ×ķ×ķ×Ļ×ĺ×©
Ġ×Ĳ ×Ļ×Ļ×ĺ
Ġ×ŀ ×ķ×ł×§×Ĳ×ĺ×©
Ġ×Ķ ×ķ×©
Ġ×ĳ ×ł×Ļ×Ŀ
×© ×ĺ×¢
×© ×ķ×ķ×Ĳ
×© ×ķ×ķ×¢×¨
Ġ×© ×ķ×Ĺ
Ġ×¦ ×ķ×ķ×Ĳ
Ġ×ľ ×¡
Ġ×Ĳ×ķ×Ļ× ©
Ġ×¨ ×Ļ×Ļ×ł×Ļ×ł×Ĵ
Ġ×¨ ×ĵ×Ļ×¤
Ġ×©×ĺ ×Ļ×Ļ×
Ġ×Ľ ×¢×¨
×ł×Ĵ ×¢×§×ķ×ŀ×¢×Ł
×©×ĺ ×Ļ×Ļ
Ġ×§×ľ ×Ĳ×¤×Ł
×Ĳ×ĳ ×¢×ĺ
×¢×ł×Ĵ ×¢×¨
Ġ×¢×¤ ×Ļ×ĸ
Ġ×° ×¢×ľ×Ľ×¢
Ġ×¤×Ĳ×¨×© ×ķ×ķ×Ĳ
Ġ×ŀ×Ĳ×ł ×ĺ×¨
Ġ×Ĳ×ł×ĺ ×©
×ŀ×¢×ł×ĺ ×²
Ġ×ŀ×Ķ ×¨×Ļ
Ġï¬® ×ĸ×ķ×Ļ
Ġ×Ĳ×ł ×¨×ķ×¤×Ł
Ġa d
Ġ×§×ķ×ķ ×Ĳ×ľ×Ł
×Ļ×ł×¡ ×§×Ļ
20 15
×ĳ×Ļ×ľ ×Ļ
×ŀ×ĳ ×Ļ×ł×Ĳ
Ġ×Ĳ×¨×Ĵ ×Ļ×ł×¢×ľ×¢
Ġ×ĳ×Ĳ×©×ĺ×¢×ĺ ×Ļ×§×ĺ
×¨×Ļ×¢ ×¨×¢
Ġ×ķ×Ķ ×ĵ×¨
Ġ×§×ķ× ł×¥
Ġ×Ĵ×Ĳ×ľ×ĵ ×¢×ł×¢×¨
Ġ×Ĳ×ķ×Ļ×¡×Ĵ×¢×§ ×ķ×§×ĺ
Ġ×ŀ×¢×§ ×ľ×¢×¨
Ġ×ķ×ķ×Ĳ×§×¡ ×Ļ×ł×¢×Ł
Ġ×Ĳ×ł×¢×¨×§ ×¢×ł×¢×Ł
Ġ×Ĳ×¤×©×ĺ ×Ĳ×ŀ
ĠWord Press
×Ľ×¡ ×ł×ĵ×¨
Ġ×¡×ĺ×¨×¢×ł×Ĵ×ĺ ×Ķ
Ġ×¡×ľ×Ļ×Ĺ ×ķ×ª
¦ ×Ł
×¢×¨ ×ľ×¢×ļ
Ġ×ĵ ×ķ×Ĵ×ŀ×Ĳ
×ľ ×ķ×ĵ
Ġ×ķ ×Ļ×¨
Ġ×ķ ×Ľ×Ł
×¡ ×Ļ×ľ×Ĳ
Ġ×© ×ķ×¨
Ġ×Ļ ×ķ×ķ×Ĳ
×Ĵ ×Ļ×§×Ĳ
Ġ×¡ ×Ļ×ķ×Ŀ
×¢×¡ ×ĺ×¢
×¢×§ ×¨
Ġ×Ľ ×Ļ×ª×Ķ
Ġ×Ĵ×¢×ĺ ×¢×ł×Ķ
Ġ×ĵ×ĸ×© ×¢×¥
Ġ×¤×Ĳ×¡ ×Ĳ×ĸ×©×Ļ×¨×Ł
Ġ×ĳ×Ĳ×¦ ×Ļ×ķ×ł×Ĵ×¢×Ł
Ġ×ľ×¢ ×ķ×ľ×Ŀ
Ġ×Ĳ×Ļ×ł×¡×ĺ ×Ĳ×ľ
Ġ×§×Ĳ×ł×ĺ×¨×Ĳ×ľ ×Ļ×¨×ĺ
Ġ×ĵ×Ļ×¢ ×ĺ×¢
Ġ×Ĳ×Ļ×ł×ĺ×¨×¢×¡ ×Ĳ×ł×ĺ×¢
Ġ×¦×ķ×ĸ×Ĳ×ŀ×¢×ł×Ĵ ×¢×©×ĺ×¢×ľ×ĺ
Ġ×ł×¢×ķ ×ķ×¡
Ġ×¤×Ĳ×¨×ĵ×¨ ×Ļ×Ļ×ĺ
ĠPos ted
T I
Õ ¸
Ġ×ĵ ×Ļ×¡×ĺ×¨
Ġ×¤ ×ª×Ĺ
ł× ł×
Ġ×§ ×¨×Ļ×Ļ×
Ġ×§ ×ķ×Ļ×£
×ĵ ×Ļ×¢
×ŀ ×Ļ×ķ
×Ĳ×ľ ×Ĵ×ĺ
Ġ×ĵ×¢×¨ ×ķ×ķ×Ļ×Ļ
×ĺ×¢×¨ ×ľ
×ĳ×¢×¨ ×Ł
×ķ×ĵ ×Ļ×ĵ
×Ļ×¦ ×ĺ×¢
×ķ×¤ ×§
Ġ×ĳ×¨ ×ķ×Ľ×Ļ×Ŀ
Ġ×§×ľ ×Ĳ×¡×Ł
Ġ×Ĳ×ķ×Ļ×¤ ×¨×Ļ×Ļ×¡
Ġ×¤×ľ ×Ĳ×ł×ĺ
×ľ×¢×Ľ ×§×Ļ×Ļ×ĺ×Ł
Ġ×Ĵ×¢×Ĵ ×ł×ĺ×¢×¨
Ġ×ĺ×© ×ķ×¨×ĺ×©
Ġ×¦×ķ×¨×Ļ×§ ×Ĵ×¢×§×ķ×ŀ×¢×Ł
×Ĵ×ľ ×Ļ×Ļ×ĺ×¢×¨
×Ĵ×¨ ×¢×ł
or n
Ġ×ķ×ķ×Ļ×Ļ×ĸ ×¢×Ł
Ġ×Ĳ×± ×ĳ
Ġw e
Ġ×Ĳ×Ĵ ×¢×ł×ĺ×Ł
Ġ×ŀ×Ľ ×ĳ×ĵ
ĠR espons
el y
Ġ×ĵ×Ļ×ĸ ×Ļ×Ļ×ł×¢×¨
Ġ×¤×ķ ×¢×ľ
Ġ×¤×¨×Ĳ×ĳ ×Ļ×¨
×§×§ ×ĵ×ĸ×©×Ĳ
Ġ×¤×Ĳ×¨×¨ ×Ĳ×Ľ×ĺ×Ł
Ġ×ĳ×Ĳ×¡ ×¢×¡
Ġ×¦×ķ×ĳ×¨ ×Ĳ×Ľ×Ł
Ġ×ŀ×ľ×ŀ×ĵ ×Ļ×Ŀ
Ġ×Ĳ×ķ×Ļ×ĳ×ł×ĵ×¢×¨ ×ŀ×Ĳ×ł×ĺ×¢
Ġ×ŀ ×Ļ×Ŀ
Ġ×Ķ ×ľ×Ĳ
Ġ×ĳ ×Ļ×Ĳ×ľ
Ġ×ł ×Ļ×Ļ×
×ĸ ×ķ×Ł
Ġ×¡ ×Ŀ
×ķ×¨ ×Ļ×ĺ
Ġ×ķ×ķ×Ĳ×¡ ×¢×¨×¢
×ķ×ľ ×¢×¨×¢
Ġ×¤×¨ ×Ĳ×ŀ
Ġ×Ĳ×ľ ×¤
Ġ×Ĳ×ľ ×§
Ġ×Ĺ ×ķ×Ķ
Ġ×ª ×¨×ľ
Ġ×ª ×¨×¦
×¡×ĺ ×Ļ×©
×ł×Ĵ ×§×¢×¨
×ķ×Ĵ ×Ķ
×ŀ×¢×¡ ×ĺ×Ł
×ķ×Ļ×ľ ×Ļ×©×¢
Ġ×¨×ķ×¡ ×Ļ×©×Ł
Ġ×ŀ×Ĳ×ŀ ×¢×¡
Ġ×¡×¢×¨ ×ĳ×Ļ×¢
Ġ×Ķ×ĵ ×ª
×Ĵ×¢×ĸ ×¢×¦×ĺ
Ġ×Ļ×ł ×ķ×ķ×¢×¡×ĺ
Ġl ife
Ġ×ĵ×¢×¨×© ×¨×Ĳ
Ġ×ĺ×¨×Ĳ×Ľ×ĺ ×¢×Ł
Ġ×Ļ×ł×ĺ×¢×¨ ×Ĳ
×ķ×ķ×Ļ×Ļ×ĺ ×Ļ×ł×Ļ×ł×Ĵ
Ġ×ĳ×¢×ł ×Ļ×Ł
Ġ×Ĳ×Ĺ×¨ ×ķ×ł×Ļ×Ŀ
Ġ×Ĵ×ľ×¢×ĸ ×¢×¨
×ĸ×ĸ ×ĸ×ĸ
Ġ×¤×Ĳ×¨×Ĳ×Ļ×Ļ×ł ×Ļ×Ĵ×ĺ
Ġ×Ĳ×ķ×Ļ×¤×Ĵ×¢×ķ×ķ ×Ĳ×§×¡×Ł
Ġ×¦×ķ×ķ×Ļ×Ļ×¤ ×ľ
m s
u fac
Ġ×ĵ ×Ļ×Ļ×§×Ĳ
Ġ×Ĳ×Ļ× ķ×ķ
Ġ×Ķ ×ķ×ľ
×ĳ ×ķ×Ļ×Ŀ
Ġ×¦ ×ł×Ļ×¢×ķ×ª
×ł ×Ļ×Ļ×ĺ×Ļ×ł×Ĵ
×§ ×¥
×Ķ ×ķ×Ļ×ļ
Ġ×Ļ ×ķ×ł×ª×Ł
×ĺ×¢×¨ ×Ļ
×¢×ŀ ×¤×ĺ
×Ļ×ĸ ×Ļ×ł×Ĵ
Ġ×§×¨ ×Ļ×¡×ĺ×Ĳ
Ġ×Ĳ×ł×Ĵ ×¢×ĸ
×¨×Ĵ ×ľ×²
×ĺ×ķ×¨ ×Ļ×Ŀ
×Ĳ×Ĵ×¨ ×Ĳ×Ŀ
Ġ×Ķ×§ ×ĺ×Ł
Ġ9 9
Ġ×Ĳ×¤×Ĵ ×¢×ŀ×Ĳ×Ľ×ĺ
18 0
Ġ×Ķ×¡ ×Ľ×ŀ×Ķ
Ġ×¤×Ĳ×¨×ĳ×¨ ×¢×Ľ×¢×¨
Ġ×¨×Ļ×¤ ×ľ×¢
Ġ×¡×¢×§ ×ķ×ł×ĵ×¢
Ġ×ł×Ļ×§ ×Ļ×Ŀ
Ġ×ĳ×Ĳ×ł×ķ×¦ ×Ł
Ġ×ĺ×² ×ľ
Ġ×Ĳ×Ļ×ł×¢×¨ ×ľ×Ļ×Ľ×¢
Ġ×§×ķ×ķ×Ĳ×ľ ×Ļ×ĺ×¢×ĺ
Ġ×Ĳ×Ĺ×¨×Ĳ ×Ļ×Ŀ
Ġ×¡×ĺ×¨×Ĳ×ĺ ×¢×Ĵ
Ġ×ŀ ×¢×ŀ×Ĳ
Ġ×ĸ ×ķ×Ļ×¢×¨
×ŀ ×¨×ª
Ġ×Ļ ×Ļ×ĳ×¢×¨
Ġ×ľ ×¢×ŀ
Ġ×ľ ×Ľ×Ķ
Ġ×¡ ×Ļ×Ļ×Ł
Ġ×¦×ķ ×¨×Ķ
Ġ×©×ĺ ×Ĳ×ĳ
×Ĳ×ł ×Ĳ×ķ
Ġ×Ĳ×ľ ×ķ×ķ×¢×ľ×ĺ
Ġ×ª ×ķ×¡
Ġ×ĳ×Ĳ ×ķ×ķ×Ļ×Ļ×ĸ
Ġ×Ĳ×ł×ĵ ×ĸ×©
×¢×§×¡ ×¤
Ġ×¦×Ļ×Ļ×ĺ ×ķ×ķ×Ļ×Ļ×ľ
×ł×ķ×ŀ ×¢×ł×ĺ
×Ļ×ł× ĳ
Ġ×ª×§ ×ł×Ķ
Ġ×¤×Ĳ×¨×ŀ ×¢×Ĵ×Ł
Ġ. âĢ¬
ing s
ĠÐ ¼
Ġ×§×Ĳ×ł×ĺ ×Ĳ×§×ĺ
Ġ199 8
Ġ×¨×Ļ×Ļ×Ľ ×¢×¨
ire d
Ġ×¡×Ļ×Ĵ ×ł
Ġ×Ĵ×¢×¢×ł×ĵ ×¢×¨×ĺ
Ġ×ľ×ķ×§×¡ ×¢×ŀ×ĳ×ķ×¨×Ĵ
×ł×ķ×ķ×¢×¨ ×ĸ×©×Ĳ
Ġ×©×ķ×ª ×£
Ġ×ŀ×¢×ŀ×ĳ×¢×¨ ×¡
Ġ×§×Ļ×ķ×ĺ ×Ļ×¡×ĺ
Ġ×Ļ×ķ×¡×ĺ ×Ļ×¥
r s
Ġ×ķ ×ŀ×©
Ġ×ĳ ×Ļ×Ļ×Ķ
×¤ ×Ĳ×¡×ĺ
Ġ×¢ ×ĵ×ĸ×©
×ł ×Ļ×Ĵ
×ł ×Ļ×§×¢×¨
Ġ×Ļ ×Ļ×ĺ
Ġ×Ļ ×ķ×Ľ
Ġ×Ļ ×ķ×©×¢
Ġ×¡ ×Ļ×ł×ĺ
Ġ×ĵ×¢×¨ ×ķ×ķ×Ļ×¡×Ł
×¢×¦ ×Ļ×¢
×ķ×ĸ ×ĵ
Ġ×ĺ×¨ ×¢×£
Ġ×ķ×ķ×¢×¨×ĺ ×¤×ķ×ľ
Ġ×ŀ×ķ×ĸ ×Ļ×§×Ĳ
Ġ×Ķ×ŀ ×¦
×¤×ľ ×Ĳ×ļ
Ġ×Ĳ×Ļ×ŀ ×¤×Ĳ×¨×ĺ
Ġ×§×ķ×¨ ×¦×¢×¨
Ġ×Ĵ×¢×¦ ×ķ×ķ×Ļ×ł×Ĵ×¢×Ł
Ġ×ĳ×Ĳ×ĵ ×Ĳ×ł×§×¢×Ł
×ĸ×¢×¦ ×¢×¨
×ľ×Ļ×ĺ ×Ļ×§×Ĳ
ĠÐ ½
×¢×§×ľ ×¢×¨×ĺ
×ŀ×¢×¨×§ ×ķ×ł×Ĵ
Ġ×Ĳ×¤×ĺ ×ŀ×Ĳ×ľ
ĠV iew
Ġ×¤×ľ×Ļ×¡ ×Ļ×§
×¢×° ×Ĳ
Ġ×Ĳ×¤×ĵ×¢ ×Ļ×ĺ
Ġ×¡×¤×¢×¦×Ļ×¤ ×Ļ×©×¢
ĠPrem ium
ĠRespons ive
×ĺ ×¢×ĺ
×ĺ ×ľ×Ļ
×¨ ×¢×©
×¨ ×ķ×ŀ×¢
Ġ×¤ ×ķ×ĳ×ľ
Ġ×ŀ ×¢×ľ×Ĳ
×¡ ×¤×¢×¨
×Ĳ×¨ ×ķ×Ŀ
×© ×¢×ĺ
×ĳ ×Ļ×Ľ×¢×¨
×ĸ ×ĵ×¢
×Ļ×ĺ ×¢×§×ĺ
Ġ×Ĳ×¨ ×Ļ×ĸ
×Ĳ×¤ ×ĺ×¢
×Ļ×Ļ×ľ ×ĵ
Ġ×©×¤ ×Ĳ×ł×Ļ×©×¢
Ġ×Ĳ×¤ ×¦×Ļ×¢×¡
×§×¡ ×Ļ×ł×Ĵ
Ġ×Ĵ×Ĳ ×ķ×ľ×Ķ
×Ĳ×ĵ ×¨×ĳ×Ķ
Ġ×¡×¤ ×Ļ×§×ķ×ª
Ġ×Ĳ×ķ×Ļ×¤ ×Ĵ×¢×©
Ġ×Ĵ×¢ ïŃİ
Ġ×©×ŀ ×Ĺ×ª
Ġ×ķ×ķ×Ļ×Ļ×¡ ×¢×¨
Ġ×¢×§ ×¢×ł
Ġ×ľ×¢×¨ ×¢×¨×¡
Ġ×ĳ×© ×ľ×ķ×Ŀ
Ġ×¦×ķ×© ×ĺ×Ĳ
es ti
Ġ... "
Ġ×ĵ×ķ×¨×Ľ ×Ĵ×Ļ×Ļ×Ł
Ġ×Ĳ×Ļ×Ļ×ł ×Ļ×Ĵ
Ġ×¢×§×¡ ×Ĳ
Ġ×Ĳ×Ļ×ĳ×¢×¨×Ĵ ×¢×Ĵ
Ġ×§×¢×¨ ×¤×Ĳ
Ġ×ľ×ĳ ×ķ×©
Ġ×Ĳ×Ļ×ł×ĸ ×¢×¨
×ł×ĵ×¢×¨ ×¢×¨
Ġ×Ĳ×ķ×¨ ×Ĺ×Ļ×Ŀ
×Ĵ×¢×Ķ ×Ĳ
Ġ×¤×¢×ł×¡ ×Ļ×ľ
Ġ×¤×¨×¢×Ĵ ×¢×Ł
Ġ×Ĳ×¤×¦ ×Ĳ×ľ
Ġ×¡×ĳ ×Ļ×ĳ×Ķ
Ġ×©×ŀ×¢×ľ ×¦×¢×¨
×ķ×ķ×Ļ×ł×§ ×ľ
×§×Ļ×ĺ ×ł×Ļ×¡×¢
Ġ×ķ×Ļ×Ĵ ×ķ×¡×ĺ
Ġ×Ļ×Ĳ×¨×ĵ ×Ĳ×ł×Ļ×¢
Ġ×Ķ ×Ĳ×ŀ×ª
×¤ ×¢×ł×ķ×ł×Ĵ
Ġ×ł ×¢×Ĳ
Ġ×¦ ×¢×ĳ×¨
Ġ×¢ ×ķ×ķ×Ĳ
×ł ×¢×ľ×¢
Ġ×ľ ×Ĳ×Ķ
Ġ×¡ ×Ļ×Ļ×¢×ł×ĺ
×Ļ×¨ ×Ļ×Ŀ
Ġ×¤×Ĳ×¨ ×ŀ×¢×Ł
Ġ×¤×Ĳ×¨ ×¢×ł×ĺ×¤×¢×¨×Ł
Ġ×Ķ×Ĳ×ĺ ×¢×ľ×Ł
×¦ ×Ļ×Ĳ×ł
Ġ×ŀ×Ļ×ĺ ×Ķ×Ĳ×ľ×ĺ×Ł
Ġ×¢×¨ ×ľ×Ļ×Ľ×¢×¨
Ġ×Ĺ ×ķ×ŀ×¨
Ġ×Ĳ×¤ ×©×¢×Ł
×ķ×ĸ ×Ļ×Ĳ
Ġ×Ĳ×ķ× Ĵ
Ġ×Ĳ×ķ×Ļ×¤ ×¢×Ł
Ġ×Ĵ×ľ ×Ļ×ĺ×©
Ġ×ĸ×² ×¢×¨×¢
×ķ×Ļ×¨ ×¢×Ł
×° ×¢×§
Ġ×Ĳ×Ļ×Ļ×ł×Ĵ ×¢×Ķ
ĠE x
Ġ×¤×Ĳ×ĺ ×Ĳ×Ĵ×¨
Ġ×Ĵ×¢×ķ×ķ×Ļ×ł ×ĺ
×ĺ×Ķ ×¢×ŀ×¢×ĵ
Ġ×ĳ×Ľ ×ĳ×ķ×ĵ
Ġ×Ĳ×Ļ×ł×ĵ×¢×¨ ×ŀ×Ļ×ĺ
Ġ×Ķ×¤ ×ľ×Ĳ
Ġ×Ļ×¢×¨ ×Ļ×Ĵ×¢×¨
ĠThe mes
Ġ×Ĵ×¢×ķ×ķ×¢×ĸ ×Ł
Ġ×Ļ×§ ×ķ×ķ×Ļ×¤
Ġ×¤×ľ×¢ ×Ļ×Ł
ĠÃ Ĩ
Ġ×¢×ĸ ×¨×Ĳ
Ġ×Ĵ×¢×Ĺ ×ª
Ġ×Ĳ×ķ×ł×ĺ×¢×¨×ł×¢×ŀ ×ķ×ł×Ĵ
×ĺ×ĺ×© ×Ļ×ł×Ĳ
ĠDownload s
×ľ ×Ļ×Ļ×ł×¡
Ġ×ŀ ×ł×©×Ķ
Ġ×Ĵ ×ķ×¤
×¡ ×¤×Ĳ
Ġ×Ķ ×ķ×Ļ×¤×Ł
×ĵ ×Ĳ×¨
×ĸ ×Ĳ×Ĵ×¢×¨
Ġ×© ×¢×£
Ġ×ĺ ×ĳ
Ġ×Ĳ×¨ ×¢×Ŀ
Ġ×©×ĺ ×ķ×¤×ĺ
Ġ×Ľ ×ķ×ķ×Ļ×Ļ×ĺ×Ļ×ł×Ļ×ł×Ĵ
Ġ×ª ×ł×Ļ×Ĳ
×Ĳ×§ ×Ļ
×¡×ĺ ×Ļ×ĵ
Ġ×©×¤ ×Ĳ×ł×Ļ×©
Ġ×Ĳ×Ļ×Ļ× §
×Ļ×ŀ ×Ł
Ġ×ĳ×¨ ×ķ×Ļ×Ľ×Ł
Ġ×§×ľ ×Ļ×ŀ
Ġ×Ĵ×¢×¤ ×Ļ×ľ×ĺ
Ġ×¨×Ĳ ×ķ×Ļ
×§×ľ ×¢×¨×Ł
Ġ×¤×Ĳ×¨×© ×¤×Ĳ×¨×ĺ
is c
Ġ×¢×ł×ĵ ×¨×Ĳ×ķ×ĵ
Ġ×¨×¢×ĸ ×Ļ×Ĵ
Ġ×¢×ŀ ×ľ×§
Ġ×ĺ×¢×Ľ ×ł×Ļ×§
Ġ×ķ×ķ×Ļ×Ļ×ĺ ×Ĳ
Ġ×Ĵ×¢×ķ×ķ×Ĳ×¨ ×ł×ĺ
×ł×¢×ľ ×Ĳ×Ĵ×Ļ×¢
Ġ×ĵ×Ļ×¡×§ ×ķ×ĺ
ĠïŃĦ ï¬®
Ġ×¤×ľ×¢ ×Ļ
Ġ×ŀ×Ĺ×ľ×ķ×§ ×Ķ
Ġ×§×ķ×© ×Ļ×Ĳ
ÑĢÑĢ ÑĢÑĢ
×¨×Ļ×¢×¨ ×ĸ
Ġ×ľ×¢×¤×ĺ ×Ĳ×¤
n bs
Ø ¯
Ġ Z
Ġ×Ĳ ×ķ×ķ×¢×ł×ĺ
Ġ×¤ ×ķ×ł×ĵ×¢×¨
Ġ×ķ×ķ ×Ĳ×©
×© ×Ļ×¤
×ĳ ×Ļ×ĺ
Ġ×© ×¢×ł×¡×ĺ×¢
Ġ×¦ ×¢×¤
×ŀ ×Ĳ×¡×Ł
×ŀ ×Ļ×©×Ĳ
×ķ×ķ ×Ĳ×¨×§
Ġ×ĺ ×¤
×¢×ľ ×ĺ×¢×¨
Ġ×¤×Ĳ×¨ ×§×ľ
×¢×§ ×©
×¢×ĵ ×¨×Ĳ
×¢×¤ ×Ļ
Ġ×ª ×©×ľ
×§×¡ ×¢×¡×¢×¨
Ġ×ĳ×ľ ×Ĳ×Ĵ
Ġ×Ĵ×¢×ĸ ×Ĳ×ľ×ĺ
Ġ×¨×ĳ ×Ļ×Ļ×Ŀ
ï¬ «
Ġ×Ĵ×¢×ľ ×Ĳ×Ľ×ĺ
×¢×§×ĺ ×Ļ×ł×Ĵ
Ġ×§×¡ ×¡
×ĳ×ľ ×ķ×ŀ×Ļ×ł×Ĵ
Ġ×ŀ×Ļ×ł ×¢×¨×ł
Ġ×Ĳ×ŀ×Ĳ×ľ ×Ļ×§×¢
×¨×¢×¡ ×¢×¨
×©×¤ ×Ļ×ľ×Ł
Ġ×ŀ×¢×ĵ ×Ļ×§×¢
×Ļ×Ļ×¦ ×Ł
Ġ×ķ×Ļ×¡ ×¤×Ĳ
Ġ×ľ×¢×Ĵ ×Ĳ×ľ
Ġ×¨×¢×ľ ×Ļ×Ĵ
Ġ×Ĵ×¢×Ķ×¢×¨ ×Ļ×§
Ġ×¡×Ľ ×ķ×Ļ×¨×¢
Ġ×Ĳ×Ļ×ł×¡ ×¤
Ġ×ĵ×Ļ×¨×¢×§×ĺ ×Ĳ×¨
Ġ×ĵ×¢×¨×¦×Ļ×Ļ×ľ ×ķ×ł×Ĵ×¢×Ł
Ġ×Ĵ×¢×ł×Ļ×ĺ ×ķ×ł×Ĵ
Ġ×¤×Ĳ×¨×ķ×ķ×Ĳ×ķ×ł×ĵ ×¢×ĺ
×©×Ļ×ł×¢×¨ ×Ļ
nbs p
Ġ×ŀ×Ļ×ł×¢×¨×ł ×ķ×ķ×¢×¨×ĺ×Ļ×§
×ĺ ×¤
×¢×¨ ×ĵ×Ļ×§
Ġ×ĵ ×Ļ×Ĳ×ľ
Ġ×¤ ×Ļ×¤
×ľ ×¢×¡×ĺ
Ġ×ŀ ×¨×ĳ
×¡ ×Ķ
Ġ×ĸ ×§×Ł
Ġ×§ ×ľ×¢×ĸ
×ĵ ×¢×ł×§
Ġ×ł ×Ļ×©×¢
Ġ×ĺ ×ĳ×¢
×¦ ×Ļ×¨
Ġ×©×ĺ ×ķ×Ļ×¡
Ġ×ĳ×¨ ×Ļ×Ļ×ĺ×Ł
×¢×ł×ĵ ×ľ×¢×¨
Ġ×ĺ×¨ ×¢×ł
×¨×ĺ ×Ļ×§×¢
Ġ×Ĵ×ľ ×ķ×Ļ×ĳ×ĺ
×¢×Ĳ ×ľ
Ġ×ĵ×ĸ×© ×¢×ł×ĺ
Ġ×ŀ×Ļ×ľ ×ĵ
Ġ×ľ×Ļ×ł×§ ×¢×¨
Ġ×¡×§ ×¨×Ĳ
Ġ×Ĺ×© ×ķ×ĳ×Ł
Ġ×Ļ×Ļ×ĵ×Ļ×© ×ľ×Ĳ×ł×ĵ
Ġ×ĺ×¢×Ľ ×ł×Ļ×©×¢
Ġ×ŀ×¢×ĵ ×Ļ×Ĳ
Ġ×¡×¤×¨ ×Ļ×ł×ĺ
Ġ×Ĵ×¢×ĳ×¨ ×Ĳ×Ľ×Ł
×ĺ×ķ×ĸ ×Ĳ
×ľ×Ļ×ĳ ×¢×ł×¢
Ġ×ľ×Ļ×ĳ×¢×¨ ×Ĳ×ľ×¢
Ġ×¨×Ļ×¡ ×¢×¨×ĺ
×ĺ×ĺ ×¤
Ġ×ĺ×Ĳ×ĺ ×¢×Ł
Ġ×ĵ×¢×ŀ×¢×§ ×¨×Ĳ×ĺ×Ł
Ġ×Ķ×Ĳ×ľ×ĳ×¢×¨ ×©×ĺ×Ĳ×Ŀ
×ķ×ķ×¢×ĺ×© ×ĺ×¢
×ķ ×ķ×ľ×Ĳ
×¢×¨ ×Ļ×©×¢
Ġ×ĵ ×¢×ł
Ġ×ĵ ×ķ×ŀ×Ķ
Ġ×Ķ ×¢×©
Ġ×Ķ ï¬®
Ġ×ĳ ×ķ×¡
Ġ×§ ×Ļ×ĺ
×¤ ×¢×ľ×§×¢×¨×ķ×ł×Ĵ
Ġ×¦ ×¢×ĳ
Ġ×¡ ×Ļ×ł×ĵ
Ġ×¡ ×Ĳ×Ł
Ö¿ .
×¦ ×Ļ×¨×Ł
Ġ×§×Ĳ ×ķ×ł×ĺ×Ļ
Ġ×ĳ×¨ ×Ĳ×ļ
Ġ×Ĳ×Ļ×ł ×ķ×ķ
Ġ×§×ľ ×Ĳ×Ĵ×ĺ
×Ĳ×ĳ ×¢×ľ
Ġ×ķ×ķ×Ļ×ľ ×¢×Ł
Ġ×ķ×ķ×¢×ľ×ĺ ×ľ×¢×Ľ×¢
×¨×Ĵ ×ĺ
×ĳ×ľ ×¢×ĺ×¢×¨
Ġ×¨×¢×Ĵ ×Ļ×¨×ķ×ł×Ĵ×¢×Ł
×Ļ×§×ĺ ×Ļ×ķ×ķ
Ġ×Ĳ×ķ×Ļ×¤×Ĵ ×¢×ĳ×ķ×Ļ×ĺ
Ġ×Ĳ×§×ĺ ×Ļ×ķ×ķ×Ļ×ĺ×¢×ĺ×Ł
Ġ×ŀ×ª ×§×Ł
Ġ×ĺ×Ļ×¤ ×Ł
Ġ×Ļ×Ķ ×ĵ×ķ×ª
Ġ×ľ×¢×Ĵ ×Ĳ×ľ×¢
Ġ×ŀ×Ļ×¡ ×Ļ×¡×Ļ×¤
Ġ×Ĵ×¨×¢×ł ×Ļ×¦×Ł
Ġ×Ļ×ł×ĺ×¢×¨ ×ķ×ķ×Ļ×ķ
×ľ×Ļ×¦ ×Ļ×¨×ĺ×¢
Ġ×ľ×¢×ĸ ×Ł
×Ķ×Ļ×Ļ×ŀ ×Ļ×©
Ġ×ľ×Ļ×ł ×Ļ×¢×¡
Ġ×ľ×Ļ×¢ ×ĳ
×ĵ×ķ×¦ ×Ļ×¨×¢×¨
f in
Ġ×ĵ ×¢×§×ĺ
Ġ×¤ ×Ļ×Ĳ
Ġ×ŀ ×Ĳ×ĳ×Ļ×ľ
Ġ×Ĵ ×ķ×ķ×Ĳ
Ġ×¦ ×ķ×ĵ
×§ ×¡×ĺ
×§ ×ķ×Ļ×¤×Ł
Ġ×Ĳ×¨ ×¢×ŀ×¢
×Ļ×ŀ ×ľ
Ġ×¤×ľ ×Ĳ×§
×ķ×¦ ×§
Ġ×ł×Ĳ×Ľ ×ŀ×¢×¨
Ġ×ŀ×Ļ×ł ×Ļ×ŀ
Ġ×Ĳ×Ķ ×ĳ×Ķ
Ġ×ŀ×§ ×ķ×ĳ×ľ
×ł×¦ ×Ļ×ķ×Ł
or a
Ġ×ŀ×Ĳ×ŀ ×¨×Ļ×Ŀ
Ġ×Ĳ×ķ×Ļ×¤×Ĵ ×¢×¤
Ġ×Ļ×ķ×ĵ ×Ļ×©
am p
Ġ×¡×ĺ×¢×Ļ×ĺ ×¡
Ġin to
Ġ×ĳ×Ĳ×ł×§ ×¨×Ĳ×ĺ
×¨×ķ×ķ ×ķ×Ļ×ł×Ĵ
Ġ×ĵ×Ļ×¡×§×ķ×¡ ×Ļ×¢
nd er
Ġ×Ĳ×ķ×Ļ×¡×ĺ×¢×¨ ×ľ×Ļ×©×¢
Ġ×Ĳ×ķ×Ļ×¡×ŀ ×¢×§×Ł
×Ļ×ľ×¤ ×Ļ×Ĵ
Ġ×Ĳ×ł×ĵ×ĸ×© ×¢×ľ×¢×¡
å ħ
×ĺ ×ł
×¢×¨ ×¤×Ĳ
Ġ×¤ ×Ĳ×§×¡
Ġ×ŀ ×¤×ľ
Ġ×ķ×ķ ×¢×ł
×ĸ ×Ļ×¨×ĺ
×ł ×¢×ķ×ķ×¢×Ł
Ġ×¡ ×Ĳ×ł×ĵ
Ġ×Ĳ×¨ ×Ļ×ŀ×¢
Ġ×©×ĺ ×Ĳ×¤
×ł×ĺ ×Ķ
×ķ×§ ×Ļ×Ŀ
Ġ×§×¨ ×Ļ×Ĵ×ĺ
×Ĳ×¦ ×Ļ×¨×ĺ
Ġ×Ĵ×¢×ĺ ×ķ×¢×Ł
Ġ×ĺ×© ×Ļ×§
Ġ×ĺ×¢×¨ ×ŀ×Ļ×ł
Ġ19 30
Ġ×¢×ł×ĵ ×Ĵ×Ļ×ľ×ĺ
Ġ×©×ŀ×ķ ×¢×¡×ĺ
Ġ×¤×Ĳ×¨×ŀ ×Ĳ×ĺ
com e
Ġ×¤×Ĳ×¨×Ĳ ×Ļ×Ļ×ĳ
Ġ×ĸ×Ĳ×Ĵ ×¡×ĺ×ķ
Ġ×ľ×Ļ×¦ ×ł×ķ×ª
Ġm ost
Ġ×Ĳ×Ĵ ×ķ×ĵ×ª
×ĺ×¢×ľ ×¡
ĠL and
Ġ×¤×Ĳ×¤ ×Ĳ
ÑĢ Ðµ
×Ĳ×Ĺ ×ĵ×ķ×ª
Ġ×¦×¢×ĺ ×ľ×¢×ļ
Ġ×ł×Ĳ×¨×ŀ×Ĳ×ľ ×¢×¨
Ġ×¡×ķ×Ĵ ×Ļ×Ĳ
ip s
Ġ×Ľ×¡ ×ľ×ķ
Ġ×ľ×Ļ×Ļ×¡ ×¢×ł×¡
O N
×Ĳ ×ķ×¨
×Ĳ ×Ļ×Ļ×ĵ×¢×¨
×Ļ×Ļ× ł×ŀ×Ĳ
×ľ ×Ĳ×ł×Ĵ
Ġ×ķ×ķ ×¢×ĵ×ĸ×©
Ġ×Ķ ×Ļ×Ĳ
Ġ×Ķ ×Ĳ×ł
Ġ×§ ×Ĳ×ĵ
Ġ×¤×Ĳ×¨ ×Ĳ×¨×ĵ
×Ĺ ×ł×Ł
×Ļ×Ľ ×ķ×ľ
Ġ×Ĳ×Ļ×¨ ×Ĳ×ł×¢×¨
×ĳ×¢×¨ ×ļ
×¡×ĺ ×Ļ×ľ
Ġ×Ĵ×¢×ĸ ×Ļ×¦×Ł
Ġ×§×ľ ×Ļ×Ļ×ł×ĺ
×¢×ĸ ×Ł
×ĳ×¨ ×ķ×ª
Ġ×ķ×ķ×Ļ×ľ ×Ĳ
Ġ×Ĵ×¢×ľ ×ĵ
×Ļ×Ķ ×ĺ
Ġ×ĵ×ĸ×© ×ķ×ĵ
Ġ×Ķ×Ĳ×ľ×ĺ ×¡×ĺ
×§×¨ ×¢×ŀ×¢×¨
Ġ×¤×Ĳ×¨×ŀ ×Ĳ×Ľ×Ł
Ġ×Ķ×ľ ×ĳ
Ġ×ĺ×ķ ×¢×¨×¡
Ġ×Ĳ×ł×§ ×¢×ĺ×¢×¡
Ġ×ķ×ķ×Ĳ×ľ ×ķ×ĺ×¢
Ġ×¤×Ĳ×¨×ĳ×¨ ×Ĳ×Ľ×ĺ
Ġ×Ĳ×¨×Ĵ ×¢×ł×¢×ĸ
âĢľ .
Ġ×¤×¨×Ĳ×ĳ ×ľ×¢
×ŀ×ķ×ĸ ×Ļ×§
Ġ×¤×Ĳ×¨×Ĵ×Ĳ×ł×Ĵ ×¢×ł×¢×Ŀ
od e
Ġ×¡×ķ×§×¡×¢×¡ ×¤×ķ×ľ
Ġ×¢×¨×§×ľ ×¢×¨×Ł
Ġ×¡×ĺ×Ĳ×ł×ĵ ×Ĳ×¨×ĺ
Ġ×¤×Ļ×©×¢×¨ ×Ļ×Ļ
Ġ×ĸ×Ļ×ĳ×¢×¦ ×Ļ×Ĵ
Ġ×ĳ×Ļ×Ļ×Ķ ×Ļ×ľ×¤×Ļ×Ĵ
S E
e ch
e ep
k y
Ġ×ŀ ×Ļ×¦
Ġ×ĳ ×ł×¦×Ļ×ķ×Ł
×ŀ ×¢×ł×Ĳ
×Ļ×ĺ ×Ļ×¢×¡
Ġ×ĺ ×ķ×Ĺ×Ł
×Ĳ×Ľ ×¢×ł×¢
×ķ×ł ×¢×¨
Ġ×Ĳ×ķ×ŀ ×§×¢×¨×Ł
Ġ×¦×ķ×ĸ ×Ĳ×Ĵ×Ł
ar k
Ġ×ł×© ×ª
Ġ×¤×ľ×Ļ×Ļ×¦ ×¢
Ġ×§×Ĳ×ł×ĺ ×Ĳ×§×ĺ×Ł
×ľ×Ļ×¡×ĺ ×Ļ×©
×¨×ķ×¡ ×ľ×Ĳ×ł×ĵ
×¤×Ļ×¨ ×¢
Ġ×ĵ×¢×ŀ×Ĳ×§×¨×Ĳ×ĺ ×Ļ×¢
Ġ×§×ł×¢×¤ ×ľ×¢×ļ
Ġ×Ĳ×¤×©×ĺ ×Ĳ×Ŀ
Ġ×§×Ĳ×¨×Ļ×¢ ×¨×¢
Ġ×¨×ķ×Ļ×ŀ ×¢×¨
Ġ×ĵ×ŀ ×Ļ×ķ×Ł
×ķ ×ķ×ł×¢×Ł
×ĺ ×Ļ×¡
×¨ ×Ļ×ł×¢×Ł
Ġ×ŀ ×Ļ×ł×Ķ
×ĵ ×Ŀ
×ĵ ×Ĳ×Ł
Ġ×ł ×Ļ×ķ×ķ×Ĳ
×ĳ ×Ļ×ķ
×ŀ ×ľ×ĺ
×§ ×ĳ
×§ ×Ļ×ł×ĵ×¢×¨
×ķ×ķ ×Ļ×Ļ×¤
×Ļ×© ×¢×¡
Ġ×Ļ ×¤×Ĳ
×Ļ×§ ×ĺ×¢
Ġ×¨ ×Ļ×Ļ×¡
×¢×ĺ ×Ļ×ĺ×Ļ×ķ×ķ
Ġ×©×ĺ ×Ļ×Ļ×Ĵ×Ł
×Ļ×Ļ×ľ ×¢×Ł
×ķ×ĳ ×ĵ
×ŀ×Ĳ ×Ļ
Ġ×§×ľ ×Ĳ×¤×ĺ
Ġ×¤×ľ ×¤×ķ×ľ
Ġ×©×ŀ ×Ĺ×ķ×ª
Ġ×¢×¨×© ×Ļ×Ļ×ł×ķ×ł×Ĵ
Ġ×Ļ×Ļ×ĵ ×ľ
Ġ×Ĳ×ķ×ł×ĺ×¢×¨ ×Ĵ×¢×ł×ķ×ŀ×¢×Ł
Ġ19 20
×ķ×Ļ×ľ ×Ļ×ł×Ĵ
Ġ×§×Ĳ×ľ ×¢×Ĵ
Ġ×ķ×ķ×Ĳ×¨ ×¢×Ŀ
Ġ×¨×Ļ×Ľ×ĺ ×Ļ×Ĵ×¢×¨
×¢×ł×© ×Ĳ×¤×ĺ
Ġ×ł×¢×Ĵ ×Ĳ
Ġ×¤×ķ×Ļ×ľ ×Ļ×©
Ġ×ł×¢×¨ ×ķ×ķ×Ł
Ġ×łï¬¯ ×ļ
Ġ×ĳ×ķ×ĵ×Ĳ×¤ ×¢×¡×ĺ
Ġ en
×ĺ ×ķ×ķ
×¢×¨ ×Ĵ
Ġ×ĵ ×Ļ×ŀ×Ĳ
Ġ×Ĵ ×Ļ×ł×Ļ
Ġ×¦ ×Ļ×ĺ×¢×¨
Ġ×¢ ×ķ×ķ×¢×ł×ĺ
×ł ×ķ×¦×ĺ
×Ķ ×Ĳ×¡×ĺ
×Ķ ×¨×¢
×Ĵ ×ķ
Ġ×Ĵ×¢× ł×ĵ
×Ļ×ľ ×ŀ×¢×Ł
×¢×¡ ×Ļ×Ĳ
×¦ ×ķ×ķ×Ļ×Ļ×ĺ
Ġ×¢×¨ ×¢×ł×¡×ĺ
×ł×ĵ ×¢×ľ
×Ĳ×¤ ×Ĳ×¤×¢
×Ļ×ĸ ×¢×¨
Ġ×§×ľ ×¢×¨×Ł
Ġ×¡×¤ ×Ĳ×¨×ĺ
×¨×ĺ ×ł×¢×¨×¡
×ĳ×ľ ×¢×ŀ×¢×Ł
×ķ×Ļ×ľ ×Ļ×©
Ġ×Ĳ×ķ×Ļ×¤×Ĵ ×¢×Ľ×Ĳ×¤×ĺ
Ġ×¡×Ļ×¨ ×Ļ×Ĳ
ac e
Ġ×Ĳ×ķ×Ļ×¡×Ĵ×¢×§ ×ķ×ķ×¢×ĺ×©×ĺ×¢
ĠNew s
Ġ×§×Ļ×¨ ×Ľ×¢
Ġ×¨×Ĳ×ŀ ×ł×Ļ
×Ĳ×Ļ×ĵ ×Ļ×©×¢
Ġ×Ľ×ķ×ķ ×Ĳ×¤×Ĳ×¤×¢
Ġ×Ĳ×¨×ĵ ×¢×ł×ķ×ł×Ĵ
Ġ×Ľ×ķ×ķ×Ĳ×¤×Ĳ×¤×¢ ×Ļ×Ľ×ķ
a z
Ġ×¤ ×¢×Ł
Ġ×¤ ×¢×¤×¢×¨
Ġ×Ķ ×¢×ł×Ĵ×¢×Ł
Ġ×ĳ ×Ļ×Ļ×¤
×ŀ ×Ļ×Ļ×©×Ĳ
×Ĵ ×Ļ×¨×ĺ
Ġ×¡ ×Ļ×ĳ
×Ļ×¨ ×©
×¢×¡ ×Ļ×ĸ
×¦ ×Ļ×ļ
×Ĺ ×Ľ×Ŀ
Ġ×¤×¨ ×Ļ×ł×ĺ
Ġ×Ľ ×ķ×¡
Ġ×Ĳ×¤ ×¦×ķ×©
×ĳ×¨ ×Ļ×ĺ
Ġ×Ĵ×¢×ĳ ×Ļ×ĺ
×ł×§ ×ķ×ŀ×¢×Ł
Ġ×Ķ×Ļ×Ļ×ł×ĺ ×Ļ×Ĵ×¢×¨
Ġ×¢×§ ×©
Ġ×©×ł ×Ĳ×Ķ
Ġ×§×Ĳ×ŀ ×Ļ×©
Ġ×ľ×Ĳ×ł×ĵ ×Ĳ
ic k
×ľ×¢×Ĵ ×Ĳ
ĠÐ ¾
×¢×ĵ×Ļ×ĺ ×¢×¨×¡
Ġ×ĺ×¢×§ ×ł×Ļ×§×¡
Ġ×Ļ×Ĵ ×ĸ×Ĳ
ec t
oin t
Ġ×ĸ×Ļ×¡ ×ķ×ķ×Ĳ
Ġ×Ĳ×§×Ĳ×ķ×ł×ĺ ×¡
Ġ×ŀ×¢×ł ×¢×ĵ×ĸ×©
×ĳ×Ļ×¢ ×§×ĺ×Ļ×ķ×ķ
×Ķ×Ļ×ľ ×Ļ×Ŀ
Ġ×©×ĵ ×Ľ
Ġ×Ķ×Ĳ×§ ×ĺ
== ==
Ġ×¤×¨×Ĳ×¤×Ĳ×Ĵ ×Ĳ×ł×ĵ×¢
×§×¡×¢×¡×¢×¨ ×Ļ×ĸ
% ,
×¢ ×Ļ×§
Ġ×Ĳ ×ł×ľ
×ĺ ×ľ×¢×ļ
×ľ ×ŀ×¢×Ł
Ġ×ķ ×ĳ×¨
Ġ×ŀ ×ķ×ľ
Ġ×Ķ ×ķ×Ķ
×ĵ ×¢×ł×¢
×Ĳ×¡ ×¢
Ġ×ĵ×¢×¨ ×Ļ×ł×¢×Ł
Ġ×§×Ĳ ×ķ×ŀ×Ļ
×ĳ×¢×¨ ×¡
×ķ×ĵ ×ķ×ĳ×Ĳ
×¨×Ļ×Ļ× ł×ĵ
Ġ×Ĳ×¤ ×¨×Ĳ
Ġ×Ĳ×ķ×Ļ×¡ ×¦×ķ×Ĵ
Ġ×ĳ×¨ ×¢×ĵ
Ġ×Ļ×Ĳ×¨ ×¢×Ł
×¢×¡×ĺ ×Ļ×ķ×ķ×Ĳ
×ķ×ł×ĵ ×Ĳ
Ġ×Ĵ×¢×Ĵ ×ł×ĳ
Ġ×ĺ×© ×Ļ×ľ×¢
Ġ×Ĵ×Ĳ×¨ ×ĳ
Ġ×ĳ×Ĳ×§ ×Ł
×ł×ķ×ŀ ×¢×¨
Ġ×¢×§ ×Ł
Ġ×ĺ×Ļ×Ļ×ľ ×ŀ×Ĳ×ľ
Ġ×Ķ×Ĳ×¨ ×ĳ
Ġ×Ĳ×¨×Ļ×Ļ×ł×Ĵ ×¢×ĳ×¨×¢×ł×Ĵ×ĺ
Ġ×Ĺ×ª ×Ļ×ŀ×Ķ
Ġ×Ĵ×¢×¦ ×Ļ×ľ×ĺ
Ġ×ĵ×Ļ×Ļ×ĺ ×©×¢×¨
Ġ×Ĳ×ł×ĵ×¢×¨ ×©×ĺ
Ġ×ł×Ļ×¦ ×¢×Ł
eb ook
ĠO F
Ġ×ĺ×¢×ŀ ×Ļ×Ŀ
ri end
Ġ×¤×ķ×ł×§ ×¦×Ļ×Ĳ
Ġ×ł×¢ ×¢×ł×ĺ×¢×¨
Ġ×ĺ×¢×ĺ ×Ļ×§×Ļ×Ļ×ĺ×Ł
Ġ×ŀ×ķ×Ķ ×ľ
Ġ×ŀ×©×ª ×ª
Ġ×Ĵ×Ĳ×ķ×ķ×¢×¨ ×ŀ×¢×ł×ĺ
Ġ×ķ×Ĵ ×ķ
Ġ×¡×Ĳ×ŀ ×Ļ×ĺ
Å ¡
×¢× Ĺ
×¢×¨ ×ĵ×Ļ×§×¢
Ġ×ĵ ×Ĵ
Ġ×¤ ×ķ×ł×Ŀ
×ľ ×Ļ×¢×¡
×¡ ×ł×Ĳ
Ġ×Ķ ×Ĳ×¤×ĺ
Ġ×ĳ ×ķ×Ŀ
Ġ×ĳ ×ķ×Ĵ
Ġ×§ ×Ļ×ŀ
Ġ×§ ×Ļ×ŀ×Ĳ
×Ĵ ×Ļ×Ĺ
Ġ×ľ ×Ļ×Ļ×ĺ×¢×¨
Ġ×¨ ×ĸ
Ġ×¤×Ĳ×¨ ×¦×Ļ×Ļ×ĺ
×Ĺ ×ķ×¨
×Ĺ ×ĸ×¨
×Ļ×ĸ ×©×¤
Ġ×Ĳ×ķ×Ļ×¤ ×ł×¢×ŀ×¢×Ł
Ġ×Ĳ×¡ ×¨
Ġ×Ĳ×Ļ×ĳ×¢×¨×Ĵ ×¢×ĺ
Ġ×¤×Ĳ×¨×ŀ ×¢×§×ĺ
Ġ×Ĳ×Ļ×Ļ×ł×Ĵ ×¢×¨
Ġ×Ĳ×ķ×Ļ×¤×Ĵ ×¢×Ķ
Ġ×Ĳ×ķ×ķ×¢×§ ×ľ×Ļ×Ļ×Ĵ×Ł
Ġ×§×ķ×ķ ×¢×ľ×¢×¨
Ġ×¨×¢×Ĵ×Ļ×¨×ķ×ł×Ĵ ×¡
Ġ×ľ×¢×Ĵ ×¢×ł×ĵ×¢
Ġ×ŀ×Ĺ×ĳ×¨ ×Ļ×Ŀ
Ġ×¨×Ļ×§ ×ķ×ķ×¢×¡
Ġ×¨×¢ ×Ļ×ĺ
Ġ×©×ľ×¢×Ľ×ĺ ×¡
Ġ194 8
×ľ×¢×§×¡ ×Ĳ
Ġal so
Ġ×ĵ×¨×ķ×Ļ×¡ ×Ł
×Ĳ×Ļ×Ļ×¨ ×Ĳ
Ġ×ĺ×©×Ĳ×¨ ×ĵ×ĸ×©
Ġ×Ĳ×Ļ×Ļ×¤ ×Ĳ×ķ×Ł
Ġ×ĳ×¢×ł×ĺ×© ×Ł
Ġ×¡×¢×§×Ļ×ķ×¨ ×Ļ×ĺ×Ļ
Ġ×Ķ×Ĺ×ľ×ĺ ×Ķ
Ġ×Ĵ×¨×ķ×ł×ĺ×Ļ×Ļ×Ĵ ×ł×¡
B B
W h
u e
à ¸
Ġ×ĵ ×ŀ×ķ×ª
Ġ×ķ ×Ĳ×ľ
Ġ×ĸ ×Ļ×Ļ×¨×¢
×¤ ×ł×ĵ×Ļ×§
Ġ×ł ×ķ×ĺ
Ġ×ł ×Ĳ×ĵ
×¢×ł ×ĺ×¢×¨×Ł
Ġ×Ļ ×Ļ×¨×Ĳ
×¢×ľ ×ķ×ł×Ĵ×¢×Ł
×Ļ×Ĵ ×Ļ×¢×¨
Ġ×Ĵ×¢×ķ×ķ ×¢×ĺ
×ł×ĵ ×©×Ĳ
×Ĳ×ŀ ×Ļ
×Ĳ×ŀ ×Ļ×Ł
Ġ×Ľ ×ķ×ľ×Ŀ
Ġ×Ĳ×ķ×Ļ×¡ ×Ķ×¢×¨×Ł
Ġ×ĳ×ľ ×ķ×Ļ×¢
Ġ×ĵ×¨ ×ķ×Ĵ×¡
Ġ×Ĳ×ĳ ×Ļ×Ĵ
×³ .
Ġ×§×ķ×§ ×¢×Ł
or y
Ġ×§×Ĳ×¨ ×¤×Ĳ×¨
×¨×¢×¡ ×Ļ×ķ×ķ
×ŀ×¢×ł×ĺ ×Ł
×ł×¢×¡ ×¡
Ġ×Ļ×¨ ×Ĳ×ª
Ġ×¡×Ļ×Ļ×ĺ ×¡
Ġ×ĵ×¢×¨×ŀ ×Ĳ×ł×ĺ×¢
Ġ×¡×¢ ×Ļ×£
Ġ×¡×¢ ×ķ×ĵ×ª
Ġ×©×¨×¢×§ ×ľ×Ļ×ļ
Ġ×ĵ×Ĳ×§ ×ĺ×ķ×¨×Ļ×Ŀ
Ġ×ĳ×Ļ×Ļ×© ×¤×Ļ×ľ×Ł
Ġ×Ľ×©×¨ ×ķ×ª
×ĵ×Ļ×ł ×ķ×ł×Ĵ×¡
Ġ×Ļ×§ ×¡×ĺ
Ġ×ķ×ķ×Ļ×Ľ ×Ļ×§×Ĳ
Ġ×¤×¢×¡ ×ķ×ķ×Ĳ×¨×ĵ
Ġ×Ĳ×ĵ×ķ×ķ×¢×¨×ĺ×Ļ×Ļ×ĸ ×ŀ×¢×ł×ĺ
Ġ×©×¤×Ĳ×¦ ×Ļ×¨×Ł
Ġ×ĵ×¢×ķ×ķ×¢×ľ ×Ĳ×¤
Ġ×¤×Ĳ×¦×Ļ×¢ ×ł×ĺ×Ł
×Ļ×ķ×ķ×Ļ ×Ļ×Ļ×©×Ĳ
Y ellow
×ķ ×¢×ĵ
×¨ ×Ļ×¨×ĺ
Ġ×¤ ×ľ×¢×©
×ľ ×Ļ×ĺ×¢×¨
Ġ×ŀ ×Ļ×ŀ
Ġ×ĸ ×Ļ×Ļ×¢
Ġ×ĳ ×ķ×Ļ×Ĵ×Ł
×ĵ ×ķ×ķ
Ġ×ł ×Ļ
Ġ×ł ×Ļ×ł×ĵ×ĸ×©×Ĳ
Ġ×¢ ×ĳ×¨×Ļ
×Ĵ ×ķ×Ĳ
Ġ×ľ ×Ķ×Ŀ
Ġ×¡ ×Ĳ×¨×§
Ġ×¨ ×ķ×Ķ
×Ļ×¢ ×ķ×ķ
×Ľ ×Ĵ×Ļ×Ļ×Ł
×ĺ×¢×¨ ×Ĳ
×ķ×§ ×ķ×§×Ł
Ġ×Ĳ×¤ ×Ķ×Ĳ×ľ×ĺ×Ł
Ġ×Ĳ×¤ ×¡×ĺ×¢×Ļ×ĺ
×Ĳ×ĳ ×Ĳ×ŀ×Ĳ
×ķ×¦ ×¨
×ľ×¢×Ľ ×§×Ļ×Ļ
Ġ×Ĳ×ķ×Ļ×¡×Ĵ ×¢×ĺ
×¤×¨ ×¢
Ġ×Ĳ×Ļ×Ļ×ĵ ×¢×ľ×¢×¨
×Ļ×ĺ×¢×¨ ×¨×Ĳ
Ġ×ľ×Ļ×Ļ×§ ×¢×ł×¢×Ł
Ġ×ĳ×Ĳ×¦ ×Ļ×Ļ×Ľ×¢×ł×¢×Ł
Ġ×ķ×ķ×Ļ×¨ ×ĵ×ĸ×©
Ġ×Ĳ×Ĵ ×ķ×ĵ×Ķ
Ġ×ŀ×ĳ ×Ļ×ł×Ļ×Ŀ
Ġ×ľ×¢ ×ķ×ķ×Ļ×Ł
Ġ×§×¢×Ĵ ×ł×¢×¨×¡
Ġ×Ķ×ĳ ×ĺ
×ķ×ĺ×© ×¢×ĺ
×ľ×¢×¡ ×¡
Ġ×ŀ×¡×ª ×ĳ×¨
Ġ×ŀ×¢×ľ×ĵ ×ķ×ł×Ĵ×¢×Ł
Ġ×ĳ×Ļ×ĺ ×¢×¨×Ł
Ġ×ŀ×ķ×ĺ×¢×¨ ×¡
×ł×Ļ×ĸ ×Ļ×¨×Ł
Ġ×ł×Ļ×Ļ×ĺ ×¨×Ĳ
Ġ×¤×ķ×ł×ĵ ×¨×ķ×Ļ×¡
Ġ×Ĵ×Ĳ×ķ×ķ×¢×¨ ×ł×Ĳ×¨
Ġ×¡×Ļ×ł×Ĵ ×Ĳ
Ġ×©×Ĳ×¡ ×Ļ×Ļ
Ġ×ķ×Ĳ×Ľ ×ŀ
Ġ×ĵ×¢×ł×ŀ ×Ĳ×¨×§
ufac ture
å ¤
å ı
×ĺ ×¢×Ľ
×¨ ×©×¨
×ľ ×Ļ×ł×¢×¨
×¡ ×ª×Ŀ
Ġ×ĸ ×ķ×Ķ×¨
Ġ×§ ×Ļ×ł
Ġ×§ ×ķ×¡×ĺ
×ĵ ×Ļ×¡
×Ĵ ×ł×ĳ
Ġ×ľ ×Ļ×¡×Ĳ
×Ĳ×¡ ×¢×¨
Ġ×¦×ķ ×¨
Ġ×©×ĺ ×¢×§×ĺ
×Ļ×Ĳ ×¨×Ļ×§×¢×¨
×Ļ×ķ ×ķ×Ļ×¡
Ġ×©×¤ ×Ļ×ł
Ġ×Ĵ×¢×© ×Ļ×Ľ×ĺ×¢×¡
×§×¡ ×Ļ×Ĳ
Ġ×ĺ×¨ ×Ļ×§
×Ļ×Ļ×ĸ ×ĺ
Ġ×Ĳ×ķ×Ļ×¤ ×©×ĺ×Ĳ×ł×ĵ
Ġ×Ĵ×¢×Ķ ×Ļ×ľ
Ġ×¤×ľ ×Ļ×Ĵ×ľ
Ġ×§×¨ ×ķ×ĸ
×§×ĺ ×©×Ĳ
×¤×Ĳ×¨ ×ª
Ġ×Ļ×© ×¢
×ķ×ķ×¢ ×¢×ĵ
Ġ×¤×Ĳ×¨×ŀ ×Ļ×©×ĺ
Ġ×ķ×ķ×Ĳ×¨×ĺ ×¢×Ł
Ġ×Ĳ×ķ×ķ×¢×§ ×Ĵ×¢×©×ĺ×¢×ľ×ĺ
Ġ×©×ķ×ľ ×Ĺ×Ł
ĠÐ ´
×Ĳ×ķ ×ķ×ł×ĺ
Ġ×Ĳ×§ ×¦×Ļ×¢×¡
Ġ×ŀ×ĳ ×Ļ×Ł
Ġ×¤×¢ ×Ļ×ŀ×¢×ł×ĺ
Ġ×ľ×Ķ ×Ļ×¤
Ġ×Ĳ×ł×¦ ×ķ×§×ķ×ŀ×¢×Ł
Ġ×¤×ľ×Ļ×¢ ×ł×ĵ×Ļ×§×¢
Ġ×Ĵ×¢×ĵ×Ĳ ×ķ×ķ×¢×ł×ĺ
Ġ×¤×Ĳ×¨×©×¨ ×Ļ×ĺ
Ġ×ĺ×¨×ķ×Ļ×¢ ×¨×Ļ×§
Ġ×ĸ×¢×¡×ĺ ×ķ
Ġ×Ĳ ×Ĵ×¨
×¨ ×ŀ×¢×Ł
Ġ×ŀ ï¬¯×ľ
Ġ×ĸ ×ķ×©×Ĳ
×ĸ ×Ļ×§
×Ļ×ĺ ×ķ×ĺ
×Ĵ ×Ļ×Ļ×©×Ĳ
Ġ×¨ ×ķ×§×ĺ
×Ļ×¢ ×ª
×¢×§ ×ĺ×¨
Ġ×ķ×ķ×Ĳ ×Ł
Ġ×Ĵ×¢×© ×¢×ĺ
×Ļ×ĳ ×Ĳ×¨
Ġ×¦×ķ×ķ ×Ļ
×Ĳ×ĸ ×Ļ×¦×Ļ×¢
Ġ×Ĵ×¢×¤ ×Ĳ×ľ×ĺ
Ġ×ĳ×Ĳ×© ×ĺ×¨
om e
×Ļ×Ļ×§ ×ĺ
Ġ4 50
Ġt rans
Ġ×Ĵ×ķ ×Ĳ×ľ
Ġ×¡×§ ×¨×¢
Ġ×ĳ×ł ×ķ
Ġ×¤×Ĳ×¨×ĳ ×Ĳ×ĺ
Ġ×Ĺ×Ľ ×ŀ×Ļ
×Ĳ×ķ ×ķ×ĵ×Ĳ×Ļ
âĢ¦ âĢĿ
Ġ×¤×Ĳ×¨×¤ ×Ļ×¨×Ł
Ġ×ĺ×¨×Ĳ×Ĵ ×¢×ĵ×Ļ×¢
Ġ×ł×¢ ×¢×ĵ
Ġ×ĳ×Ļ×Ļ×ĸ ×¢
×Ļ×¨×ķ×© ×ľ×Ļ×Ŀ
×¦×Ļ×ķ ×ł×Ĵ
Ġ×Ĳ×Ļ×ł×§ ×Ĳ×Ŀ
×¦×¨ ×Ļ×ļ
Ġ×¤×¨×¢×ĸ ×Ļ×ĵ
Ġ×§×ĵ ×Ŀ
Ġ×ł×Ļ×¡ ×Ļ×Ŀ
Ġ×¤×Ĳ×¤×ķ×ľ ×¢×¨×¢
Ġ×ĵ×ĸ×©×Ĳ×¨ ×ĵ×ĸ×©
ĠâĨ Ĵ
Ġ×ķ×ķ×Ļ×Ļ×ł× ĳ×¢×¨×Ĵ×¢×¨
×Ĳ×Ĺ×ŀ ×Ļ×¡×ĺ×¨
âĢª- âĢ¬
x c
Ã ¶
Ġ×Ĳ ×Ļ×Ļ×ł×ĺ
×¡ ×ŀ×¢×ĺ
Ġ×Ķ ×Ľ×ľ×ľ
Ġ×§ ×Ĳ×§
×¤ ×¢×ľ×ĺ
Ġ×© ×ł×Ķ
×ŀ ×Ļ×ĸ
Ġ×Ļ ×ľ×Ĳ
×Ĵ ×¨×Ļ×Ļ×©×Ĳ
Ġ×ľ ×Ļ×ª
Ġ×¡ ×¢×ŀ×Ĳ
Ġ×¡ ×Ĳ×¨×Ļ
×¢×ĵ ×Ļ×Ĵ×Ł
Ġ×ĵ×Ĳ ×ķ×ķ×¢×ł×ĺ
×ł×ĺ ×¤
×©×ĺ ×Ļ×ŀ×ĺ
×Ļ×ŀ ×ĸ
Ġ×ł×Ĳ×¨ ×ķ×ķ×¢×Ĵ
×Ĳ×¦ ×ķ×ł×Ĵ
Ġ×©×ľ ×Ļ
Ġ×Ĵ×¢×ŀ ×Ļ×ĺ
ĠC A
×¨×ķ×Ļ×¡ ×Ĵ×¢×Ĵ×¢×ĳ×Ł
Ġ×ķ×ķ×Ļ×Ľ×ĺ ×Ļ×§×Ļ×Ļ×ĺ
×ķ×ĳ×ľ ×Ĳ×ĸ×Ł
os e
Ġ×Ĺ×ĳ×¨ ×ķ×ª×Ĳ
×ľ×Ļ×ĺ ×Ļ×©×¢
Ġ×Ĳ×ł×© ×ĺ×¢×ľ×Ł
Ġ×¤×Ĳ×¨×ĵ ×Ļ×ł×¡×ĺ×Ł
Ġ×Ĳ×Ļ×Ļ×ĸ ×ľ
Ġ×Ĳ×Ļ×Ļ×ĸ ×Ļ×§
Ġ×§×Ĳ×ŀ×¤×Ļ×ķ×ĺ×¢×¨ ×¡
Ġ×©×ĺ×¢×¨ ×§×¡
ÑĤ Ðµ
Ġth is
Ġ×ķ×© ×ŀ×©
Ġ×ĳ×ĺ ×Ĺ×ķ×Ł
Ġ×¤×Ĳ×¨×Ĵ×¢×© ×¨×Ļ×ĺ
×¨×Ļ×ł×¦ ×¢×¡×Ļ×Ł
Ġwor ld
Ġ×Ĳ×ķ×Ļ×¤×Ĵ×¢×ķ×ķ ×¢×§×ĺ
Ġ×Ĳ×ł×¦×ķ×Ķ ×Ļ×Ļ×ĳ×Ł
×¦×Ĳ×ľ ×Ļ×Ĵ×¢
Ġ×Ĵ×¢×Ĺ×ª ×ŀ×¢×ĺ
1 17
Â °
×ĺ ×ķ×Ĳ
×ĺ ×¢×ł×Ķ
×¨ ×Ļ×ł×Ĳ
Ġ×¤ ×Ļ×ł×¡
Ġ×¤ ×ł×Ļ×ŀ
×ľ ×Ľ×Ļ×Ŀ
Ġ×ĸ ×Ĳ×¤
Ġ×ĳ ×Ĳ×ľ×ĺ
×ĵ ×Ĳ×ĺ
Ġ×© ×¢×ľ
Ġ×© ×Ļ×§×¢×Ł
×§ ×Ļ×¢×¨×Ĳ
Ġ×Ļ ×Ĳ×ł×§
Ġ×Ļ ×ķ×ŀ×Ĳ
Ġ×¡ ×ķ×ķ×Ļ×ł×Ĵ
×Ļ×ĳ ×ª
×ł×Ķ ×Ĳ
×ľ×¢×Ľ ×Ļ×§
×ķ×ł×ĵ ×¢×Ł
Ġ×Ĵ×¢ ×¢×ł×ĺ×¤
ï¬¯ ×Ł
Ġ×¤×Ĳ×¨×©×ĺ ×¢×ł×ĵ
Ġ×ŀ×ĵ ×ķ×ª
Ġ×ŀ×¢ ×Ļ×ĵ
Ġ×Ķ×Ļ×Ļ×ľ ×Ļ×Ĵ×¢×Ł
×¨×ķ×Ļ×¡ ×ĸ×Ĳ
Ġ×ĳ×Ĳ×©×ĺ ×¢×ľ×Ł
Ġ×§×Ĳ×¤ ×Ļ×ĺ
Ġ×Ļ×¨ ×Ĳ×Ķ
Ġ×¡×Ĳ×ĺ ×ŀ×¢×¨
Ġ×ķ×ķ×Ĳ×ľ ×¡×ĺ×ķ
Ġ×Ĵ×¢×ĳ×¨ ×ķ×Ļ×Ľ×Ł
ãģ Ł
Ġ×Ļ×ķ×Ĳ×ľ ×Ļ
pos it
Ġ×Ļ×ĳ×¢×¨ ×ł×¢×ŀ×¢×Ł
×ķ×ł× ł
Ġ×Ĳ×¨×ķ×Ļ×¡×¦ ×ķ×Ķ
Ġ×§×Ĳ×ŀ×ķ×ł ×Ļ×ĸ×Ŀ
Ġ×¨×Ĳ×ŀ ×Ĳ×Ł
Ġ×Ĳ×Ļ×Ļ×ł×ĸ ×¢×Ł
Ġ×Ĵ×Ļ×ľ ×ķ×Ļ
Ġ×¡×¤×¢×¦×Ļ×¢ ×ľ×Ł
Ġ×¤×Ĳ×¦×Ļ×¢ ×ł×ĺ
Ġ×Ĳ×ĸ×¢×ľ ×¢×Ľ×¢
×Ĵ×Ļ×¨ ×ľ×¡
ĠLand au
b o
e at
Ġ×ĵ ×Ļ×ŀ×¢×ł×ĺ
×ľ ×Ĳ×¡
×ľ ×Ļ×Ļ×¡×ĺ
×ľ ×Ļ×ĸ×Ĳ
Ġ×ķ ×Ĳ×ª
Ġ×Ķ ×ĳ×¨
Ġ×© ×Ĳ×ĺ×Ł
×ŀ ×¢×¨×¡
×ŀ ×ĵ×¨×©
×ŀ ×Ļ×Ļ×ĸ×ĵ
×ķ×ķ ×ķ×Ĳ
×Ľ ×ŀ×Ļ×ĺ×Ĳ
×Ļ×Ĵ ×§×Ļ×Ļ×ĺ×Ł
Ġ×Ĳ×¨ ×Ļ×¡×ĺ
Ġ×Ĳ×ľ ×¦×ĵ×Ļ×ł×Ĵ
Ġ×ĳ×Ĳ ×ķ×¤×Ł
×Ļ×Ļ×ĵ ×¢×ł×¢
Ġ×¤×ľ ×Ļ×¡×ĺ
×ł×ľ ×Ļ
×ķ×ł×ĺ ×©×Ł
Ġ×ĳ×Ĳ×§ ×¢×ł×¢×Ł
Ġ×¢×ł×ĵ ×¡
Ġ×Ĳ×¨×ķ×Ļ×¤×Ĵ ×Ļ×Ļ×Ł
×Ļ×ķ×ķ×¢×¨×¡ ×Ĳ
Ġ×ŀ×¢×ĵ ×Ļ×ĺ×¢×¨×¨×Ĳ
Ġ×Ĵ×¢×©×ĺ ×Ļ×Ĵ×Ł
Ġ×ł×¤ ×ľ×Ĳ
Ġ×Ļ×¨×ķ×© ×ľ×ŀ×Ļ
×ķ×ķ×Ļ×© ×ĺ
×ĺ×ķ×ĸ ×¤
×ķ×ľ×¢×¨ ×ł×¢×Ł
×ŀ×ĸ ×ľ
Ġ×ĵ×¢×¨×ľ ×ķ×Ļ×ĳ×Ł
Ġ×§×¨×Ĳ×ł×§ ×¢
Ġ×ŀ×©×ķ×Ĵ ×¢×ł×¢
Ġ×¡×ķ×¨ ×¤×¨×Ļ×Ļ×ĸ
ef its
Ġ×¤×Ĳ×¨×¢×¤×ł×ĺ ×ľ×¢×Ľ×ĺ
Ġ×¦×¢×ł×ĸ ×ķ×¡
Ġ×ĺ×¨×ķ×§ ×¢×ł×¢
Ġ×Ĵ×ķ×ĸ ×ŀ×Ĳ
Ġ×Ĳ×ĳ×Ļ×Ĵ ×ĵ×ķ×¨
0 8
c rip
n a
Ġ×Ĳ ×ķ×¡
Ġ×Ĳ ×ł×¢
×¨ ×Ļ×ł×ĺ
Ġ×Ĵ ×ķ×ĵ
Ġ×Ĵ ×²×ĺ
Ġ×§ ×ķ×ĳ×Ĳ
Ġ×§ ×ķ×ķ×Ļ×ł×¡
×¤ ×Ĳ×ĵ
×ŀ ×ķ×¨×Ļ
Ġ×ĺ ×Ļ×¢×Ł
Ġ×¡ ×ĵ
×Ĳ×ĺ ×¢×¨
×Ĳ×ľ ×Ļ×ĸ×Ŀ
Ġ×¨ ×Ĳ×ľ
Ġ×¤×Ĳ×¨ ×¢×Ł
×¡×ĺ ×Ļ×Ļ×ľ
Ġ×ĳ×¨ ×¢×Ł
Ġ×ĺ×¨ ×ķ×¤
×Ĳ×ł×ĺ ×©
Ġ×ĺ×© ×ķ×ľ
Ġ×ĳ×Ĳ×§ ×ķ×Ŀ
×ķ×Ļ×¢ ×¨×¡
in s
Ġ×ĵ×ĸ×© ×¢×¨×¡×Ļ
Ġ3 4
Ġ×§×¡×ł×ķ×ŀ×§×¡ ×ķ×ķ
×Ĵ×¨ ×Ĳ×Ŀ
Ġ×¡×§ ×Ĳ×ĺ
Ġ×§×Ĳ×ľ ×ķ×Ŀ
×ľ×ĵ ×Ļ×§×¢
Ġw ord
Ġ×¤×ķ×ľ ×©×ĺ×¢×ł×ĵ×Ļ×§
Ġ×¤×Ĳ×ĺ ×¨×Ļ×Ĳ
×¨×Ļ×Ļ×¡ ×Ļ×ĸ
Ġ×Ĳ×ª ×Ķ
Ġ×¡×¢×§ ×¨
Ġh ave
Ġ×Ĳ×ķ×Ļ×¡×¦ ×ķ×ĳ×ľ×Ĳ×ĸ×Ł
×ķ×ł×¡ ×Ļ×ľ
Ġ×ľ×Ĳ×§ ×Ĳ×ľ
Ġ×¤×¨×Ĳ×¤×¢×¡ ×Ĳ×¨×Ł
Ġ×ķ×ķ×Ļ×¨×ĺ ×ķ×¢×ľ
Ġ×¨×Ĳ×¡ ×Ļ×ĸ×Ŀ
×ľ×Ĳ×Ĵ ×¢
Ġ×¤×Ļ×ĸ ×Ļ×§
×Ķ×ŀ ×§×ĵ×©
Ġ×¡×ķ×Ĺ ×¨×Ļ×Ŀ
Ġ×ŀ×¢×ĺ×¨ ×Ĳ×¤×Ĳ×ľ
Ġ×¤×Ļ×Ļ×ł×ĵ ×Ļ×ł×Ĵ×ĸ
xc game
1 10
Õ ¶
Ĺ ×¡
×ĺ ×¢×ł×Ļ×§
×¨ ×ł×¢×Ŀ
Ö· Ö¼
Ġ×ķ×ķ ×Ļ×ķ
Ġ×Ĵ ×Ķ
Ġ×Ĵ ×ķ×ŀ×¢
×ĳ ×Ļ×§
Ġ×© ×Ļ×§×¡
Ġ×¢ ×¥
×ķ×ķ ×Ļ×Ļ×ĺ×¢×¨
×Ĵ ×Ļ×Ļ×¢×¨
Ġ×©×ĺ ×¢
Ġ×©×ĺ ×ķ×ł×ĵ×Ł
×¢×ĵ ×©
Ġ×Ĳ×ľ ×Ľ×¡×ł×ĵ×¨
×¢×ł×ĵ ×ĸ×©
Ġ×ķ×ķ×Ļ×Ļ×¡ ×¢×ļ
×± ×ĳ×Ł
Ġ×¦×ķ×Ĵ ×ľ
Ġ×Ĺ×¡×Ļ×ĵ ×Ļ×©×Ł
Ġ×Ķ×Ļ×ľ ×¢×¨×Ļ
Ġ×ł×ķ ×¢×Ŀ
Ġ×Ĳ×ª ×¨×ķ×Ĵ
Ðº Ðº
Ġ×¨×Ĳ×¡ ×¢
Ġ×Ĵ×Ĳ×ľ ×Ļ×¦×Ļ×¢
our s
×ķ×ķ×§ ×¢×¡
×ľ×Ļ×ĸ ×Ļ×¨×ĺ
Ġ×ŀ×ª×¤×ľ ×ľ×Ļ×Ŀ
Ġ×¤×Ĳ×ķ×ľ ×¡
Ġ×ŀ×¤×¨ ×¡×Ŀ
abl on
Ġ×Ļ×ł×ĺ×¢×¨×ķ×ķ×Ļ×ķ ×ĸ
S P
k a
Ù ĥ
æ Ĺ
×ĺ ×ľ×Ĳ
×¨ ×ł×¢×¨
×¨ ×¡×Ĳ
Ġ×ķ×ķ ×¢×§×Ł
×Ĳ×¨ ×§×ĺ
×ĳ ×Ļ×¡
Ġ×¦ ×Ļ×ł×ĵ×Ł
×ŀ ×©×Ĳ
×Ķ ×Ļ×ĺ
×Ļ×¢ ×£
×ķ×ŀ ×Ŀ
×ł×ĺ ×Ļ×©
... ).
×Ļ×ł×ĵ ×ĸ×©
Ġ×ĵ×¨ ×ķ×ŀ
×Ĳ×¦ ×¢×¨
Ġ×©×ľ ×Ĳ×Ľ×ĺ
Ġ×§×Ļ×ł×ĵ ×©×Ĳ
ï¬¯ ×Ĵ
Ġ×ĳ×© ×ĳ×Ļ×ľ×Ļ
Ġ×§×Ĳ×ŀ×¤ ×ķ×ĺ×¢×¨
×§×¨ ×¢×ł×§
Ġ×Ĺ×ĳ×¨ ×Ļ
Ġ×ł×¡ ×ª×ľ×§
×ĺ×Ķ ×¢×ĵ×¨×Ĳ
×Ĵ×¢×ĳ ×ķ×Ļ×¨×Ł
Ġ×ľ×Ļ×ĺ ×ķ×ķ×Ļ×©
Ġ×Ĳ×ł×¤ ×Ļ×¨×¢×¨
Ġ×ĵ×Ļ×¡×§ ×¨×Ļ×Ļ×ĳ×ĵ
Ġ×¤×Ĳ×¨×ĳ×Ļ×ł×ĵ ×ķ×ł×Ĵ×¢×Ł
Ġ×Ķ×Ĳ×¤ ×¢×ł×ĺ×ľ×Ļ×ļ
Ġ×¢×ľ×¢×Ĵ ×Ĳ×ł×ĺ×¢
Ġ×¤×Ĳ×¨×ĳ×ľ ×Ļ×Ļ×ĳ×Ł
Ġ×ł×ķ×ĵ ×ł×Ļ×§×¢×¡
Ġ×ª×Ľ×ľ ×ª
Ġ×Ĳ×Ĵ×¢×ł×ĺ×ķ×¨ ×Ł
Ġ×ĺ×¨×Ĳ×ł×¡×¤×Ĳ×¨×ĺ ×Ĳ×¦×Ļ×¢
Ġ×ĺ×¨×¢ ×Ļ×ĵ
Ġ×Ĳ×ł×ĺ×ķ×ķ×¢×¨ ×¤×Ł
×©×ľ×Ļ×¡ ×Ļ×§
P M
×¢ ×ķ×¨
Ġ×ĵ ×§×¡
Ġ×ĵ ×ķ×Ľ×ĺ
Ġ×ĵ ×ł×Ļ×Ĳ×ľ
Ġ×¤ ×Ļ×ł×ĺ
Ġ×ŀ ×¢×ĸ
Ġ×§ ×Ļ×ķ
Ġ×Ĳ×ľ ×ľ
Ġ×Ĺ ×¨×ĺ×Ķ
Ġ×ª ×ķ×¦×Ĳ×Ķ
Ġ×Ĵ×¢×© ×ĺ×¢×¨×ĺ
Ġ×Ĳ×ł×Ĵ ×¢×ĺ×¨
er v
×ķ×Ļ×ĳ ×¢×ł×¢
×¢×¨×© ×ĺ×¢×¨
×ķ×ķ×Ļ×Ļ×ĸ ×¢×¨
Ġ×ł×ķ×¦ ×¢×Ł
×ł×¦ ×ķ×Ķ×Ĳ
Ġ×Ĺ×ª ×Ŀ
ĠM y
Ġ×Ĵ×¢×ĸ×ķ×ł×ĺ ×Ķ×Ļ×Ļ×ĺ
Ġ×¦×ķ×ķ×Ļ×Ļ×ĺ ×ł×¡
Ġ×ķ×ŀ ×ĳ×Ĳ
Ġ×Ĵ×¢×©×¢×¤×ĺ ×¡
ĠJ ablon
ec ial
to p
Ġ×ĵ×¢×¨×Ķ ×¢×¨×ĺ
Ġ×ĺ×¨×Ĳ×¤ ×Ļ×§
×ĵ×¢×§ ×ķ×ł×Ĵ
Ġrequ ired
×¤×¨×Ļ×¢×¨×ĵ×Ļ×Ĵ×¢×ł ×¢×§×¡×ĺ
ĠJablon ec
1 14
E D
Ġ Ñ
×Ĳ ×Ļ×©
Ġ×ŀ ×ĸ×Ĳ×ľ
Ġ×Ķ ×Ļ×Ļ×ĵ
×¢×ľ ×ķ×ª
×¦ ×Ļ×§×ľ
×Ĳ×ł ×Ĳ×ľ
Ġ×Ĵ×¨ ×Ĳ×£
×Ļ×¦ ×Ĳ
×©×¨ ×Ļ×¤×ĺ×Ł
Ġ×§×¨ ×¢×ŀ×¢×¨
Ġ×¡×ĺ ×¨×Ļ×Ļ×§
er tif
Ġ×ŀ×ľ ×ķ×Ķ
Ġ×ŀ×¡ ×§
×§×ľ ×Ĳ×¨
Ġ×Ĳ×ĵ ×ķ×ķ×Ĳ×§×Ĳ×ĺ
Ġ×¢×ł ×Ļ×ķ×ķ×¢×Ļ
×ŀ×Ļ×¨ ×ķ×ª
×¢×ł×© ×ĺ
Ġb u
Ġ×Ļ×ķ×ĵ ×ľ
Ġ×¢×§×¡×¤ ×Ĳ×¨×ĺ
Ġ×Ĵ×¨×¢×ł ×¢×¦×ĺ
Ġ×Ĳ×Ļ×ĳ×¢×¨×¦ ×Ļ×Ļ×Ĵ×Ł
Ġ×ĳ×Ļ×ĺ ×§×Ĳ
Ġ×¤×¢×¡×ĺ ×Ļ×ķ×ķ×Ĳ
×Ĳ×Ļ×ł×ĺ×¢×¨ ×¡
Ġ×Ĳ×Ļ×ł×ĺ×¨×¢×¡ ×Ļ×¨×ĺ
Ġ×¦×ķ×ĳ×¨ ×¢×ł×Ĵ×¢×Ł
Ġ×¤×¢×¨×ĺ ×Ļ×Ĵ
Ġ×Ĳ×Ļ×Ļ×ł×¦×Ļ×Ĵ ×¡×ĺ×¢×¨
Ġ×¨×Ķ ×¢×Ĳ
Ġ×ŀ×ķ×¡×ķ×ľ ×ŀ×¢×ł×¢×¨
Ġ×¡×§×¨×¢ ×¢×ł×©×Ĳ
g h
l es
×ĺ ×Ļ×©×Ĳ
Ġ×ĵ ×ľ×Ĳ
Ġ×Ĵ ×Ļ×ķ×ķ×¢×Ł
Ġ×ĳ ×Ļ×ķ×Ŀ
×ĳ ×¡×Ĳ
×ł ×Ļ×¦×¢
×ŀ ×Ļ×Ļ×§
×ŀ ×ķ×ł×Ĳ
×§ ×ķ×ŀ×¢×ł×ĺ×Ł
×ķ×ķ ×¨×Ĳ
Ġ×ĺ ×ĳ×ª
Ġ×¡ ×ķ
×¢×ľ ×Ļ×Ľ×Ŀ
Ġ×¤×Ĳ×¨ ×¢×Ľ×ĺ×Ł
×Ĳ×Ľ ×ĵ×¢×¡
Ġ×©×ĺ ×Ļ×ĳ
×ł×Ĵ ×ĺ
×¢×Ľ ×Ĳ
Ġ×Ĳ×ķ×ŀ ×¤×Ĳ×¨
×¢×§×ĺ ×Ļ×ķ×ķ×ľ×Ļ
Ġ20 20
×¤×¨ ×¢×Ĵ×Ł
×± ×¨×Ł
Ġ×Ĳ×Ķ ×Ļ×ł×Ĵ
Ġ19 39
×ł×¦ ×¢×¨×ĺ
×ŀ×ķ ×¢×ĵ
Ġ×§×¨×Ĳ ×Ĳ×ĺ×Ļ×¢
Ġ×Ĺ×ª ×Ļ×ŀ×ķ×ª
Ġ×Ĳ×ķ×Ļ×¤×Ĵ ×¢×§
Ġ×¢×¦ ×ķ×Ŀ
Ġ×Ĳ×¤×Ĵ ×¢×ĳ×Ł
×¨×ŀ ×Ļ×ł×Ĵ
Ġ×¡×ĺ×Ĳ×ł×¦ ×Ļ×¢×¡
Ġ×Ĵ×¢×ķ×ķ×Ĳ×ľ×ĵ ×Ļ×§
Ġ×¢×¨×©×ĺ ×ł×¡
×¢×ķ×ķ×Ĳ ×ķ×Ļ×ł×ĺ
×ķ×Ļ×ŀ ×ĺ
ac ebook
Ġ×ľ×Ļ×Ļ×ĳ ×¨×¢×¨×Ļ
ur y
×ķ×ķ×Ļ×ĵ ×¢×Ĳ
Ġ×ľ×Ļ×ĳ×¢×¨ ×©×ĺ
Ġ×Ļ×Ĳ×Ķ ×¨×Ł
Ġ×¦×ķ×ĺ×¨×Ļ×ĺ ×ľ×¢×ļ
Ġ×Ĳ×Ļ×ł×ĺ×¢×¨×¡ ×Ļ×¨×ĺ
×ł×¢×¨×§ ×¢×ł×¢×Ł
Ġ×Ĵ×ł×ĳ ×Ļ×Ŀ
Ġ×¤×Ĳ×ĵ ×¢×¨×Ł
Ġ×ķ×ķ×Ļ×ł ×ĺ×Ł
Ġ×Ĳ×ķ×Ļ×¡×ł ×ķ×¦×Ł
Ġ×¢×ª ×Ļ×ĵ
×ķ×ķ×Ļ×ĳ ×Ĳ×ľ×ĵ
Ġ×¡×ĺ×Ļ×ŀ ×Ļ×Ĳ
Ġ×¤×Ĳ×¨×Ĳ×ķ×¨ ×ĸ
Ġ×ľ×¢×ŀ×ĳ×¢×¨ ×Ĵ
" !
t z
×ķ ×ķ×ĳ
×Ĳ× ł×Ķ
Ġ×¤ ×Ĳ×ļ
×ľ ×¢×Ĵ×Ł
Ġ×ŀ ×¢×¡×ĺ
Ġ×Ĵ ×²×Ł
Ġ×Ķ ×¢×ł×Ĵ×ĺ
Ġ×Ķ ×ĺ×ĺ×¤
×¤ ×Ļ×¢×ĺ
×ł ×ķ×Ľ×Ķ
×Ĳ×Ĵ ×Ĳ×Ł
Ġ×¤×¨ ×Ļ×Ļ×ŀ
×ł×ĺ ×Ļ×¨×Ł
×Ļ×¦ ×ľ
×ł×¡ ×ľ×Ĳ
×¦×ķ ×ķ×Ķ
×Ĳ×§×¢ ×Ļ
Ġ×ĳ×Ĳ×¨ ×Ĵ×Ł
×Ļ×Ĵ×¢×¨ ×Ķ×Ļ×Ļ×ĺ
Ġ×Ļ×© ×©×Ľ×¨
Ġ×ĸ×Ļ×Ļ×ĺ ×ľ
Ġ×¤×Ĳ×¨×ĺ ×¨×Ļ×ĳ×Ł
×ķ×ķ×Ļ×ĸ ×ł×Ļ×¥
ati ons
Ġ×§×Ĳ×ł ×ĺ×¢
ĠA d
Ġ×Ķ×Ĵ ×ĵ×Ķ
oo l
Ġ×¡×Ĳ×ĺ ×ŀ
×¢×ĵ×ĸ×© ×Ļ×Ĳ
ad a
Ġ×©×ł×¢×ľ ×§×Ļ×Ļ×ĺ
×ľ×¢×ł×ĵ ×Ļ×©×Ł
Ġ×¤×¨×Ĳ×Ĵ×¨ ×¢×ŀ×¡
Ġ×Ķ×ķ×Ļ×Ľ ×Ł
Ġ×ĳ×ĸ ×ŀ×Ł
ĠO ne
×ķ×¢×ľ ×ª
Ġ×ĳ×Ļ ×Ļ×Ļ×ł×Ĵ
Ġ×¤×¢×ľ ×ł×ĵ×Ļ×§
Ġ×ĺ×ķ×ł ×¢×¡
Ġ×Ĵ×ľ×¢×ł×¦ ×ł×ĵ×Ļ×§
×ľ×¢×¦×ĺ ×ł×¡
Ġ×ĸ×§ ×ł×Ļ×Ŀ
Ġ×§×Ļ×ĳ ×Ĳ×¨×ĵ
rop e
D F
T A
} }
×¨ ×Ĳ×Ľ×ĺ×Ł
Ġ×¤ ×¢×ŀ
×ľ ×Ļ×ĸ×Ŀ
Ġ×Ķ ×¢×¡×Ĳ
Ġ×§ ×ķ×ĺ
×¤ ×Ļ×Ļ×¢×¨
Ġ×© ×Ļ×ł×Ĳ
×Ķ ×Ļ×ķ×Ŀ
Ġ×Ļ ×ľ×ľ
Ġ×ľ ×Ļ×Ĵ×¢
Ġ×ĵ×¢×¨ ×¤×¨
Ġ×¢×¡ ×¢×Ł
×Ļ×Ĳ ×¡
Ġ×ª ×Ŀ
×ķ×¡ ×Ļ×Ĳ
Ġâ Ļ
Ġ×ŀ×© ×Ĵ×Ļ×Ĺ
Ġ×Ĳ×ł×Ĵ ×¢×§×ľ
Ġ×Ĵ×ľ ×Ļ×ķ×Ł
Ġ×©×ŀ ×¢×§
Ġ×ŀ×Ĺ ×ł×Ķ
Ġ×¤×Ļ×¨ ×ķ×©
Ġ×ĳ×¢×¨ ×Ĵ×ľ
Ġ×¤×Ĳ×¨×ĺ ×Ļ
×ł×¤ ×ľ×Ļ×§×ĺ
Ġ×ĳ×Ĳ×ĸ ×Ĳ×¨×Ĵ×ĺ
ĠS mart
ĠA r
×Ļ×ķ×ĺ×¢×¨ ×¡
×ŀ×ĳ ×Ļ×Ĳ
Ġ×ľ×ŀ ×ĵ×Ł
Ġ×ĳ×ª ×ķ×ļ
Ġ×Ĳ×ł×Ĵ×¢×¤ ×¨×¢×Ĵ×ĺ
Ġ×Ĳ×Ļ×Ļ×ł×Ĵ×¢×© ×ĺ
ook ing
Ġ×¤×¨×Ĳ×ĵ×ķ×§ ×¦×Ļ×¢
Ġ×Ĵ×ĳ×Ĳ ×Ļ×Ŀ
Ġ×Ĳ×ľ×¢×§×¡ ×Ĳ×ł×ĵ×¢×¨
Ġ×©×ĺ×Ĳ×ł×ĵ ×¤×ķ×ł×§×ĺ
×ķ×ł×¦ ×ķ×ķ×Ļ×ľ×ľ×¢
×Ļ ×Ļ×Ļ×©×Ĳ
×ĺ ×ĺ×ľ
Ġ×ĵ ×Ļ×ł×Ļ×Ŀ
×ľ ×¡×ĺ
×ľ ×ķ×¦×Ļ×¢
Ġ×ŀ ×Ļ×Ļ×¡
Ġ×ŀ ×Ļ×Ķ
Ġ×Ĵ ×Ļ×Ľ×Ł
Ġ×ĸ ×ľ
Ġ×ĸ ×Ĳ×§
Ġ×ĳ ×¢×ĳ
×© ×Ļ×¦×¢×¨
×¤ ×¢×ĺ
×¤ ×¤×Ļ×¡
×ĵ ×Ĳ×Ľ×ĺ
×ĵ ×Ļ×¦×Ļ×¢
Ġ×ł ×Ļ×ĳ
Ġ×¦ ×Ļ×Ĵ×ľ
×Ķ ×Ļ×Ļ×ľ
Ġ×ĺ ×¢×ĳ×ľ
Ġ×ľ ×Ļ×Ļ×ķ×ķ
×¢×ľ ×ĵ×Ļ×§
Ġ×¨ ×§
×Ľ ×Ĵ×Ļ×ľ×ĺ
×ķ×ŀ ×¨×Ļ×Ŀ
Ġ×Ĳ×ľ ×¢×¨×ľ×Ļ×Ļ
×Ĳ×ŀ ×¡
×Ĳ×¤ ×¡
×ĺ×¢ ×Ļ×ĺ
×ł×Ĵ ×Ķ×Ĳ
Ġ×Ĳ×Ļ×ĳ×¢×¨ ×Ĵ×¢×©
Ġ×©×ľ ×Ĺ×Ł
Ġ×Ĵ×¢×ĳ ×ľ
Ġ×¤×Ĳ×¨×ľ ×Ĳ×ł×Ĵ×Ł
Ġ×Ķ×ŀ ×ķ×¡
Ġ×©×ķ×ķ×¢×¨ ×Ļ×§×Ļ×Ļ×ĺ
Ġ×ŀ×ª ×Ĺ
Ġ×ĳ×Ĳ×ĺ ×Ļ×Ļ×ĺ×Ļ×§
16 0
×Ĵ×¢×Ĵ ×Ĳ
Ġ×ķ×ķ×Ļ×Ľ×ĺ×Ļ×Ĵ ×§×Ļ×Ļ×ĺ
Ġ×ķ×ķ×Ĳ×ķ×ł×ĵ×¢×¨ ×ľ×Ļ×Ľ×¢
Ð½ Ð°
Ġv iew
Ġ×§×¨×Ļ×ĺ×Ļ×§ ×Ļ×¨×ĺ
ĠBen efits
×ª×ľ×§ ×ķ×ª
Ġ×Ĳ×ķ×Ļ×¤×Ķ ×Ļ×Ļ×ĳ×Ł
Ġ×ŀ×Ĳ×ł×Ĵ ×ľ
Ġ×Ļ×ł×ķ×ķ×¢×¡ ×ŀ×Ĳ
Ġ×ľ×¢×© ×ķ×ª
×Ľ×Ĳ×¤ ×¦×¢×Ŀ
Ġ×ĸ×ķ×ŀ ×ŀ×¢×¨
Ġ×ķ×ķ×Ļ×¨×ĵ×ĸ×© ×Ļ×ł×Ļ×¢
l l
Ġ×Ĳ ×¡×ĺ
×ĺ ×Ļ×§×¢
×¢×¨ ×ĺ×Ł
Ġ×¤ ×Ĳ×ł×Ļ
Ġ×¤ ×Ļ×Ķ×ľ
×ľ ×Ĳ×Ŀ
Ġ×ķ ×Ĳ×Ĺ
×¡ ×ķ×¤
Ġ×Ķ ×Ļ×Ĵ×Ķ
Ġ×§ ×¢×¨×Ł
×© ×ķ×¨
×¤ ×Ļ×ł×Ĵ
×ĳ ×ĸ×Ĳ
Ġ×© ×Ĳ×¥
×ŀ ×Ļ×Ķ
×ķ×ķ ×Ĳ×ľ×ĵ
×Ķ ×¢×ŀ
Ġ×¨ ×Ļ×§×Ł
×¢×ĺ ×Ļ×©×¢
×Ļ×¡ ×¢×Ł
×Ļ×Ļ×¢ ×ĺ×Ļ
×¢×ĵ ×¢×§×ĺ
Ġ×Ľ ×ķ×ĸ
×Ĳ×¤ ×Ļ
×ľ×Ĳ ×ķ
×ķ×§ ×¢×Ł
Ġ×Ĵ×¢×© ×ĺ×¨
×ł×¡ ×Ļ×ł×Ĵ
Ġ×§×ľ ×¢×¨×ĺ
×¨×§ ×¢
Ġ×ŀ×Ĺ ×ĵ×©
×ŀ×¡ ×ª
Ġ×Ĳ×¨×Ļ×Ļ×ł×Ĵ ×¢×¨
ĠS lot
Ġ×¤×¡ ×Ļ×Ľ×Ĳ×ľ
Ġ9 5
Ġ×Ĳ×¤×Ĵ ×¢×ĺ×Ļ×Ļ×ľ×ĺ
Ġ×¤×Ĳ×¨×ĳ ×Ļ×Ļ
Ġ×Ĳ×Ĵ ×¢×ł×ĺ
Ġ×ĳ×ª ×ķ×¨×Ķ
Ġ×ľ×¢×Ĵ ×¡
Ġ×ľ×¢×Ĵ ×Ļ×ĺ
Ġ×Ľ×Ķ ×Ļ×ķ×Ŀ
×¢×ŀ×¡ ×Ĳ×ł×Ĵ
Ġ×ŀ×Ĳ×© ×§×¢
Ġ×ľ×Ĳ×ĺ ×Ļ×Ļ×Ł
ĠÃ Ĺ
×ķ×ķ×Ļ×¢ ×ĺ
Ġ×©×¤×Ĳ×¦ ×Ļ×¨
×¨×ĺ×Ļ×Ļ×ĵ ×Ļ×§×ķ×ł×Ĵ
Ġ×ĳ×Ĳ×ķ×ķ×Ļ×ľ ×Ļ×§×ĺ
Ġ !!!
×Ĳ ×Ļ×ł×¤
×ĺ ×Ļ×Ļ×ĺ
×ĺ ×¢×ŀ
×¨ ×Ľ×Ĳ
Ġ×¤ ×Ļ×Ļ×ł×¢×¨
×ľ ×ķ×¡×ĺ
Ġ×ķ×ķ ×Ĳ×ĵ
Ġ×ķ×ķ ×Ļ×Ļ×¤
Ġ×Ĵ ×ķ×¤×Ĳ
Ġ×Ķ ×Ľ×¨
Ġ×Ķ ×Ľ×Ļ
Ġ×§ ×Ĳ×Ľ×ĺ
×ĵ ×Ļ×¡×ĺ
Ġ×¦ ×¢×ľ×Ł
×Ķ ×Ļ×Ļ×ĳ×ĺ
Ġ×ĺ ×Ĳ×¨×Ł
Ġ×Ļ ×ł×ĵ×Ļ×§
Ġ×Ļ ×Ļ×ķ×ķ×Ļ×Ļ×Ļ×©×Ĳ
×Ĵ ×ķ×ľ
Ġ×©×ĺ ×Ļ×ĳ×¢×¨
Ġ×ķ×ķ×¢×ľ ×ķ×ķ×ľ
Ġ×Ĳ×¤ ×ľ×Ļ×§
Ġ×Ĳ×¤ ×¨×Ļ×§×Ĳ×ł×¢×¨
Ġ×Ĵ×¢×© ×Ĳ×¦×ĺ
×¨×ĳ ×Ļ×ł×ĵ×ķ×ł×Ĵ
×Ĳ×Ľ×ĺ ×ķ×ł×Ĵ
Ġ×Ĳ×ķ×Ļ×¤ ×Ĵ×¢×©×ĺ×Ĳ×ł×¢×Ł
Ġ×ķ×ķ×¢×ľ×ĺ ×ľ×Ļ×Ľ×¢
×ŀ×© ×ł×Ķ
Ġ×Ĳ×ĳ ×ľ
Ġ×ĳ×Ĳ×¨ ×Ļ×Ľ×ķ×ª
Ġ×¤×Ĳ×¨×© ×ľ×Ĳ×Ĵ
or k
Ġ×Ľ×ľ ×¤×Ļ
×ľ×ĵ ×¢×Ł
×©×ľ ×Ĳ×Ĵ×Ł
Ġ×§×Ĳ×¤ ×ľ
Ġ×§×Ĳ×¤ ×Ļ×ĺ×ľ
Ġ×¤×Ĳ×¡ ×§
×ĺ×ķ ×¢×Ł
×Ļ×ĵ×ĸ×© ×Ļ×ł×Ĵ
ĠE u
Ġ×ŀ×Ĵ ×ķ×ľ
13 0
×Ĳ×§×¡ ×¢×ł×¢
×ķ×Ļ×Ĵ ×¢×¨
Ġ×Ķ×¨ ×Ĺ
Ġ×Ĺ×ĳ ×ķ×¨×Ķ
Ġ×¨×Ĳ×ĵ ×Ļ×§
Ġ×ł×¢×ĳ ×¢×Ľ
×ķ×¨×¡ ×Ŀ
Ġ×©×Ĳ×¨ ×¤
Ġ×Ĳ×ľ×ĳ ×ķ×Ŀ
Ġ×Ĳ×Ļ×¦ ×Ļ×§
Ġ×ľ×Ļ×ķ×ĳ×Ĳ ×ķ×ķ×Ļ×ĺ×©
ĠMan ufacture
Ġ×ĸ×¢×ľ×ĳ×¡×ĺ×©×ĺ×¢×ł×ĵ×Ļ×§ ×Ļ×Ļ
c y
e e
r ist
Ġ esp
Ġ×Ĳ ×ł×ĳ
Ġ×Ķ ×ł×Ĵ
Ġ×ĳ ×¢×ł×ĵ×¢×¨
Ġ×§ ×Ļ×ľ×Ĳ
Ġ×ł ×ķ×Ł
×ĳ ×¢×¡×ĺ×¢×¨
Ġ×© ×Ļ×ł×ķ
Ġ×¢ ×©×Ķ
Ġ×ĺ ×ķ×Ļ
Ġ×Ļ ×¢×ł×§×ľ
×Ļ×¨ ×Ļ×ł×Ĵ
×Ļ×Ļ×ĺ ×¢×¨×ĺ
×¨×Ļ×Ļ× ķ
Ġ×Ĳ×ķ×Ļ×¡ ×ľ×¢×ł×ĵ×Ļ×©×¢
×ŀ×Ĳ ×ķ×¨
×ķ×ķ×Ĳ ×ķ×Ļ×¨×Ł
Ġ×§×ľ ×Ĳ×Ĵ×¢×¡
Ġ×Ĵ×Ĳ×¨ ×¢×¨
Ġ×ŀ×¦ ×¨×Ļ×Ļ×Ŀ
Ġ×§×Ĳ×ŀ×¤ ×ľ
×ķ×ķ×Ļ×ľ ×Ł
Ġ×¤×¢×¨ ×ĺ×¢
Ġ×ĳ×Ĳ×ĺ ×Ļ×ĺ
Ġ×ķ×Ļ×¡ ×©×ľ×Ļ×¡×Ļ×§
×¤×Ļ×ľ ×ĵ
Ġ×ŀ×¢×ĺ ×¨×Ĳ
Ġ×Ļ×ł×¡ ×¤
×ķ×Ļ×Ĵ ×¢×Ł
Ġ×ķ×ķ×Ļ×§ ×Ļ
Ġ×ŀ×ĵ×¨ ×Ļ×Ĵ×Ķ
Ġ×ĵ×Ĳ×¨×¤ ×¢×Ł
×Ĵ×¢×ĺ ×¨×Ĳ
Ġ×ķ×ķ×Ĳ×§×¡ ×Ļ×Ł
Ġ×¤×ķ×ĳ×ľ×Ļ×§ ×Ĳ×¦×Ļ×¢
×¨×ĺ×© ×Ļ×ķ
Ġ×¡×¢×§×¡ ×Ļ
Ġ×ķ×ł ×Ļ×ķ×¡
Ġ×¨×ķ×Ļ×ŀ ×Ļ×©×¢
Ġ×ĵ×Ĳ×ķ×ł×ľ×Ĳ×ķ×ĵ ×Ł
Ġ×ĺ×Ĳ×Ķ ×©
U TC
d irect
n ey
w ard
y le
×ķ ×¢×ľ×Ĳ
Ġ×Ĳ ×ķ×ĸ
×¢×¨ ×ĺ×¢
Ġ×¤ ×Ļ×ł×ĺ×ľ
×ľ ×Ļ×©×¢×¨
Ġ×§ ×ĳ×¨×Ļ×Ŀ
×ĸ ×ķ×ł×Ĵ
×§ ×¢×¡×ĺ
×Ķ ×¨×Ł
Ġ×ľ ×Ļ×ŀ×Ĳ
Ġ×¡ ×¢×Ļ×ľ×¡
Ġ×¨ ×Ļ×Ļ×¡×Ł
×¢×¡ ×¢×ł×¢
Ġ×¤×Ĳ×¨ ×ŀ×¢×¡×ĺ×Ł
×¦ ×Ļ×Ł
×Ļ×ĵ ×Ļ
×ķ×ł ×Ļ×Ĳ
Ġ×Ĳ×ķ×Ļ×¤ ×Ĳ×Ļ×Ļ×ł×ŀ×Ĳ×ľ
×ĳ×¨ ×¢×ĺ
Ġ×©×ŀ ×ķ×ł×Ķ
×¨×© ×²
re c
Ġ×ł×Ĳ×Ľ ×Ĵ×¢×¤
Ġ×ĵ×ĸ×© ×Ļ×Ŀ
Ġ×¨×¢×Ĵ ×ķ×ľ×Ĳ×¦×Ļ×¢×¡
Ġ×Ĳ×ł×ĺ ×©×ľ
Ġ×Ĳ×ĺ ×Ĳ×ŀ×Ĳ×ĺ×Ļ×©
×ĵ×© ×Ļ×¨
Ġ×Ķ×© ×¢×¨
Ġ×ķ×ķ×Ĳ×¨ ×Ļ×ŀ×¢
Ġ×Ķ×Ļ×Ļ×ľ ×Ļ×§×¢
Ġ×ĳ×Ĳ×©×ĺ ×Ļ×Ļ×Ł
Ġs o
Ġ×Ķ×Ļ×¡×ĺ×Ĳ×¨ ×Ļ×§×¢×¨
Ġ×¤×¨×Ĳ ×ķ×ķ×¢×Ł
Ġ×ķ×ķ×Ĳ×ľ ×§
Ġ×ŀ×Ĵ ×Ļ×ĳ
Ġ×§×¢×¨ ×Ļ
ãģ ®
Ġ×Ĳ×¤×Ļ×¦ ×Ļ×¨×Ł
ph one
×ł×Ĵ×¢×© ×ĺ×¢×ľ×ĺ×¢×¨
Ġ×§×Ĳ×ł×¤ ×¨
×ľ×ĺ×¢×¨ ×ł×Ĳ
×Ĳ×ķ×ł×ĸ ×¢×¨×¢
×¡×ŀ ×Ĳ×¨×ĺ
Ġ×¨×Ļ×ĳ ×ł×Ļ×¦×¢×¨
Ġ×¦×ķ×Ķ ×¢×¨×¢×¨
Ġ×©×ĺ×¨×Ļ×Ļ×ŀ ×ľ
Ġ×Ĵ×¢×Ĳ×Ļ×Ļ×Ĵ ×ł×ĺ
Ġ×¤×ķ×ł×ĵ×¨×ķ×Ļ×¡ ×ł×ĵ×Ļ×§
i el
Ġ×ĵ ×¦×¨×Ļ×ļ
×ľ ×¢×¤×Ł
Ġ×Ķ ×ķ×ł×¦×ķ×ķ×Ļ×ľ×ľ×¢
Ġ×§ ×ķ×ĸ
×ŀ ×Ļ×¡×ĺ
×ķ×ķ ×Ļ×Ļ×ł
×Ļ×ĺ ×Ļ×ĵ
Ġ×Ļ ×¡×¤
×Ļ×ł ×ķ×Ļ
×Ļ×Ľ ×Ĳ
×ķ×¡ ×Ł
×ķ×§ ×Ļ×¡×Ļ×ĸ
Ġ×Ĳ×ķ×Ļ×¤ ×©×ĺ×Ļ×Ļ×Ł
Ġ×ĵ×¨ ×Ļ×ł×Ĵ
Ġ×Ĳ×Ļ×ĵ ×Ļ×Ļ×¢×Ł
Ġ×Ĵ×ľ ×Ļ×ĺ
Ġ×ĵ×ĸ×© ×ķ×¨×ł×Ĳ×ľ
Ġ×©×ķ×ķ ×Ļ×Ļ×¦
Ġ×¢×§ ×Ĳ×ł
Ġ×ĵ×¢×ŀ ×Ĳ×ľ×¡×ĺ
Ġ×ŀ×¢ ×Ļ×Ĳ×¨
Ġ×ŀ×Ķ ×ł×Ķ
ĠF M
Ġ×Ĳ×Ļ×Ļ×Ĵ ×¢×ł×ĺ
Ġ×ĳ×©×¢×ª ×Ł
Ġ×Ĵ×¨×Ļ×ł×Ĵ ×¢
Ġ×ĳ×Ĳ×ľ ×Ĳ×ł×¡
Ġ×¤×Ĳ×ľ×Ļ×ĺ ×Ļ×©×¢×¨
Ġ×¤×Ĳ×§×ĺ ×Ļ×©×¢
×ľ×ķ ×ķ×ĸ
Ġ×¢×¨×ĳ ×ķ×ª
Ġ×ĳ×Ĳ×©×ľ ×Ļ×¡×Ł
Ġ×ĳ×Ļ×¨×Ĵ×¢×¨ ×ŀ×Ļ×Ļ×¡×ĺ×¢×¨
Ġ×¦×¤ ×ª
Ġ×¤×Ĳ×¨×¨ ×¢×Ľ×ł×ĺ
Ġ×¢×ľ×¢×Ĵ ×Ĳ×ł×ĺ
Ġ×§×ķ×ŀ×¢×ł×ĵ ×Ļ×§×¢
Ġ×¤×Ĳ×ĳ ×¨×Ļ×§
Ġ×°×¢×¨ ×ĺ×¢×¨
Ġ×¨×¢×¤×Ĳ×¨ ×Ŀ
Ġ×Ĳ×ķ×Ļ×¡×Ĵ×¢×ķ×ķ ×Ĳ×§×¡×Ł
Ġ×¤×ľ×Ļ×ĺ ×Ļ×Ŀ
Ġ×ľ×Ļ×¨ ×Ļ×©×Ł
Ġ×ķ×ķ×Ĳ×ķ×ł×ĵ ×¢×¨×©
Ġ×¤×¨×Ļ×¢×ĵ ×ŀ×Ĳ×Ł
Ġ×Ļ×Ļ×ĳ×¢×¨ ×¤×ľ×Ĳ
riend s
×¨×©×¨ ×ķ×ĺ
t r
×Ĳ ×Ļ×©×¢
×¢×¨ ×Ļ×Ĳ×ľ
Ġ×ĵ ×Ĳ×ŀ×¢
×ľ ×¢×§
Ġ×ķ ×ķ×Ķ
Ġ×ŀ ×¨×ķ×ĳ
Ġ×ķ×ķ ×Ļ×Ļ×¥
Ġ×ĸ ×¢×ŀ
×ĵ ×¢×ª
Ġ×Ļ ×¢×ĸ
×Ĵ ×Ŀ
×Ĵ ×Ļ×©×¢×¨
Ġ×¡ ×¢×ĸ×Ĳ×Ł
×¢×ľ ×Ļ×¨×Ł
×Ļ×§ ×ľ×¢×ļ
×Ļ×¨ ×¢×¡
Ġ×¤×Ĳ×¨ ×ĵ×¨×Ļ×Ļ×¢×Ł
Ġ×¢×¨ ×ľ×¢×ļ
Ġ×ª ×Ļ×ĳ×ķ×ª
×ł×Ĵ ×Ł
Ġ×Ĵ×¢×ĸ ×¢×¦×ĺ
×ł×Ķ ×ĵ×¨×Ļ×Ł
Ġ×©×ľ ×Ļ×¡×Ł
Ġ×©×ŀ ×Ĳ×ľ
Ġ×Ĳ×ķ×ŀ ×ķ×ķ×Ļ×¡
Ġ×ĳ×Ĳ×§ ×Ĳ×ł×ĺ×Ł
×¢×ł×§ ×Ļ×Ļ×ĺ
Ġ×Ĳ×ķ×ł×ĺ×¢×¨ ×Ĵ×¢×©
Ġ19 80
Ġ×¤×Ĳ×¨×© ×ķ×ķ×Ļ×ł×ĵ
Ġ×ĳ×© ×ķ×ª
Ġ×ĳ×¢×¨ ×Ĵ×¢×¨
Ġ×ĳ×Ĳ×ĸ ×Ļ×Ĵ×ĺ
×©×¢ ×ķ×ķ×§×¢×¡
Ġ×¤×¡ ×§×¡×ł×ķ×ŀ×§×¡
Ġa g
Ġp ur
Ġw rit
Ġ×ĳ×Ĳ×ĺ ×Ĳ×ł×¢×Ł
Ġ×¡×¢×§ ×ĺ×Ĳ
×Ļ×Ļ×ł×§ ×Ļ×Ļ
Ġg oogle
×ķ×ķ×Ĳ×§ ×¡×Ł
×¤×¢ ×Ļ×¡×ĳ×ķ×§
Ġ×ķ×ķ×Ļ×ľ×Ļ×Ĳ ×Ŀ
Ġ×Ĵ×ľ×Ļ×Ļ×Ľ ×¢
Ġ×Ļ×ª ×ĳ×¨×ļ
Ġ×Ĵ×¢×¨×ķ×¤ ×¢×Ł
ak e
Ġ×Ķ×Ļ×ł×ĵ ×¢×¨×ĺ
×Ĳ×ł×Ļ×¡ ×ĺ×Ĳ×Ł
Ġ×§×ķ×Ļ×ľ ×¢×ľ×ĵ×Ļ×§
Ġ×Ĵ×Ļ×ľ×ĺ ×Ļ×§
Ġ×§×Ĳ×ł×¡×¢×¨×ķ×ķ ×Ĳ×ĺ
Ġ×¢×ľ×ĺ ×¡×ĺ×¢
Ġ×Ķ×¢×ł×Ĵ ×Ĳ
Ġ×¤ ×ł×Ļ
Ġ×Ĵ ï¬®
Ġ×ĸ ×ĸ
×Ĳ×¨ ×¢×¨
Ġ×ł ×Ĳ×¦×Ļ×Ĳ×ł×Ĳ×ľ
Ġ×¢ ×Ĵ×Ĳ
×ł ×Ļ×Ł
×ł ×¢×ŀ×¢×¨
×§ ×Ļ×©×¢
×ķ×ķ ×¢×ľ×¢
×Ļ×ĺ ×ª
×Ķ ×¢×¨×©
×Ĳ×ľ ×Ļ×ĺ×¢×ĺ
Ġ×Ĳ×ĸ ×ķ×Ļ×ł×¡
×Ļ×¡ ×¢×ł×¢
Ġ×ķ×ķ×Ĳ×¡ ×¢×¨×Ł
×Ļ×ĵ ×ķ×ª
Ġ×¤×¨ ×ķ×Ŀ
Ġ×§×Ĳ ×Ĳ×¤×¢×¨
×ķ×¡ ×Ļ×ķ×ķ
×ł×Ĵ ×¢×Ķ
Ġ×ĺ×¨ ×¢×ĺ
×Ĳ×ł×ĵ ×ĸ×©
×ł×§ ×¢×¨
Ġ×ĵ×ĸ×© ×Ķ×ķ×ķ×Ķ
at er
Ġ×ŀ×ĵ ×Ĳ×¨×£
Ġ×ľ×Ļ×ĳ ×Ļ×¢
×§×¨ ×Ļ×Ĵ×Ł
ĠA f
Ġ×Ĵ×¢×¦ ×Ļ×Ļ×Ĵ
Ġ×Ĺ×Ľ ×ŀ×ª
ĠÐ º
×Ĵ×¢×¤ ×Ĳ×ľ×Ł
×¢×¨×ĸ×¢×ł ×ľ×¢×Ľ×§×Ļ×Ļ×ĺ
Ġ×¤×Ĳ×¨×ĵ ×¢×Ľ×ĺ
ĠI P
ãģ ¦
Ġ×ł×¡ ×Ļ×ķ×ł×ķ×ª
×ķ×§×¨ ×¢×Ľ×ĺ
Ġ×Ļ×ł ×ľ×¢×ł×ĵ×Ļ×©
Ġ×ľ×¢×ł×Ĵ ×Ĳ×ķ×Ļ×¡
Ġ×ŀ×Ĳ×ĺ ×Ĳ×¨
lo g
Ġ×Ķ×ł×Ķ ×Ĵ×Ķ
ł×ł ×¢×ŀ×¢×Ł
Ġ×¤×¢×Ĳ ×Ļ×§
Ġ×Ĳ×ł×Ĵ×¢×Ķ ×ķ×Ļ×ĳ×¢×Ł
Ġ×ķ×ķ×ĳ ×¢×ĺ
×¨×ķ×Ĳ ×ķ×ķ
Ġ×¤×¨×¢×¡×ĺ ×Ļ×ĸ×©×¤
Ġ×ŀ×Ĳ×§×¡ ×Ļ×ŀ×ķ×Ŀ
Ġ×§×¢×ĺ ×¡×§
Ġ×ŀ×Ĵ×ķ×ľ ×Ĵ×ľ
I S
c k
Ã ¼
Ġ Ö¼
Ġ×Ĳ×Ļ× Ľ
×ķ×Ł ×¤×Ĳ
×ĳ ×ĳ
Ġ×¢ ×Ļ×§
×ŀ ×¢×§×¡
×§ ×ķ×ľ×Ĳ
×¢×ł ×Ĳ×¨×ĺ
×Ķ ×¨×Ĵ
×Ĵ ×ĳ
Ġ×ľ ×Ļ×ľ×Ļ×¢
Ġ×¤×Ĳ×¨ ×Ĳ×ĵ
×ĺ×¢×¨ ×ŀ×Ļ×Ł
Ġ×©×ĺ ×¢×Ľ
Ġ×¤×¨ ×Ļ×¦
×ĺ×¢ ×Ļ×Ł
Ġ×ª ×¨×Ĵ×ķ×Ŀ
×Ļ×ŀ ×¢×ĺ×¢×¨
×¨×ĳ ×¡×ĺ
Ġ×Ĳ×ķ×Ļ×¤ ×ķ×ķ×Ļ×Ļ×ĸ×Ł
×¨×ĺ ×Ļ×Ŀ
×ķ×ķ×¢×¨ ×Ļ×ł×Ĵ
Ġ×ĳ×Ļ×ľ ×Ļ×§
on f
ĠÂ °
×¢×ł×§ ×ĺ
Ġ×ŀ×Ļ×ł ×Ļ×ł×Ĵ
Ġ×ŀ×¡ ×Ļ×¨×ª
×§×ľ ×Ļ×Ļ×Ł
×Ĵ×¢×¨ ×Ļ×ł×Ĵ
Ġ×Ķ×ŀ ×¢×©×Ķ
Ġ×§×Ĳ×ŀ ×Ļ×ķ×ł×Ļ×ĺ×Ļ
Ġ×ķ×Ľ ×ļ
×¨×¡ ×¢×¡
Ġ×Ĳ×² ×Ĵ
Ġ×¤×¨×Ļ×Ļ×ł×ĺ ×©×Ĳ×¤×ĺ
Ġ×ľ×ŀ ×Ĺ
Ġ×¨×© ×Ļ×ŀ×ķ×ª
Ġ×§×Ĳ×ł×ĺ ×Ļ×ł×¢×ł×ĺ
×¡×¢×¡ ×¢×¨
Ġ194 0
Ġ×Ļ×¢×¨ ×ľ×Ļ×Ľ×¢
Ġ×ĺ×¨×Ļ×Ļ×ĵ ×¢×¨×ĸ
×Ĵ×¨×¢×¡ ×Ļ×ķ×ķ
Ġ×©×ķ×ĺ ×Ķ
Ġ×¨×Ĳ×§ ×¢×ĺ×Ł
** *
Ġ×ŀ×ķ×¡×§×ľ ×ĳ×Ĳ
Ġ×¤×Ļ×ł×Ĳ×ł×¦ ×Ļ×¢×ľ×¢
Ġ×ŀ×¤×¨×© ×Ļ×Ŀ
Ġ×¨×ĵ×Ļ×¤ ×ķ×ª
i o
p BB
Ð ¶
å ®
×¢×¨ ×ķ×ł×Ĵ
×ľ ×Ļ×ľ×Ĳ
Ġ×ŀ ×ŀ×Ĳ
Ġ×ĳ ×ķ×Ļ×ĺ
Ġ×ĳ ×¢×¡×ĺ
Ġ×ĳ ×ĳ×Ĺ
×ĵ ×Ļ×¢×¡
Ġ×ł ×ĺ
Ġ×© ×ķ×©×Ł
×ł ×ķ×ķ×Ļ×Ļ
Ġ×ľ ×ķ×Ļ×Ł
Ġ×¡ ×ķ×¦×§
×Ļ×§ ×ķ×ľ×Ĳ
×¢×ĺ ×ľ×¢×ļ
Ġ×Ľ ×¨×Ĳ
Ġ×ª ×¨×¤
×ķ×¡ ×§×Ļ×Ŀ
Ġ×ĳ×¨ ×Ļ×§×Ł
×¢×© ×ķ
Ġ×§×ľ ×Ļ×Ļ×ł
×¨×ĺ ×ľ×¢×Ľ×§×Ļ×Ļ×ĺ
×ĳ×¨ ×¢×ł×Ĵ×ĺ
Ġ×¡×ĺ ×Ĳ×ĳ×Ļ×ľ
×§×ĺ ×Ļ×ł×Ĵ
Ġ×Ĵ×¢×ĳ ×ľ×Ļ×ĳ
×ľ×¢×¨ ×ł×ĺ
Ġ×ĵ×ĸ×© ×¢×ł×ĵ×¢×¨
Ġ×ĺ×¢×§×¡ ×¢×¡
Ġ×¨×¢×Ĵ ×ķ×ľ×Ļ×¨×Ł
×ķ×ķ×¢ ×Ļ×¨
Ġ×Ĳ×¤×Ĵ ×¢×ĺ
Ġ×Ĳ×Ļ×Ļ×ł×¦ ×Ļ×Ĵ×¢×¨
×ľ×Ļ×ĺ ×ķ×ķ×Ĳ×§
×ĺ×¢×ľ ×¢×¤
26 8
Ġ×©×ķ×ķ×Ĳ×¨ ×¦×Ł
×Ļ×Ļ×ķ ×ķ×ľ
Ġ×Ľ×Ķ ×ł×Ĳ
Ġ×¨×Ĳ×ĺ ×¢×¡
Ġ×¨×Ĳ×ĺ ×Ĵ×¢×ĳ×¢×¨
Ġ×¤×¨×Ĳ×ł×¦×ķ×Ļ×ĸ ×Ļ×©×¢×¨
×ķ×ķ×Ĳ×ľ ×Ļ×¢×¡
Ġ194 5
Ġ×Ĺ×ł ×ķ×Ľ
Ġ×©×¢×¤ ×¢×ľ×¢
Ġ×ŀ×Ĳ×ĵ×¢×¨ ×ł×¢×¨
Ġ×Ĵ×¢×¤×ľ ×ķ×Ļ×Ĵ×Ł
Ġ×©×Ļ×ľ ×ĵ×¢×¨×ĺ
Ġ×¤×¢×¨×ĺ ×Ļ×ľ
×ľ×ķ×¦ ×¢×Ŀ
Ġ×ŀ×Ļ×Ļ×ĸ ×ľ
×¡×Ļ×ľ ×Ļ×ĺ×Ļ×¢×¡
Ġ×ł×Ķ ×ł×Ķ
Ġ×¨×Ļ×Ļ×ł ×Ļ×Ĵ×Ł
Ġ×Ļ×ķ×ľ ×Ļ×Ĳ×ł×Ļ×©×Ł
Ġ×ĵ×Ĺ ×¤×Ļ×Ł
a w
×¨ ×¦×Ł
×ľ ×Ĳ×¤×Ł
×ľ ×Ļ×Ļ×§
Ġ×ŀ ×ĺ×©
Ġ×ŀ ×ķ×ŀ×¢
Ġ×ĸ ×Ļ×Ļ×ł×¢×¨
Ġ×Ķ ×Ļ×ĺ×ľ
×ĵ ×Ļ×Ļ×ĺ×Ļ×ł×Ĵ
×ĳ ×¢×ľ×¢
×Ķ ×ª
Ġ×¤×Ĳ×¨ ×ŀ×¢×¨
×Ļ×Ļ×ĺ ×¢×ĵ
×¦ ×¢×ł×ĵ×ľ
Ġ×¢×¡ ×ĺ×¢×Ļ×ĺ
×ª ×¨×¢
Ġ×ĵ×Ĳ ×ķ×¨×Ļ×Ļ×ª×Ĳ
Ġ×ķ×ķ×Ĳ ×ķ×ł×ĵ×Ł
Ġ×Ĵ×¨ ×Ļ×ł×¡
×Ļ×¦ ×Ļ×¤
Ġ×ĳ×¨ ×ķ×¨×Ķ
Ġ×ĳ×¨ ×Ľ×ª
Ġ×ĺ×¨ ×Ļ×Ļ×¢
Ġ×Ĳ×ŀ ×¨×Ļ
Ġ×Ĵ×¢×Ķ ×ķ×Ļ×ĳ×Ł
Ġ×Ĵ×¢×¤ ×¢×ľ×Ł
Ġ×ĵ×¨ ×©
Ġ×Ĵ×¢×ľ ×¢
Ġ×©×ľ ×¢×¤×ĺ
Ġ×¡×Ĳ ×ķ×ķ×¢×ĺ×Ł
Ġ×Ĵ×Ĳ×¨ ×Ĳ×ł×ĺ
Ġ×Ĳ×¨×ĺ ×Ļ×Ĵ×¢
Ġ×ĳ×Ĺ ×Ļ×¨×Ķ
Ġ×ķ×ķ×Ĳ×¨ ×¢×ŀ×¢
Ġ×ĳ×Ĳ×ŀ ×ĳ×¢
Ġ×Ĳ×¨×ķ×Ļ×¡×Ĵ ×¢×¤×Ĳ×¨×Ł
Ġ×ŀ×Ĳ×ĵ ×¢×¨×Ł
ĠM a
Ġ×Ĳ×Ļ×Ļ×ł×Ĵ ×¢×ĺ×Ļ×Ļ×ľ×ĺ
Ġ×Ĳ×Ļ×Ļ×ł×© ×ĺ×Ļ×Ļ×Ł
Ġ×ľ×ŀ ×ĵ
×Ļ×Ļ×¨ ×Ĳ
×¤×Ļ×ľ ×Ŀ
Ġ×Ĵ×¢×ĳ×¨ ×¢×ł×ĺ
14 0
Ġ×ŀ×ĸ ×ķ×ĸ×Ķ
Ġ×ĺ×ķ×¨ ×Ļ×¡×ĺ×Ł
×©×ŀ ×¢×ľ
Ð½ Ð¾
Ġ×ĳ×Ĳ×Ĵ×¨ ×Ļ×¡×Ł
Ġ×¦×Ļ×ŀ ×¢×¨×Ł
Ġ×ķ×ķ×Ļ×¨×ĺ ×©×Ĳ×¤×ĺ
Ġ×¤×Ļ×§ ×ĺ×©×¢×¨
Ġ×ĸ×Ľ ×Ļ×Ķ
Ġ×ŀ×©×ķ×Ĵ ×¢×ł×¢×¨
Ġ×ĵ×Ĳ×ł ×¢×ľ×ĵ
Ġ×ŀ×Ĳ×Ĵ×Ĳ×ĸ ×Ļ×ł×¢×Ł
Ġ×ľ×ķ×ŀ ×ĵ×Ļ×Ŀ
Ġ×Ĳ×¤×Ĵ×¢×¤ ×¨×¢×Ĵ×ĺ
ĠGre en
Ġ×ĳ×Ĳ×¨×Ļ×ŀ ×ĺ×¢×¨
Ġ×ł×¢×§×¡ ×ĺ×Ł
×ĵ×ķ×ķ ×¢×ł×ĺ×©
Ġ×ł×Ĳ×¨×ķ×ķ×¢×Ĵ ×Ļ×¢
Ø ª
×ķ ×Ļ×Ļ×Ŀ
×Ĳ ×ķ×Ķ
×ĺ ×¢×§×¡
×¨ ×Ĳ×ł×Ĵ
Ġ×ĵ ×¢×ł×ĺ
×ľ ×Ĳ×¦×Ļ×¢
Ġ×ŀ ×ķ×ł
×¡ ×¢×ŀ
×ķ×Ļ× ķ×ķ
Ġ×Ķ ×¢×¡×§×¢×Ŀ
Ġ×ĳ ×ķ×¡×ĺ
Ġ×§ ×ĵ×Ļ×©×Ĳ
×¤ ×¨×§
Ġ×ĵ×¢×¨ ×ľ×Ĳ
×Ļ×Ļ×¢ ×ł×ĵ×¢
×Ļ×ł ×Ļ×¦×Ļ×¢
Ġ×Ĺ ×Ĵ
×Ļ×Ļ×ľ ×Ĳ
Ġ×ª ×ł×ķ
×¡×ĺ ×Ĳ×Ĵ
×¡×ĺ ×¢×ļ
×ķ×§ ×Ļ
×Ļ×ŀ ×ľ×¢×ļ
Ġ×ĺ×¨ ×Ļ×Ļ
×Ļ×ķ×ķ ×¢×¨×ĸ
Ġ×¡×¤ ×¨×Ĳ
Ġ×Ĳ×ł×Ĵ ×¢×§
Ġ×Ĳ×ķ×ŀ ×¦
×¨×© ×Ķ
Ġ×Ĵ×¢×ŀ ×¢×ľ
Ġ×ĺ×© ×¢×¡×ĺ×¢×¨
×¤×Ĳ×¨ ×ŀ
Ġ3 65
Ġ×ĳ×Ĳ×¨ ×Ļ×Ļ×Ľ
Ġ×ĳ×Ĳ×¨ ×Ļ×ŀ×ĺ
Ġ×Ĳ×Ķ ×¨
Ġ×Ĳ×ĵ ×Ĳ×ł×§
Ġ×¢×ł ×Ļ×Ļ×ĳ×Ĳ
×Ļ×Ĺ ×ķ×ª
ĠÙ ģ
Ġ×¢×§×¡ ×¤×¨×¢×¡
Ġ×Ĳ×Ļ×ł×ĵ ×¢×§×¡
×ĳ×ķ×¨ ×Ļ
Ġ×ľ×Ĳ×ł×ĵ ×¡
Ġ×Ĳ×ķ×Ļ×¤×Ĵ ×¢×ĳ×Ł
Ġ×Ĳ×¤×Ĵ ×¢×§×ķ×Ļ×¤×ĺ
Ġm ix
Ġ×ĳ×¢×ĺ ×¢×Ł
Ġ×ĳ×Ĳ×ĺ ×Ĳ×ł×ĺ
×ľ×¢×ł×ĵ ×Ļ×©×¢×¨
Ġ×¢×¡×ĺ ×ľ×Ĳ×ł×ĵ
Ġ×ŀ×¢×§×¡ ×Ļ×§×Ĳ×ł×¢×¨
Ġ×¤×Ĳ×ľ×Ĵ ×¢×ł×ĵ
Ġ×¦×ķ×©×ĺ ×Ļ×ŀ×¢×Ł
×¨×ķ×ķ ×ķ×ĵ
Ġ×©×¤×¢×ĺ ×¢×¨×¢
Ġ×¨×¦ ×Ļ×Ĺ×Ķ
Ġ×¤×¨×Ĳ×ĵ×ķ×§×ĺ ×¢×Ł
Ġ×Ķ×Ĳ×¡ ×ĺ×¢
Ġ×Ĳ×ķ×Ļ×¡×Ĵ×¢×ĵ ×¨×ķ×§×ĺ
Ġ×¢×ł×Ĵ×ľ ×Ļ×©×Ł
Ġ×Ĳ×ķ×ł×Ĵ×Ĳ×¨ ×Ļ×©×¢
Ġ×¤×¨×Ĳ×ķ×ķ×Ļ× ł×¦×Ł
Ġ×ķ×ķ×Ļ×¢×ĺ ×ł×Ĳ
Ġ×©×¨×Ļ×Ļ×¢ ×ł×ĵ×Ļ×§×¢
Ġ×¤×¢×ł×¡×Ļ×ľ ×ķ×ķ×¢×ł×Ļ×¢
1 20
e ed
×Ļ ×Ļ×Ļ×ł×Ĵ
×¨ ×Ļ×Ľ
×¢×¨ ×ĳ
Ġ×ĵ ×¢×ľ×Ĳ
×ľ ×§×Ļ
×ĵ ×ľ×Ĳ
×ĸ ×ł×ķ×ķ×Ĳ
×ł ×Ļ×¦×Ł
×¢×ł ×Ļ×Ł
Ġ×ĺ ×¨×Ļ×Ļ×ĳ
Ġ×¤×¨ ×Ĳ×Ľ×ĺ
×Ĳ×¤ ×ľ×Ĳ×Ł
×ĵ×¢×¨ ×¦
×¡×ĺ ×¢×ł×ĵ×Ļ×ł×Ĵ
Ġ×§×ľ ×¢×¤
Ġ×¦×ķ×ķ ×Ļ×Ļ×Ĵ
Ġ×§×¨ ×Ĳ×§×Ĳ
Ġ×©×ľ ×©
Ġ×©×ŀ ×¢×§×Ł
×Ļ×Ļ×© ×¨
×Ĵ×ľ ×Ļ×Ļ×ĺ
Ġ×¤×Ĳ×¨×©×ĺ ×Ļ×Ļ×¢×¨
×ķ×Ĺ ×¨
Ġ×¦×ķ×Ĵ ×¢×Ķ×¢×¨×ĺ
Ġ×ķ×ķ×¢×ĳ ×§×Ĳ
Ġ×Ĳ×ł×ĺ ×©×ĺ×Ĳ×ł×¢×Ł
Ġ×§×Ĳ×ŀ ×Ļ×ķ
Ġ×§×Ĳ×¨ ×ł×¢×¨
×ŀ×¡ ×¤×¨
Ġ×Ķ×© ×Ĵ×Ķ
Ġ×Ĳ×Ļ×¦×ĺ ×Ļ×Ĵ×¢
Ġ×¡×Ļ×ŀ ×¡
Ġ×¢×ĵ ×¡
×Ļ×ł×ĺ×¢×¨ ×¢×¡
id a
Ġ×ŀ×Ĳ×Ľ ×ľ
Ġ×¨×Ĳ×ĺ ×Ķ
×§×ĺ×¢×¨ ×Ļ×¡×ĺ×Ļ×§×¡
Ġ×ŀ×¡×Ľ×ª ×Ĳ
Ġ×¦×ķ×©×ĺ ×Ļ×Ļ
×¨×ĸ ×Ļ×Ľ×¢×¨×ķ×ł×Ĵ
Ġ×Ĳ×ķ×Ļ×Ľ ×ĺ
Ġ×¨×¢×ĳ ×¢×¦×Ļ×Ł
×¤×¢×ľ ×ķ×ª
Ġ×ŀ×ķ×Ľ ×¨
Ġ×ĵ×Ļ×¤×ľ ×Ĳ×ŀ×Ĳ×ĺ
Ġ×ł×Ļ×Ļ× ł×¦
Ġ×¤ ×Ļ×Ķ
×ľ ×Ļ×Ļ×¥
×¡ ×§×¨×Ļ×¤
Ġ×ĳ ×Ļ×ł×ĺ×ľ
×© ×Ĳ×¤×ĺ×Ł
Ġ×¢ ×ķ×ł×©
×ł ×¢×§×¡×ĺ×¢
×ŀ ×¨×Ĳ
×ŀ ×ĳ×¢
Ġ×ĺ ×Ĳ×§×ĺ
Ġ×Ļ ×Ĳ×ĺ
Ġ×¡ ×Ļ×¡
Ġ×¨ ×ķ×Ļ×ļ
Ġ×Ĵ×¢×ķ×ķ ×¢×ľ
×Ĺ ×ĳ
×Ĳ×ŀ ×Ł
×Ĳ×ŀ ×ĳ×Ļ×¢
Ġ×ª ×ķ
Ġ×Ĳ×ķ×Ļ×¡ ×©×ĺ×¢×ľ
×¢×Ľ ×¢×¨×ĺ
Ġ×Ĳ×Ļ×ĳ×¢×¨ ×ľ×Ĳ×ĸ×Ł
Ġ×ĺ×¨ ×ķ×¤×Ł
×ł×¡ ×ĺ×¨
×Ĳ×ľ×ĺ ×¢×ł×¢
Ġ×ķ×ķ×Ļ×ľ ×Ļ
×¢×§×ĺ ×©×¢×¨
×¨×Ĵ ×¢×©×ĺ×¢×ľ×ĺ
Ġ×ĵ×ĸ×© ×¢×¨×Ļ
Ġ×¦×ķ×Ĵ ×¨×Ļ×Ļ×ĺ×ķ×ł×Ĵ
Ġ4 7
Ġ×¡×§ ×Ļ×Ļ×ł×Ĵ
Ġ×¢×§×¡ ×§×ľ
Ġ×Ķ×¢×¨ ×¢×Ł
×¨×¡ ×¢×¨
×ķ×ķ×Ļ×ľ ×ĵ
Ġ×Ķ×ª ×¤×¢×ľ×ķ×ª
Ġd i
×ľ×¢×¦ ×ĺ×¢
×ĳ×Ĳ×¨ ×¢×Ľ×ĺ
×ķ×ľ×ľ ×¢×ĺ×Ļ×Ł
×Ļ×Ļ×ķ ×ķ×Ł
Ġ×Ķ×Ĳ×ł×ĵ ×ľ×¡
Ġ×©×ķ ×Ĳ×Ķ
Ġ×ĵ×¢×¨×ł ×¢×ł×ĺ×¢×¨
Ġsh are
ÐµÐµÐµÐµ ÐµÐµÐµÐµ
Ġ×Ĳ×ŀ×ĳ×Ĳ×¡ ×Ĳ×ĵ×¢
Ġ×Ķ×Ļ×ł×ĸ ×Ļ×Ľ×ĺ
Ġ×Ľ×¢×ŀ×Ļ×§ ×Ĳ×ľ×Ł
' *
D es
l ine
å ľ
Ġ×¤ ×Ļ×Ļ×¢
Ġ×ķ×ķ ×Ļ×¢×Ł
×¡ ×Ļ×ŀ
Ġ×Ķ ×ķ×ł×ĵ
Ġ×ĳ ×ķ×Ļ×¢×ĺ
×ĵ ×¢×ĵ
Ġ×ł ×ķ×¨
Ġ×ł ×Ĳ×¤×Ĳ×ľ
Ġ×¦ ×Ļ×ĸ
×§ ×Ļ×¡
×§ ×Ĳ×¡×ĺ
Ġ×Ļ ×ĵ×¢
Ġ×Ļ ×¢×ł×¥
×Ĵ ×Ļ×Ļ×¡×ĺ
Ġ×¡ ×Ĳ×©
Ġ×¡ ×¢×¡×Ļ×¢
Ġ×¨ ×¢×©
Ġ×Ĵ×¢×ķ×ķ ×¢×ł×ĵ×ĺ
×ķ×ł ×¢×¡
Ġ×©×¤ ×Ļ×ĺ
×ł×¡ ×ŀ×Ĳ
Ġ×Ĵ×¢×ĸ ×Ļ×Ľ×ĺ
Ġ×Ĵ×¢×Ķ ×Ļ×Ļ×¡×¢×Ł
×¨×ĵ ×ľ×Ĳ
Ġ×©×ľ ×ķ×ŀ
Ġ×ĳ×Ĳ×§ ×¡×¢×¡
Ġ×¦×ķ×¨×Ļ×§ ×¦×Ĳ
×§×ľ ×Ļ×Ļ
Ġ×ľ×Ĳ×ł×Ĵ ×¢×¨
×ķ×ķ×¢ ×¢×Ł
×ķ×¡×ĺ ×Ļ×Ł
Ġ4 9
×Ļ×§×¡ ×ĺ×Ł
×¤×¢×¨ ×ĵ
Ġ×Ķ×Ļ×Ļ×ŀ ×ľ×Ĳ×ł×ĵ
Ġ×Ļ×Ļ×ĵ×Ļ×© ×§×Ļ×Ļ×ĺ
Ġ×ĳ×Ĳ×¤ ×¨×Ļ×Ļ×¢×Ł
Ġ×Ĵ×¢×ĳ×¨ ×ķ×Ļ×Ľ×ĺ
Ð¾ ÑĢ
×ľ×ķ ×¢×¡
Ġ×ĺ×Ļ×Ļ×¤ ×Ł
Ġ×ł×ķ×Ļ×ĺ ×Ļ×Ĵ×¢
Ġï¬®×ĸ ï¬®
Ġ×Ķ×Ĳ×ĵ ×Ŀ
×ľ×¢×© ×Ł
Ġ×©×Ķ ×ķ×Ĳ
Ġ×ĳ×¢×ĵ ×¤×Ĳ×¨×ĵ
ob ile
Ġ×ķ×ķ×¢×ł×¢×ĸ ×ķ×¢×ľ×Ĳ
Ġ×Ļ×Ļ×ĺ ×ĳ
ĠEu rope
% )
1 12
h n
Ġ qu
×Ĳ ×Ļ×ł×¡×ĺ
×¨ ×¢×ļ
×¨ ×ķ×§×Ł
×¨ ×ĸ×¢
×© ×ķ×ķ×Ĳ×¨
×¤ ×ķ×¨
×§ ×Ļ×ł×¡
Ġ×ľ ×Ļ×Ļ×¤
Ġ×Ĳ×ķ×Ļ× ĵ
Ġ×¨ ×Ļ×ĵ×¢×¨
Ġ×¦×ķ ×ķ×Ļ×ľ×Ļ×ł×Ĵ
×Ļ×¢ ×ł×¢
×¢×ŀ ×¤×Ł
×ķ×ľ ×¢×ķ×ķ×Ĳ
Ġ×¤×¨ ×Ļ×¥
×Ĳ×ł ×¢×ĺ
Ġ×Ľ ×ķ×©
Ġ×Ĳ×ķ×Ļ×¡ ×§×ķ×ŀ×¢×Ł
Ġ×ķ×ķ×¢×¨ ×Ļ×Ļ×ĸ
×©×ĺ ×¢×ł×ĵ×Ļ×Ĵ
×©×¨ ×Ļ×¤
Ġ×ĳ×ľ ×§
Ġ×ĳ×ľ ×¢×ĺ×ľ
×ĳ×¨ ×ķ×Ļ×Ł
Ġ×¨×¢×ĵ ×¢×¡
×¤×¨ ×¢×Ĵ×ĺ
Ġ×ŀ×Ĺ ×Ĳ×Ķ
×ĺ×© ×Ĳ×¤×ĺ
Ġ3 9
×ķ×Ļ×ľ ×Ļ×©×¢×¨
Ġ4 2
Ġ×¢×ł ×ķ×ķ×Ļ×Ļ×¨
Ġ×Ĳ×ĺ ×Ĳ×Ŀ
×¨×¢×¡ ×Ļ×¢
Ġ×¢×§×¡ ×¢×¨×¡
Ġ×¢×§×¡ ×¡×¢×ľ
Ġ×Ĺ×ľ ×Ķ
Ġ×Ļ×ķ×ł×Ĵ ×Ł
Ġ×Ĵ×¢×¦ ×Ĳ×ľ×ĺ
Ġ×§×ľ×Ĳ×¨ ×¢×¨
Ġ×Ķ×ª ×Ĳ×Ĺ×ĵ×ķ×ª
×¨×ŀ ×ĵ
×¨×ŀ ×ķ×ľ×¢
Ġ×Ļ×ł ×ķ×ķ×¢×ł×ĺ
un d
Ġ×ĵ×Ĳ×ĸ ×Ļ×§×¢×¨
×¨×ł ×¢×ŀ×ķ×ł×Ĵ
ire l
Ġ×©×ľ×¢×Ľ ×ĺ×Ł
Ġ×Ĵ×¨×Ĳ×¡ ×¢×¨×Ļ×¡
Ġ×ł×¢×ĺ ×ķ×ķ×Ĳ×¨×§
Ġ×Ĳ×Ļ×ł×ķ×ķ×¢×¡×ĺ ×ŀ×¢×ł×ĺ
Ġ×ĳ×Ļ×ŀ ×Ļ×ł×ķ
Ġ×Ĵ×ķ×ĺ×¡ ×§×Ļ×Ļ×ĺ
Ġ×Ĳ×ł×ĺ×©×ķ×ľ×ĵ ×Ļ×Ĵ×ĺ
Ġ×Ľ×ķ×ľ ×ķ
Ġ×©×ķ×ĺ×¢×¨ ×ĸ
Ġ×Ľ×ķ×Ľ ×ĳ×Ļ×Ŀ
fession al
Ġ×ĵ×Ļ×¡×§×ķ×ĺ ×Ļ×¨×Ł
Ġ×§×ľ×¢×ĸ ×ŀ×¢×¨
Ġ×¤×¨×Ĳ×ĳ×ľ×¢ ×Ļ×Ŀ
×Ľ×Ĵ×Ļ×ľ×ĺ ×Ļ×§
Ġ×ķ×ķ ×Ļ×Ł
Ġ×ĸ ×Ļ×¦
Ġ×ĸ ×ŀ×Ļ×¨×ķ×ª
Ġ×¦ ×Ļ×¢×ĺ
Ġ×¢ ×©×Ļ×¨
Ġ×¢ ×ķ×ķ×Ĳ×ľ
×§ ×§×¡
×§ ×¦×Ļ×¢×¡
Ġ×ĺ ×ķ×Ļ×¢×¨×Ł
Ġ×Ļ ï¬¯×¨
Ġ×¢×¡ ×Ĳ
×ł×ĺ ×Ļ×Ļ×ł×¢×¨
Ġ×ĳ×¨ ×Ļ×ľ×Ļ×Ĳ
×©×¨ ×Ķ
Ġ×ĺ×¨ ×Ļ×Ĳ
Ġ×ĳ×ľ ×ĳ×ķ×ľ
×¨×ĺ ×Ļ×¢×¡
Ġ×Ĵ×¢×ł ×Ĳ×¡×Ł
Ġ×Ĳ×ł×ĺ ×Ļ×§
×§×¨ ×¢×ĺ×©×ŀ×¢
Ġ×Ĳ×Ļ×ŀ ×Ļ×Ĵ×¨×Ĳ
×ķ×ķ×Ļ×§ ×ľ×ĺ
ĠS up
Ġ×¤×¡ ×ķ×ľ
Ġ×Ĳ×² ×ł×¢×¨
Ġ×Ĵ×¢×¦ ×¢×ľ×ĺ
Ġ×Ķ×ª ×ĳ
Ġ×ł×© ×Ļ×Ĳ
Ġ×ĳ×ª ×ķ×Ľ×Ŀ
Ġ×¡×ŀ ×ļ
Ġ×ĵ×Ļ×ĸ ×Ļ×Ļ×ł×ĸ
Ġ×ĵ×¢×ŀ×Ĳ×§ ×¨×¢×ĺ
Ġ×ľ×Ĳ×§ ×©×Ł
×Ļ×ķ×¡ ×£
×Ķ×© ×ł×Ķ
Ġ×Ĳ×ķ×ł×ĺ×¢×¨×© ×Ļ×ĵ
Ġ×ĳ×Ĳ×©×ķ×ľ×ĵ ×Ļ×Ĵ×Ł
×ŀ×ķ×¡ ×¢×¨
Ġ×¦×¢×ł×ĸ ×ķ×¨
Ġ×Ĳ×Ļ×Ļ×Ĵ×ł×ĺ ×Ļ×ŀ×¢×¨
Ġ×Ĵ×ł ×Ļ×ĳ×Ķ
Ġ×Ĳ×Ļ×ĳ×¢×¨×ĳ×ľ ×Ļ×§
Ġ×¤×Ĳ×¨×©×ķ×ķ×Ĳ ×ķ×ł×ĵ×Ł
Ġ×Ĳ×Ļ×ĳ×¢×¨×Ĵ×¢×Ĵ ×¢×ĳ
3 00
O U
y t
Â ·
×¢×¨ ×¢×¡
Ġ×ŀ ×ķ×¤×Ł
×ķ×Ļ× ł×Ķ
Ġ×ĸ ×Ļ×ķ×ķ×Ĵ
Ġ×ĳ ×¢×ł×ĸ
×Ĳ×¨ ×¤×Ł
×Ļ×¨ ×ĺ×Ł
Ġ×¤×¨ ×Ļ×©×¢×¨
×Ļ×Ľ ×¢×¨×Ł
Ġ×Ĺ ×ķ
×Ļ×ĸ ×Ł
Ġ×Ķ×Ĳ× ¦
×ĳ×¢×¨ ×Ĵ×¢×¨
×ķ×© ×¢×Ł
Ġ×ĳ×ľ ×©×ķ×Ł
×Ĳ×ľ×ĺ ×¡
×¨×ĳ ×Ļ×ł×ĵ×ĺ
×ĵ×¨ ×Ľ×Ļ
Ġ×Ĵ×ľ ×ķ×¡×ĺ
Ġ×Ĳ×ķ×Ļ×¡×Ĵ ×¢×ĸ×¢×Ķ×Ł
×¤×¨ ×Ļ×ĵ
Ġ3 6
×ĳ×ľ ×Ļ×Ļ×ĳ×ĺ
Ġ×ĺ×¢×¨ ×Ļ×ĺ×Ĳ×¨
Ġ×©×ĳ ×¢×Ķ
×ĵ×ĸ×© ×ĵ
×ľ×ĵ ×Ļ×ł×Ĵ
Ġ×Ĳ×¨×Ļ×ĳ×¢×¨ ×Ĵ×¢×¤×Ĳ×¨×Ł
Ġ×Ĳ×§ ×ĺ×Ł
ĠI S
Ġ×Ĵ×¢×ľ×¢×¨ ×¢×ł×ĺ
×ŀ×ĵ ×ĳ×¨
×Ļ×Ļ×Ĳ ×Ļ×©×¢
×¢×§×ľ ×Ĳ×¤×ĺ
×¤×ķ×ľ ×¢×¨
ent s
Ġ×Ķ×ĸ ×Ļ×ª×Ļ×Ŀ
Ġ×ľ×Ļ×Ļ×¢×ł×¢×¨ ×©×Ĳ×¤×ĺ
ac t
Ġ199 2
Ġ×Ĵ×¨×Ļ×Ľ ×Ļ×©×¢
Ġ×¤×Ĳ×ĸ ×Ļ×¦×Ļ×¢×¡
Ġbe come
tu be
×¦×Ļ×ķ ×ł×Ĵ×¢×Ł
Ġ×ĵ×ĸ×©×¢×ł×¢×¨ ×Ļ×Ļ×ĺ
Ġ×ŀ×¢×¨×§ ×ķ×ķ×Ļ×¨
atch ing
Ġ×Ľ×¤×¨ ×ķ×ª
Ġ×¤×¨×Ĳ×ķ×ķ×Ļ× ł×¥
Ġ×ĳ×ľ×Ļ×Ļ×ĳ ×¢×Ł
Ġ×Ĳ×ľ×Ļ×Ĳ ×Ļ×¨×ĺ×¢
Ġ×ľ×¡ ×ķ×Ľ×Ķ
Ġword press
Ġ× Ŀ
×¨ ×Ļ×Ļ×¢
Ġ×¤ ×Ļ×ĳ×¢×¨
Ġ×ķ×ķ ×¢×Ľ×ĺ×¢×¨
Ġ×ĸ ×Ļ×¤
Ġ×ĸ ×Ļ×Ĵ×Ł
Ġ×ĸ ×¢×ŀ×ľ
Ġ×Ķ ×Ŀ
×¤ ×Ĳ×ľ×Ł
×ĸ ×Ļ×ł×Ĵ
Ġ×ľ ×Ļ×ł×ĵ
Ġ×ľ ×¢×ĵ×¢×¨
×Ľ ×¢×Ł
×ķ×ª ×Ļ×ł×ķ
×Ļ×Ĳ ×¡×ĺ
Ġ×Ĳ×ľ ×ŀ×ł×Ķ
Ġ×Ľ ×¢×ĵ
Ġ×Ĵ×¨ ×Ļ×ł×ĵ×ķ×ł×Ĵ
Ġ×ĳ×¨ ×Ļ×ľ×Ł
ĠâĢ Ŀ
×ł×¡ ×Ļ×¡×ĺ
Ġ×¨×ĳ ×Ļ×ł
Ġ×¤×ľ ×Ļ×ł×§
Ġ×§×¨ ×Ļ×¡
Ġ×©×ľ ×ķ
Ġ×° ï¬¯×¡
Ġ×Ĳ×¨×Ļ×Ļ×ł×Ĵ ×¢×¤×Ĳ×ľ×Ł
Ġ×Ĳ×Ļ×Ļ×ł×Ĵ ×¢×ľ
×Ĳ×ł×Ĳ×ŀ ×Ļ×¢
×¢×ķ ×ķ×ľ
ĠL i
Ġ×§×Ĳ×ł×¡ ×ĺ×¨×Ĳ×§
Ġï¬¯ ×Ł
Ġ×Ļ×ĳ×¢×¨ ×¨×Ĳ
Ġ×ł×¢×Ĵ ×Ĳ×ĺ×Ļ×ķ×ķ×¢
ik e
oun d
×¨×ĺ×ķ×Ĵ ×Ĳ
×Ĳ×ķ×ł ×Ļ×ķ×ķ×¢×¨×¡
Ġ×¨×ķ×¦ ×Ĺ
Ġ×§×¨×Ĳ×¡ ×Ĳ
2 27
Ñ Ī
Ġ ]
×ĺ ×ķ×ł×Ĵ×¢×Ł
×¨ ×Ļ×¡×ĺ
Ġ×ķ ×ł×©
Ġ×ķ ×ĳ×ľ
Ġ×Ĵ ×Ļ×Ļ×ŀ
Ġ×ĸ ×Ļ×¢
Ġ×© ×Ļ×Ļ×Ĵ
×Ĵ ×Ļ×Ŀ
Ġ×ľ ×Ļ×ľ×Ĳ
Ġ×ĵ×¢×¨ ×ĳ×²
×Ľ ×ŀ×¢×ĺ
Ġ×¢×¨ ×ķ×ķ×¢×ł×ĺ
Ġ×¢×¡ ×ĺ×Ĳ
×ł×ĵ ×Ĳ×ķ
×ľ×Ĳ ×ķ×ķ
×Ļ×¦ ×Ļ
Ġ×ĳ×¨ ×ķ×Ĺ×ł×Ļ×ķ×ª
Ġ×ķ×ķ×Ļ×ľ ×ĵ×¢×¨
Ġ×Ĵ×¢×ĵ ×ķ×Ļ×¢×¨×Ł
on d
Ġ×ĸ×Ļ×Ľ×¢×¨ ×§×Ļ×Ļ×ĺ
×ĳ×ľ ×Ĳ×ĺ
Ġ×ŀ×ľ ×Ľ
×Ĳ×§×ĺ ×Ļ×ķ×ķ
Ġ×¡×§ ×¢×ĵ×ĸ×©
×ŀ×¡ ×ĳ×ķ×¨×Ĵ
Ġ×Ķ×ķ×ĵ ×ķ
×§×¨ ×¢×Ŀ
Ġ×ŀ×Ķ ×ķ×ª
Ġ×¡×¢×¨ ×ĺ×Ĳ
ĠM iss
Ġ×¤×Ĳ×¨×Ĵ ×¢×¡×ĺ
Ġ×Ĳ×¨×Ļ×ĳ×¢×¨ ×Ĵ×Ļ×Ļ×Ł
×¤×Ĳ×ľ ×§
Ġ×Ķ×Ļ×¡×ĺ×Ĳ×¨ ×Ļ×©×Ł
Ġ×©×ĺ×¨ ×¢×ĳ
Ġ×©×ĺ×¨ ×¢×ĳ×Ł
ĠâĢ« Ö·
Ġ×ŀ×Ľ ×ķ×ĳ×ĵ
Ġ×¤×Ĳ×¨×¤ ×Ĳ×¡×Ł
Ġ×¤×¢ ×ķ×ľ×ķ×ª
ãģ «
×ĺ×Ļ×§ ×ķ×ł×Ĵ
Ġ×ŀ×Ļ×¡ ×ĺ×¢×¨
Ġ×Ĳ×ł×¤ ×Ĳ×ľ×Ł
Ġ×ĵ×¢×¨×§ ×¢×Ĵ×Ł
×¨×ĳ×¨ ×¢×Ľ×Ł
×ķ×Ļ×ķ ×ª
Ġ×Ļ×ł×ĵ×ķ×¡×ĺ×¨ ×Ļ×Ĳ
Ġ×ĵ×¢×§ ×Ĳ×¨×ĺ
Ð» ÑĮ
Ġ×ł×Ĳ×ŀ×ĳ×¢×¨ ×¡
Ġ×Ĳ×Ļ×ł×Ķ×Ĳ×ľ×ĺ ×¡
Ġ×ĳ×Ĳ×©×¢×¤ ×¢×ł×Ļ×©
Ġ×ľ×¢×ł ×Ļ×Ł
Ġ×ĳ×¢×ł×ĺ×© ×ŀ×Ĳ
Ġ×Ĳ×ł×Ĵ×¢×ĺ ×ķ×Ł
Ġ×Ĳ×¨×Ļ×Ļ×ł×ĳ×¨ ×¢×ł×Ĵ×¢×Ł
1 13
5 50
Ö Ģ
Ġ×ĵ ×©×ŀ
Ġ×ķ×ķ ×¢×ĳ×¢×¨
Ġ×ĸ ×¨×¢
Ġ×Ķ ×Ķ×Ŀ
×ĵ ×Ĵ×ľ
×ĳ ×ł×Ļ
×ĳ ×ŀ×©×ļ
×ĳ ×¢×¡×¢×¨
×ĸ ×ł×ĵ×Ļ×§
Ġ×¢ ×ķ×©×Ķ
×ŀ ×Ļ×ł×¡
×Ļ×© ×Ļ
Ġ×ĺ ×Ļ×ĳ
Ġ×Ļ ×Ĳ×ł×Ĵ
×Ĵ ×Ĳ×¡
Ġ×ľ ×Ļ×ĺ×Ĳ
Ġ×ľ ×ĳ×¨×Ľ×Ķ
Ġ×¡ ×ķ×ľ
×Ļ×§ ×Ĳ×Ł
Ġ×¨ ×Ļ
×Ļ×ķ ×©×¨
×ł×Ĵ ×§×¡
Ġ×ĳ×¨ ×¢×Ľ×ĺ
Ġ×Ĳ×ķ× ł×ĵ
Ġ×¨×ĳ ×Ļ×¡
Ġ×Ĵ×ľ ×Ļ×Ļ×Ľ×ĺ
Ġ×Ĳ×ķ×ŀ ×¨×¢×Ľ×ĺ
Ġ×Ĵ×¢×Ĵ ×Ĳ×ł×Ĵ×Ł
Ġ×Ĵ×¢×ŀ ×Ļ×Ļ×ł×ĸ
Ġ×ĺ×© ×ķ×ĸ×Ļ×ł×Ĵ
Ġ×Ĳ×ķ×Ļ×¡×Ĵ ×Ĳ
Ġ×ĵ×ĸ×© ×§
Ġ19 00
Ġ5 1
×ŀ×¡ ×Ł
×ŀ×¢×ł×ĺ ×Ļ×Ļ×©×Ĳ
Ġ×ĳ×Ĳ×ŀ ×ĳ×Ĳ×¨×ĵ
Ġ×¨×¢×ĸ ×©×Ļ×¡
Ġ×Ĳ×¤×Ĵ ×Ĳ×ł×Ļ×¡×ĺ×Ĳ×Ł
Ġ×©×ĺ×¨ ×Ĳ×Ŀ
Ġ×ķ×ķ×Ĳ×ľ ×§×Ł
Ġ×Ĳ×§ ×ķ×¤
ãģ ª
Ġ×Ĳ×Ļ×ĳ×¢×¨×ĸ×¢×¦ ×¢×¨
Ġ194 1
Ġ×Ļ×Ĳ×Ķ ×Ĳ×Ł
Ġ×ĵ×¢×ŀ×Ĳ×§×¨×Ĳ×ĺ ×Ļ×©×¢×¨
our ney
âĢı [
Ġ×¤×ķ×ł ×Ĳ×ł×ĵ×¢×¨
Ġ×ľ×Ĳ×Ĵ ×Ĳ
ass ion
Ġ×ĳ×Ļ×¡ ×ľ×¢×Ľ
×ĵ×ķ×¡ ×¢×¨
Ġ×ĸ×Ļ×ł×Ĵ ×¢×¨×¡
×ĸ×Ĳ×ŀ ×§×Ļ×Ļ×ĺ
ĠEurope an
1 15
2 20
E S
b u
Ġ out
×ķ ×ķ×ĸ
×ĺ ×¨×Ļ×ł×§
Ġ×ķ ×¨×ĳ
Ġ×ŀ ×Ĳ×Ĵ×Ł
Ġ×ĳ ×Ļ×Ĵ×Ĳ
×© ×ŀ×¢×¨
×Ķ ×Ĳ×ŀ×Ļ×¨
×Ķ ×ĳ×Ļ×ª
×Ĵ ×Ĳ×ł×¦
×Ĵ ×¢×ĵ×¨×Ļ×Ļ×ĺ
Ġ×¡ ×¢×ĺ×Ĳ
Ġ×¨ ×Ĳ×ł×ĵ
Ġ×¨ ×Ĳ×Ĺ×ŀ×Ļ×¡×ĺ×¨
Ġ×ĵ×¢×¨ ×ľ×¢×ĳ×ĺ
×Ļ×Ĵ ×ľ×¢×¨
Ġ×Ĳ×¨ ×ĵ×¢×¨
×¢×§ ×ķ×ķ
Ġ×Ĵ×¢×ķ×ķ ×¢×ł×ĺ×ľ×Ļ×ļ
×Ĳ×ł ×Ļ×©×Ł
Ġ×Ĳ×ķ×Ļ×¡ ×©×ĺ×¢×ľ×Ł
×ķ×© ×ĳ
Ö¶ Ö¼
Ġ×§×¨ ×ķ×Ļ×¡
Ġ×Ĵ×¢×¤ ×¢×ł×ĺ
×Ĳ×© ×Ľ×ķ×ľ
Ġ×Ĳ×ķ×Ļ×¡×Ĵ ×¢×ĳ
on i
Ġ×ł×Ĳ×Ľ ×ĵ×¢×¨×¦×ķ
Ġ×ŀ×§ ×ĵ×©
×¢×¨×© ×ĺ×¢
Ġ×Ķ×ŀ ×ª
Ġ×Ľ×ľ ×ľ×Ļ
Ġ×©×ĺ×¢×ľ ×¢×¡
Ġ×§×Ĳ×ŀ×¤ ×Ĳ×ĸ
Ġ×§×ķ×¨ ×¡×Ł
×¡×ĺ×¢×¨ ×ĵ
Ġ×ķ×Ļ×¡ ×§×ķ×ŀ×¢×Ł
Ġ×Ĳ×Ļ×© ×ķ×¡
Ġ×Ĳ×¨×Ĵ ×Ļ×ł
Ġ×Ļ×Ķ ×ķ×ķ×Ķ
24 0
Ġ×¢×ĳ ×¨×Ļ×Ļ×Ŀ
Ġ×Ĳ×ķ×¨ ×ĺ×Ļ×Ļ×ľ
Ġ×Ĳ×ķ×Ļ×¡×¦ ×ķ×©
Ġ×Ĳ×Ļ×¡ ×ľ×Ĳ×Ŀ
Ġ×¦×ķ×¦ ×ķ×ľ×Ļ×Ļ×Ĵ×Ł
Ġ×ķ×ķ×Ļ×Ľ×ĺ×Ļ×Ĵ ×¡×ĺ×¢
×ľ×Ļ×Ļ×ĺ ×Ļ×ĵ
×§×§ ×ķ×¤
Ġ×ŀ×ĺ ×¢×Ŀ
ĠThe re
Ġ×ľ×Ļ×Ļ×ĸ ×Ł
×ĸ×Ļ×Ļ×¢×¨ ×¢
Ġ×¢×ľ×¢×Ĵ ×Ĳ
Ġ×ĳ×Ļ×ŀ ×Ļ×Ŀ
Ġ×ĵ×Ĳ×ĺ ×Ĳ
Ġ×¡×ĺ×Ĳ×ĺ ×ķ×¡
Ġ×ľ×¢×ĺ ×ľ×Ĳ×ł×ĵ
Ġ×Ĳ×Ļ×Ļ×ł×Ķ ×Ĳ×ľ×ĺ×Ł
Ġ×¡×Ļ×Ļ×¢ ×ł×¡
Ġ×ł×¢×¢×ĵ ×ķ×ķ×Ļ×ľ×ľ×¢
O R
a us
u al
×ĺ ×¢×§×ĺ×¢×ĵ
Ö· "
Ġ×ĵ ×ķ×¤
×ľ ×Ļ×Ļ×ŀ×¢×¡
Ġ×ŀ ×Ļ×¢
Ġ×ŀ ×Ľ×Ķ
×¡ ×Ĳ×ľ
×¡ ×¡×¢×¡
Ġ×Ķ ×ķ×Ļ
Ġ×Ķ ×Ļ×ł×¢×¨
Ġ×§ ×¦
Ġ×§ ×Ĳ×Ľ×Ł
×ĵ ×¢×¤
×§ ×¢×ľ×¢×ļ
×ķ×ķ ×Ĳ×Ķ
Ġ×Ļ ×ķ×ķ
×¢×ľ ×ĸ
×Ĳ×Ĵ ×ľ
Ġ×¤×¨ ×ķ×ŀ
×¡×ĺ ×Ĳ×ł×¦
Ġ×ŀ×Ļ×¨ ×ķ×Ł
×ĸ×© ×ķ×Ĳ
Ġ×¨×ĳ ×Ĳ
×ĳ×¨ ×Ļ×ķ×ķ
Ġ×¦×ķ×ķ ×Ĳ×Ķ
Ġ×¤×ľ ×Ĳ×ļ
×ķ×¦ ×Ĳ×ª
Ġ×¨×Ĳ ×Ļ×Ĳ×ł×¢×Ł
Ġ×Ĳ×ķ×ŀ ×¦×ķ×¤
Ġ×ĳ×Ĳ×§ ×ķ×ŀ
Ġ×ŀ×¡ ×ķ×¤×§
×Ĳ×ł×¡ ×ĺ×¨
Ġ×ĳ×¢×¨ ×ĵ
Ġ×Ķ×¨×ĳ ×ł×Ļ×ª
Ġ×Ĳ×¨×Ļ×Ļ×ł×Ĵ ×¢×ł×ķ×ŀ×¢×Ł
ĠM e
Ġ×Ļ×¨ ×¢×ľ×Ĳ
Ġ×¢×ł×ĺ ×ķ×ĸ×Ļ×Ĳ
Ġ×ŀ×ª ×ł×Ĵ
×ĸ×Ļ×¡×ĺ ×Ļ×ł×Ĵ
Ġ×¤×Ĳ×¨×ĳ×¨ ×¢×ł×Ĵ×Ł
Ġ×Ķ×ĵ ×ķ×¨×ķ×ª
×ķ×Ļ×Ĵ ×¢×ł×¢
Ġ×Ĳ×ķ×¨ ×ĸ
ti ons
Ġ×Ļ×ĳ×¢×¨ ×ĸ×¢×¦×¢×¨
Ġ×¦×ķ×ŀ ×Ļ×©
Ġ×ĺ×¨×Ļ×Ļ×ĵ ×ŀ×Ĳ
Ð¾Ð »
Ġ×Ĵ×¢×¤×ľ ×Ĳ×ł×ĺ
Ġ×ĺ×¢×¡×ĺ ×¢×ĵ
Ġ×§×ľ×Ĳ×¡ ×Ļ×©×¢
Ġ×¦×ķ×Ĵ×¢×Ĵ ×Ĳ×ł×Ĵ×¢×Ł
×¦×ķ×ľ ×Ļ×Ļ×Ĵ×Ł
×¢×ł×ĳ ×ķ×Ļ×Ŀ
×ķ×ķ×Ļ×ł×§ ×¢×Ł
×ĳ×Ĳ×ķ×ķ×Ĳ×ķ×¡×ĺ×ĸ×Ļ×ł ×Ļ×Ĵ
Ġ×Ķ×ŀ×Ĺ ×©×ĳ×Ķ
×§×¢×ł ×¢×ł
Ġ×¨×¢×¡×ĺ×Ĳ×¨ ×Ĳ×Ł
Ġ×¦×¢×¨×¢×ŀ ×Ĳ×ł×Ļ×¢
Ġbr ing
Ġtrans l
2 28
m an
×ĺ ×ľ×¢×Ľ×¢
×¨ ×§×¡×ł×ķ×ŀ×§×¡×ĵ
Ġ×¤ ×¢×ĺ×¨
×¡ ×ĳ
Ġ×Ķ ×Ĳ×ľ×ĵ
Ġ×ĳ ×Ĳ×Ľ
Ġ×ĳ ×Ļ×Ļ×Ĳ
×© ×Ļ×ĳ
Ġ×¦ ×Ļ×Ļ×Ľ×¢×ł×¢×Ł
×ŀ ×ł
×¢×ł ×¢×Ĵ×¨×Ĳ
×Ķ ×ĵ
Ġ×¡ ×Ĳ×¤×ĺ
Ġ×¤×Ĳ×¨ ×Ŀ
Ġ×¤×Ĳ×¨ ×ł×ķ×ŀ
×Ľ ×Ļ×ľ
×Ļ×ĵ ×Ļ×ĵ
×ł×ĵ ×ĳ
Ġ×Ľ ×Ĵ
×ł×ĺ ×ľ×¢×ļ
×ķ×ĵ ×¢
×ķ×ĵ ×¡×Ļ×Ļ×ĵ
×¨×Ļ×Ļ× ĳ×¢×¨
Ġ×Ĳ×Ļ×Ļ× ł×ĵ
Ġ×Ĳ×ķ×Ļ×¡ ×Ĳ×¨×ĳ×¢×ĺ×Ł
Ġ×Ĵ×¢×© ×¨×Ļ×Ļ
×©×ĺ ×¨×Ĳ
×Ļ×¤ ×ķ×ª
Ġ×§×¨ ×Ĳ×ļ
×§×Ļ×Ļ×ĺ ×¢×¨×ĸ
Ġ×Ĳ×ķ×Ļ×¡×Ĵ ×¢×ľ×Ĳ×ĸ×ĺ
Ġ×ŀ×Ļ×ł ×¢×¨
an et
Ġ×Ĳ×ĺ ×Ĳ×ŀ
Ġ×Ĺ×© ×ĵ
×¨×Ļ×ĵ ×ł×§×Ļ×Ļ×ĺ
×¨×Ļ×Ļ×ĺ ×¢×¨×Ł
Ġ×ĺ×¢×Ľ ×ł×¢×ľ×Ĳ×Ĵ×Ļ×¢
Ġ×ŀ×ĸ×¨×Ĺ ×Ļ
Ġ×Ĳ×ł×¤ ×Ĳ×ł×Ĵ×¢×Ł
Ġ×ľ×Ļ×ĳ×¢×¨ ×Ĳ×ľ×Ł
Ġ×Ķ×¤ ×ķ×¢×ľ
Ġ×¤×¢×ł×¡ ×ĺ×¢×¨×¡
Ġ×¨×Ĳ×¡ ×Ļ×¡×ĺ×Ł
×Ļ×Ĳ×¨×§ ×¢×¨
Ġ×ł×ĵ ×Ĳ
Ġ×Ķ×§×ĵ×ķ×© ×Ļ×Ŀ
×Ĵ×¢×¡ ×¦
Ġ×¡×ķ×Ĵ ×Ĵ×¢×¡×¦
Ġ×ľ×ĺ ×ķ×ĳ×Ķ
×Ĳ×Ļ×ĵ ×Ļ×©
×Ķ×¢×ł×Ĵ ×Ļ×§
Ġ×Ĵ×ľ×¢×ł×¦ ×ł×ĵ×Ļ×§×¢
Ġ×ĳ×Ĳ×ķ×ķ×Ĳ ×ķ×¡×ĺ×¢
Ġ×¤×Ĳ×¨×ĸ×Ĳ×ŀ ×ľ×ķ×ł×Ĵ
Ġ×ĳ×Ļ×ĳ×ľ×Ļ×Ĳ ×ĺ×¢×§
×ĳ×Ĳ×ķ×ķ×Ĳ×ķ×¡×ĺ×ĸ×Ļ×ł ×Ļ×Ĵ×§×Ļ×Ļ×ĺ
×ķ×ķ×¢×ĳ ×¡
×¨×ł×ĺ ×Ķ×¢
Ġ×ĳ×Ļ×© ×ľ×Ļ×Ļ×ŀ×¢×¡
×Ĵ×¢×ĺ×¨ ×ķ×ł×§×¢×Ł
×ŀ×Ĳ×© ×Ļ×Ł
×ľ×Ļ×Ļ×¢ ×ł×¢×Ł
Ġ×ĵï¬® ×¨×£
Ġph pBB
2 25
O P
Õ «
× ĥ
Ġ ??
×¨ ×¢×ľ×Ļ
×ľ ×Ĳ×ĸ×ĺ
Ġ×ĸ ×ķ×Ļ×¢
Ġ×ĸ ×Ĳ×¦×Ł
Ġ×Ķ ×¤×¨
Ġ×ĳ ×Ļ×ĳ×Ļ
Ġ×ĳ ×Ļ×Ļ×¢×¡
×Ĳ×¨ ×Ļ×ļ
×© ×Ĳ×ľ
×ĳ ×¡×ĺ×Ĳ
Ġ×© ×¢×¨×ĵ
Ġ×© ×Ļ×ľ×ĵ
Ġ×Ļ ×ł×ĸ
Ġ×ľ ×¢×ĵ
Ġ×¨ ×Ļ×ŀ×Ĳ
Ġ×¦×ķ ×ĺ×Ļ×Ļ×ľ×Ł
×¢×Ĵ ×¢×Ł
Ġ×Ĳ×¨ ×¢×ł×¢
×ķ×ľ ×ĸ
Ġ×Ĺ ×ķ×¡
×Ļ×ĸ ×Ļ×Ŀ
×ł×ĺ ×Ļ×§×¢×¨
×ķ×¡ ×£
×ķ×¡ ×§×Ļ
×Ļ×¦ ×¢×¡
Ġ×ķ×ķ×¢×¨ ×ĺ×Ł
×Ļ×ł×ĵ ×ķ×ł×Ĵ×¢×Ł
×Ĳ×ł×ĵ ×¢×ľ×ĺ
×Ĳ×© ×¢×ĺ
×¨×Ĵ ×ľ×Ļ×Ļ
Ġ×ĵ×ĸ×© ×¢
ï¬¯ ×ĺ
×ĳ×ľ ×¢×ĺ
Ġ×ŀ×¡ ×Ļ×¨×ķ×ª
Ġ×¤×Ļ×¨ ×Ĳ×ŀ
×Ļ×ł×Ĳ ×ķ×ķ×Ļ×ĺ×©
Ġ×ķ×ķ×Ļ×Ľ×ĺ ×Ļ×Ĵ×¢×¨
ic al
Ð° ÑĢ
Ġ×ª×© ×ł
Ġ×¢×ľ×ĺ×¢×¨ ×¢×¨
17 0
×ŀ×Ļ×ł ×Ļ×§×Ĳ
×ŀ×Ļ×ł ×Ļ×¡×ĺ×¢×¨
Ġ×ĸ×¢×Ķ ×¡×ĺ
26 0
23 0
×Ĵ×¢×ľ ×¢×Ĵ×¢×¨
Ġ×§×Ĳ×ł×ĺ×¨ ×Ĳ×§×ĺ
Ġ×Ķ×ķ×Ļ×Ľ ×Ĵ×¢×©
×ķ×Ļ×ŀ ×¢×ł×ĺ
Ġ×¤×¨×¢×ŀ ×ĵ×¢×¨
im e
Ġ×§×Ĳ×ĺ ×¢×Ĵ×Ĳ×¨
×¨×ª ×Ļ
Ġ×©×ĺ×¨×¢×ł×Ĵ ×¢
Ġ×ĵ×ĵ×ĸ×© ×Ļ
ver al
×ľ×Ļ×Ļ×Ĵ ×¢×Ł
Ġ×ľ×Ĳ×Ĵ ×¢×¨×Ł
Ġ×ĺ×ķ×ŀ ×Ĳ×Ķ
Ġ×ľ×¢×ĸ ×ķ×ł×Ĵ
Ġ×§×Ĳ×ŀ×Ĳ×ł×ĵ ×Ļ×¨
Ġ×Ĳ×ķ×Ļ×¤×¤ ×Ļ×¨×ķ×ł×Ĵ
×ĸ×Ļ×ĳ ×ķ×ľ×§
Ġ×¢×¤×Ļ×ĸ ×Ĳ×ĵ
Ġpur ch
! âĢĿ
? âĢŁ
f o
m er
r ad
×Ĳ ×ķ×Ļ×ĺ
×ľ ×¢×¨×ĺ
×ľ ×¤×Ĳ
×ľ ×Ļ×ŀ×¢×¨
Ġ×ŀ ×Ļ×§×¡
Ġ×§ ×ķ×ķ×Ļ×ĳ
×© ×Ļ×Ļ×ĵ
×© ×ŀ×Ļ×Ŀ
×¤ ×ª
×ĸ ×¢×ł×¥
Ġ×¦ ×Ļ×ł×Ĵ
Ġ×¦ ×ķ×ŀ×Ĳ
×ł ×ķ×ķ×Ļ×ł×§×¢×Ł
×ŀ ×Ĳ×ł×¡
×§ ×ķ×ŀ
×§ ×ķ×¨×¡
Ġ×ľ ×¢×Ľ
Ġ×ľ ×ķ×Ļ×¢×¨
×Ļ×¢ ×ĵ×Ł
Ġ×©×ĺ ×ķ×ľ
Ġ×Ĺ ×Ļ×ĵ
×Ļ×Ļ×ľ ×¢×ļ
×Ĳ×§ ×ľ×ĺ
Ġ×Ĳ×ķ×Ļ×¡ ×ĸ×¢×Ķ×Ł
Ġ×Ĵ×¢×© ×¢×ĵ×Ļ×Ĵ×ĺ
×Ļ×¤ ×Ļ×¦×Ļ×¨×ĺ
Ġ×ĳ×¨ ×ķ×ĺ
Ġ×ĺ×¨ ×Ļ×ĳ
Ġ×ĺ×¨ ×ķ×Ļ×Ŀ
×¢×¨×ĺ ×©×Ĳ
×ķ×ķ×Ĳ ×ķ×ĵ
Ġ×§×ľ ×Ĳ×Ĵ×¢
×ĵ×¨ ×ķ×§
×Ļ×Ļ×Ĵ ×ĺ×¢
Ġ×ĵ×¨ ×¢×§
×¢×ł×¡ ×Ļ×¡
Ġ×Ĳ×ķ×ŀ ×ĳ
×¨×© ×¢×ķ×ķ×¢×¨
Ġ×Ĳ×ķ×Ļ×¡×Ĵ ×¢×Ĵ×¢×ĳ×Ł
Ġ×ŀ×Ļ×ľ ×§
×Ĳ×¨×§ ×Ł
Ġ×ĳ×¢×¨ ×Ļ×©
Ġ×Ķ×¢×¨ ×Ĳ
Ġ×Ĳ×Ļ×ł×¤ ×Ĳ×¨
Ġ×ŀ×ķ×¡ ×ľ×ŀ
ĠF ly
Ġ×Ĳ×¤×Ĵ ×¢×ĸ
Ġ×¤×Ĳ×¨×ĳ ×¢×ĺ×Ł
oo t
ĠN o
Ġ×ĸ×©×ķ×¨ ×Ļ
Ġ×Ĳ×ľ×ĺ ×¡
Ġ×Ĳ×ł×¦ ×ķ×ł×¢×ŀ×¢×Ł
ï¬Ł ×Ł
Ġ×Ĳ×ķ×Ļ×¡×¦ ×ķ×¨
Ġ×Ĵ×¢×ĵ×Ĳ×ł×§ ×Ł
Ġ×¤×Ļ×¡ ×§
Ġ×ĺ×Ļ×¨ ×Ĳ×ĸ×©
Ġ×ķ×ķ×Ļ×¡×ł×©×Ĳ×¤×ĺ ×ľ×¢×¨
×ľ×ķ×Ļ×ĺ ×Ł
Ġ×¤×Ĳ×¨×ĳ×Ļ×ł×ĵ ×¢×Ł
Ġ×¢×Ĵ ×ŀ×ª
Ġ×Ĳ×¤×ŀ ×Ĳ×Ľ×Ł
Ġ×ŀ×Ļ×Ĳ ×ŀ×Ļ
Ġ×¡×ķ×Ĵ ×Ĵ×¢×¡×ĺ
Ġ×ĵ×¨×ķ×Ļ×¡ ×ł×ĵ×Ļ×§
Ġ×ł×ķ×ĵ ×ł×Ļ×§
Ġ×Ļ×ķ×ł ×Ļ×Ĳ
Ġ×ĺ×Ļ×ĺ ×ľ×¢×Ł
×ŀ×ŀ ×¢×¨×¡
Ġ×ľ×¦ ×ķ×¨×ļ
ĠCh rist
×ķ×ķ×Ļ×Ĵ ×Ĳ
Ġse veral
Ġup on
Ġ×©×ŀ×ķ×¦ ×Ļ×Ĵ×¢
Ġ×Ľ×ĳ ×Ļ×Ľ×ķ×ľ
Ġ×Ĳ×¤×¢×§×ĺ ×Ļ×¨×ĺ
Ġ×ĺ×©×Ĳ×§ ×Ĳ×ľ×Ĳ×ĵ
Ġ×ĳ×ŀ×Ķ ×¨×Ķ
×¢×ķ×¨ ×¨×ķ×ª
Ġwrit er
b and
y ou
Ġ×ķ ×Ķ×Ĳ
Ġ×ŀ ×¦×Ļ×¢
×¡ ×ķ
×Ĳ×¨ ×Ĵ×Ł
×ĳ ×¡×¢×¨
Ġ×¦ ×ŀ×Ĺ
×¢×ł ×Ļ×ķ×ķ×¢×Ļ
×Ķ ×¤
Ġ×ľ ×ķ×ĺ
Ġ×¡ ×¢×¨×Ĳ
Ġ×¨ ×Ĳ×Ķ
Ġ×¤×Ĳ×¨ ×ľ×¢×ł×Ĵ
Ġ×¢×¨ ×§×¨×Ĳ
Ġ×Ĳ×¨ ×Ļ×Ļ×ł×ĺ
Ġ×©×ĺ ×Ļ×Ŀ
×Ļ×Ĳ ×Ĵ×¨×Ĳ×Ŀ
×Ļ×ķ ×ł×Ķ
×ł×ĵ ×ĸ×©×Ĳ
×ķ×ľ ×ĵ×Ļ×§
Ġ×Ľ ×ķ×ķ×Ĳ×ľ×Ļ×¢×¡
Ġ×§×Ĳ ×ķ×ķ×¢×¨
×ĵ×¢×¨ ×ł×¢×¨
Ġ×Ĵ×¨ ×Ļ×ł×ĵ×Ł
Ġ×ĳ×ľ ×±×ĸ
Ġ×ĵ×¨ ×Ĳ×ŀ×Ĳ×ĺ
Ġ×Ĵ×¢×ľ ×Ļ×ĳ
Ġ×Ĳ×¨×ķ×Ļ×¡ ×ĳ×¨×¢×ł×Ĵ×Ł
Ġ×¢×ľ ×Ļ×ŀ×Ļ×ł
Ġ×Ĵ×¢×ĺ ×©
×ĵ×ĸ×© ×Ļ×§
Ġ×§×Ĳ×ŀ×¤ ×Ļ×Ļ×ł×¢×Ł
Ġ×ŀ×¢ ×Ļ×ľ
Ġ×©×ķ×ķ×¢×¨ ×ĵ
Ġ×Ķ×ª ×¤
Ġ×¤×Ĳ×¡ ×Ļ×ĳ×Ļ×ľ×Ļ×ĺ×Ļ
Ġd ream
Ġ×Ĳ×ł×ĵ×¢×¨ ×¡×ĺ×¢×ł×ĵ×Ļ×ł×Ĵ
Ġ×ĺ×¢×¨×Ĳ×¨ ×Ļ×¡×ĺ
Ġ×¤×¨×Ĳ×¤ ×¢×©
Ġ×¢×¨×©×ĺ ×Ļ×§
ĠU n
Ġ×ĵ×¢×¨×Ĵ×¨×Ļ×Ļ×Ľ ×ķ×ł×Ĵ×¢×Ł
Ġ×ĺ×Ļ×Ļ×ĺ ×©×ĺ
ĠïŃĦ ×¨ï¬¯
Ġ×¦×Ļ×ĺ ×¢×¨×Ł
×ŀ×ĺ ×¢×ŀ×Ļ×Ŀ
Ġ×ķ×ł ×Ļ×ķ×ķ×¢×¨×¡×Ĳ
Ġ×©×ľ×Ļ×Ĺ ×ķ×ª
Ã© ×¨×Ĳ
×¤×¢×¡ ×¡×Ļ×Ĳ
Ġ×¤×¨×¢×© ×ķ×¨
Ġ×ĺ×¨×Ĳ×ĵ×Ļ×¦×Ļ×Ĳ×ł ×¢×ľ×Ł
Ġdo es
Ġ×Ĳ×¤×ĺ×Ļ×Ļ×ľ ×ķ×ł×Ĵ×¢×Ł
×Ļ×ķ×ķ×Ļ×¡ ×ĺ×Ł
×ŀ×¡×¤×¨ ×Ŀ
×Ĳ×ķ×ł×Ļ×ķ×ķ×¢×¨×¡ ×Ļ×ĺ×¢×ĺ
Ġpurch ase
! .
u g
Ã ³
×Ĳ ×Ļ×ł×ĺ
Ġ×Ĳ ×ķ×ľ
×ľ ×Ļ×§×Ł
Ġ×ŀ ×¢×§×Ĳ
Ġ×ķ×ķ ×Ĳ×Ĵ×Ł
Ġ×ķ×ķ ×ķ×ĵ×Ĳ
Ġ×§ ×ķ×ĳ×¢
×ĵ ×£
×ŀ ×ľ×Ĳ
×§ ×©
×§ ×ĳ×Ĳ
Ġ×ĺ ×Ĳ×ĺ×©
Ġ×ľ ×ĸ
Ġ×¡ ×ķ×Ľ
Ġ×¡ ×¢×ŀ×¡×Ĳ×ł×Ĵ
×¦ ×ķ×ĺ
Ġ×¤×¨ ×Ļ×©×Ł
Ġ×¤×¨ ×Ļ×ł×ĺ×¢×¨
×Ļ×ł×Ĵ ×Ł
×ł×ĺ ×Ļ×§×ĺ
Ġ×ª ×Ķ×Ļ×ľ×Ļ×Ŀ
×ķ×ĺ ×Ļ×ķ×ķ
Ġ×ĳ×¨ ×¢×§
Ġ×§×ľ ×Ļ×¢
Ġ×§×¨ ×¢×ĺ×©
×ľ×Ļ×Ľ ×§×Ļ×Ļ×ĺ×Ł
Ġ×¢×¤ ×¤×¡
×ķ×ł×ĵ ×¢×ł×¢
Ġ×¡×ĺ ×¢×ł×ĵ
Ġ×ĺ×© ×¢×ł×¡
Ġ×ĳ×Ĳ×© ×ĺ×¢×ľ×ĺ
Ġ×Ĵ×¢×§ ×¢×ŀ×¤×ĺ
Ġ×ĺ×Ļ×Ļ×ľ ×ķ×ķ×Ļ×Ļ×ĸ
Ġ×¤×Ļ×¨ ×¢×Ł
Ġ×Ļ×© ×Ľ×¨
Ġ×Ĳ×ĵ ×¢×¡
×Ĳ×ĺ×© ×§×¢×¡
Ġ×¢×ŀ ×¨×Ŀ
Ġ×Ķ×ª ×ľ×Ķ
×ŀ×ĳ ×Ļ×Ļ×ł×ĵ
Ġ×ŀ×¢×ĺ ×Ĳ×ľ×Ł
Ġ×Ĳ×ł×¦ ×Ļ×ł×ĵ×Ł
Ġ×ĵ×¢×¡ ×§×¨×Ļ×¤
×ķ×ł×¡ ×ŀ×¢×ł×ĺ
Ġ×¦×¢×ĺ ×Ļ×ľ
Ġ×ĳ×¨×Ļ×ĺ ×Ļ×©
Ġ×Ķ×¢×¨×© ×¢×¨
×ķ×¢×¨ ×ĵ
×¡×Ļ×Ľ ×Ĳ
Ġ×§×ĵ×ķ×© ×Ļ×Ŀ
Ġ×ŀ×Ĳ×¨×ĺ ×Ļ×Ł
Ġ×¤×Ĳ×ł×ĺ ×¡
Ġ×ĺ×ķ×ŀ ×¢×ľ
×ľ×ķ×¦ ×ľ×Ļ×ł×Ĵ
×ł×ķ×ķ ×¢×ł×©×Ĳ
ĠPro fessional
Ġ×ĵ×¢×¨×©×ĺ ×Ļ×§×Ł
Ġ×¦×Ļ×Ļ×Ľ ×¢×ł×ķ×ł×Ĵ
Ġ×ŀ×ķ×ĺ×© ×¢×ł×¢×Ł
ĠPhot o
Ġrequ est
Ġ×Ļ×ł×¢×¨ ×ľ×¢×ļ
Ġ×©×ĺ×Ļ×Ļ× ł×ŀ
Ġ×Ĳ×¨×ķ×Ļ×¡×¦×ķ×Ķ ×¢×ľ×¤×Ł
ecial ly
Ġ×Ķ×¢×ł×Ĵ×Ĳ ×ķ×ĺ×¡
Ġ×¨×Ĳ×Ĺ×ŀ×Ļ×¡×ĺ×¨ ×Ļ×ķ×ķ×§
2 12
u bl
x ury
Ġ×¤ ×¢×ŀ×Ļ×Ŀ
×ľ ×Ļ×ł×Ļ×¢
Ġ×ĸ ×Ĳ×Ľ
Ġ×ĸ ×Ĳ×ª
Ġ×§ ×¢×ľ×¢×¨
Ġ×§ ×Ĳ×Ķ×Ł
×© ×¢×ł×¡
Ġ×¢ ×ľ×Ĳ
×ŀ ×§×¢×¡
×Ĵ ×Ļ×ĵ
Ġ×ľ ×ķ×ĵ
Ġ×ľ ×ķ×ł×Ĵ×¢×Ł
Ġ×¨ ×¢×Ķ
Ġ×ĵ×¢×¨ ×¤×¢×¨
Ġ×¤×Ĳ×¨ ×¢×ł×ĺ
×Ļ×¢ ×ĸ
×Ļ×Ļ×ĺ ×ŀ×Ĳ
×¦ ×Ļ×ĳ
×¨×Ĳ ×Ļ
Ġ×¢×¡ ×ĺ×¨
Ġ×Ĺ ×Ļ×ĳ×ķ×¨
×ł×ĺ ×¢×ł×¢
Ġ×Ĵ×Ĳ ×ķ×ł×Ļ×Ŀ
×©×¨ ×ķ×ŀ×ĸ
Ġ×Ĳ×Ļ×ĳ×¢×¨ ×¦×ķ×Ĵ×¢×ĳ×Ł
Ġ×¤×ľ ×Ļ×¡×Ł
×ķ×¦ ×Ķ
×¢×¨×¡ ×Ĳ×Ł
Ġ×ľ×Ĳ ×ķ×¨
Ġ×ŀ×© ×ŀ×©
Ġ×¤×Ļ×ľ ×ĺ×¢×¨×¡
×¨×§ ×ķ×Ļ×¤
Ġ×Ĳ×ķ×Ļ×¡×Ĵ ×¢×ĳ×Ł
Ġ×¤×Ĳ×¨×©×ĺ ×¢×ľ×ķ×ł×Ĵ
×ĳ×¢ ×Ļ×Ŀ
Ġ×ŀ×Ļ×ľ ×Ķ
×ķ×ł×§ ×¦×Ļ×¢
Ġ19 50
Ġ×ŀ×ĵ ×ł
Ġ×ĸ×© ×¢×ĵ×ĸ×©×Ļ×Ĳ
Ġ×¢×§×¡ ×Ļ×¡×ĺ
Ġ×Ĺ×© ×©
Ġ×Ĺ×ĵ×© ×ķ×ª
Ġ×§×Ĳ×ł ×ĺ×¢×¨
Ġ×¢×¦ ×ŀ×ķ
Ġ×§×ķ×ķ ×Ĳ×¨×ĺ
Ġ×ł×¤ ×§
ĠH ora
×ķ×ľ×ĺ ×Ļ×ĵ×ĸ×©
Ġc ooking
Ġ×¡×ľ×Ĳ ×ķ×ķ×¢×ł×Ļ×¢
Ġ×¤×¨×Ļ×¢×¨×ĵ ×Ļ×§×¢
Ġ×Ĳ×ł×¦ ×ķ×¤
Ġ×ķ×ķ×Ļ×ĸ ×Ļ×ĺ
Ġ×ł×Ĳ×ŀ ×Ł
Ġ194 2
Ġ×Ĺ×ĵ×¨ ×Ļ×Ŀ
×©×ķ×ľ×ĵ ×Ļ×§×Ł
Ġ×Ĳ×¨×ķ×Ļ×¡×¦ ×ķ×ł×¢×ŀ×¢×Ł
Ġ×§×Ĳ×ł×¦ ×¢×ł×ĺ
Ġ×Ļ×ķ×ł ×Ļ×Ĳ×Ł
Ġ×ĳ×ķ×ľ ×Ĵ×Ĳ
Ġ×ĵ×¨×Ļ×Ļ×¡ ×ĺ
Ġ×¡×ª ×Ļ×¨×Ķ
Ġ×ĸ×Ĳ×ŀ ×ĵ
Ġ×Ĳ×ł×Ĳ×ľ×Ļ×ĸ ×Ļ×¨×Ł
Ġsh ows
×ŀ×ŀ ×Ļ×ľ×Ĳ
Ġ×Ĳ×Ļ×Ļ×ł×§ ×ķ×Ļ×¤×Ł
Ġ×Ĵ×Ļ×Ķ ×ł×ķ×Ŀ
Ġ×Ĵ×¢×ķ×ķ×Ļ×§ ×¡
Ġ×¤×Ĳ×¨×¢×ł×ĵ ×Ļ×§×ĺ
Äį ×¢
ĠÖ· âĢ¬
Ġ×§×Ĳ×ĳ ×Ļ×ł×¢×ĺ
×ľ×Ľ×ª ×Ĺ×Ļ×ľ×Ķ
ÅĻ ×Ĳ
Ġ×ł×¢×ķ×ķ×¡ ×ľ×¢×ĺ
ĠManufacture rs
Ġesp ecially
Ġ×ĺ×¢×¨×Ļ×ĺ×Ĳ×¨ ×Ļ×¢×¡
Ġ×Ļ×ł×ĸ ×©×¢×ł
ä »
Ġ Î
×ĺ ×Ļ×§×¢×¨
×¢×¨ ×Ļ×Ļ×ĺ×¢×¨×ĸ
Ġ×ĵ ×¨×ĳ
×ľ ×Ļ×ł×¢
Ġ×ŀ ×Ĳ×ľ×ĺ
×© ×ĺ×¢×¨
×© ×Ľ×ľ
×ĵ ×ķ×ľ×Ĳ
×ĸ ×Ŀ
Ġ×¢ ×ķ×ķ×¢×¨
×ŀ ×Ļ×¡×ĺ×¢×¨
Ġ×Ĳ×Ļ×ĸ ×¨×Ĳ
×Ļ×§ ×§×¢×ĺ
×Ļ×¨ ×¢×ķ×ķ×ĵ×Ļ×§
Ġ×ĵ×¢×¨ ×ķ×ķ×²
Ġ×¤×Ĳ×¨ ×Ĳ×Ļ×Ļ×Ł
×Ĺ ×ľ
×ķ×ľ ×Ļ×Ł
Ġ×Ĳ×¤ ×©×Ł
Ġ×¦×ķ×ķ ×Ļ×Ļ×Ĵ×Ł
Ġ×Ĵ×¢×ĳ ×±×¨×Ł
in n
Ġ×ł×Ĳ×Ľ ×Ĵ×¢×Ĵ×Ĳ×ł×Ĵ×¢×Ł
×Ĳ×ł×§ ×ĺ
Ġ×Ķ×¢×ľ ×Ĳ
Ġ×ķ×ķ×¢×ĳ ×ĸ×²
×Ĵ×¨ ×Ļ×Ļ×ĺ×Ļ×ĵ
es h
Ġ×ĸ×© ×Ĳ×ĳ
Ġ×ŀ×Ķ ×¨×©
ĠF riends
Ġ×ĳ×Ĳ×©×ĺ ×Ļ×ŀ×¢×Ł
Ġ×ľ×¢×¦×ĺ ×Ļ×Ĵ×¢
Ġw ent
Ġ×ĺ×ķ ×¢×Ķ
Ġ×ĳ×Ĳ×ľ ×¢×ĳ
Ġ×¨×Ĺ ×ŀ×Ļ×Ŀ
Ġ×Ĳ×ķ×¨ ×ķ×Ĵ
Ġ×ł×§ ×ĳ×Ķ
×ł×Ĵ×¢×¨ ×ķ×¤
Ġ×ĵ×¢×ķ×ķ ×Ļ×Ļ×¡
×Ļ×Ĳ×¨ ×Ļ×ĺ×¢×ĺ
Ġ×¤×©×ĺ ×ķ×ª
ĠïŃĦ ï¬¯
ph p
Ġ×Ĺ×Ļ×¤ ×Ķ
Ġ×§×Ļ×ĵ×ķ×© ×Ļ×Ł
Ġ×¨×ķ ×¢×Ł
Ġ×¤×Ĳ×¨×Ľ ×Ĳ×¤
Ġ×ŀ×ľ×Ĳ×Ľ ×Ķ
Ġ×Ĳ×ķ×ŀ×ŀ×¢×Ĵ ×ľ×Ļ×ļ
Ġ×ĵ×¢×ł×§ ×¢×¨
Ġ×Ľ×Ļ×ĵ ×¢×©
Ġ×ĳ×ķ×Ľ ×©×ĺ
Ġ×¤×Ĳ×¨×Ĳ×ł×ĺ×ķ×ķ×Ĳ×¨×ĺ ×ľ×Ļ×Ľ×§×Ļ×Ļ×ĺ
ĠTh ank
Ġ×Ľ×¤ ×Ļ×¨×Ķ
Ġ×©×ķ×Ļ×ĵ×¢×¨ ×ľ×Ļ×Ľ×¢
Ġ×¤×Ĳ×¨×Ĵ×¨×¢×¡ ×¢×¨
Ġ×Ĵ×¢×ĳ×ľ×Ļ×ĳ ×¢×Ł
! ,
1 19
? ..
S t
×ĺ ×ĳ
×ľ ×¢×ķ×ķ
×ľ ×ķ×Ļ×¤×Ł
Ġ×ŀ ×¢×¤
×¡ ×ł×Ļ×Ĳ
Ġ×Ķ ×Ĳ×Ĵ×¢×¨
Ġ×Ķ ×±×¤
×¤ ×Ļ×¨×ĺ
Ġ×ł ×Ļ×Ĵ×¢×¨
Ġ×ł ×¢×ľ×Ŀ
Ġ×¦ ×¢×§
Ġ×¦ ×Ļ×Ļ×Ľ×ł×ĺ
×ł ×Ļ×Ļ×¢
×ł ×Ļ×ŀ×¢
Ġ×ĺ ×Ļ×Ĵ×¢×¨
×Ĵ ×Ļ×ĸ
Ġ×¨ ×ĵ
Ġ×ĵ×¢×¨ ×ĺ×¨
×¢×ķ×ķ ×¢×¨×¡
Ġ×Ĳ×¨ ×Ķ
Ġ×Ĵ×¢×ķ×ķ ×¢×ł×ĵ×ľ×Ļ×ļ
×Ĳ×ł ×Ļ×¢×¨
Ġ×Ĺ ×Ļ×Ļ
×Ļ×ĸ ×Ļ×¨×ĺ×¢
Ġ×ª ×¨×¢
×¡×ĺ ×¢×Ł
Ġ×Ĳ×¤ ×¦×ķ×©×ĺ×¢×ľ×Ł
×ł×Ĵ ×¢×§
Ġ×ĺ×¨ ×Ĳ×¡
×Ļ×Ļ×ĵ ×Ļ×©×¢×¨
Ġ×Ĳ×Ļ×ł ×ķ×ķ×Ĳ×ĵ
Ġ×¤×ľ ×Ĳ×Ĵ
Ġ×¤×ľ ×Ļ×Ĵ×Ķ×ĺ
Ġ×ŀ×© ×ķ×ľ×Ŀ
Ġ×©×ľ ×Ļ×¡×ĺ
Ġ×Ĵ×¨×ķ×Ļ×¡ ×Ĳ×¨×ĺ
Ġ×Ĳ×¨×ķ×Ļ×¡ ×¦×ķ×Ĵ×¢×ĳ×Ł
Ġ×¤×Ļ×ľ ×Ĳ×ĸ
Ġ×©×ķ×ķ ×¢×¨×¡×ĺ×¢
Ġ×ŀ×ľ ×ĳ
Ġ×ľ×Ĳ×ł×Ĵ ×ĸ×Ĳ×Ŀ
Ġ×¡×§ ×¨
Ġ×ĺ×¢×Ĵ ×ľ×Ļ×Ľ×Ł
Ġ×ĸ×© ×ķ
Ġ×Ķ×¢×¨ ×Ļ×ł×Ĵ
Ġ×§×Ĳ×ŀ×¤ ×ľ×Ļ×¦×Ļ×¨×ĺ×¢
Ġ×Ĳ×Ļ×ł×¤ ×ľ×Ĳ×¦×Ļ×¢
Ġ×Ķ×§ ×Ķ
Ġ×¨×¢×§ ×Ļ×ĵ×ĸ×©
Ġw atching
×ķ×ķ×Ļ×Ļ×ľ ×ķ×ł×Ĵ
Ġ×©×ĺ×¨ ×Ļ×Ĵ×ľ×¢×¨
×ķ×ķ×¢×ĺ ×Ļ×©×¢
ĠN ev
Ġ×Ĳ×ķ×Ļ×ĺ ×¢×ł×ĺ
Ġ×Ĳ×ķ×Ļ×ĺ ×Ĳ×ŀ
Ġ×ĺ×¢×ľ×¢×¤ ×Ĳ×ķ×Ł
15 5
Ġ×¤×Ĳ×¨×ĳ×¨ ×¢×ł×¢×Ł
Ġ×§×¨×Ļ×Ĵ ×¡
ãģ Ħ
×ķ×ķ×Ļ×ĵ ×¢×¨
×¨×¢×ŀ ×Ļ×¢×¨
Ġ×¤×ķ×ł×§ ×¦×Ļ×¢×¡
Ġ×ĺ×Ķ ×ķ×¨
Ġ×ĳ×Ĳ×ĵ×Ļ×Ļ×ĺ ×ķ×ł×Ĵ
Ġ×Ĳ×ķ×ł×ĺ×¢×¨×© ×ĺ×¢
ik va
×ł×ĺ×Ļ×Ļ×ľ ×ķ×ł×Ĵ
Ġ×ŀ×Ļ×Ļ×ł×¡×ĺ ×ķ
Ġ×Ľ×ŀ ×ķ×ĳ×Ł
Ġ×Ķ×Ļ×ª ×Ľ×Ł
Ġ×ĳ×¢×ł×¢×¤ ×Ļ×ĺ
Ġ×¤×¨×¢×ĸ ×¢×ł×ĺ
ĠPl anet
×Ķ×Ķ×Ķ×Ķ ×Ķ×Ķ×Ķ×Ķ
Ġpl ay
Ġmost ly
oint ment
Ġ×¢×§×Ĳ×ł ×¢×ŀ×Ļ
Ġ×ł×¢×ķ×ķ×¡×ľ×¢×ĺ ×ĺ×¢×¨
Ġ×¤×ľ×Ļ×Ĵ×Ķ×ĺ ×Ĵ×¢×Ĳ
Ġ ely
×Ļ× ł×ŀ
×¢ ×Ļ×¨
×ĺ Ã©×¨×Ĳ
Ġ×ĵ ×Ļ×ĳ×ķ×¨
Ġ×¤ ×Ĳ×Ķ
Ġ×¤ ×Ļ×Ļ×ł×©
×ľ ×ĳ×¢×¨
×ľ ×Ļ×Ļ×ĺ×Ł
Ġ×ķ ×Ļ×ĺ×Ĳ
Ġ×ŀ ×Ĳ×ĸ
Ġ×ĸ ×Ľ×Ļ
Ġ×Ķ ×Ļ×¡
Ġ×Ķ ×¢×¦
Ġ×ĳ ×ĵ×Ļ×§
Ġ×§ ×Ļ×ķ×Ŀ
Ġ×ł ×ķ×Ĳ
Ġ×© ×Ļ×Ľ×ľ×¢×ļ
Ġ×¦ ×ķ×ł×Ĵ
×§ ×Ļ×ĵ
×ķ×ķ ×¢×¡×ĺ×¢×¨
×Ĵ ×ł×¢×ĺ
Ġ×ľ ×Ĳ×Ĺ×¨
×¢×ľ ×ľ
×¢×§ ×©×Ł
×Ļ×ĸ ×©×Ĳ
×ł×ĺ ×Ļ×Ļ×ĳ×Ĳ
×ł×ĺ ×¨×Ļ×Ļ×©×Ĳ
Ġ×ķ×ķ×Ĳ ×ķ×Ļ×¡
Ġ×ĳ×¨ ×Ļ×ķ×ķ×Ł
×ĸ×© ×Ĳ×ł×¡×Ĳ×Ł
×Ļ×Ļ×ĵ ×ĸ×©×Ĳ
×ĳ×¨ ×Ļ×ĵ×ĸ×©
Ġ×Ĵ×¢×¤ ×¨
Ġ×Ĳ×¨×ķ×Ļ×¡ ×ķ×ķ×Ĳ×¨×¤×Ł
Ġ×©×ŀ ×ķ×ª
Ġ×ĳ×Ļ×ľ ×Ļ×Ĵ×¡×ĺ×¢
re n
Ġ×ĳ×Ĳ×© ×Ļ×¦×ĺ
Ġ×Ĵ×¢×§ ×Ĳ×Ľ×ĺ
Ġ×ĵ×ĸ×© ×Ļ×ŀ
Ġ×ĺ×Ļ×Ļ×ľ ×Ĳ
Ġ19 60
Ġ×Ķ×© ×ĳ
Ġ×¢×ł×ĵ ×Ĳ
Ġ×ŀ×Ķ ×ľ×Ľ×Ļ×Ŀ
Ġ×Ķ×¢×Ľ ×¡×ĺ×¢×¨
×Ĵ×¢ ×ķ×ķ×Ļ×¡×¢
Ġ×Ĳ×Ļ×Ļ×ł×Ĵ ×¢×©×ĺ×¢×ľ×ĺ
Ġ×ĵ×¢×¨×¦ ×Ļ
Ġ×¨×Ļ×ĸ ×Ļ×§×Ł
ĠN AB
Ġh us
Ġ×ŀ×¦×ĳ ×ķ×ª
×Ĵ×¢×ĸ ×Ĳ
Ġ×Ļ×Ĵ ×ĸ×Ļ×¡×ĺ×Ļ×ł×Ĵ
Ġ×¤×Ļ×ł ×ľ×Ĳ×ł×ĵ
Ġ×©×ĺ×Ļ×§ ×¢×ľ
Ġ×ľ×Ļ×ĺ ×ĺ×©×Ļ
Ġ×ĵ×¢×ľ ×¢×Ĵ
Ġ×¨×¢×ľ×Ļ×Ĵ×Ļ×¢ ×ĸ
em ikva
Ġ×©×Ļ×¤ ×ľ
Ġ×Ľ×¢×ŀ ×Ļ×©×¢
Ġ×¤×ķ×ł ×Ļ×§×ķ×ľ×Ĳ
×¢×ł×¤ ×¢×ľ×ĵ
Ġ×¡×Ļ×ł×Ĵ ×Ĵ×Ĳ
Ġj ourney
Ġ×¤×¢×¨×ĸ ×Ĳ×ł×¢×Ł
!!!! !!!!
×ĵ×§ Ã¡
Ġ×Ĳ×¤×ľ ×Ļ×§×¢
Ġ×ĸ×Ļ×Ľ×¢×¨×Ķ×Ļ×Ļ×ĺ ×¡
Ġ×¡×Ļ×¤ ×ķ×¨
ĠPre view
Ġ×ŀ×ł×Ķ×Ļ×Ĵ ×Ļ×Ŀ
Ġ×ĳ×Ĳ×ŀ×¢×¨×§ ×ķ×ł×Ĵ
Ġ×Ļ×ķ×ĺ ×ķ×ĳ
Ġ×Ĳ×ł×Ĵ×¢×Ĵ ×¨×Ļ×Ļ×ĺ
Ġ×ķ×ķ×Ļ×ł×© ×Ł
Ġ×Ĵ×ľ×Ļ×Ļ×Ľ×¦×Ļ×Ļ×ĺ ×Ļ×§
Ġ×¨×Ļ×¡×ĺ ×¨×Ļ×§
Ġ×Ĵ×¢×Ķ×Ļ×Ļ×ŀ ×¢
×¨×ĺ×©×Ļ×ķ ×ķ×ĳ×Ĳ
×¡×ŀ×Ĳ×¨×ĺ ×¤×Ĳ×Ł
Ġ×¡×ķ×Ĵ×Ĵ×¢×¡×ĺ ×Ļ×Ĳ
Ġely emikva
Ġhus band
. ''
1 18
V ips
c ookbook
m o
Ġ à
Ġ×ķ ×ķ×ŀ
Ġ×Ķ ×ķ×Ļ×ľ×¢
×¤ ×©×ķ×ĺ
×¤ ×¡×§
Ġ×ł ×Ĳ×¤×ĺ
×ŀ ×Ļ×Ļ×ĺ×Ļ×ĵ
Ġ×Ļ ×Ĳ×ļ
Ġ×ŀ×Ļ×ĺ ×¢×Ł
Ġ×Ĳ×¨ ×Ļ×Ľ×ķ×ª
Ġ×©×ĺ ×Ļ×¤×¢×¨
×¢×ŀ ×Ł
Ġ×¤×¨ ×ķ×Ĳ
×ķ×ĳ ×Ļ×Ŀ
×ł×Ĵ ×ĸ×©×Ĳ
×ĵ×¨ ×ķ×§×¨×¢×Ľ×ĺ
Ġ×Ĵ×¢×ľ ×ķ×Ļ×ĳ×ĺ
Ġ×©×ľ ×Ļ×ŀ×Ķ
×¨×§ ×ł×Ĳ
×ł×¢×¨ ×Ļ
×¤×¨ ×ķ×ĳ
ĠC ookbook
er f
Ġ×ĳ×Ĳ×¨ ×Ļ×¨×ĺ
Ġ×Ĳ×ĵ ×¨×ĳ×Ĳ
Ġ×¤×Ĳ×¨×ŀ ×¢×Ĵ
Ġ×Ļ×ķ×ł×Ĵ ×¢×ľ
ĠP irel
ic a
Ġ×Ķ×ľ ×ķ×Ĳ×Ļ
Ġ×¤×ķ×ľ ×Ł
×ŀ×ĳ ×Ļ×§
ĠW esti
Ġ×Ķ×ķ×Ļ×¤×ĺ ×§×ķ×ķ×Ĳ×¨×ĺ
Ġ×§×¢×ł ×Ļ×Ĵ×Ł
Ġ×ŀ×ĸ ×Ľ×Ķ
Ġ×ĺ×ķ×¨ ×Ļ×ĸ×Ŀ
Ġ×ľ×¢ ×Ļ×ĳ×Ĳ×¨
Ġ×¢×¡×ĺ ×¨×Ļ×Ļ×Ľ
Ġ×¦×¢×© ×ĺ×¢×¨
×ķ×ķ×Ļ×ł×Ĵ ×¡
Ġ×Ĳ×¨×Ļ×Ļ×ł×¦ ×ķ×Ĵ×Ļ×Ļ×Ł
Ð¾Ð ´
Ġ×¤×¨×¢×Ĵ ×¡×ĺ
×©×ķ×ľ ×ĵ×Ļ×§
Ġ×ķ×ķ×Ļ×¨×§ ×ľ×¢×Ľ×§×Ļ×Ļ×ĺ
Ġ×ĳ×Ĵ ×©×ŀ×Ļ×ķ×ª
Ġ×©×§ ×¨×Ļ×Ŀ
×©×ĺ×¢×ĺ ×ľ
Ġ×¤×Ļ×ĸ ×Ļ×©×¢
×ĸ×ľ ×ĵ×Ļ×§
Ġ×ĺ×ķ×Ļ×© ×ķ×ł×Ĵ×¢×Ł
×ĸ×©×¢×¨ ×Ļ×ł×Ĵ
Ġ×¤×¨×Ļ×ĵ ×ŀ×Ĳ×Ł
Ġ×Ļ×¢×ł ×¢×ŀ
Ġ×°×¢×¨ ×§
Ġ×ĳ×Ĳ×ĺ×Ļ×Ļ×ľ ×Ļ×Ĵ×ĺ×¢
ĠBen oni
×ķ×ķ×Ļ×Ļ×¨ ×Ĳ
ĠTV W
Ġcomp assion
×Ĺ×ĸ ×¨×Ł
×ŀ×ķ×ŀ ×Ĺ×Ķ
×¨×¢×¡×¢×¨ ×ķ×ķ×¢
Ġ×¡×Ļ×ł×ĵ ×¨×Ĳ
Ġ×¢×ķ×ķ×¢×ł×ĺ ×ķ×¢×ľ
ĠChrist ina
cookbook s
ĠPirel lo
ĠWesti e
2 29
g ames
Ġ×ŀ ×ķ×ķ×Ļ×ĸ×ł×Ļ×¥
Ġ×Ķ ×¢×ŀ×¤
Ġ×§ ×Ļ×ĵ
×© ×¢×Ķ
×ĵ ×ķ×ľ×¢
Ġ×ł ×Ļ×ª
×ĳ ×ŀ
×ĳ ×Ļ×Ļ×ĵ×¢
×ĸ ×Ļ×©×Ĳ
×Ķ ×¢×¤×ĺ×Ł
Ġ×ĺ ×¢×¡
×ķ×ª ×ķ
×¢×ŀ ×Ļ×¢
×Ĳ×Ĵ ×Ĳ×¨
×ł×ĺ ×Ļ×Ĳ
Ġ×Ķ×Ĳ ×Ļ
×ķ×© ×Ļ
×Ĳ×ĳ ×Ļ×ĵ×ĸ×©
×¢×ł×¡ ×Ļ×ķ×ķ×¢
Ġ×Ĳ×¨×ķ×Ļ×¡ ×Ĵ×¢×ķ×ķ×Ļ×ĸ×Ł
Ġ×Ĵ×¢×ĵ ×Ļ×Ľ×ĺ
Ġ×ĺ×¢×¨ ×ł×ĺ×Ļ×Ļ×ĳ×Ĳ
Ġ×ŀ×¡ ×Ľ
Ġ×Ĳ×¨×Ļ×Ļ× ł×ŀ
×ķ×ķ×Ļ×¡ ×ĺ×¢×¨
Ġ×ĳ×© ×ŀ×Ĺ×Ķ
Ġ×ķ×ķ×Ĳ×¨ ×©×Ĳ
Ġ×ŀ×¢×©×Ķ ×ľ×¢×ļ
Ġ×¤×Ĳ×¡ ×Ļ×Ĵ×¢
×ķ×Ļ×ĵ ×¢×©
×¢×ł×Ķ ×Ĳ
Ġ×ŀ×ª ×ł×ķ×ª
ĠÐ »
Ġ×ķ×Ļ×¡ ×ŀ
Ġ15 00
Ġ×Ĳ×¨×Ĵ ×¢×ł
Ġ×ľ×¢×Ĵ ×Ļ×¡×ľ
Ġ×ĳ×Ļ×¨ ×Ĳ×ĳ×Ļ×ĵ×ĸ×©
Ġ×§×¢×Ĵ ×ł×ĸ
Ġ×ľ×Ļ×ŀ ×Ļ×ĺ×¢×ĵ
Ġ×§×¨×Ļ×¡×ĺ ×ł×ĺ×ķ×Ŀ
×ķ×ķ×Ļ×¤ ×Ļ×ľ
Ġ×Ļ×ł×¤ ×¨×Ĳ
×ķ×ķ×Ļ×Ļ×ĺ ×Ļ×ķ×ķ
×Ļ×ł×ĸ ×ľ
×Ĳ×¨×Ĵ ×¢×ĺ
Ġ×Ĳ×Ľ ×¦×Ļ×Ĵ
Ġ×¦×ķ×§×¢×¨ ×§×¨×¢×ł×§
×Ļ×° ×¢×¨×¡
Ġ×¨×Ĳ×ĳ ×Ļ×ł×Ĳ×ķ×ķ×Ļ×ĺ×©
Ġ×¤×Ĳ×ĳ ×¨×Ļ×§×Ł
Ġ×ĺ×ķ×ł ×¢×ľ
Ġ×Ĳ×¨×Ľ ×Ļ×ķ×ķ×Ł
Ġ×Ĳ×ķ×Ķ ×ľ
Ġ×Ĳ×Ļ×Ļ×ĵ×ľ ×§×Ļ×Ļ×ĺ
Ġ×ĵ×¢×¨×©×¨ ×Ĳ×§×Ł
Ġ×ĵ×Ļ×ĳ ×ķ×¨×Ļ×Ŀ
Ġ×¤×Ĳ×¡×ŀ×Ĳ×§ ×¢×ķ×ķ×¢×Ł
Ġ×ŀ×Ĳ×ł×ĺ×¨ ×Ļ×Ĳ×ľ
×¨×©×² ×ĵ×¢×ł×¢
Ġ×ĵ×©×ŀ ×Ļ×Ĳ
2 10
? ]
ç Ķ
Ġ ot
×¨ ×Ĳ×§
×¨ ×ł×Ļ×ĺ
Ġ×ĵ ×¢×§×¢×¨
Ġ×Ĵ ×ĳ×¨
Ġ×ĳ ×ķ×ł×ĺ
×© ×¢×¡×ĺ×¢×¨
×ĵ ×Ļ×ľ
Ġ×¦ ×Ļ×¢
×ł ×Ļ×Ļ×¢×¡
×§ ×¢×ľ×¢
Ġ×¨ ×ķ×Ļ×ĳ×¢×¨
Ġ×¤×Ĳ×¨ ×ķ×ķ×Ĳ×¨×¤×Ł
Ġ×¢×¨ ×ķ×ķ×¢×ľ×ĺ
×ķ×ľ ×Ļ×§
Ġ×Ľ ×ķ×ķ×Ĳ
×ķ×¡ ×¢×ĺ×¡
×ķ×§ ×ľ
×ķ×ĺ ×ľ
Ġ×¡×¤ ×¢×ł×ĵ×Ł
×ĺ×¨ ×Ļ×ĺ
×¨×ĵ ×ĸ
×¢×ľ×ĺ ×¢×ł×Ļ×©
×ķ×Ķ ×ķ
×ķ×ł×ĺ ×ĵ×Ĳ
Ġ×Ĵ×¢×¨ ×¢×ĵ
Ġ×¦×ķ×¨×Ļ×§ ×¦
Ġ×¢×§×¡ ×¤×ľ
Ġ×Ĳ×Ļ×ł×ĵ ×Ļ×ķ×ķ×Ļ×ĵ
×¨×ķ×Ļ×¡ ×Ĵ×¢×ľ×Ĳ
ĠF all
ĠS C
Ġ×Ļ×¨ ×Ĺ
×ķ×ķ×Ļ×ł ×Ĳ
×¤×Ĳ×ľ ×Ļ×§
×¡×§ ×ķ×ķ×¢×¨
Ġ×Ĳ×§ ×¦
Ġ×Ļ×Ķ ×Ļ
Ġ×ŀ×ĸ ×ĳ×Ĺ
ãģ £
Ġ×ł×Ĺ ×ŀ×Ķ
Ġ×Ľ×ľ×ľ ×Ļ×ķ×ª
Ġ×ľ×Ļ×ŀ ×Ļ×ĺ
Ġ×ĳ×ĵ ×Ĺ×Ł
Ġ×Ļ×ŀ ×Ļ×Ļ×ľ×ĸ
Ġ×¢×¨×ł×¡ ×ĺ×¢×¨
Ġ×ķ×Ĺ ×¡×ĵ
ĠAn al
Ġ×Ļ×ĳ ×©×Ķ
×ĺ×Ļ×ĺ ×Ļ×¡
Ġ×ľ×¢×§ ×ĺ×¢×¨
Ġ×Ĵ×Ĳ×ķ×ķ×¢×¨ ×ł×¢×¨
×ľ×ķ×ŀ ×Ļ×ł×ķ×Ŀ
Ġ×ĺ×¨×Ĳ×ĵ ×Ļ×¦×Ļ×¢
Ġ×ķ×ķ×Ļ×Ļ×ĵ ×ĸ×©×¢×¨×Ļ×ł×Ĵ
Ġ×§×Ĳ×© ×¢
Ġ×¨×Ļ×ĵ ×ķ×¡×ĺ
Ġ×¨×¢×¤×Ĳ×¨ ×ĺ×¢×¨
Ġ×¡×Ĳ×ķ×ķ×¢×ĺ ×Ļ×©
Ġ×ĺ×©×¢×¨×ł ×Ĳ×ĳ
Ġ×Ļ×¨×ĵ ×Ł
Ġ×©×ķ×Ĺ ×ĺ
Ġ×§×ľ×Ļ×ŀ ×Ĳ×ĺ
Ġ×¤×Ĳ×¨×Ĵ×¢×©×¨×Ļ×ĺ ×¢×ł×¢
0 1
1 16
I T
] [
×¢ ×Ļ×Ŀ
Ġ×Ĳ ×ķ×ķ×¢×Ļ×ľ
×ĺ ×Ĳ×ŀ×¢×¨
×¨ ×Ļ×ķ×ķ
×¨ ×Ļ×ĺ×Ĳ
×¨ ×ĵ×¢×¨×Ł
×ľ ×ķ×Ļ
Ġ×Ĳ×Ļ× ª
Ġ×ķ ×¦
Ġ×Ķ ×Ļ×Ļ×ķ×ķ
Ġ×ĳ ×ķ×Ļ×ĵ×¢×Ŀ
Ġ×§ ×Ļ×§
Ġ×§ ×¢×ķ×ķ
×ĵ ×¢×ŀ×Ĳ
Ġ×¢ ×ĺ×¨
Ġ×¢ ×Ĵ×ľ
Ġ×ľ ×Ĳ×ł×§
Ġ×Ĳ×ĸ ×Ĳ×ľ
Ġ×ŀ×Ļ×ĺ ×ĸ
×Ļ×Ĵ ×¢×ľ
Ġ×¢×¨ ×ķ×ķ×Ĳ×¨×ĺ×Ł
Ġ×¢×¨ ×Ĳ×¤×ľ×Ĳ×Ł
×¢×ŀ ×Ļ×©×ĺ
Ġ×ĳ×ľ ×Ĳ×ĸ×ĺ
×Ĳ×ĳ ×Ĳ
×Ĳ×ĳ ×Ļ×Ļ×ĺ
Ġ×§×¨ ×Ĳ×ł×ĺ×¢
×ķ×ł×ĵ ×Ļ
Ġ×©×ľ ×Ĳ×Ĵ×ĺ
Ġ×Ĵ×¨×ķ×Ļ×¡ ×¢×Ł
Ġ×©×ķ×ķ ×Ļ×Ļ×¡
Ġ×ł×¢×ŀ ×ľ×Ļ×ļ
×Ĵ×¨ ×ķ×¤
Ġ×ĵ×ķ×¨×Ľ ×ĵ×¢×Ŀ
Ġï¬® ×ľ×¢
Ġs games
Ġ×Ĳ×§×ĺ ×Ļ×Ĳ×¨
Ġ×ķ×ķ×Ļ×¨ ×ĸ×©
Ġ×Ĳ×ł×§ ×ķ×§×Ł
×ķ×ķ×Ļ×¨ ×§
Ġ×©×ĺ×¨ ×Ĳ×£
âĢ¦ âĢŁ
Ġ×ĳ×Ļ×¨ ×Ĵ×¢×¨×¡
Ġ×ĺ×Ļ×Ļ×¢×¨ ×Ł
Ġ×ĺ×Ļ×Ļ×¢×¨ ×¡×ĺ×¢
Ġ×¤×¨×Ĳ×¤ ×¢×¨×ĺ
Ġ×Ļ×ł ×ķ×ķ×Ļ×Ļ×¨×Ĳ
×ķ×ł×¤ ×ĺ
×¡×¡ ×Ļ×¤×ľ×Ĳ
Ġ×¦×Ļ×ĺ ×Ļ×¨×ĺ
Ġ×ĵ×ķ×¨×Ľ×Ĵ×¢×¤ ×Ĳ×ľ×Ł
×Ķ×© ×§×¨
Ġ×ĸ×Ļ×ł×Ĵ×¢×¨ ×Ļ×Ł
Ġ×ĳ×Ļ×Ļ×Ĵ ×¢×ľ×Ļ×Ļ×Ĵ×ĺ
Ġ×ĳ×Ĳ×©×ķ×ľ×ĵ ×Ļ×Ĵ
Ġ×¨×ķ×¤ ×¢×Ł
×¢×ł×ĳ ×ķ×¨×Ĵ
Ġ×©×ķ×ª ×¤×Ļ×Ŀ
Ġ×¢×ª ×Ķ
Ġ×¤×Ļ×ĺ ×©×¢×ķ×ķ×§×¢×¡
ĠFl or
Ġ×Ķ×Ļ×ł×ĵ ×ľ
Ġ×Ĳ×ķ×Ļ×¡×ĺ×¢×¨ ×ľ×Ļ×©
Ġ×ŀ×ķ×ĺ×© ×¢×Ł
Ġ×Ļ×ĺ ×ĳ
×¨×Ĳ×ľ×ĵ ×Ļ×§×¢
Ġ×Ĳ×ķ×Ļ×¤×ŀ×¢×¨×§ ×ĸ×Ĳ×ŀ×§×Ļ×Ļ×ĺ
Ġ×Ĳ×ķ×Ļ×© ×ķ×ķ×Ļ×¥
Ġ×¢×§×¢×ł ×Ĳ×ŀ×Ļ×¢
Ġ×©×ĺ×¢×¨×§×¡ ×ĺ×¢
Ġ×¢×©×Ļ×¨ ×ķ×ª
you tube
2 26
2 23
Ġ our
×¢×¨ ×Ļ×Ļ×ĺ×Ĳ
Ġ×¤ ×ķ×©
Ġ×¤ ×¢×ĺ×©
Ġ×¤ ×¢×§×ľ×¢×ļ
Ġ×ķ ×ł×Ļ×¥
Ġ×ķ×ķ ×Ĳ×Ľ×¢×Ł
Ġ×ĳ ×ķ×Ļ×ľ
×¤ ×Ĳ×¡
Ġ×ł ×¢×§×¡×ĺ
×ĸ ×¢×¡
×ł ×Ļ×Ļ×ĵ×Ł
×Ļ×© ×ŀ×Ĳ
×¢×ł ×ľ×Ļ×Ľ×¢
Ġ×Ļ ×Ķ×Ĳ
Ġ×Ļ ×¡×Ĳ
×Ĳ×ľ ×ĺ×¢×¨
×Ľ ×ł
×ł×ĵ ×ľ×¢×¨
Ġ×¤×¨ ×Ļ×Ļ×ĺ×Ļ×§
Ġ×ķ×ķ×¢×ľ ×Ļ×ķ
×ķ×§ ×Ļ×Ļ×ĺ×Ĳ
Ġ×Ĵ×¨ ×Ĳ×ĳ×¢
Ġ×Ĳ×ķ×Ļ×¡ ×¤×Ļ×¨
×©×ĺ ×Ļ×§
... ),
Ġ×ĳ×¨ ×ķ×ĺ×Ĳ
×¢×Ķ ×Ĳ×ľ×¤×Ł
Ġ×ĺ×¨ ×Ļ×Ļ×¢×Ł
×ł×Ķ ×²
Ġ×¡×ĺ ×Ļ×ķ×ķ
Ġ×Ĳ×ł×Ĵ ×¢×ķ×ķ
Ġ×Ĵ×¢×ł ×Ļ×ŀ×¢×Ł
Ġ×Ĵ×¢×¨ ×¢×¨
×¤×Ĳ×¨ ×ľ
Ġ×Ĵ×¢×ĵ ×Ĳ×Ľ×ĺ
×ł×© ×Ļ×¤
×¦×ķ ×Ĳ
×ķ×Ĺ ×§
Ġ19 18
en ce
Ġ×©×ŀ×ķ ×¢×ķ×ª
ĠF acebook
Ġ×Ĳ×ķ×Ļ×¤×Ĵ ×¢×ĳ
Ġ×Ķ×ľ ×©×ķ×Ł
as ter
ĠW A
Ġd er
×ł×ĳ ×ķ×Ļ×Ĵ×Ł
Ġ×Ķ×¡ ×ª×ľ×§×ķ×ª
×¨×Ļ×Ļ×ĵ ×ľ
Ġ×ĳ×¤ ×ķ×¢×ľ
Ġ25 00
Ġ×ĺ×Ĳ×ľ ×Ĳ×ł×ĺ×Ł
Ġ×¨×Ĳ×ĵ ×ł×Ļ
Ġ194 7
Ġ×Ļ×ł×¤ ×¢×¨×ĺ
Ġ×Ĵ×¢×©×ŀ×Ĳ×§ ×¢×¨
Ġ×ĳ×¢×§ ×¢×¨×Ļ×Ļ
Ġ×Ĵ×¨×Ĳ×ĵ ×Ł
Ġ×¤×Ļ×ĸ ×Ļ×©
Ġ×ĳ×Ĳ×ķ×ķ ×¢×Ĵ×ĺ
Ġ×Ĳ×Ļ×ł×ĺ×¢×ľ ×Ļ×Ĵ
Ġ×ŀ×Ĺ×ķ×ª ×ł×Ļ×Ŀ
Ġ×ŀ×ķ×¦ ×Ļ×Ĳ
Ġ×Ĳ×¨×ĺ×Ĳ×ĵ×Ĳ×§×¡ ×Ļ×©×¢
Ġ×¨×¢×ł ×¢×¡×Ĳ
Ġ×Ķ×Ľ×ķ×ľ ×ľ
ount ain
Ġ×Ĳ×¨×Ĵ×¢×ł×¢×ĸ ×Ĳ×¦×Ļ×¢
Ġ×ĳ×ĳ×Ĺ ×Ļ×ł×ª
Ġ×ŀ×Ļ×ľ×§ ×ķ×ķ×Ļ×ĵ
' ;
u k
w ord
×¢ ×¢×ĵ
×¢×¨ ×ķ×ķ×Ĳ
×ľ ×Ļ×Ļ×ĺ×Ļ×ł×Ĵ
×ľ ×Ĳ×Ĵ×Ļ×¢
Ġ×Ĳ×Ļ× ł×ĵ×ĸ
Ġ×ķ ×ĵ×ķ
×¡ ×§×¢
Ġ×ĸ ×Ĵ
Ġ×Ķ ×ŀ×¤
Ġ×§ ×¢×¨×ĺ
×ĵ ×Ļ×ł×¡×ĺ
Ġ×ł ×Ļ×ł×Ĵ
×ł ×Ļ×ĵ×ĸ×©×Ļ×ĸ
×ŀ ×Ĳ×ļ
×Ĵ ×Ļ×Ł
Ġ×Ĵ×¢× ĳ×¢×¨
Ġ×ĵ×¢×¨ ×ķ×ķ×Ļ×Ļ×ĺ
×¢×ĺ ×©×¢×¨
×¢×¡ ×¢×¨×ĺ
×Ļ×¡ ×Ļ×ł×Ĵ
Ġ×¢×¡ ×¤
×Ĳ×Ĵ ×Ļ×¢×¡
Ġ×Ľ ×¢×ĸ×©
Ġ×Ĵ×¨ ×ķ×ĳ
×ķ×ĺ ×ķ×ĳ×¢
Ġ×ķ×ķ×¢×¨ ×Ĳ
Ġ×Ĳ×Ļ×ĳ×¢×¨ ×Ĺ×ĸ×¨×Ł
Ġ×ĺ×¨ ×¢×Ĳ
×ł×¡ ×Ļ×ĵ×¢×¨
×Ĳ×ĳ ×Ļ
Ġ×§×¨ ×Ĳ×ł×ĺ
Ġ×§×¨ ×ķ×§×¡
Ġ×ĵ×¨ ×Ļ×¤
Ġ×Ĳ×ķ×ŀ ×¨
Ġ×Ĵ×¢×ŀ ×Ĳ×¡×ĺ×Ł
×Ļ×Ļ×Ľ ×¢×ł×ĺ
Ġ×¦×ķ×¨×Ļ×§ ×Ĵ×Ļ×Ļ×Ł
×ĳ×ľ ×Ļ×§
×ŀ×Ļ×ĺ ×ľ×¢×Ł
Ġ×¦×ķ×ľ ×Ĳ×ĸ×Ł
Ġ×¤×Ĳ×¨×Ĳ ×Ļ×Ĳ×¨
Ġ×§×ľ×Ĳ×¨ ×§×Ļ×Ļ×ĺ
Ġ×¡×¤×¢×¦ ×Ļ×Ĳ×ľ
Ñģ ÐºÐ¸
Ġ×ŀ×Ĵ ×Ļ
Ġ×ķ×ŀ ×¦×ķ×ķ×ª
12 5
×ĵ×ķ×© ×Ķ
us s
27 0
28 0
Ġ×ķ×ķ×Ļ×ĵ×¢×Ĳ ×ķ
Ġ×ŀ×ł×Ĺ ×ª
×ľ×Ĳ×ĸ ×¢×Ł
Ġ×¤×¨×Ļ×Ļ×ĺ ×Ļ×Ĵ
Ġ×ķ×ķ×¢×ĳ×ĸ×Ļ×Ļ×ĺ ×ľ×¢×ļ
×ł×¡×¢×¨ ×ķ×ķ×Ĳ
Ġ×ĵ×¨×Ĳ×¡×ĺ ×Ļ×©
Ġ×Ķ×¢×ĳ×¨×¢×Ĳ ×Ļ×©
Ġ×Ĳ×ł×Ľ ×Ļ
×ĵ×ķ×ķ×¢×ł×ĺ×© ×¢×¨×ĸ
Ġ×ĵ×¢×¨×ł×¢×ł×ĺ×¢×¨ ×ĺ
Des ire
Ġ×Ľ×¢×ĸ×© ×ĳ×Ł
2 14
4 00
? âĢĿ
e le
â Ĩ
×ĺ ×ł×¡
×ĺ ×ķ×Ļ×ĺ
×¨ ×¢×ĺ×¢×¨
×ľ ×ķ×¤
×ľ ×Ĵ×¢×¨
Ġ×Ĵ ×Ĳ×¨×ĺ
×¡ ×Ļ×§×¡
Ġ×Ķ ×±
×Ĳ×¨ ×¢×Ł
×ĵ ×Ļ×¡×§
Ġ×ł ×Ļ×ŀ
Ġ×¦ ×Ļ×¨×ķ×ł×Ĵ
Ġ×¢ ×Ļ×ł
×ŀ ×ł×ķ×ª
×§ ×ľ×Ļ
×ķ×ķ ×Ĳ×©
×Ķ ×Ĳ×£
Ġ×Ļ ×ł×ł×Ĳ
Ġ×ľ ×ķ×§
Ġ×ľ ×ķ×Ļ×Ķ
Ġ×¨ ×¢×ŀ×Ĳ
×Ļ×Ľ ×Ķ
×Ĳ×¤ ×ĺ×¢×¨
Ġ×ķ×ķ×¢×¨ ×¡×Ĳ
Ġ×Ĳ×Ļ×ł ×Ĳ×Ľ×ĺ
×ĵ×¨ ×ķ×§×Ł
Ġ×Ĳ×ķ×Ļ×¤ ×ĳ×ķ×Ļ×¢×Ł
×¨×ĺ ×©×Ĳ
Ġ×¤×ľ ×¢×ĺ
Ġ×¤×ľ ×Ļ×Ł
Ġ×¤×ľ ×Ĳ×ł×¦×Ł
×ĺ×¨ ×¢×ł×¡
×ĺ×¨ ×Ĳ×¥
Ġ×Ĵ×ľ ×Ĳ×ĺ
×¨×§ ×Ļ×Ļ×ĵ
×¢×§×ĺ ×Ļ×§
Ġ×¤×Ĳ×ľ ×Ļ×§
Ġ×Ļ×¢×ĵ×¢×¨ ×¢×¨
×Ľ×ĺ ×ķ×ł×Ĵ
Ġ×ŀ×Ĳ×ł ×Ĳ×¨×Ľ
×Ļ×ł× Ľ
×¡×Ĳ ×ķ
Ġ×¤×Ĳ×¨×ľ ×Ļ×ĳ×ĺ
Ġ×¤×Ĳ×¨×ľ ×ķ×Ļ×¨×¢×Ł
Ġ×Ĳ×Ļ×ł×ĵ ×Ļ×Ĳ
×§×¨ ×Ĳ×¤×ĺ
Ġ×§×ł ×Ĳ×¤×¢
Ġ×ľ×Ļ×Ļ×§ ×ĺ
Ġ×¤×Ĳ×¡ ×¤×Ĳ×¨×ĺ
ĠCre ated
Ġ×ł×© ×ŀ×ª
Ġd ays
Ġ×©×Ľ ×Ĺ
Ġ×¨×Ĳ×ĺ ×ĸ×Ĳ×Ŀ
Ġ×Ĳ×ł×¤ ×Ļ×ľ×Ł
Ġ×ĳ×ķ×© ×¢×ķ×ķ×¢×ĺ
Ġ×ľ×Ļ×Ļ×ĳ ×ķ×©
×ķ×ķ×¢×ł ×Ļ×Ĳ
×Ĳ×ł×© ×ĺ×Ĳ×ĺ
Ġ×ĳ×Ļ×Ļ×© ×ĺ×Ļ×Ļ×Ł
Ġ×©×ĺ×Ļ×ľ ×¢
Ġ×Ĳ×ķ×¤ ×ł×Ļ×Ŀ
Ġ×§×¨×Ļ×¡×ĺ ×ľ×Ļ×Ľ×¢
Ġ×Ĳ×ķ×Ļ ïŃİ
Ġ×§×Ļ×¨ ×ļ
Ġ×Ļ×ŀ ×Ļ×ķ
Ġ×ķ×ª ×Ļ×§
Ġ×Ĳ×ķ×ł×ĺ×¢×¨×© ×Ļ×Ļ×ĵ
Ġ×¤×Ĳ×¨×ĺ×Ļ×Ļ×ĵ ×Ļ×Ĵ×Ł
Ġ×Ĳ×ķ×ŀ×Ĵ×ľ ×ķ×Ļ×ĳ
Ġ×ĵ×Ļ×ł ×Ĳ×¡×ĺ
Ġ×Ĳ×ľ×ĺ×ŀ×Ĳ×ĵ ×Ļ×©×¢
Ġ×¤×Ĳ×¨×¢×¤×ł×ĺ ×ľ×¢×Ľ×Ł
Ġ×ĵ×§ ×ĵ×ķ×§
Ġ×Ĵ×ĵ×¨ ×Ļ×Ŀ
Ġ×¡×¤×¢×¦×Ļ×¢ ×ľ×¢×¨
Ġex p
Ġ×¦×ķ×Ĵ×¢×¤ ×Ĳ×¡×ĺ
Ġ×Ĳ×Ļ×¡×ľ×Ĳ×ŀ ×Ļ×©×¢
Ġ×¡×¢×¨×ĺ×Ļ×¤ ×Ļ×¢×¡
Ġ×¤×¨×Ĳ×ŀ ×Ļ×ł
Ġ×Ĳ×¨×Ļ×ĸ ×Ĳ×ł×¢
Ġ×¢×§×© ×ł×ķ×ª
Ġ×¦×ķ×Ĵ×ľ ×Ļ×Ļ×ļ
Ġ×Ļ×ł×¤×¢×¨×ĺ ×Ļ×ľ×Ļ×ĺ×Ļ
d is
Ġ Ġ
×¨ ×Ļ×ŀ×Ĳ
×ľ ×Ļ×Ĵ×ĺ
Ġ×ŀ ×¢×ĺ×©
Ġ×ŀ ×¦×ķ×ķ×Ķ
Ġ×ķ×ķ ×Ļ×Ļ×ł×ĺ
×¡ ×§×ľ
Ġ×ĸ ×ķ×Ļ
Ġ×ĳ ×¢×ľ×ĺ
Ġ×ĳ ×¢×§×Ĳ
×ĵ ×ĳ×¨×Ļ×Ŀ
Ġ×ł ×¨
×ĳ ×¢×ª
Ġ×¦ ×Ĳ×¨×Ł
×ŀ ×Ļ×¢
Ġ×ľ ×ķ×ľ
Ġ×¨ ×¢×©×ĺ
×¢×¡ ×¢×Ł
×Ļ×ł ×ĺ×¢
Ġ×©×ĺ ×Ļ×Ļ×¦×¢×ļ
×ķ×§ ×¦×Ļ×¢×¡
Ġ×ĳ×¨ ×Ļ×£
Ġ×ĳ×¨ ×¢×§×ľ
×¢×ĸ ×Ļ×¨×ĺ
Ġ×¡×¤ ×Ļ×ĵ
Ġ×ķ×ķ×Ļ×ľ ×Ļ×ĵ×ĸ×©
Ġ×ŀ×© ×Ļ×Ĵ
Ġ×¦×Ļ×Ļ×ĺ ×ľ×Ļ×ļ
×Ĳ×© ×§×¢
ĠC ertif
Ġ×ŀ×Ļ×ł ×¢×¨×Ĳ
Ġ×¨×¢×Ĵ ×¢
Ġ×ľ×Ļ×ł×§ ×Ł
Ġ×Ļ×© ×ŀ×Ĺ
Ġ5 3
Ġ×ŀ×Ĳ×ŀ ×Ļ×Ł
Ġ×Ĳ×ķ×ŀ×Ĵ ×¢×Ķ
ĠM al
Ġ×¨×Ļ×Ľ×ĺ ×Ļ×§×¢
ed ia
Ġw as
×Ļ×ĵ×ĸ×© ×ĵ
Ġ×Ĳ×Ļ×ł×Ĵ ×Ĳ
ĠÐ ļ
Ġ×¤×Ĳ×ľ×Ļ×ĺ ×Ļ×©
Ġ×ĳ×ª ×ł×Ĳ×Ļ
Ġ×¤×Ĳ×¨×Ķ ×¢×¨
Ġ×ŀ×Ļ×Ļ×ĵ ×¢×ľ×¢
27 5
Ġ×ĺ×Ĳ×¨ ×Ĳ×ł×ĺ×Ĳ
Ġ×ł×ª ×¤×¢×ľ
Ġ×°×² ×¡×ĺ
×ķ×ķ×Ļ×Ļ×¡ ×¢
Ġ×ĳ×Ļ×ĺ ×ķ×ľ
Ġ×¨×¢×§×Ĳ×¨×ĵ ×Ļ×¨×ĺ
Ġ×Ľ×Ĳ×¤ ×¦×¢×Ŀ
×ŀ×Ĳ×ł×ĺ ×Ĳ×Ĵ
Ġ×Ĵ×¢×§×ľ ×Ĳ×¤×ĺ
Ġ×¡×Ĳ×ľ×ĵ ×Ĳ×ĺ
×ĸ×ķ×ł×ĵ ×¢×¨×¡
Ġ×ł×¢×ķ ×ķ×¤
Ġ×¤×¨×Ĳ×§ ×ľ×Ĳ×ŀ
Ġ×¤×Ĳ×¨×Ĵ×¨ ×Ļ×ł×Ĵ
Ġ×Ĳ×ķ×Ļ×¤×Ĵ×¢×¨ ×¢×Ĵ×ĺ
TI F
Ġ×¨×¢×ľ×Ļ×Ĵ ×Ļ×¢×¡
Ġ×©×¤×Ļ×ł ×ķ×ķ×¢×ĳ×¡
Ġ×Ļ×©×¢ ×Ļ×Ķ
Ġ×©×Ļ×ł×ķ ×Ļ×Ļ×Ŀ
Ġ×©×¤×Ļ×ĺ ×¢×ľ×¢×¨
Ġ×¢×ł×ķ×ķ×Ļ×Ļ×¨ ×Ĳ×ŀ×¢×ł×ĺ
2 13
A TE
c z
Ñ İ
Ġ×¤ ×ł
×ľ ×ķ×Ĺ
Ġ×Ķ ×¢×¤×ĺ
Ġ×ł ×Ļ×ĸ
×ĸ ×ķ×Ľ
×§ ×ķ×¨×¨
Ġ×ĺ ×Ļ×ł×§
Ġ×ĵ×¢×¨ ×ķ×ķ×Ĳ×¨×ĺ
Ġ×¤×Ĳ×¨ ×ŀ×¢×ĺ
Ġ×¤×Ĳ×¨ ×¢×ł×¤
×Ļ×¢ ×ł×¢×¨
×¢×Ĵ ×ľ
Ġ×¤×¨ ×Ļ×ł×¥
×Ļ×ĸ ×ŀ×¢×Ł
Ġ×Ķ×Ĳ× Ĺ
Ġ×ĵ×Ĳ ×ķ×Ł
×ł×ĺ ×Ļ×¡×¢×ŀ×Ļ×ĺ
Ġ×©×¤ ×Ļ×Ļ×ĸ
Ġ×Ĵ×¨ ×ķ×¡
×ķ×ķ×Ļ× ł×¥
×Ĳ×ł×ĵ ×¢×ĺ
Ġ×¤×ľ ×Ĳ×Ŀ
Ġ×©×ľ ×Ĺ
Ġ×Ĳ×¨×ķ×Ļ×¡ ×Ĵ×¢×©×ĺ
Ġ×Ĳ×ł×Ĵ ×¢×§×ķ×§×ĺ
Ġ×©×ŀ ×Ĳ×ľ×¥
×ķ×Ķ ×¢×¨×Ł
Ġ×Ĳ×ķ×ŀ ×¤×Ĳ×¨×©×ĺ
Ġ×° ×¢×Ĵ
Ġ×° ×Ļ×ĵ×¢×¨
Ġ×¢×ĺ ×Ļ×Ĳ
Ġ×ĳ×Ļ×ľ ×Ľ×¢×¨
Ġ×Ĵ×¢×ĺ ×ĺ×¢×§×¡×ĺ
Ġ×¤×Ĳ×ľ ×Ĵ×ĺ
×ł×© ×Ĳ×¤×ĺ×Ł
Ġ3 3
Ġ×¢×§ ×ĳ
at h
Ġ19 70
Ġ×ŀ×§ ×Ļ×ľ
Ġ×©×ł ×Ļ×Ĳ
Ġ×¦×ķ×© ×ķ×Ļ×¢×¨
Ġ×Ĳ×ł×ĺ ×Ķ×Ĳ×ľ×ĺ×Ł
Ġ×§×Ĳ×ŀ ×Ĳ×ł×¡
Ġ×Ĳ×¨×Ļ×Ļ×ł×Ĵ ×Ĳ×ł×Ĵ
Ġï¬® ×¨×²
Ġ×Ĳ×¤×Ĵ ×¢×ľ
Ġp r
Ġw ill
×Ļ×Ļ×ł×ĵ ×Ĳ
Ġ×Ĵ×ŀ ×ķ×¨
ĠW ith
Ġ×¡×¢×ľ ×Ļ×ł×Ĵ
Ġ×¤×Ĳ×¨×ĵ ×Ĳ×ł×§×¢×Ł
Ġ×ĳ×Ĳ×Ĵ ×ľ×Ļ×Ļ×ĺ×Ł
Ġ×Ĳ×Ļ×Ļ×ĳ ×Ļ×§×Ļ×Ļ×ĺ
Ġ×ł×¡ ×ª
×¦×ķ×© ×ĺ
Ð½ Ñĭ
Ġ×Ļ×¢×¨ ×ľ×Ļ×ļ
Ġbe e
Ġ×ľ×ķ×¤ ×ĺ×Ł
×Ĳ×¤×ľ ×Ĳ×ł×¢×Ł
Ġ×¨×Ĳ×¤ ×©×Ļ×¦×¢×¨
×§×§×ľ ×Ļ×ł×§
Ġ×ĸ×Ļ×ĵ ×ľ×¢×Ł
×Ķ×Ĳ×¨ ×¦
×ŀ×¦ ×¨×Ļ×Ŀ
Ġ×ĳ×Ĳ×¨×ķ×Ĳ ×Ļ×Ĵ×Ł
Ġ×Ĳ×ĺ×ľ×Ĳ×ł×ĺ ×Ļ×©×Ł
Ġ×¤×¨×Ļ×©×ĺ ×Ĳ×Ĵ
Ġ×¤×ķ×ł×ĵ×¢×¨ ×Ķ×Ļ×Ļ×Ŀ
Ġ×Ļ×ł×ķ×ķ×¢×ł×ĺ ×Ĳ
Ġtransl ate
Ġ×ł×Ļ×ł×Ĵ ×ĳ×Ĳ
2 18
a il
z xcgame
â Ĺı
Ö· Öľ
Ġ×¤ ×Ļ×¢×ľ×ĵ
Ġ×ĳ ×¢×Ľ
Ġ×§ ×¢×ŀ×¢×Ł
Ġ×¦ ×Ļ×Ŀ
Ġ×¢ ×Ķ×Ŀ
×§ ×ķ×Ĵ×ľ
×§ ×ķ×ł×¡×ĺ
Ö¼ :
×Ķ ×ķ×Ļ×¤
Ġ×ĺ ×Ļ×Ł
Ġ×Ļ ×¢×ł×§
Ġ×Ļ ×¤×Ķ
Ġ×Ĳ×Ļ×ĸ ×¢×¡
×Ĵ ×¢×¨×ĺ
×Ĳ×¡ ×¢×Ł
×Ĳ×¡ ×ĵ×¨
×ķ×¨ ×Ĳ×ĺ
Ġ×¢×¨ ×¤×Ĳ×¨
Ġ×¢×¨ ×¦×Ļ×Ĳ
×¢×ĵ ×¢×¨×ĺ
Ġ×Ľ ×¤×Ļ
Ġ×ª ×¨×ķ×ŀ
Ġ×Ĳ×ķ×Ļ×¡ ×©×ľ
Ġ×Ĵ×¢×© ×¢×Ķ×ĺ
Ġ×ĳ×¨ ×Ļ×¨×ķ×ª
×ķ×ĸ ×©
×Ļ×Ļ×ĵ ×¢×Ł
Ġ×Ĳ×ķ×Ļ×¤ ×Ķ×¢×¨
Ġ×Ĳ×ķ×Ļ×ĳ ×¢×Ł
Ġ×§×¨ ×¢×ĵ
Ġ×Ĵ×¢×¤ ×¨×Ļ×Ļ×ĺ
Ġ×¢×¤ ×©×¢×¨
×§×ĺ ×©×¢×¨×ĸ
Ġ×ĺ×© ×Ļ×Ļ×ł×Ļ×§
re d
Ġ×¤×Ĳ×ľ ×Ŀ
Ġ×ĳ×Ĳ×§ ×¢×ŀ×¤×Ł
ï¬® ×Ľ×ĺ
×¤×¨ ×ķ×Ļ×¨×Ł
Ġ×ŀ×Ĺ ×ŀ×Ļ×¨
Ġ3 7
Ġ3 8
Ġ×§×¡ ×§×Ĳ
×¢×ł×§ ×¢×Ł
Ġ×ŀ×ľ ×ķ×Ľ
Ġ×¤×Ĳ×¨×© ×¢×ŀ×ĺ
Ġ5 5
×ł×¤ ×¢×ľ×ĵ
Ġ×ķ×ķ×Ĳ×¨ ×ķ×Ŀ
×ķ×ł×ĵ×¢×¨ ×ĺ×¢×¨
×Ļ×ł×¡ ×§
Ġ×Ĵ×¢×ĺ×¨ ×ķ×ł×§×¢×Ł
Ġ×¤×Ĳ×¨×ĳ×¨ ×¢×Ľ×Ł
Ġ×¤×Ĳ×¨×¤ ×Ĳ×ľ×Ł
×Ĵ×¢×ĸ ×¢×Ł
Ġ×ĺ×ķ×¨ ×§
Ġ×¤×Ļ×ł ×¢×ķ×ķ×¢×¨
Ġ×Ĵ×Ĳ×ľ×ĵ ×¢×ł×¢×Ŀ
×¨×¦ ×Ļ×§
Ġ×ĺ×Ļ×Ļ×ĺ ×©×Ł
Ġ×ĺ×¢×ŀ ×¤×¢×¨
Ġ×¨×Ļ×¡ ×§
if t
Ġ×ĵ×Ļ×¨×¢×§×ĺ ×Ĳ×¨×Ļ
Ġ×Ľ×ª ×ĳ×Ļ×Ŀ
Ġ×¨×Ļ×Ļ×Ľ ×¡×ĺ×¢
Ġbe ek
Ġ×¢×ľ×¢×Ĵ ×Ĳ×ł×ĺ×Ł
Ġ×Ķ×¨×Ĵ ×©
Ġ×ĵ×¢×¨×ł ×Ļ×ĵ×¢×¨
Ġ×©×Ļ×ĺ ×ª
Ġ×ĵ×Ļ×ķ×ķ ×Ļ×Ļ×¡×Ĳ
Ġ×Ĳ×¨×Ļ×Ļ×ł×¦×ķ×ľ ×Ļ×Ļ×Ĵ×Ł
Ġ×Ķ×Ļ×Ļ×¤ ×¢×ľ×¢
Ġ×ŀ×Ļ×¡×ĺ×¢×¨×Ļ×¢ ×ĸ
Ġ×ľ×Ļ×Ļ×Ľ ×ĺ×¢×¨
Ġ×Ķ×Ĺ×¡×Ļ×ĵ ×ķ×ª
Ġ×Ľ×Ļ×ĺ ×¨×¢
×©×ŀ×¢ ×ķ×Ł
Ġ×Ľ×ķ×ª ×ľ
Ġ×©×Ĳ×¨×ĺ ×§×Ĳ×ĺ
×¡×Ķ ×¢×ĵ
Ġ×¡×Ļ×ĳ ×Ļ×¨
ĠFlor ida
Ġbeek eep
2 19
2 15
I D
Û Į
å Ĭ
×¢ ×Ļ×ĺ
Ġ×Ĳ ×ķ×ķ×Ĳ×ķ
×¨ ×Ļ×Ļ×ĺ×¢×¨
Ġ×ŀ ×ķ×Ļ×¢×¨
×¡ ×¢×ł
Ġ×ĸ ×¢×¦×Ł
Ġ×Ķ ×Ļ×©×¨
×¤ ×Ļ×Ļ
×ŀ ×Ļ×§×¡
×Ļ×ĺ ×©×¢
Ġ×ĺ ×Ļ×ľ
Ġ×Ļ ×ľ×ĵ
×Ĵ ×ķ×ł×Ĵ
Ġ×ľ ×Ļ×¤×Ł
×Ļ×ľ ×ĵ×¢×¨×ĺ
×Ļ×¡ ×Ĳ×Ł
×¢×ł×ĺ ×Ļ×Ĳ
Ġ×¤×¨ ×Ĳ×ĸ
×Ĳ×ł ×¢×ĸ×Ļ×¢
Ġ×ª ×¤×Ĳ×¨×ª
Ġ×ķ×ķ×Ĳ ×ķ×Ļ×Ł
×ľ×¢× ª
Ġ×Ĵ×¨ ×Ļ×¤
Ġ×Ĵ×¨ ×Ļ×ł×ĵ
×ķ×ĺ ×Ļ×ķ×ķ×¢
×Ļ×¦ ×Ļ×ĺ
Ġ×ĺ×¨ ×ķ×Ļ×ŀ×¢×Ł
Ġ×ĳ×ľ ×Ļ×¢×Ł
Ġ×§×ľ ×Ļ×Ļ×ŀ
×Ĳ×ĳ ×¨×Ķ×Ŀ
Ġ×¤×ľ ×Ļ×Ļ×¡
×ĺ×© ×¢×¤
er t
Ġ×ŀ×§ ×ķ×Ļ×Ŀ
×Ĳ×ł×¡ ×Ł
Ġ4 3
Ġ×Ĳ×Ļ×¦×ĺ ×Ļ×§×Ł
Ġ×Ĳ×Ļ×Ļ×ł ×¨×¢×ĵ
Ġ7 00
Ġ×ĸ×Ĳ×Ĵ ×Ĳ×¨
Ġ×Ķ×ª ×¢×ķ×¨×¨×ķ×ª
Ġ×Ķ×Ĳ×ľ ×¡×ĺ
Ġ×ŀ×Ĳ×¨ ×Ĵ
×ķ×ķ×¢×ĺ ×Ļ×©
Ġ×Ļ×ĵ ×¢×ł×ĺ
Ġ×ķ×ŀ ×¦
Ġ×©×ĺ×Ĳ×¨ ×ĳ×ĺ
Ġ×Ĳ×¨×Ĵ ×Ļ×ł×¢×ľ
Ġ×Ļ×Ķ ×ķ×ĵ×Ļ×Ŀ
Ðµ ÑĤ
Ġ×ĵ×Ļ×¤ ×¢×ł×¡
Ġ×Ĺ×ĸ ×§
29 0
Ġ×Ĵ×¢×¡ ×ĺ×¨
ĠJ ew
Ġ×¤×Ĳ×¨×ĸ ×Ļ×Ľ×ĺ
×Ĵ×¢×ķ×ķ ×Ĳ×ľ×ĵ
Ġ×Ķ×Ľ ×ĳ×ķ×ĵ
Ġ×ĳ×ķ×ĵ ×ĵ×Ļ×¤
Ġ×ŀ×ķ ×Ĳ×ĳ
Ġ×ĵ×¢×§ ×ķ×ł×Ĵ
Ġ×Ĵ×¢×ĳ×ķ×¨×ĺ ×¡×ĺ×Ĳ×Ĵ
Ġ×¦×Ļ×¤ ×¢×¨
ran ce
×ł×Ĳ×ĺ ×Ĳ×¨
Ġ×Ĳ×¤×ĵ×¢ ×Ļ×ĺ×¡
Ġ×Ĳ×ĵ×ķ×ķ×¢×¨×ĺ×Ļ×Ļ×ĸ ×ĺ
Ġ×¡×¤×¢×¦×Ļ×¤ ×Ļ×©
Ġ×ĳ×Ļ×ľ×Ļ×Ĳ ×ł×¢×Ł
Ġ×¡×Ļ×§ ×¨×Ļ×§
Ġ×Ĳ×ķ×Ļ×¡×Ĵ×¢×ŀ ×¢×§×ĺ
Ġ×¢×¤×ł×ĺ ×ľ×¢×ļ
Ġ×ľ×Ļ×Ļ×Ľ ×ĺ×¢
Ġ×ĵ×¢×ľ×Ļ×ķ×ķ ×¢×¨×ĺ
Ġ×Ĳ×ķ×ł×ĺ×¢×¨×ł×¢×ŀ ×ķ×ł×Ĵ×¢×Ł
Ġ×©ïŃĦ ×¨ï¬®
Ġ×Ĳ×¨×ķ×Ļ×¡×Ĵ×¢×ĳ×¢×¨ ×¡
Ġ×Ķ×¨×Ĳ×© ×ķ×Ł
Ġ×ĳ×Ĳ×ľ×Ļ×ĳ ×ĺ×¢
×ł×ĵ×¢×ľ ×Ļ×¢×¨
Ġ×¡×Ĳ×ĺ×ŀ ×¢×¨×¢
Ġ×§×Ĳ×ŀ×¤×ľ ×Ļ×ŀ×¢×ł×ĺ
Ġ×©×ķ×ķ×Ļ×Ļ×¦ ×¢×¨
yt ics
Ġ×ĳ×¢×ł×ĸ ×Ļ×Ł
2 16
2 24
×Ļ ï¬¯
×ĺ ×ĺ×¢
×¨ ×¢×§
×¨ ×ķ×¤×ĺ
×ľ ×¢×ł×ĺ
×ľ ×ķ×Ļ×ł×ĺ
×ľ ×ķ×ķ×Ļ×ł×Ĵ
Ġ×ķ ×ł×§
Ġ×ŀ ×Ŀ
Ġ×ŀ ×Ľ×ķ×ª
×¡ ×ĵ×Ļ×§
Ġ×ĸ ×Ļ×§×Ĳ
Ġ×Ķ ×Ļ×¢
Ġ×Ķ ×¢×ĳ
Ġ×Ķ ×ķ×¨×Ĳ
×ĳ ×Ķ×Ĳ
Ġ×© ×Ļ×¨×Ķ
Ġ×¦ ×Ĳ×Ŀ
×§ ×²
×§ ×ķ×¨×Ĳ
×Ĵ ×Ļ×ľ
Ġ×ľ ×ŀ×¡×¤×¨×Ŀ
×¢×ľ ×¢×Ł
×Ľ ×©×¨
×Ļ×¡ ×¥
Ġ×©×ĺ ×²×ĺ
×¢×ĵ ×Ļ×Ĳ
×ķ×ľ ×¢×ĳ×Ł
Ġ×Ĺ ×¦×ķ×ª
Ġ×Ľ ×ķ×Ļ×ĵ×¢×©
×ł×ĺ ×¢×§×¡×ĺ
Ġ×ª ×¨×Ļ
Ġ×ª ×©×ĳ
×Ļ×¦ ×Ļ×ĺ×¢×ĺ
×©×ĺ ×ķ×¨
Ġ×Ĳ×ķ× ł×¡
×Ļ×ł×ĵ ×ĸ×©×¢×¨
Ġ×§×ľ ×Ļ×ł×ĺ
Ġ×Ĳ×ķ×Ļ×¤ ×§×ķ×ŀ×¢×Ł
Ġ×Ĵ×¢×Ķ ×Ĳ×¤×ĺ
×ķ×Ľ ×Ĳ×¤×Ł
Ġ×Ĳ×ķ×ŀ ×ĸ
Ġ×Ĵ×¢×ł ×Ļ×Ĵ
Ġ×Ĵ×¢×¨ ×Ļ×¨×ĺ
Ġ×ĳ×Ĳ×© ×ŀ
×³ ,
Ġ×ĵ×ĸ×© ×Ļ×Ł
Ġ×ĳ×¢×¡ ×Ĳ
×± ×Ŀ
×ĳ×ľ ×ķ×ĺ
Ġ×Ķ×ŀ ×ķ×¢×ĵ
Ġ×Ĳ×ł×ĺ ×ĸ×Ĳ×Ĵ×ĺ
Ġ×Ĳ×ĺ ×¢×ŀ×¢×Ł
×Ļ×§×¡ ×ĺ×¢×¨
×§×¨ ×Ļ×ĺ
it t
×ľ×ŀ ×¢×ľ×Ķ
×¨×ķ×Ļ×¡ ×¤×Ļ×¨×Ł
×ŀ×©×ľ ×Ķ
os h
Ġ×ĳ×Ĳ×ĵ ×Ĳ×ł×§×Ł
Ġ×Ĳ×Ļ×ł×ĺ×¢×¨×¢×¡ ×Ļ×¨×Ł
20 18
Ġ×ķ×ķ×Ļ×¡ ×ł×ĵ×Ļ×Ĵ
Ġ×¤×Ĳ×ĺ ×Ĳ
Ġ×Ļ×ł×§ ×¨×¢×ĵ×Ĳ
Ġ×Ķ×Ĺ ×ª
Ġ×ĳ×Ĳ×ĳ ×ł×Ļ×§
Ġ×Ļ×Ĵ ×ĸ
Ġ×ľ×ķ×¤×ĺ ×¤×¢×ľ×ĵ
Ġ×Ĵ×¢×ķ×ķ×Ĳ×¨ ×¤×Ł
Ġ×Ĵ×¢×Ľ ×Ĳ
Ġ×ķ×ķ×Ĳ×ķ×ł×ĵ×¢×¨ ×ĳ×Ĳ×¨×¢
Ġ×¢×ł×§ ×¢×¨
Ġ×¤×¢×¡×ĺ ×ķ×ł×Ĵ
Ġ×ľ×¢×ķ×ķ ×Ļ
Ġ×ŀ×Ļ×ł×Ļ×¡×ĺ×¢×¨ ×Ļ×ķ×Ŀ
×¡×ľ ×Ļ×ķ
×ĳ×Ĳ×§ ×ķ×ŀ×¢×Ł
Ġ×¢×§×ĸ ×¢×¡×ĺ
Ġ×ľ×Ĳ×Ĵ ×¢
×§×ķ ×ķ×Ŀ
Ġ×¤×¢×¡ ×ĺ×¢
Ġ×ĳ×ķ×ľ ×Ĵ
×ķ×ķ×Ļ×Ľ×ĺ ×Ļ×Ĵ×¢
×Ĵ×¢×ĵ×¢×ł×§ ×ĺ
×ĳ×ĵ×ĸ×© ×¢×§×¥
×ĵ×Ļ×¨ ×¢×§×ĺ
Ġ×ĳ×Ĳ×¨×ķ×Ĳ ×Ļ×Ĵ×ĺ
Ġ×ŀ×Ļ×ł×Ĳ×¨ ×Ļ×ĺ×¢×ĺ
Ġ×Ľ×Ĳ×ľ ×Ļ×Ĳ×¡×ĺ
×ĵ×ķ×ķ×¢×¨×ĺ×Ļ×Ļ×ĸ ×ŀ×Ĳ
Ġ×©×ĵ×Ľ ×ł×Ļ×Ŀ
Ġ×ŀ×ķ×¡×ľ×ŀ ×¢×ł×¢×¨
Ġ×ķ×ķ×Ļ×¨×ĸ×© ×Ļ×ł×Ļ×¢
2 17
ä ½
æ ĺ
×¨ ×Ĳ×¤
Ġ×ķ ×Ļ×§
Ġ×ŀ ×ķ×¤×ª
Ġ×Ĵ ×Ļ×Ļ×ĸ
Ġ×Ķ ×Ļ×Ļ×ĸ
Ġ×ĳ ×Ļ×¢
Ġ×ĳ ×¢×¨×Ł
×¤ ×Ĳ×ŀ
Ġ×ł ×¢×©
Ġ×© ×Ĳ×ŀ×¤
Ġ×© ×¢×¨×Ļ
×ł ×¢×¤
×ł ×Ļ×¨×ķ×ł×Ĵ
×ŀ ×¢×ľ×¢×ļ
×Ĵ ×¢×ł×ĵ×Ĳ
Ġ×ľ ×ķ×ł×Ĵ
Ġ×¨ ×Ļ×¨×ĺ
×Ļ×¨ ×Ļ
×¦ ×Ļ×Ļ×ĺ×Ł
×Ļ×ĵ ×Ļ×Ŀ
×¡×ĺ ×Ļ
Ġ×ķ×ķ×¢×ľ ×§×Ĳ
×¨×Ļ×Ļ× Ķ
Ġ×Ĵ×¨ ×Ļ×Ľ×Ł
×ķ×¤ ×Ļ×ł×¢
×¨×ĳ ×Ļ×ĺ
Ġ×§×ľ ×Ļ×ł×Ĵ
Ġ×Ļ×Ĳ ×Ļ×¨
×ĺ×¨ ×Ļ
Ġ×©×ľ ×Ĳ×Ĵ×¢×¨
Ġ×¢×ľ ×Ļ×Ķ
Ġ×Ĵ×Ĳ×¨ ×ĵ
Ġ×ł×¢×ŀ ×Ł
×ł×ĸ ×©
Ġ×ŀ×¡ ×ķ×Ĵ×ľ
Ġ×ĵ×¢×ŀ ×ĳ
Ġ×Ķ×ŀ ×¦×ķ×ķ×ª
×ĸ×¨ ×Ļ×ķ×ª
Ġ×ĳ×Ĳ×ĸ ×Ļ×Ĵ×Ł
Ġ×§×ķ×ľ ×Ļ×¡×Ł
Ġ×ĳ×Ĳ×©×ĺ ×Ļ×ŀ×ĺ×¢
Ġ×¤×Ĳ×¨×Ĵ ×¢×ł×Ļ×Ĵ×Ł
Ġ×Ĳ×ķ×Ļ×¤×Ĵ ×Ĳ×ĳ×¢
×©×ľ ×ŀ×Ķ
Ġ6 4
Ġ×Ĳ×Ĺ ×ĵ×ķ×ª
Ġ×¢×ŀ ×ļ
Ġ×ķ×ķ×Ļ×¡ ×¢×ł×ĵ×Ļ×Ĵ
Ġ×ķ×ŀ ×ľ×¢×Ĵ×Ĳ
ot e
×Ļ×ł×¦ ×ĺ×¢×¨
Ġ×Ķ×¦ ×Ļ×ĳ×ķ×¨
Ġ×Ķ×Ĺ ×ł×ķ×Ľ×Ķ
Ġh as
Ġ×©×Ļ×Ļ×ł×§ ×Ļ×Ļ
Ġ×ŀ×Ĳ×ĺ ×¢×¨×Ļ×Ĳ×ľ
Ġ×¡×ĺ×¢×Ļ×ĺ ×ŀ×¢×ł×ĺ×¡
Ġ×ĳ×ŀ ×§×ķ×Ŀ
×§×Ķ ×ľ
Ġ×ľ×¢×ĳ×¢×ĵ ×Ļ×§×¢×¨
×ĳ×Ĺ ×ķ×¨
Ġ×Ĺ×ķ×© ×ĵ
Ġ×ķ×ł×ĺ×¢×¨ ×Ĵ×Ĳ
Ġ×ĵ×¢×§ ×Ĳ×ĺ×¢
Ġ×Ļ×ĳ ×ŀ×ķ×ª
Ġ×Ĳ×ķ×§×¨ ×Ļ×Ļ×ł×Ļ×©
Ġ×ł×Ľ ×©×ľ
Ġ×ĺ×Ļ×ŀ ×ł×Ĳ
Ġ×ķ×ķ×ĳ ×ķ×ľ×ľ×¢×ĺ×Ļ×Ł
Ġ×ĵ×ĸ×©×Ĳ×¨ ×ĸ×©
×Ļ×ł×ł ×Ĳ
Ġ×ķ×ķ×Ļ×ĸ×© ×ł×Ļ×¦×¢×¨
Ġ×¢×Ĵ×¨ ×Ļ×ŀ×¢×ł×ĺ
Ġ×¡×ĺ×¨×Ĳ×ĺ×¢×Ĵ ×Ļ×¢
Ġ×ŀ×©×ª×ª ×£
Wh y
Ġ×¢×§×¡×¢×¨×¡ ×Ļ×Ļ×ĸ
Ġ×§×ľ×Ļ×¢ ×ł×ĺ×Ł
Ġ×ĵ×Ļ×ł×Ĳ×¡×ĺ ×Ļ×¢
d r
â Ī
Ġ !!
×¨ ×Ĳ×ł×¢×¨
×¨ ×¨×Ļ×Ł
×ľ ×Ļ×ł×§
×ľ ×Ļ×Ļ×Ĳ
Ġ×ķ ×ŀ×ĳ
Ġ×ķ ×ĸ×Ķ
Ġ×ķ×ķ ×Ĳ×ĸ×©
Ġ×ĳ ×Ļ×Ļ×ĺ×Ł
×Ĳ×¨ ×©×ĺ
×© ×Ļ×ľ
×ł ×¢×ł×ĺ
×ķ×ķ ×Ļ×Ļ×ł×Ļ×Ĵ
Ġ×Ļ ×§×Ĳ
Ġ×ľ ×Ĳ×¡×ĺ
Ġ×ľ ×ķ×Ĳ
Ġ×ľ ×¢×ł×ĵ×ľ
Ġ×ľ ×ª×ķ×¨×Ķ
×Ĳ×¡ ×¨
×Ĳ×¡ ×ĺ×¢
×Ľ ×¢×ĵ×Ļ×§
×¦ ×Ļ×ŀ
×¦ ×Ļ×ķ×Ł
Ġ×¢×¨ ×Ĳ×¤×ľ×Ĳ×ł×¢×Ł
×ķ×ľ ×ķ×¡
Ġ×ĳ×Ĳ ×ķ×ķ×Ļ×Ļ×ĸ×ĺ
Ġ×Ĵ×¨ ×Ĳ×ł×ĵ
Ġ×Ĵ×¨ ×Ĳ×Ŀ
Ġ×Ĳ×ķ×Ļ×¡ ×Ł
×¢×ł×ĵ ×Ļ×§×Ł
×ł×¡ ×¤×Ĳ
×Ĳ×ĳ ×ķ×ĳ
×Ĳ×¦ ×Ļ×¤
Ġ×Ĳ×¨×ķ×Ļ×¡ ×©×ĺ×¢×ľ×Ł
Ġ×©×ŀ ×©×ķ×Ł
Ġ×Ĵ×¢×ĺ ×Ļ×Ļ×ľ×ĺ
Ġ×Ĳ×¨×Ĳ×¤ ×Ĵ×¢×¨
Ġ×Ĳ×¨×Ĳ×¤ ×Ĵ×¢×¨×Ļ×¡×Ł
Ġ×¦×ķ×Ĵ ×¢×¨
×ķ×Ļ×ľ ×ĺ
Ġ4 6
Ġ×¦×ķ×© ×¤×¨×Ļ×Ļ×ĺ
Ġ×¢×ł ×Ļ×ł×Ļ
Ġ×Ķ×Ļ×ľ ×¤×¡
Ġa c
×Ļ×Ļ×¤ ×Ł
Ġ×ĳ×Ĳ×¦ ×Ĳ×ľ
Ġ×ľ×ŀ ×¢×ľ×Ķ
Ġ×¤×Ĳ×ĺ ×Ĳ×©
Ġ×Ķ×² ×Ŀ
Ġ×¤×Ĳ×¨×Ķ ×Ĳ×ł×¢×Ł
×ŀ×ĵ ×ķ×ŀ×Ķ
×ľ×ľ ×Ļ×ķ×ķ×Ĳ
Ġ×¨×¢×Ľ ×ĺ×¢×¨
us h
Ġ×Ķ×Ļ×ŀ ×Ļ×Ŀ
Ġ×ĳ×¡ ×ķ×ĵ
Ġ×Ĳ×¨×Ĳ×ĳ ×Ļ×©×¢×¨
Ġ×Ĵ×Ĳ×ľ ×Ļ×¦×Ļ×Ĳ
Ġ×ł×ķ×Ļ×ĺ ×Ļ×§×ĺ
Ġ×ĳ×¨×¢×ł×Ĵ ×¡×ĺ
×Ķ×Ļ×Ļ×ŀ ×Ļ×©×¢
Ġ×ŀ×Ļ×Ĳ×ķ×¡ ×¢
Ġ×Ľ×¤×¨ ×Ķ
Ġ×Ĳ×Ļ×ł×¡×ĺ×¨ ×ķ×§×¦×Ļ×¢×¡
×ŀ×Ĳ×¨×ĵ ×¢×ĺ
Ġ×ĵ×¨×Ĳ×¤ ×ĳ×Ĳ×§×¡
Ġ×Ĳ×Ļ×ĳ×¢×¨×¨×Ĳ×© ×ĺ
Ġ×¤×Ĳ×ĺ×Ĳ×Ĵ×¨ ×Ĳ×¤
×ľ×Ļ×ĺ×¢×¨ ×Ĳ
ĠLi be
×¡×ĺ×Ĳ×ł×¦ ×Ļ×¢
ĠAnal ytics
×ĺ×¨×¢×ł×¡ ×ľ×Ļ×Ļ×ĺ
×ĺ ×¢×ŀ×Ĳ
×¢×¨ ×Ļ×ĺ
Ġ×ķ×ķ ×Ļ×©
Ġ×Ĵ ×¤×¢
Ġ×Ĵ ×Ļ×¤×¡
×¡ ×Ļ×Ŀ
×¤ ×Ļ×ĺ
×¤ ×¢×¨×Ł
×ĸ ×Ļ×ł×Ĵ×¢×¨
Ġ×¢ ×Ļ×Ļ
×ŀ ×Ļ×Ļ×ł×ķ×ł×Ĵ
×§ ×¢×¤
×§ ×ĳ×ľ
Ġ×Ļ ×ł×©×ķ×¨
Ġ×¡ ×ł×Ķ×ĵ×¨×Ļ×Ł
×ł× ĳ×¢×¨×Ĵ
×¢×ķ×ķ ×Ļ
×ł×ĵ ×¢×ł×§
Ġ×¤×¨ ×¡
×ķ×ł ×Ļ×Ļ×©×Ĳ
×ĵ×¢×¨ ×ł×Ļ×¡×Ĳ
×ł×ĺ ×©×ĺ
Ġ×Ķ×Ĳ ×ķ
Ġ×ķ×ķ×Ĳ ×Ļ×ł×¢×Ł
×Ĳ×§ ×¢×Ł
Ġ×ŀ×Ĳ ×ķ×ĵ
×ķ×ĺ ×©×Ļ×ł×Ĵ
Ġ1 25
Ġ×Ĵ×Ĳ ×Ł
×Ĳ×ĳ ×Ļ×ĳ
Ġ×©×ľ ×Ĳ×ł×Ĵ
Ġ×Ĳ×ķ×Ļ×¡×Ĵ ×¢×ĳ×¨
Ġ×Ĳ×ķ×Ļ×¡×Ĵ ×¢×Ķ×¢×¨×ĺ
Ġ×¦×ķ×¨×Ļ×§ ×§×¨×Ļ×Ĵ×Ł
Ġ×ĵ×Ĳ×¨×ĺ ×Ļ×Ĵ×¢
×§×ľ ×Ļ×Ļ×ł×¢
Ġ×ŀ×§ ×ķ×¨×Ļ×Ŀ
×ĵ×ĸ×© ×¢×ł×¡×Ļ
Ġ×©×ł ×Ļ×Ļ×ĵ×¢×¨
Ġ×ľ×Ļ×ĳ ×Ķ×Ĳ
Ġ×ĳ×Ĺ ×ł×Ŀ
Ġ×§×ķ×ľ ×ĺ
×ķ×ķ×Ļ×§ ×Ļ×¤
×©×¤ ×Ļ×ľ
Ġ×ĳ×Ĳ×©×ĺ ×Ĳ×ł×ĵ
Ġ×ŀ×Ĳ×ĵ ×Ļ×Ŀ
ĠM ountain
×ł×ĺ×¢×¨ ×¡
×¢×ł×© ×Ĳ×Ł
Ġ×Ķ×Ĵ ×ķ×£
Ġ×¦×ķ×§ ×¨
Ġ×ķ×ķ×Ĳ×ľ ×¡×ĺ
Ġ×ŀ×¢×ĺ ×Ĳ×ĵ
Ġ×Ĳ×§ ×ĺ×¨×Ļ×¡×¢
Ġ×¤×Ĳ×¨×ĵ ×Ĳ×¨×ĳ
Ġ×¤×¨×Ļ×Ļ×ĸ ×¢×Ł
×¢×ĺ×¨ ×Ĳ×ĺ×Ł
Ġ×ĺ×ķ×¨ ×Ļ×¡×ĺ
ti ve
×©×ŀ ×Ĺ×Ķ
pos h
Ġ×Ķ×¢ ×Ļ×¨
Ġ×¡×¢×ł×Ĳ×ĺ ×Ĳ×¨×Ł
Ð¾Ð ¹
Ġ×¡×Ļ×Ĵ ×¢×ĺ
Ġ×Ĳ×¨×ķ×Ļ×¡×¦ ×ķ×ĳ×¨×¢×ł×Ĵ×¢×Ł
Ġon ly
Ġ×¤×¡×§ ×¢×ł×¢×Ł
Ġ×ľ×¢×ĳ×ł×¡ ×©×ĺ×Ļ×Ļ×Ĵ×¢×¨
×Ķ×© ×Ļ
Ġ×¢×ľ×¢×§×ĺ×¨ ×Ĳ×ł×Ļ×©×¢
Ġ×ĺ×¢ ×Ļ×¤×¡
Ġ×ĳ×Ĳ×©×ľ×ķ×¡ ×Ł
lu b
Ġ×¤×Ĳ×ĺ×© ×Ĳ×ĺ
Ġ×¤×¨×Ļ×¢ ×ĵ×Ļ×Ĵ×¢
Ġ×Ĳ×ķ×ŀ×Ĵ×¢×¨ ×¢×Ľ×ĺ
Ġ×ª×ķ×¡×¤ ×ķ×ª
Ġ×¨×¢×¤×ľ ×¢×§×ĺ×Ļ×Ĳ
Ġ×ł×Ĳ×Ľ×¤×Ĳ×ľ ×Ĵ×¢×¨
ĠSmart phone
Ġ×ĵ×ĸ×©×§ ×ķ×ķ×¢×¨×Ļ
. âĢľ
A R
O L
p r
×¢× ł×ŀ×Ĳ
×Ĳ ×Ļ×ĵ×Ł
Ġ×¤ ×Ļ×ĳ
Ġ×ŀ ×§×¡
Ġ×ķ×ķ ×Ļ×ł×¦
Ġ×Ķ ×ķ×Ļ×¢
Ġ×ĳ ×ķ×ĸ×Ļ
×Ĳ×¨ ×Ĳ×ĳ
Ġ×§ ×Ĳ×¥
Ġ×§ ×ķ×ł×Ļ×Ŀ
×ĵ ×Ĳ×ł
×ĵ ×Ļ×ĳ
Ġ×© ×Ļ×¡×ĺ
×ł ×Ĳ×Ŀ
×ŀ ×¨×Ļ
×Ĵ ×Ļ×Ĳ
×Ĵ ×Ĵ×¢×¨×¡
Ġ×¨ ×Ļ×ķ×ķ×Ĳ
×Ļ×¨ ×ł×ĵ×¢
Ġ×¤×Ĳ×¨ ×ĸ×¢×¦
Ġ×¤×Ĳ×¨ ×Ļ×Ĳ×¨
×ĺ×¢×¨ ×ŀ×Ĳ
×ł× °
Ġ×Ĵ×¢×ķ×ķ ×Ļ×Ļ×ľ×ĺ
×Ļ×ł ×Ļ×©×¢
×Ĳ×ŀ ×Ĳ×§×¢
×©×ĺ ×¢×ľ×¢×¨
Ġ×ĺ×¨ ×¢×ł×¡
×ł×¡ ×ķ×ª
Ġ×Ĵ×¢×ĸ ×Ĳ×ŀ×ľ×ĺ
×Ĳ×ĵ ×¢×ł×ĺ
Ġ×Ĵ×¢×Ķ ×Ĳ×ľ×ĺ
×ĺ×¨ ×Ĳ×ł×¡
Ġ×ĵ×¨ ×Ļ×Ļ×¢×¨
Ġ×¢×ľ ×Ļ×Ķ×Ŀ
×ķ×Ķ ×Ĳ×ľ×ĺ×Ł
Ġ×¦×Ļ×Ļ×ĺ ×©×¨×Ļ×¤×ĺ×Ł
Ġ×ĸ×² ×Ł
Ġ×ŀ×Ĺ ×Ļ×¦×Ķ
ïŃ ĭ
Ġ×Ľ×Ĳ ×Ĳ×¡
Ġ×Ķ×ŀ ×ľ
or s
Ġ×Ķ×© ×ķ×ŀ×¨×Ļ×Ŀ
Ġ×©×ĳ×ª ×Ļ
×ľ×ŀ ×ĵ
Ġ×Ĳ×ł ×¢×§
Ġa b
×Ļ×Ĳ×ł ×Ļ×©×¢×¨
×ķ×ĳ×ľ ×Ļ×§×Ĳ
Ġ×ĳ×Ĳ×ĵ ×Ł
Ġ×ĵ×¢×¨×ŀ ×¢×Ĵ
Ġ×Ĳ×Ļ×ł×ĺ×¢×¨×¢×¡ ×Ĳ×ł×ĺ×¢×¨
Ġ×¤×¢ ×Ļ×¡×ĳ×ķ×§
Ġ×Ĺ×ĸ ×ķ
Ġ×ĳ×ŀ ×¦×Ļ×Ĳ×ķ×ª
Ġ×Ĳ×Ļ×Ļ×ł×Ĵ×¢×© ×¨×Ļ×ĳ×¢×ł×¢
Ġ×Ļ×ĳ×¢×¨ ×¨×ķ×§
Ġ×¤×Ĳ×¨×©×¤×¨ ×Ĳ×Ľ×Ł
Ġ×Ĳ×ľ×ĺ×¢×¨ ×ł×Ĳ×ĺ
Ġ×©×ķ×ķ×Ļ× ¦
Ġ×¡×Ļ×Ĵ ×ķ×ĺ
Ġ×©×ľ×Ļ×¡×ľ ×¢×Ł
Ġ×ķ×ķ×Ĳ×ķ×Ļ×ľ ×¢
×ķ×ĵ×¨ ×Ļ×Ļ×¢×Ł
×Ĳ×Ĳ ×Ĳ×Ĳ
Ġ×¤×ľ×Ĳ×ĺ×¤×Ĳ×¨ ×ŀ×¢×¡
Ġ×ĳ×Ļ×ĵ ×ļ
×§×¡×¢×¡ ×¡×Ĳ
Ġ×Ļ×ľ ×Ļ×ŀ×Ĳ
Ġ×ª×¤×ľ ×ķ×ª
Ġ×ĳ×Ļ×ł ×¢×ļ
Ġ×Ļ×ł×ĺ×¢×ľ ×Ļ×Ĵ×¢×ł×ĺ
Ġ×ŀ×©×Ľ ×Ļ×ľ
Ġ×§×ľ×¢×ł×¢×¨ ×¢×¨
Ġ×¦×ķ×ķ×Ļ×ł×Ĵ ×ĺ
Ġ×Ĳ×ł×Ĵ×¢×ĺ ×Ĳ×Ł
×©×ķ×ķ ×¢×¡×ĺ×¢×¨
Ġ×ĵ×¢×¡×ĺ ×Ļ×ł
Ġ×ĵ×¢×¡×ĺ ×ķ×ķ×¢×Ĵ×Ł
Ġ×¡×¤×¨×ĵ ×Ļ×Ŀ
Ġ×ĵ×ĸ×©×ķ×ľ ×Ļ×Ĳ
Ġ×¤×Ĳ×¨×Ĵ×ľ ×Ļ×Ļ×Ľ×Ł
×ł×Ļ×¦ ×§×Ļ
×Ĳ×ŀ×Ĳ×§×¢ ×Ļ×¨
B ot
Ġ ro
×Ĳ ×ķ×¡
×¨ ×ł×Ļ×Ĳ
×Ļ×Ļ× ł×Ķ
Ġ×¤ ×Ļ×ł×Ĵ
×ľ ï¬®
Ġ×ķ ×Ļ×Ĳ
Ġ×Ķ ï¬Ł
Ġ×Ķ ×Ļ×Ļ×ĺ×¡
×ĳ ×¢×ĵ
Ġ×© ×¢×¨×Ł
Ġ×© ×Ļ×Ľ×ĺ×Ł
Ġ×¢ ×Ļ×ľ
Ġ×Ļ ×ŀ×ķ×ª
×Ĳ×ĺ ×¢×¡
×¢×ľ ×¥
Ġ×¨ ×Ļ×Ĵ×¢
×¨×Ĳ ×ķ
×Ĺ ×Ļ
Ġ×Ľ ×¡×ľ×Ļ×ķ
Ġ×ŀ×Ĳ ×ķ×ł×ĺ
Ġ×Ĵ×¢×© ×Ļ×ľ×ĵ×¢×¨×ĺ
×Ļ×¦ ×Ļ×¢×ľ
Ġ×ķ×ķ×¢×¨ ×¦
×ķ×ķ×Ļ× ŀ
×¢×ł×ĵ ×Ļ
Ġ×¨×ĳ ×©
Ġ×Ĳ×ķ×Ļ×¤ ×Ĵ×¢
×¨×ĺ ×ŀ×¢×ł×ĺ
Ġ×ķ×ķ×Ļ×ľ ×ł×Ĳ
×ł×§ ×Ł
Ġ×©×ŀ ×ĵ
Ġ×©×ŀ ×Ļ×¨×Ł
×¤×Ĳ×¨ ×¨×Ĳ×Ľ×ĺ×Ł
×ł×¦ ×ĺ
Ġ×ķ×ķ×¢×ĳ ×ŀ×Ĳ
×¨×¢×¡ ×Ł
Ġ×ĸ×© ×ŀ
Ġ×§×Ĳ×ľ ×¢×Ĵ×Ł
Ġ×¤×Ĳ×¨×Ĵ ×¢×ľ×¢×¨×ł×ĺ
Ġ×Ĳ×Ļ×Ļ×ł×Ĵ ×¢×¤×Ĳ×ľ×Ł
.... ...
×¨×Ļ×Ļ×ĸ ×ĵ
ĠN E
ĠN et
×ł×Ĺ ×ķ×Ŀ
Ġ×ĺ×ķ×Ļ×ĺ ×Ł
Ġ×§×ķ×ľ×ĺ×ķ×¨ ×¢×ľ×¢
ĠR oy
×Ļ×Ļ×ł×§ ×Ļ×Ļ×ĺ
Ġ×Ĵ×ĵ ×ľ×ķ×ª
Ġ×Ĵ×¢×ľ×¢×Ĵ ×¢×ł×Ķ×Ļ×Ļ×ĺ
Ġg o
Ġ×§×¢×ł×ĺ ×Ļ×§
ĠJ ar
Ġ×§×¢×Ĵ ×ł
ÑĢ Ð¸
Ġ×Ķ×¢×¨×© ×¢×ľ×¢
×ľ×Ļ×Ļ×ĺ ×Ĳ
ÑĤ Ð°
Ġ×Ĳ×¤×Ĵ×¢×© ×¨×Ļ×ĳ×Ł
Ġ×Ĳ×ķ×Ļ×ĳ×¢×¨ ×©×ĺ×¢×Ł
Ġ×¨×ķ×Ĳ ×Ļ×Ĵ×§×Ļ×Ļ×ĺ
Ġ×Ĵ×¢×Ĺ ×ľ
Ġ×ŀ×¢×¡×¢×ĵ×ĸ×© ×¢×¡
rans posh
ric a
Ġ×Ĳ×ł×Ĵ×¢×ł ×ķ×ŀ×¢×ł×¢
Ġ×ŀ×¢×ª ×Ļ×§
Ġ×¨×Ĳ×ĳ×¢×¨ ×ĺ
Ġ×ĳ×ķ×Ĵ ×¤×Ļ×§×¡
Ġ×ķ×ķ×Ļ×Ļ×¤ ×Ļ×Ļ
iel d
Ġ×ŀ×ĺ×© ×¢×¨×ł
Ġ×ĵ×ĸ×©×¢ ×Ļ×ŀ×¡
Ġ×§×ķ×ķ×Ļ×ĳ ×¢×§
ĠLibe rec
×ł×ĺ×¢×¨×¡ ×ķ×ķ×Ļ×ľ×ľ×¢
' :
) ...
Ö Ĥ
Ġ x
Ġ ~
×¨ ×§×ĺ
Ġ×ķ ×Ļ×©×Ĳ
Ġ×ŀ ×©×¨
Ġ×Ķ ×Ļ×Ļ×ĺ
×© ×ĳ×¨×ļ
Ġ×ł ×Ĳ×§
×ĸ ×Ļ×Ļ×¢×ł×ĵ×Ļ×Ĵ
Ġ×¦ ×Ĳ×¨
Ġ×¦ ×ķ×ŀ×Ķ
Ġ×ľ ×©×ľ
×Ĳ×ľ ×ĸ×Ĳ
Ġ×¨ ×ķ×Ļ×¢
×ª ×¤
×Ļ×ł ×Ļ×§
Ġ×©×ĺ ×ķ×¤×Ł
Ġ×Ĺ ×¨×¤
Ġ×Ĺ ×ĳ×Ļ×¨
×Ļ×ŀ ×Ļ×¨
×ķ×¤ ×¡
Ġ×ĳ×¨ ×ķ×Ļ×ł×¢
Ġ×ĺ×¨ ×¢×§
Ġ×ĳ×ľ ×Ļ×ª
Ġ×¤×ľ ×Ĳ×¦×Ļ×¨×ĺ
Ġ×§×¨ ×²
Ġ×§×¨ ×Ĳ×ľ×Ļ
×ĺ×¨ ×¢×¤×ĺ
Ġ×Ĵ×¢×¤ ×¨×Ĳ
Ġ×¡×ĺ ×Ĳ×§×¡
Ġ×Ĵ×¢×ĳ ×ķ×¨
×¨×§ ×¢×¥
in t
×¢×ł×¢×¨ ×Ķ×Ļ×Ļ×ĺ
Ġ×ŀ×¡ ×Ĺ×¨
Ġ×¤×Ĳ×¨×© ×ķ×ł×Ĵ×¡
×ĵ×ĸ×© ×¢×¨×ĸ×Ļ
Ġ×ķ×ķ×Ĳ×ľ×ĺ ×¢×Ł
Ġ5 2
Ġ×¨×ķ×ĳ ×Ĳ
Ġ×©×ķ×ķ×¢×¨ ×Ļ×Ĵ×§×Ļ×Ļ×ĺ×Ł
ou ld
Ġ×©×ĺ×¨ ×ķ×Ļ
Ġ×ķ×Ļ×¡ ×ĸ×Ĳ
×ľ×§ ×ľ×Ĳ
Ġ×ķ×Ķ ×ķ×Ĳ
Ġ×Ļ×ł×¡ ×ĺ×¨
Ġ×ĳ×Ĳ×ĳ ×¢×¡
Ġ×Ķ×ķ×Ļ×Ľ ×¢×¨
Ġ×ĵ×¢×¡ ×§×ĺ
Ġ×©×ķ×ķ×Ĳ×Ľ ×¢×¨×¢
ur l
×§×§ ×¢×ĺ
Ġ×¤×Ĳ×ĸ ×Ļ×ĺ×Ļ×ķ×ķ
Ġ×Ĺ×¨×ĵ ×Ļ×©×¢×¨
Ġ×§×Ĳ×ł×¤ ×ľ×Ļ×§×ĺ
Ġ×ķ×ł×ĺ×¢×¨ ×ĺ×¢×ł×Ļ×§
Ġ×Ĳ×ķ×ł×ĺ×¢×¨×© ×¨×Ļ×Ļ×ĳ×Ł
Ġ×¡×ŀ×Ĳ×¨×ĺ ×¤×Ĳ×Ł
Ġ×ŀ×Ļ×ł×ĵ ×¢×¡×ĺ×¢
Ġ×Ĳ×ł×Ĵ×¢×© ×ľ×Ĳ×¡×Ł
×Ĵ×¨×ķ×Ļ×¡ ×¢
Ġ×¤×Ĳ×¨×¤×ľ ×Ļ×Ļ×¦×ĺ
×ĺ×Ļ×Ļ×¢×¨ ×¢
Ġ×Ľ×ķ×ľ ×ľ×Ļ×Ŀ
Ġ×¦×ķ×Ĵ×¢×© ×Ļ×§×ĺ
Ġ×ŀ×ķ×¨×Ĳ×ĵ ×Ļ×Ĵ
Ġ×¤×Ļ×ľ×Ļ×¤ ×Ļ×ł×¢×Ł
×Ĳ×Ļ×¡ ×¨
Ġ×¤×Ĳ×¨×Ķ×Ĳ×ł×ĵ ×ľ×ķ×ł×Ĵ×¢×Ł
Ġ×¡×ĺ×Ļ×§×¢×¨ ×ĸ
Ġ×Ķ×ķ×© ×¢×ł×ķ×ª
Ġ×Ĳ×ľ×¤ ×Ĳ×ĳ×¢×ĺ
Ġ×©×ĺ×ķ×Ļ×¡ ×ľ
Ġ×ĸ×¢×ŀ ×Ļ×¨
Ġ×¢×§×¡×§×ľ ×ķ×¡×Ļ×ķ×ķ
Ġ×¢×ľ×Ļ×ŀ×Ļ×ł ×Ļ×¨×Ł
Ġ×Ĳ×§×¦ ×¢×¤×ĺ
Ġ×ĳ×¢×Ľ ×¢×¡×§×¢×Ŀ
Ġ×Ĵ×¢×¡×ĺ×¨ ×Ĳ×©×¢×ĺ
×¤×Ĳ×ŀ ×Ļ×ľ×Ļ×¢
×ĺ ×Ļ×Ļ×ĺ×©
×¨ ×Ļ×ł×¢
×ľ ×ķ×ķ×¢×¨×ĺ
Ġ×ŀ ×ĺ×¨×Ķ
Ġ×Ĵ ×Ļ×Ļ×ł×ĸ
Ġ×ĳ ×¢×ŀ
Ġ×ĳ ×ĳ×Ĳ
×ĵ ×²
×ĳ ×Ĳ×ľ×ĵ
Ġ×© ×ķ×Ļ×©
Ġ×¦ ×¢×Ķ×Ł
×ł ×ķ×ł×Ĵ×¢×Ł
Ġ×ĺ ×Ļ×Ļ×§
Ġ×Ļ ï¬¯
Ġ×Ļ ×Ľ×ķ×ľ
×Ĳ×¡ ×ķ×ĳ
Ġ×¨ ×Ļ×ł
×Ļ×¨ ×ŀ×Ĳ×Ł
×Ľ ×ĳ×ķ×ĵ
Ġ×¢×¨ ×ľ×Ļ×Ļ×Ł
×ł×ĵ ×Ļ×ĵ
×ł×ĺ ×Ļ×Ļ×©×Ĳ
×Ĳ×§ ×¦×Ļ×¢×¡
×ł×Ĵ ×¢×©×ĺ×¢×ľ×ĺ
×§×¡ ×¢×ľ×Ĳ
×¢×ł×ĵ ×ľ×Ļ×Ľ×¢
Ġ×ĺ×¨ ×ķ×ł×§
×¢×¨×ĺ ×Ļ×¢×¡
×¨×ĳ ×Ĳ×ļ
×ķ×¦ ×ķ×ł×Ĵ
Ġ×Ĳ×ł×Ĵ ×¢×Ľ×Ĳ×¤×ĺ
Ġ×Ĳ×ķ×ŀ ×¤×Ĳ×¨×ĺ
Ġ×ł×Ĳ×Ľ ×¢×Ł
Ġ×§×Ļ×ł×ĵ×¢×¨ ×Ļ×©×¢
×ŀ×Ķ ×¨
Ġ×©×¨ ×Ļ×¤×ĺ×Ł
Ġ×Ĳ×ĵ ×Ĳ×¤×ĺ
×ĵ×¢ ×Ļ×Ŀ
is e
Ġ×Ķ×© ×ŀ×Ļ×Ŀ
Ġ×Ķ×Ĳ×¨ ×Ĳ
Ġ×ŀ×Ķ ×ĵ
ĠF ort
com p
Ġ×Ĳ×ķ×Ļ×¤×Ĵ ×¢×§×ľ×¢×¨×ĺ
Ġ×¤×¢×¨ ×ĺ×¢×¨
Ġ×ľ×© ×Ķ
Ġ×ĸ×¢ ×¢×ł×ĵ×Ļ×Ĵ
Ġ×ŀ×Ĵ ×Ļ×Ļ×¨
×¨×Ļ×¡ ×¢×¡
Ġ×Ĵ×¢×ĳ×¨ ×ķ×Ļ×ļ
Ġ×ľ×Ļ×Ľ×ĺ ×ł×©×ĺ×Ļ×Ļ×Ł
Ġ×¨×Ļ×¤ ×Ĳ×¨
Ġ×Ĵ×¢×ľ×¢×¨ ×ł×ĺ×¢
Ġ×Ĳ×¨×ķ×ŀ ×Ĵ×¢×¨×¢×ĵ×ĺ
ig h
Ġ×¨×¢×Ĳ ×Ĵ×Ļ×¨×ĺ
Ġ×ľ×Ļ×Ļ×Ĵ ×¡×ĺ
Ġ×¤×¢×ľ ×Ļ×§×Ļ×Ļ
Ġ×¦×Ļ×ĺ ×Ļ×¨×Ł
Ġ×ĳ×Ĳ×¡ ×ĺ×Ĳ×Ł
Ġ×©×§ ×ľ×Ĳ
Ġ×©×Ļ×ľ ×ĵ×¢×¨×Ł
Ġ×Ĳ×ķ×Ļ×¢ ×¨×ĳ×Ĳ×ļ
Ġ×Ĳ×Ļ×Ļ×ł×¤ ×Ļ×¨×Ł
Ġ×¦×¢×ł×ĺ×¨×Ĳ×ľ ×¢×¨
Ġ×¡×ĺ×Ĳ×ĺ ×ķ×¢
ĠPro duc
Ġ×Ķ×¢×ł ×¨×Ļ
×ĵ×ķ×¡ ×Ļ×ł×Ĵ
Ġ×¢×ķ×ĳ ×ĵ
for m
×ª×ª ×ª×ª
Ġ×ŀ×ķ×ľ×ĺ ×Ļ
Ġ×ĳ×Ĳ×Ķ×Ĳ×ł×ĵ ×ľ×ķ×ł×Ĵ
Ġ×ŀ×Ĳ×¡×§ ×ķ×ķ×¢
Ġ×§×Ĳ×ľ×¢×Ĵ ×¢
ĠâĢ«Ö· âĢ¬
Ġ×Ĳ×ķ×Ļ×¡×©×ľ ×Ļ×¡×ľ×¢×ļ
Ġ×ĳ×ķ×ľ×Ĵ ×Ĳ×¨×Ļ×¢
1 000
b p
t ra
×ĺ ×ķ×Ļ×ĸ
Ġ×ĵ ×Ļ×©×¢×¡
Ġ×ŀ ×ł×ĵ×ĳ
Ġ×ķ×ķ ×Ĳ×©×Ł
×¡ ×ª
Ġ×ĸ ×Ļ×ľ×Ĳ
Ġ×© ×¢×ŀ×ĺ
Ġ×ĺ ×ł×Ĳ
Ġ×Ļ ×ĵ×Ļ
Ġ×ľ ×Ĳ×Ľ
Ġ×ľ ×ķ×ĳ
Ġ×ľ ×¢×¤×ľ
Ġ×¨ ×Ļ×ł×ĵ
Ġ×¤×Ĳ×¨ ×ķ×ķ×Ĳ×ľ
×¦ ×Ļ×ĺ×¢×¨
×Ļ×¡ ×¢×ľ×Ĳ
×Ļ×Ļ×ł ×Ļ
×Ļ×Ļ×ł ×Ļ×Ĳ
×¢×Ĵ ×ł×ĺ
×Ļ×Ĳ ×Ĵ×ĺ
×Ļ×ķ ×§×¢
×Ĳ×ł ×¢×Ŀ
×Ĳ×ł ×Ļ×¨×ĺ
×Ļ×ĸ ×¢×ĵ
×ł×ĺ ×Ļ×ł×Ĵ
Ġ×ķ×ķ×Ĳ ×ķ×ĵ
×ķ×ĳ ×Ļ
×ķ×ķ×Ļ× Ķ
×¢×© ×Ĳ×ł×¡
×¢×ł×ĵ ×¢×Ł
×¢×ł×ĵ ×¢×¡
Ġ×¡×¤ ×Ļ×§×¢×¨
×ĵ×¨ ×ķ×Ŀ
Ġ×ĵ×¨ ×Ľ×Ļ
×Ľ×¢ ×Ļ×¡
×¨×§ ×ķ×ŀ×¢×Ł
on us
Ġ×ŀ×Ĺ ×ľ×ķ×ª
Ġ×§×¡ ×Ļ×Ĳ
Ġ×ŀ×ľ ×Ļ×¦×ķ×ª
an a
Ġ×ŀ×§ ×ķ×ł×Ł
Ġ×¤×Ĳ×¨×© ×¨×Ļ×ĳ×Ł
Ġ×©×¨ ×Ļ×¤
×ł×¦ ×Ļ×Ļ×ĸ
Ġ×Ĳ×¨×ĺ ×Ļ×¡×ĺ×Ł
Ġ×Ĺ×ľ ×ĳ
Ġ×§×Ĳ×ľ ×Ĳ×©
Ġ×Ĳ×Ļ×ĳ×¢×¨×Ĵ ×¢×¤
Ġ×ĸ×ķ×Ľ ×¢×Ł
ve l
ĠS E
Ġ×¤×¡ ×¢×ķ
Ġ×¡×ĺ×¨ ×Ļ×ŀ×Ļ×ł×Ĵ
Ġ×¨×Ļ×ĸ ×Ļ×Ĵ×Ł
Ġ×ŀ×¢×ĺ ×Ĳ×ĵ×Ł
Ġ×ľ×Ļ×Ľ×ĺ ×Ļ×Ĵ×§×Ļ×Ļ×ĺ
Ġ×Ļ×§×¡ ×Ļ
×Ĵ×¢×ĸ ×ķ×ł×ĺ
Ġ×¢×¨×©×ĺ ×¢×Ł
×Ĵ×¢×ľ ×¢×ł×§
Ġ×ľ×Ļ×ĺ×¢×¨ ×Ĳ×¨×Ļ×©×¢
Ġ×Ĳ×ķ×¨ ×Ļ×Ĳ×ľ
×ŀ×ľ ×Ĳ×ļ
Ġ×¦×¢×© ×¤
Ġ×¦×¢×© ×ĺ×¢×¨×ĺ
Ġ×ľ×Ļ×ĳ×¢×¨ ×Ĳ
Ġ×Ĵ×Ļ×Ļ×¡×ĺ ×ķ
Ġ×©×¢×ĵ ×ľ×Ļ×Ľ×¢
×¨×ķ×ķ ×ķ×Ł
×ł×Ľ ×Ļ×Ŀ
Ġ×ľ×¤ ×ł×Ļ
Ġ×ĳ×Ļ×Ĳ ×ķ×¨
Ġ×Ļ×§ ×ķ×ª
Ġ×§×Ĳ×ŀ×ķ×ł ×Ļ×¡×ĺ×Ł
Ġ×¦×Ļ×ķ×ł ×Ļ×¡×ĺ×Ļ×©×¢×¨
Ġ×ł×Ļ×Ļ×ĺ ×¨×Ĳ×ľ
Ġ×§×ľ×Ļ×Ļ×ĵ ×ķ×ł×Ĵ
Ġ×ĵ×¢×¨×ł ×¢×ĳ
Ġ×ĵ×© ×Ĳ×ĳ×¡
Ġ×§×ĳ ×Ļ×¢×ķ×ª
Ġ×ĳ×¢×Ļ×¡ ×Ļ×§
Ġ×ĳ×¢×ł×¢×¤ ×Ļ×¥
ber g
Ġ×©×ŀ×¢×ľ ×§×Ĳ
Ġ×ĺ×Ļ×ŀ ×ĸ
Ġ×Ĳ×ł×ĺ×©×ķ×ľ×ĵ ×Ļ×Ĵ×¢×Ł
Ġ×¡×Ļ×ł ×¢×ŀ×Ĳ
Ġ×ĺ×Ĳ×Ķ ×©×¢×¨
Ġ×¦×ķ×ĺ ×ķ×Ł
Ġ×ª×ķ×© ×ĳ×Ļ
Ġ×ĳ×Ĳ×ķ×ķ×Ĳ×ķ×¡×ĺ×ĸ×Ļ×ł ×Ļ×Ĵ×ĺ
Ġ×§×ľ×¢×ł×¡ ×ĺ×¢
ĠCl ash
Ġag o
Ġ×¤×¢×ĺ×¨ ×ķ×¡
Ġ×¤×Ĳ×ĺ×Ĳ×© ×Ĳ×¤
I EN
c ol
å Ī
×ķ ×Ļ×Ļ×ł×Ĵ
Ġ×ĵ ×Ļ×Ļ×ł×Ļ×Ŀ
Ġ×¤ ×Ļ×Ĳ×ķ×ª
×ľ ×Ļ×Ļ×¢×ł×ĺ
ł× Ŀ
Ġ×ķ×ķ ×Ĳ×ł×¢×ĺ
×© ×Ļ×Ļ×ł×§×Ļ×Ļ
×ĳ ×ķ×Ļ
Ġ×© ×¨×Ĵ×Ĳ
Ġ×¢ ×§×ĺ
Ġ×¢ ×ķ×ŀ×ĵ
×ł ×¨×²
×¢×ł ×Ļ×ķ
×Ĵ ×¢×ł×ĺ
Ġ×ľ ×ĸ×Ķ
Ġ×¡ ×Ĳ×¨
Ġ×¨ ×Ĳ×ĺ×©
Ġ×Ĳ×ĸ ×¢×¨×¢
×Ļ×ĵ ×ķ×¢
×ł×ĺ ×¨
×ķ×ĵ ×ĸ×©
×Ĳ×§ ×ķ×ŀ×¢×Ł
×¡×ĺ ×ķ×ĵ
×Ļ×Ļ×¢×¨ ×ĵ
×ķ×ĺ ×§×Ĳ
Ġ×ĳ×¨ ×¢
×¢×ł×ĵ ×ĸ
×©×¨ ×Ļ×Ļ×¢×Ł
×Ĳ×ł×ĵ ×¢×¨×©
Ġ×Ĵ×¢×¤ ×Ĳ×ł×Ĵ
Ġ×ĵ×¨ ×ķ×ĳ×Ĳ
×ķ×¦ ×Ļ×Ĳ×ł
Ġ×Ĳ×¨×Ĳ×¤ ×ľ×Ļ×Ļ×Ĵ×Ł
×¤×¨ ×¢×Ĵ
×Ļ×§×ľ ×Ĳ×¤
Ġ×Ĳ×¨×ķ×Ļ×¤ ×Ĵ×¢×©×ĺ×¢×ľ×ĺ
Ġ×ĳ×¢×ľ ×¥
Ġ×ŀ×ĵ ×Ķ
Ġ×ĳ×Ĳ×ł ×Ļ×Ļ×ĺ
×§×¨ ×Ļ×¡×ĺ
it ter
Ġ×¤×¡ ×Ļ×Ľ
Ġ×¤×¢×¨ ×¦×¢×ł×ĺ
Ġ×ĸ×Ĳ×Ĵ ×¢×ł×ĵ×Ļ×Ĵ
Ġp hone
ĠE ng
×ŀ×ĳ ×Ļ×¢
Ġ×©×ĺ×¨ ×Ļ×Ľ×Ł
Ġ×Ĳ×ł×ĵ×¢×¨ ×¢×Ł
Ġ×Ļ×Ĳ×¨×§ ×©×Ļ×¨
Ġh ours
Ġ×ĳ×¤ ×©×ĺ×ķ×ª
Ġ×ł×Ļ×¦ ×ķ×ľ
×ĳ×Ĳ×¨ ×Ļ×Ľ×ĺ
Ġ×Ĳ×Ļ×ł×ĵ×ķ×¡×ĺ×¨ ×Ļ
Ġ×¦×Ļ×ķ ×ł×Ļ
×Ĵ×¢×ľ ×¢×ĳ×ĺ
Ġ×ķ×ķ×Ļ×Ľ×ĺ×Ļ×§ ×¡×ĺ×¢
Ġ×©×Ľ ×ķ×Ĺ
Ġ×ŀ×ł ×Ļ×ł×Ļ×Ŀ
Ġ×ĵ×Ĳ×§ ×Ĳ
Ġ×©×ĺ×ķ×ĵ ×Ļ×ķ×Ŀ
Ġ×¤×Ĳ×ĸ ×Ļ×ĺ×Ļ×ķ×ķ×¢
Ġ×Ĳ×ķ×Ļ×ĳ×¢×¨ ×¤×ľ×Ĳ×ļ
Ġ×ł×Ĵ ×Ļ×¢×ķ×ª
×ł×¡×ŀ ×Ļ×¡×Ļ×¢
Ġ×¢×§×¡×ĺ×¨ ×¢×ŀ×¢
Ġ×©×Ĳ×§ ×Ļ×¨×ĺ
Ġ×¦×ķ×Ķ ×¢×¨×Ł
Ġ×§×ķ×Ļ×¤ ×¢×Ł
×ľ×¢×§×ĺ ×Ļ×ł×Ĵ
Ġ×ĵ×¢×ľ×Ļ×ķ×ķ ×¢×¨×Ļ
Ġ×¨×ķ×¦ ×Ĺ×Ļ×Ŀ
Ġ×Ĳ×ķ×ŀ×©×ķ×ľ×ĵ ×Ļ×Ĵ×¢
Ġ×Ĳ×ľ×§ ×Ĳ×Ķ
×Ĳ×Ļ×ł×ĺ×¢×¨×¡ ×Ĳ×ł×ĺ
Ġ×ŀ×Ļ×Ļ×¡ ×ĵ
Ġ×Ķ×©×¢×¨ ×Ķ
Ġ×§×Ĳ×ŀ×Ļ×ķ ×ł×Ļ×§
Ġ×Ĵ×Ļ×Ļ×ŀ ×¢×¨×ĸ
Ġ×Ķ×ª×ľ×Ķ ×ĳ×ķ×ª
Ġ×Ļ×§×ķ×ª ×Ļ×Ĳ×ľ
M E
o k
r am
Ġ×¤ ×ĵ
Ġ×ķ ×ķ×ŀ×¡
Ġ×ķ×ķ ×ķ×ķ
Ġ×Ĵ ×Ļ×Ļ×ł
Ġ×§ ×ķ×ķ×Ļ×§
×© ×ĺ×Ł
Ġ×ł ×ĺ×¢
×§ ×Ļ×ľ
Ġ×ĺ ×Ĳ×§×¡
Ġ×ĺ ×Ļ×Ķ×¨
Ġ×ľ ×¢×§×¡
Ġ×ľ ×Ļ×Ļ×¡×Ĳ
Ġ×¡ ×¢×ĵ
Ġ×Ĳ×ĸ ×Ĳ×ļ
Ġ×Ķ×Ĳ×ĺ ×ľ×§×Ļ
×Ļ×ĵ ×¢×¨×ĺ
Ġ×¤×¨ ×¢×ł×§
Ġ×¤×¨ ×§×Ļ×Ŀ
Ġ×§×Ĳ ×Ĳ×ľ
Ġ×ª ×Ļ×ŀ×Ł
Ġ×ķ×ķ×Ĳ ×ķ×¡
Ġ×Ĳ×Ļ×Ļ× ł×ŀ
Ġ×Ĳ×¤ ×©×¤
×¢×ł×ĵ ×¢×ĺ
×ķ×© ×§×Ļ×Ł
×Ļ×Ļ×ĵ ×Ļ×ł×Ĵ
Ġ×¤×ľ ×¢×§×¡
×ĺ×¨ ×Ĳ×Ĵ×Ł
Ġ×Ĵ×¢×¤ ×Ĳ×ĵ×¢×¨×ĺ
Ġ×Ĳ×Ļ×ĵ ×ł×ĺ×ķ×Ŀ
×ľ×ĺ ×Ļ×ĸ
Ġ×©×ľ ×Ĳ×¡
Ġ×¢×ľ ×£
Ġ×©×ķ×ķ ×¢×ŀ×ľ
Ġ3 500
Ġ×Ĳ×ķ×ł×ĺ×¢×¨ ×©×ĺ
Ġ×ŀ×Ļ×ł ×Ļ×ł×Ĵ×ĸ
Ġ×¤×Ĳ×¨×© ×Ł
×Ĵ×¢×¨ ×Ĳ
Ġ×Ļ×© ×ķ
×° ×¢
Ġ×ĳ×ł ×ķ×¡×£
×¨×ķ×Ļ×¡ ×Ĵ×¢×ķ×ķ×Ĳ
Ġ×¡×¢×¨ ×ķ×ķ×¢×¨×¡
Ġ6 5
Ġ×ĳ×Ĳ×ĵ ×Ĳ×ł×§×ĺ
Ġ×ĳ×Ĳ×¦ ×Ļ×¢×Ł
×¨×ŀ ×ĳ
Ġ×¤×Ĳ×¨×ĵ ×Ĳ×ŀ×ĺ
Ġ×Ĳ×¨×Ĵ ×ķ×ŀ×¢×ł×ĺ
Ġc o
ãģ ¨
[...]
